<unk>	0
<s>	0
</s>	0
,	-2.08663
。	-3.5842
:“	-3.97943
的	-4.43118
道	-4.44427
。”	-4.59045
他	-5.00085
我	-5.0371
了	-5.10613
你	-5.13301
?”	-5.2108
在	-5.56374
她	-5.6215
杨过	-5.6453
、	-5.65966
一	-5.71858
?	-5.72965
郭靖	-5.73953
是	-5.75013
来	-5.77943
这	-5.79354
▁	-5.82404
黄蓉	-5.8485
不	-5.86351
那	-5.88989
上	-5.93936
!”	-5.98228
又	-5.98541
中	-6.06412
去	-6.0886
但	-6.09264
大	-6.10925
说道	-6.16455
人	-6.21387
有	-6.22493
“	-6.23335
得	-6.23942
已	-6.24313
也	-6.25604
将	-6.2876
却	-6.2927
与	-6.39507
要	-6.40454
见	-6.45158
到	-6.45201
”	-6.46679
好	-6.46935
自己	-6.52521
便	-6.5316
小龙女	-6.60783
下	-6.6151
之	-6.62161
向	-6.64325
和	-6.65342
心	-6.65345
都	-6.67716
说	-6.67776
出	-6.68276
过	-6.69346
叫道	-6.69874
一个	-6.73206
笑	-6.75418
着	-6.76214
从	-6.775
心中	-6.77793
再	-6.77802
咱们	-6.80389
打	-6.81653
为	-6.82852
以	-6.83987
对	-6.87262
就	-6.88687
时	-6.90165
自	-6.9051
心想	-6.91986
两人	-6.93072
而	-6.9391
只	-6.95723
头	-6.97473
小	-6.98654
欧阳锋	-6.99182
用	-7.00486
武功	-7.00634
只是	-7.007
后	-7.01386
▁郭靖	-7.02432
可	-7.02738
么	-7.03782
▁杨过	-7.03794
甚么	-7.05309
师父	-7.0532
子	-7.05991
无	-7.06879
当下	-7.07588
▁黄蓉	-7.09969
......	-7.12475
给	-7.12658
把	-7.13963
他们	-7.14372
如	-7.14694
洪七公	-7.15691
如此	-7.15803
连	-7.17672
啊	-7.18058
想	-7.19413
啦	-7.21012
还	-7.22003
天	-7.22133
手	-7.22336
黄药师	-7.22967
!	-7.23208
死	-7.2377
于	-7.24075
所	-7.24584
生	-7.25523
之中	-7.26805
只见	-7.27948
快	-7.28045
起	-7.29152
不知	-7.2953
回	-7.29633
周伯通	-7.30127
当	-7.30246
听	-7.32748
知道	-7.32898
能	-7.34899
多	-7.34937
却是	-7.35402
儿	-7.35438
气	-7.35443
等	-7.35915
李莫愁	-7.36573
三	-7.3689
二人	-7.36995
没	-7.3748
两	-7.37833
身	-7.39171
前	-7.39765
虽然	-7.42693
都是	-7.4346
行	-7.43462
突然	-7.43855
成	-7.43965
倒	-7.44064
长	-7.4451
被	-7.44752
郭芙	-7.45127
今日	-7.45369
使	-7.45376
眼见	-7.45505
发	-7.46266
会	-7.46515
里	-7.46519
别	-7.46975
罢	-7.46997
虽	-7.47839
急	-7.48014
忙	-7.48438
难	-7.49113
入	-7.494
我们	-7.5044
事	-7.5075
若是	-7.50848
你们	-7.51443
......”	-7.5147
相	-7.51886
也是	-7.51906
左手	-7.5238
先	-7.5266
不是	-7.52901
才	-7.53002
叫	-7.54295
法王	-7.5474
处	-7.54801
见他	-7.55301
剑	-7.5543
如何	-7.55792
此时	-7.55967
走	-7.56073
做	-7.56189
正是	-7.56321
功夫	-7.56512
身子	-7.56856
郭襄	-7.57473
这时	-7.58036
高	-7.58239
地	-7.59044
马	-7.59816
直	-7.59963
不敢	-7.60462
往	-7.60674
正	-7.6079
未	-7.60859
动	-7.61155
不能	-7.61166
喝道	-7.61172
问道	-7.62009
力	-7.62407
个	-7.62895
四	-7.62946
于是	-7.63461
之后	-7.65538
老	-7.65566
水	-7.66219
右手	-7.683
原来	-7.68451
开	-7.68621
又是	-7.68907
便是	-7.69091
弟子	-7.69163
呢	-7.69201
郭靖道	-7.69277
不禁	-7.69286
一人	-7.69592
双手	-7.69889
请	-7.70223
名	-7.70611
口	-7.71002
众人	-7.71114
白	-7.71449
命	-7.71638
跟	-7.71833
竟	-7.7213
丘处机	-7.7223
怎么	-7.72826
门	-7.7298
此	-7.73794
作	-7.74021
奇	-7.74097
重	-7.74108
登时	-7.74869
身上	-7.74993
到了	-7.7511
非	-7.75366
这般	-7.76114
说着	-7.76581
当即	-7.77326
吃	-7.77788
伤	-7.78161
更	-7.78383
落	-7.78628
看	-7.78772
陆无双	-7.79472
跟着	-7.79569
比	-7.79738
杀	-7.7982
脸上	-7.80174
三人	-7.80706
欧阳克	-7.80845
‘	-7.81653
外	-7.81782
之下	-7.82742
风	-7.82773
字	-7.8294
极	-7.83385
’	-7.8388
招	-7.83917
山	-7.84148
可是	-7.84608
更是	-7.85282
转	-7.85367
问	-7.85648
怒	-7.85881
受	-7.86044
意	-7.86282
众	-7.86317
出来	-7.86412
柯镇恶	-7.86435
斗	-7.86453
击	-7.86983
情	-7.87585
还是	-7.87737
待	-7.87995
女儿	-7.88432
也不	-7.88858
教	-7.89102
掌	-7.89117
就是	-7.89742
敌人	-7.9001
路	-7.91178
说话	-7.9132
至	-7.91945
不可	-7.92046
声	-7.92169
《	-7.92293
》	-7.92294
飞	-7.92423
分	-7.93009
只怕	-7.93063
忽然	-7.93178
不由得	-7.93502
花	-7.93887
法	-7.94184
他的	-7.9425
赵志敬	-7.94415
然	-7.94681
杨康	-7.95153
一般	-7.95272
低声	-7.95439
家	-7.95955
曾	-7.95959
方	-7.97079
仍是	-7.97401
住	-7.97555
若	-7.9767
有人	-7.98106
伸手	-7.98112
梅超风	-7.98146
响	-7.98326
既	-7.98562
早	-7.98806
实	-7.99289
深	-7.99321
强	-7.99523
甚是	-7.99825
对方	-8.0034
尽	-8.00509
真	-8.00926
破	-8.01831
只得	-8.01929
攻	-8.01934
让	-8.02328
乱	-8.02465
带	-8.02762
这个	-8.03233
蒙古	-8.03373
但见	-8.03862
刺	-8.04015
火	-8.04044
似	-8.04225
点	-8.04348
蓉儿	-8.04996
冲	-8.05337
”,	-8.05427
见到	-8.05719
立	-8.05733
一时	-8.05751
骂	-8.05769
只有	-8.05787
不住	-8.05861
话	-8.06094
瞧	-8.06175
甚	-8.06418
放	-8.06485
那人	-8.06806
其	-8.0707
学	-8.07094
不得	-8.0749
明	-8.07825
谁	-8.07864
之时	-8.07881
酒	-8.08269
一阵	-8.08706
同时	-8.08744
出手	-8.08821
听得	-8.08863
练	-8.09131
进	-8.09397
裘千仞	-8.09686
年	-8.1003
两个	-8.10121
喜	-8.10207
本	-8.10372
半	-8.10455
天下	-8.10707
竟是	-8.108
之间	-8.10856
兄弟	-8.10913
爹爹	-8.10973
间	-8.1103
内	-8.11203
足	-8.11352
越	-8.11514
言	-8.11549
知	-8.1155
吗	-8.1157
父亲	-8.11578
哪知	-8.11807
刀	-8.1181
敌	-8.12033
只要	-8.12139
出去	-8.12858
全	-8.1309
厉害	-8.13203
起来	-8.1329
早已	-8.13313
日	-8.13569
五	-8.13623
手中	-8.13682
立时	-8.13976
忽	-8.14106
定	-8.14126
本来	-8.1419
似乎	-8.1435
神	-8.14378
听到	-8.14708
是谁	-8.14754
爱	-8.1487
当真	-8.14912
之事	-8.15146
远	-8.15523
当年	-8.15943
空	-8.16179
这才	-8.16232
各	-8.16395
取	-8.16585
断	-8.16624
眼	-8.16655
二	-8.16671
轻	-8.17291
数	-8.17521
几	-8.17784
兵刃	-8.18116
反	-8.1819
给他	-8.18218
想到	-8.18506
一声	-8.18523
心下	-8.18649
退	-8.1884
动手	-8.19031
姑姑	-8.19172
即	-8.19419
收	-8.19454
实是	-8.19836
指	-8.19975
石	-8.20345
离	-8.20383
最	-8.20457
轻轻	-8.20782
变	-8.20883
同	-8.21211
近	-8.21284
之上	-8.21429
想起	-8.21455
势	-8.21815
过去	-8.21922
过来	-8.22404
急忙	-8.22793
全身	-8.22996
书	-8.22999
干	-8.23035
大叫	-8.23172
是以	-8.23215
面	-8.23312
拿	-8.23357
适才	-8.23364
性命	-8.23396
这是	-8.23622
大汗	-8.23761
不过	-8.23776
逃	-8.24091
胸口	-8.24118
求	-8.24145
大声	-8.24347
惊	-8.24348
亲	-8.25123
光	-8.25377
金轮法王	-8.25665
推	-8.25891
刚	-8.26142
难道	-8.26384
长剑	-8.26636
脸	-8.26686
救	-8.2726
一招	-8.27326
通	-8.2776
拉	-8.27959
十	-8.28029
成吉思汗	-8.28066
却也	-8.28205
送	-8.28721
竟然	-8.28763
走到	-8.28916
不错	-8.29487
尹志平	-8.29654
传	-8.29871
或	-8.30041
之人	-8.30206
西	-8.30268
将他	-8.30279
老顽童	-8.30368
信	-8.30693
瑛姑	-8.30838
:‘	-8.31154
不及	-8.31295
只听得	-8.31637
铁	-8.32022
过儿	-8.32051
由	-8.32085
母亲	-8.32134
自是	-8.32333
转身	-8.32545
痛	-8.32668
合	-8.32772
这些	-8.32999
▁他	-8.33137
自然	-8.3326
铁木真	-8.33507
▁小龙女	-8.33518
苦	-8.33531
是个	-8.33539
四人	-8.33815
怪	-8.33881
必	-8.33892
接	-8.34235
之处	-8.34276
黑	-8.34352
傻姑	-8.34666
背	-8.34704
挥	-8.34799
一条	-8.35038
不到	-8.35046
死了	-8.35125
终于	-8.35126
望	-8.35158
果然	-8.35206
真是	-8.35279
旁人	-8.35452
这一	-8.35848
劲	-8.35853
穆念慈	-8.35882
毒	-8.35989
十分	-8.36303
怕	-8.36495
兵	-8.36503
姑娘	-8.36956
朱聪	-8.37493
经	-8.37596
横	-8.37882
不会	-8.37889
右	-8.38006
总是	-8.38089
喝	-8.38204
完颜洪烈	-8.38503
左	-8.38505
鬼	-8.38553
黄	-8.38855
战	-8.39141
的武功	-8.39227
边	-8.393
微	-8.39445
箭	-8.39463
少	-8.39998
万	-8.40072
令	-8.40146
恶	-8.40174
军	-8.40265
清	-8.40325
回来	-8.40349
找	-8.40673
没有	-8.40872
抓	-8.41103
东	-8.41117
拳	-8.4137
药	-8.41427
绝	-8.41786
追	-8.42089
一齐	-8.42165
金	-8.42287
之际	-8.42287
翻	-8.42508
齐	-8.42511
理	-8.42685
难以	-8.42804
些	-8.42842
却又	-8.42988
裘千尺	-8.43166
因此	-8.43534
伸	-8.43715
满	-8.43755
猛	-8.43876
守	-8.43905
只觉	-8.43918
两位	-8.4419
正要	-8.44221
声音	-8.44238
孩子	-8.44441
脚	-8.44446
慢慢	-8.45061
霍都	-8.45173
血	-8.45179
步	-8.45297
上了	-8.45321
这位	-8.45432
女	-8.45669
之极	-8.45674
一掌	-8.45703
耶律齐	-8.4599
胜	-8.45996
红	-8.46069
叹	-8.46668
九阴真经	-8.46692
立即	-8.4675
夺	-8.46914
倘若	-8.4717
失	-8.47264
交	-8.47517
般	-8.47566
不肯	-8.47632
公孙止	-8.47637
摇头	-8.47703
七	-8.47756
见她	-8.47919
蛇	-8.48041
随即	-8.4818
坐	-8.48244
完颜康	-8.48474
程英	-8.48476
怎地	-8.48537
哪里	-8.48538
感	-8.48754
世	-8.49186
听他	-8.49236
船	-8.49405
师	-8.49795
望着	-8.49948
衣	-8.50445
举	-8.5058
杀了	-8.50655
此人	-8.50808
活	-8.50941
这么	-8.5098
者	-8.51187
王	-8.51288
后来	-8.51313
国	-8.51568
在地下	-8.51575
觉	-8.51591
已然	-8.51646
念	-8.51759
城	-8.51773
给你	-8.5182
流	-8.51849
妈	-8.51938
口中	-8.52011
暗	-8.52349
站在	-8.52957
欲	-8.53276
你的	-8.53424
上前	-8.53578
身旁	-8.53657
微微	-8.54077
陆冠英	-8.54077
你说	-8.54527
须	-8.54864
每	-8.5534
之声	-8.55401
随	-8.5542
一灯	-8.55461
:	-8.55479
大喜	-8.55754
眼前	-8.56428
那是	-8.56664
报	-8.5668
▁周伯通	-8.57132
八	-8.57142
给我	-8.57178
旁	-8.57271
再也	-8.57297
靖哥哥	-8.57303
那么	-8.57499
的一声	-8.57506
的功夫	-8.57991
▁欧阳锋	-8.58118
怎样	-8.58154
回头	-8.58198
听了	-8.58703
一怔	-8.59051
在这	-8.59072
之意	-8.59181
不见	-8.59383
内功	-8.5963
只听	-8.59774
拖雷	-8.59819
细	-8.59898
始终	-8.5998
大哥	-8.60302
冷笑	-8.60473
又道	-8.60667
物	-8.60695
;	-8.60777
阵	-8.60793
纵	-8.60802
扑	-8.60824
木	-8.61154
睡	-8.61365
关	-8.61459
帮主	-8.61466
之前	-8.62179
哈哈大笑	-8.62216
解	-8.62611
提	-8.62693
六	-8.63347
绿萼	-8.63366
▁黄药师	-8.63408
礼	-8.6354
下去	-8.63685
一只	-8.63692
并不	-8.63717
左掌	-8.63771
王处一	-8.63852
目	-8.63904
全真教	-8.63987
说了	-8.64019
向他	-8.64145
武修文	-8.64338
色	-8.64411
现下	-8.64425
张	-8.64439
这样	-8.64613
▁洪七公	-8.64637
马钰	-8.64672
老叫化	-8.64715
定是	-8.64754
手臂	-8.64791
就算	-8.65104
腿	-8.65177
夜	-8.65232
的话	-8.65555
它	-8.65624
头顶	-8.65779
内力	-8.65819
骨	-8.6584
败	-8.65894
是不是	-8.65971
撞	-8.65979
中的	-8.66012
杨铁心	-8.66326
射	-8.66446
文	-8.66513
坐在	-8.66682
布	-8.66726
均	-8.67222
哪	-8.67225
我爹爹	-8.67256
鲁有脚	-8.6733
此事	-8.67884
归	-8.67978
及	-8.68106
穴	-8.68224
跃	-8.68279
梁子翁	-8.68354
手掌	-8.68618
愈	-8.68697
双	-8.68964
姓	-8.69047
我的	-8.69157
抱	-8.69203
逼	-8.69316
位	-8.69497
很	-8.69631
原	-8.69878
首	-8.69884
一灯大师	-8.69915
恨	-8.70006
称	-8.70008
服	-8.70023
缓缓	-8.70034
云	-8.70151
否则	-8.70195
太	-8.70218
渐	-8.70291
掷	-8.70418
在这里	-8.70576
派	-8.70637
平	-8.70705
身后	-8.708
哭	-8.70801
掌力	-8.70863
总	-8.71041
青	-8.7115
不成	-8.71268
来到	-8.71321
去了	-8.71412
无法	-8.71467
道士	-8.71481
挺	-8.71519
应	-8.71619
奔	-8.71629
养	-8.71686
不好	-8.71698
代	-8.71714
乐	-8.71734
尼摩星	-8.71874
因	-8.71935
北	-8.71983
也已	-8.72181
仍	-8.72279
加	-8.72327
丐帮	-8.72336
之外	-8.72391
其实	-8.72962
踢	-8.73015
虚	-8.73264
肉	-8.73475
月	-8.73573
半点	-8.73582
与他	-8.73634
沉	-8.73757
碗	-8.73865
武三通	-8.73932
异常	-8.73967
疾	-8.74032
且	-8.74112
朱子柳	-8.74141
一块	-8.74202
那少女	-8.74318
南	-8.74453
一直	-8.7449
怎能	-8.748
脱	-8.75117
彭连虎	-8.75205
不动	-8.75217
精	-8.7523
此刻	-8.75285
一片	-8.75318
算	-8.75385
明白	-8.75442
上来	-8.75511
在他	-8.75535
妙	-8.75538
站起身来	-8.7554
跳	-8.75666
美	-8.75747
是啊	-8.7582
只道	-8.76009
其中	-8.76226
抢	-8.76346
潇湘子	-8.76481
人家	-8.7651
雪	-8.76549
百	-8.76616
居然	-8.76623
下来	-8.76637
武	-8.7686
一笑	-8.76996
闻	-8.77212
千	-8.77292
决	-8.7737
英雄	-8.77543
渐渐	-8.77567
功力	-8.77786
肩头	-8.77862
再说	-8.77931
拜	-8.77983
这一下	-8.78016
反而	-8.78097
各人	-8.78144
穿	-8.78561
依	-8.78662
▁郭襄	-8.79303
包	-8.7934
则	-8.79362
不了	-8.79458
放在	-8.79545
微笑	-8.79598
棒	-8.79669
斜	-8.79971
哼	-8.79973
何	-8.80275
答应	-8.80332
条	-8.80335
说得	-8.8039
当真是	-8.80416
结	-8.80556
接着	-8.80861
砍	-8.80985
▁两人	-8.8125
大家	-8.81687
根	-8.8169
竹棒	-8.81757
像	-8.81817
忽地	-8.81849
丈夫	-8.81886
不再	-8.81946
持	-8.8195
久	-8.81967
牛	-8.82082
看来	-8.8209
的是	-8.82365
▁丘处机	-8.82429
倒也	-8.82506
摔	-8.82649
▁这时	-8.8291
岂知	-8.82978
黄蓉笑	-8.83052
受伤	-8.83082
微微一笑	-8.8311
跟你	-8.83247
中了	-8.83296
背后	-8.83426
拍	-8.83486
伸出	-8.83609
进来	-8.83791
记	-8.83854
双掌	-8.83922
劲力	-8.84055
黄老邪	-8.84108
皮	-8.84179
尚未	-8.84248
常	-8.84295
这人	-8.84358
正自	-8.84392
却已	-8.84548
新	-8.84653
取出	-8.84662
洞	-8.84748
将她	-8.84854
居	-8.84893
吃了	-8.84967
语	-8.85043
了他	-8.85104
老毒物	-8.85313
孙婆婆	-8.85609
尹克西	-8.85618
拂尘	-8.85643
引	-8.85855
你是	-8.85901
来的	-8.8593
这等	-8.85994
刚才	-8.8602
无人	-8.86075
更加	-8.86163
襄阳	-8.86188
指点	-8.8623
一张	-8.86277
年纪	-8.86377
安	-8.86391
纵然	-8.86569
一根	-8.86664
三个	-8.86972
视	-8.87054
海	-8.87098
郭	-8.87204
▁那	-8.87216
底	-8.87341
善	-8.87418
烧	-8.87431
寒	-8.88012
你这	-8.8806
龙	-8.8825
我是	-8.88326
端	-8.8834
不用	-8.88373
手指	-8.88452
向前	-8.88469
面前	-8.88527
群	-8.88562
觉得	-8.88623
忽听	-8.88826
比武	-8.89005
知他	-8.89038
武艺	-8.89061
婴儿	-8.89099
土	-8.89164
低	-8.89252
女子	-8.89255
制	-8.89289
武氏兄弟	-8.89326
寻	-8.89353
主	-8.89359
这一招	-8.89406
一面	-8.89572
呼	-8.89619
喂	-8.89629
丝毫	-8.89648
咬	-8.89755
闪	-8.89775
义	-8.89824
招数	-8.89976
写	-8.89992
这里	-8.90008
盘	-8.90032
忽听得	-8.90207
▁这	-8.90218
过了	-8.90289
耳	-8.9033
发出	-8.90341
我也	-8.90409
客	-8.90459
部	-8.90492
华筝	-8.90588
韩小莹	-8.90605
亦	-8.90682
吃了一惊	-8.90689
形	-8.90716
极是	-8.90759
盛	-8.90902
向来	-8.91043
慈恩	-8.91243
古怪	-8.91332
约	-8.91398
嗯	-8.91529
唉	-8.91536
大怒	-8.91541
报仇	-8.91547
神雕	-8.91553
要是	-8.91575
被他	-8.91619
脸色	-8.91621
当日	-8.91655
留	-8.91888
身前	-8.91935
一步	-8.9207
稍	-8.92127
已是	-8.92183
涌	-8.92298
头上	-8.92408
劈	-8.92421
徒	-8.92572
了出来	-8.92603
地下	-8.92672
施	-8.92711
姊姊	-8.92833
暗器	-8.92847
游	-8.9285
背上	-8.92869
玉	-8.92884
一件	-8.92965
前辈	-8.93035
几个	-8.93086
大惊	-8.93096
避	-8.93132
画	-8.9318
腰	-8.93281
管	-8.93342
官	-8.93376
角	-8.93377
除了	-8.93396
抓住	-8.9342
莫	-8.93482
有甚么	-8.93488
跃起	-8.93821
儿子	-8.93962
却不	-8.94001
这次	-8.94021
在此	-8.94125
啊哟	-8.94156
杖	-8.94236
玩	-8.94397
一点	-8.94463
笔	-8.9471
草	-8.94786
硬	-8.94862
尽数	-8.94882
打得	-8.94962
好好	-8.95041
突	-8.95057
照	-8.95267
容	-8.95289
眼睛	-8.95536
饭	-8.95897
▁她	-8.95898
正在	-8.95927
不免	-8.95966
▁郭芙	-8.96137
见了	-8.96213
闪避	-8.96259
瞧着	-8.96273
探	-8.96358
身边	-8.96458
那时	-8.96465
缩	-8.96579
臂	-8.96795
但觉	-8.96964
和他	-8.97088
突然间	-8.97342
争	-8.97414
初	-8.97419
匕首	-8.97457
欢喜	-8.97472
窜	-8.9751
提起	-8.97543
侯通海	-8.97882
用力	-8.97902
功	-8.97955
一名	-8.97976
第一	-8.97978
手里	-8.98113
师叔	-8.98187
妻子	-8.98519
若非	-8.98625
她的	-8.98732
九	-8.98808
一股	-8.9894
桃花岛	-8.99099
前面	-8.99129
便即	-8.9923
达尔巴	-8.99267
包惜弱	-8.99274
瞧瞧	-8.99327
给她	-8.99396
世上	-8.99466
折	-8.99485
毕	-8.99516
软	-8.99545
各位	-8.99564
扬	-8.99587
必是	-8.99631
回到	-8.99987
赶	-9.00132
言语	-9.00239
岂能	-9.00297
周伯通道	-9.00323
狗	-9.00389
指着	-9.00532
片刻	-9.00617
两名	-9.00737
第二	-9.00774
完	-9.00845
妹子	-9.00891
走了	-9.00932
确是	-9.00986
踏	-9.01096
神色	-9.0117
们	-9.01231
不出	-9.01328
忽必烈	-9.01388
当时	-9.01526
树	-9.01646
手上	-9.01667
得了	-9.01705
而去	-9.01894
并无	-9.02093
是我	-9.02148
个个	-9.02296
高手	-9.02518
但他	-9.02552
得紧	-9.02582
围	-9.02647
▁李莫愁	-9.02948
枪	-9.02981
洪凌波	-9.0312
寻思	-9.03132
解药	-9.03152
喜欢	-9.03464
道长	-9.03621
何以	-9.03644
差	-9.03682
滚	-9.03682
紧	-9.03752
藏	-9.03825
叫他	-9.03826
点头	-9.03831
他是	-9.03989
一番	-9.04061
挡	-9.0416
灵	-9.04231
嘴	-9.04288
无不	-9.04342
左右	-9.0451
点了点头	-9.0458
穴道	-9.04584
满脸	-9.04619
之心	-9.04877
这小子	-9.04975
的事	-9.04996
纵身	-9.0513
思	-9.05162
一路	-9.05163
不如	-9.05183
须得	-9.0528
鸡	-9.05295
谷主	-9.05332
捉	-9.05337
金兵	-9.05363
帮	-9.0537
尚	-9.05389
定然	-9.05395
一起	-9.05609
上去	-9.05703
全真派	-9.05715
完颜萍	-9.05749
复	-9.05774
一把	-9.0593
对他	-9.05975
待要	-9.06023
乘	-9.06041
忽见	-9.06055
为了	-9.06091
次	-9.06162
何况	-9.06177
韩宝驹	-9.06253
机	-9.06412
骑	-9.06428
领	-9.0646
换	-9.06556
生怕	-9.06624
扫	-9.06774
蒙古兵	-9.06842
封	-9.06851
略	-9.06993
师兄	-9.07114
读	-9.07144
王重阳	-9.07306
划	-9.07369
短	-9.07412
伤了	-9.07467
冷冷的	-9.07552
只见他	-9.07585
也没	-9.0767
曲	-9.07695
跟他	-9.07707
已被	-9.07815
压	-9.07976
鞭	-9.07999
一下	-9.08143
孩儿	-9.08165
不愿	-9.0819
实在	-9.08213
武学	-9.0826
打狗棒法	-9.08323
我师父	-9.08432
模样	-9.08564
我要	-9.08569
凭	-9.08623
跌	-9.08807
和我	-9.08841
冷	-9.08882
投	-9.08886
之力	-9.08904
兀自	-9.09085
侧	-9.09214
相救	-9.09217
怀	-9.09288
厚	-9.09316
为甚么	-9.09393
了一	-9.0956
治	-9.09588
胸	-9.09618
还有	-9.09717
这么一	-9.09724
遇	-9.09846
忍不住	-9.09862
无比	-9.10082
听她	-9.1009
并非	-9.10193
异	-9.10283
见过	-9.10345
沙通天	-9.10358
犹如	-9.10397
朝	-9.10569
调	-9.10603
武敦儒	-9.10614
怎	-9.10615
侄儿	-9.10621
有些	-9.107
助	-9.10735
缠	-9.10778
不论	-9.10816
帐	-9.10857
热	-9.10977
熟	-9.11162
便要	-9.11163
错	-9.11168
沙	-9.11377
跟我	-9.11391
双雕	-9.11413
震	-9.11447
摆	-9.11452
该	-9.11464
少年	-9.11483
相斗	-9.11582
座	-9.1166
就要	-9.11862
想不到	-9.11867
准	-9.11975
修	-9.1202
神雕侠	-9.12054
野	-9.12132
一惊	-9.12141
的大	-9.12261
改	-9.12454
定要	-9.12532
险	-9.1262
认	-9.12674
住了	-9.12748
房	-9.12799
奔到	-9.12968
大吃一惊	-9.12978
杨大哥	-9.12991
生平	-9.13062
掌法	-9.13086
假	-9.13153
腰间	-9.13194
露	-9.13262
敬	-9.13284
我就	-9.13295
原来是	-9.13458
樊一翁	-9.13477
出了	-9.13593
人人	-9.13632
干么	-9.13649
香	-9.13649
巨	-9.13689
粗	-9.13698
纷纷	-9.13789
小王爷	-9.1385
低头	-9.13883
什么	-9.13981
蒙古人	-9.14104
悄悄	-9.14212
小人	-9.14252
宫	-9.14303
不对	-9.14391
运	-9.14559
聪明	-9.14576
全金发	-9.14582
已经	-9.14584
鲜血	-9.1459
这番	-9.14654
本事	-9.14744
我不	-9.14784
贫道	-9.14853
与郭靖	-9.15143
有何	-9.15261
举起	-9.15286
向杨过	-9.15303
插	-9.1531
弯	-9.15332
小红马	-9.1546
身形	-9.15491
在一起	-9.15521
闯	-9.15674
神情	-9.15851
按	-9.15862
哲别	-9.15917
回去	-9.15935
隔	-9.15947
夫妇	-9.16108
了几	-9.16342
抛	-9.16628
。’	-9.16682
针	-9.16953
右掌	-9.16967
另	-9.17013
了出去	-9.17207
齐声	-9.17257
▁柯镇恶	-9.17292
别人	-9.17295
向后	-9.17405
伤心	-9.17681
先前	-9.17697
了一阵	-9.17746
鱼	-9.17793
狂	-9.17814
闹	-9.17827
巧	-9.17827
郭伯伯	-9.17882
传授	-9.17932
除	-9.18014
节	-9.18076
料想	-9.18122
大师	-9.18143
傻蛋	-9.18216
最后	-9.18236
马光佐	-9.18411
一口	-9.18434
虽是	-9.1844
的手	-9.18482
旧	-9.18611
答	-9.18685
相助	-9.18718
轻功	-9.18734
得很	-9.18857
消	-9.19305
独	-9.19391
慢	-9.19514
一个人	-9.19515
西毒	-9.19574
双目	-9.19592
终究	-9.19613
弱	-9.19628
这几句话	-9.19692
初时	-9.19803
暗暗	-9.19827
远远	-9.19834
惨	-9.19893
散	-9.19945
屋	-9.20027
程瑶迦	-9.20121
躲	-9.20184
疼痛	-9.20211
一生	-9.20237
百姓	-9.20397
师弟	-9.20415
五人	-9.20422
盗	-9.20528
队	-9.20566
透	-9.20705
那日	-9.20727
遍	-9.20939
不许	-9.21048
圈	-9.21132
干甚么	-9.21138
得意	-9.21176
终	-9.212
显	-9.21216
皇帝	-9.21276
咱俩	-9.21277
道人	-9.21298
回答	-9.21353
吹	-9.2159
登	-9.21601
号	-9.21676
抢上	-9.21721
可惜	-9.21792
你要	-9.21804
舍	-9.21812
不懂	-9.21818
观	-9.219
在旁	-9.21984
舞	-9.22002
六怪	-9.22017
顶	-9.22092
夫	-9.22121
日后	-9.2216
钢杖	-9.22167
双臂	-9.22185
单	-9.22222
和尚	-9.22271
奇怪	-9.22298
阴	-9.22404
逃走	-9.22411
相见	-9.22411
一句	-9.22444
故	-9.22495
缓	-9.22517
妈妈	-9.22577
右臂	-9.22606
刻	-9.22625
体	-9.22779
臭	-9.22855
了得	-9.22947
抵挡	-9.22969
到底	-9.22993
狠	-9.23039
已将	-9.2316
尖	-9.23199
宝	-9.2324
从未	-9.23263
果	-9.23393
露出	-9.23423
郝大通	-9.23602
谢	-9.23718
不觉	-9.23732
弄	-9.2377
止	-9.23775
民	-9.23803
贵	-9.23853
是甚么	-9.23881
泥	-9.23897
唱	-9.23907
全真七子	-9.23912
对付	-9.23917
化	-9.23954
以后	-9.2398
”。	-9.24047
的人	-9.24143
▁众人	-9.24151
致	-9.24159
左臂	-9.24396
偏	-9.24468
大事	-9.24526
雕	-9.24579
若不是	-9.24611
垂	-9.24687
脚步	-9.24726
食	-9.24802
害怕	-9.24809
顺手	-9.24856
靖儿	-9.24857
性	-9.24877
好了	-9.24901
手腕	-9.24905
兄	-9.24956
味	-9.25028
剑法	-9.25222
诸	-9.25278
江湖	-9.25324
计	-9.25362
扯	-9.25404
丑	-9.25436
在下	-9.25503
隐隐	-9.25638
谈	-9.25671
就此	-9.25703
固然	-9.25723
了起来	-9.25761
显是	-9.25854
并	-9.25889
不必	-9.25908
之色	-9.25995
你瞧	-9.26015
背心	-9.26018
试	-9.26158
抱着	-9.26161
了一声	-9.26198
真的	-9.26224
为人	-9.26345
爬	-9.26357
见杨过	-9.26368
声响	-9.26386
似是	-9.26401
奉	-9.26604
江南七怪	-9.26617
铁杖	-9.26633
双足	-9.26662
识得	-9.26766
停	-9.2698
托	-9.26982
借	-9.27024
练功	-9.27109
块	-9.27145
只因	-9.27336
可以	-9.2736
那就	-9.27442
第三	-9.27516
不答	-9.27528
放下	-9.277
俯身	-9.27743
了个	-9.28035
而出	-9.28116
▁法王	-9.28219
避开	-9.28389
劝	-9.28397
正好	-9.28409
待得	-9.2843
晚辈	-9.28463
哼了一声	-9.28476
全然	-9.28563
输	-9.28574
接过	-9.28642
四下	-9.28756
也不能	-9.28969
前来	-9.29004
贼	-9.2912
图	-9.29252
迎	-9.29255
架	-9.29375
遇到	-9.29488
你也	-9.29553
而来	-9.29647
来啦	-9.29671
打了	-9.29689
自行	-9.29874
肯	-9.3003
▁“	-9.30043
大为	-9.30047
留下	-9.30081
威	-9.30088
十年	-9.302
陆	-9.30233
柄	-9.30234
叹了口气	-9.30309
衣衫	-9.3033
降龙十八掌	-9.30332
远处	-9.30398
不少	-9.30428
共	-9.30594
之情	-9.30885
走进	-9.30908
静	-9.31053
负	-9.31182
晚	-9.31271
南希仁	-9.3129
吓得	-9.3139
乃是	-9.31417
走近	-9.31431
敢	-9.31509
向外	-9.31531
堆	-9.31572
却见	-9.31649
心头	-9.31667
不料	-9.3183
然后	-9.31833
群雄	-9.31959
望了一眼	-9.32211
咦	-9.32248
吧	-9.32253
另有	-9.32262
幸	-9.32439
罪	-9.32476
不信	-9.3266
后面	-9.32733
也不知	-9.32817
利	-9.32843
装	-9.32852
古	-9.32868
却不知	-9.32873
江南六怪	-9.32922
良久	-9.32927
飞出	-9.33016
怎会	-9.33017
羊	-9.33029
室	-9.33044
偷	-9.33065
然而	-9.33066
挨	-9.3311
一对	-9.33194
叫我	-9.33281
了下来	-9.33317
拂	-9.33472
行事	-9.33583
吐	-9.33722
这一掌	-9.33812
绕	-9.33854
越来越	-9.3388
柔	-9.33905
一日	-9.33911
此处	-9.33926
遭	-9.3405
全是	-9.34053
较	-9.34112
灵智上人	-9.34197
不易	-9.34235
阳	-9.34382
是你	-9.34627
听说	-9.34657
弹	-9.34747
卷	-9.34748
的弟子	-9.34812
数十	-9.34829
杨	-9.34834
害死	-9.3484
忘了	-9.34949
宗	-9.35109
胡子	-9.35146
鼓	-9.35153
湖	-9.35159
是否	-9.35179
绳索	-9.35198
呼吸	-9.352
心里	-9.35227
激	-9.35254
料	-9.35326
衣服	-9.35364
要紧	-9.35372
稳	-9.35453
多半	-9.35502
松	-9.35782
仰	-9.35806
纸	-9.35882
陆庄主	-9.35888
段天德	-9.35891
塞	-9.359
讨	-9.35988
音	-9.36003
乃	-9.36004
站起	-9.36112
良	-9.36161
也就	-9.36166
汉	-9.3617
碎	-9.36173
心念一动	-9.36192
摸	-9.36415
拔	-9.36478
丈	-9.36482
▁原来	-9.36549
到处	-9.36614
六人	-9.36622
不理	-9.36658
走出	-9.36735
小弟	-9.36827
心神	-9.36927
受了	-9.36944
江湖上	-9.36965
伏	-9.37006
各自	-9.37027
扶	-9.37064
一位	-9.37077
赏	-9.37192
朋友	-9.37312
跃出	-9.37423
看得	-9.37493
赞	-9.37537
而死	-9.37559
全无	-9.37763
双眼	-9.37802
菜	-9.37965
集	-9.3797
下手	-9.37989
明知	-9.3808
原是	-9.38143
亏	-9.38171
爹	-9.38183
挑	-9.38194
己	-9.38194
沉吟	-9.38223
彭长老	-9.38226
变化	-9.38247
转头	-9.38262
去罢	-9.38279
你爹爹	-9.38388
而已	-9.38396
情花	-9.38411
想来	-9.38473
片	-9.38482
并未	-9.38612
生死	-9.38639
祸	-9.38664
有个	-9.38682
眉	-9.38725
费	-9.38775
嫁	-9.38995
人影	-9.39006
抬	-9.39122
病	-9.39221
吟	-9.39226
浅	-9.3923
哈哈	-9.39231
闲	-9.39242
俱	-9.39251
生气	-9.39274
若不	-9.39324
凌厉	-9.39486
分别	-9.39526
在空中	-9.3956
既然	-9.39587
躲在	-9.39634
一见	-9.39683
中原	-9.39775
恩	-9.39929
办	-9.40214
仙	-9.40238
小心	-9.40243
戳	-9.40291
父母	-9.40328
晃	-9.40378
一指	-9.4039
说到	-9.40417
教我	-9.40503
的声音	-9.40574
上的	-9.40576
向郭靖	-9.40694
还不	-9.40725
混	-9.40826
种	-9.40831
一定	-9.40858
陪	-9.40858
那些	-9.40957
含	-9.40998
为难	-9.41015
凝神	-9.41087
现	-9.41156
临	-9.41164
息	-9.41225
向她	-9.41248
蒙	-9.41331
傻	-9.41337
他老人家	-9.41349
尚有	-9.41351
不要	-9.41359
官兵	-9.4137
台	-9.41402
林	-9.4143
一座	-9.4144
极为	-9.41578
猜	-9.41704
找到	-9.41774
毫不	-9.41778
将来	-9.41788
手下	-9.41799
让他	-9.41815
门外	-9.41972
已有	-9.42089
易	-9.42207
佩服	-9.42269
何必	-9.42273
心知	-9.42311
运劲	-9.4234
重重	-9.42397
回过头来	-9.42414
经书	-9.4248
来了	-9.42485
倒是	-9.4257
欺	-9.42683
场	-9.42729
对我	-9.42737
不说	-9.42749
无礼	-9.42819
江南	-9.42887
板	-9.4297
许多	-9.43059
境	-9.43181
害	-9.43219
愿	-9.43321
担心	-9.43333
不但	-9.43405
别说	-9.43448
钉	-9.43457
说过	-9.43495
徒儿	-9.4359
那个	-9.43696
十余	-9.44023
三招	-9.44063
数日	-9.44089
毛	-9.44226
四个	-9.44321
古墓	-9.44384
在这儿	-9.44389
靖	-9.44486
坚	-9.44505
鸣	-9.44508
饮	-9.44526
头发	-9.44529
勇	-9.44563
桑昆	-9.44579
龙姑娘	-9.44614
拳法	-9.44659
娶	-9.4466
站	-9.44732
暗想	-9.4475
早就	-9.44781
又有	-9.44831
哥哥	-9.44847
记得	-9.44899
具	-9.4496
门口	-9.45036
少女	-9.4504
替	-9.45052
袖	-9.45135
叫声	-9.45189
见郭靖	-9.45278
▁欧阳克	-9.45353
余	-9.45377
公孙谷主	-9.45378
周	-9.45416
雄	-9.45418
门下	-9.45449
顿	-9.45493
宽	-9.45531
索	-9.45561
诗	-9.45656
说到这里	-9.45676
磕头	-9.45711
面目	-9.45723
威力	-9.45758
与杨过	-9.4596
互	-9.46052
切	-9.461
在她	-9.46124
出言	-9.4622
一拳	-9.4627
互相	-9.46286
跃上	-9.46322
枝	-9.46359
灭	-9.46398
店	-9.46409
身法	-9.46436
割	-9.46643
王爷	-9.46668
又问	-9.46682
师妹	-9.46682
冰	-9.46728
险些	-9.46747
影	-9.46753
决不	-9.4676
赴	-9.4677
茶	-9.46782
诸般	-9.46804
柔声	-9.46824
东西	-9.4688
这句话	-9.46901
金轮	-9.46912
的性命	-9.46926
真经	-9.47064
防	-9.47086
格	-9.47118
成了	-9.47176
削	-9.47248
江	-9.47325
兴	-9.47453
在哪里	-9.47482
一场	-9.47637
一柄	-9.47686
寻常	-9.47734
志	-9.47851
系	-9.47858
惹	-9.47864
弓	-9.47883
你别	-9.47901
一枚	-9.47933
好啊	-9.48048
拔出	-9.48144
手足	-9.48227
护	-9.48367
夹	-9.48577
做了	-9.48588
斩	-9.4871
丝	-9.48855
授	-9.48882
虎	-9.48894
钩	-9.48922
星	-9.4896
配	-9.49021
凉	-9.49031
玉女心经	-9.49038
郭伯母	-9.49041
察看	-9.49072
我去	-9.49156
站着	-9.49164
▁梅超风	-9.4924
轮	-9.49325
向左	-9.49398
▁只听	-9.49533
父	-9.49644
堂	-9.49696
无数	-9.49697
小小	-9.49837
大有	-9.49871
瞧他	-9.49899
墙	-9.49902
满了	-9.49955
小姑娘	-9.49983
这话	-9.50015
金国	-9.50017
圆	-9.50091
梦	-9.50131
目光	-9.50135
丘	-9.50156
钱	-9.50164
羞	-9.50177
盼	-9.50206
颤声	-9.50206
落下	-9.50296
颇	-9.50306
使出	-9.50311
这孩子	-9.50388
均想	-9.50393
绝情谷	-9.50441
了她	-9.5045
待我	-9.50492
奔出	-9.50593
亮	-9.50771
之法	-9.50822
损	-9.50859
怀中	-9.50874
输了	-9.51075
摇	-9.51102
杨过笑	-9.5115
自己的	-9.51251
许	-9.51257
蒙古军	-9.51273
困	-9.51291
均是	-9.51312
砸	-9.51352
段皇爷	-9.51357
望去	-9.51405
厉声	-9.51466
主人	-9.515
丘处机道	-9.51681
落在	-9.51685
翻身	-9.51706
推开	-9.51737
只不过	-9.51805
力气	-9.51885
钟	-9.51917
运气	-9.51924
不同	-9.51941
一呆	-9.52096
要害	-9.52212
叫作	-9.52253
尊	-9.523
母	-9.52319
▁成吉思汗	-9.52378
但见他	-9.52381
庄	-9.52407
你再	-9.52462
美貌	-9.525
其余	-9.52521
孙不二	-9.52529
抬起头来	-9.52534
钻	-9.52539
解开	-9.52705
邪	-9.52719
忘	-9.52795
我便	-9.52834
公	-9.52873
离开	-9.52883
顾	-9.52888
入了	-9.52933
交给	-9.53001
带着	-9.53048
坐下	-9.5306
创	-9.5309
坏	-9.53101
席	-9.53123
确	-9.53175
盖	-9.53191
箫声	-9.53268
而行	-9.53375
欢	-9.5343
怨	-9.53484
溜	-9.53537
绿	-9.53696
铜缸	-9.53724
又惊又喜	-9.53736
过不多时	-9.5379
了下去	-9.53805
一次	-9.53954
甚么事	-9.53972
你师父	-9.54013
逼得	-9.54047
武林中	-9.54112
到来	-9.54118
再来	-9.54147
德	-9.54284
样	-9.54323
武林	-9.54366
怎生	-9.54461
脚下	-9.54466
必有	-9.54601
到后来	-9.54635
聚	-9.54683
眼光	-9.5474
淡	-9.54873
相距	-9.54886
今晚	-9.54935
你不	-9.55002
恩师	-9.55062
你就	-9.55121
但想	-9.55178
当然	-9.55252
抽	-9.55257
之物	-9.55271
眼中	-9.5532
好生	-9.5535
了一会	-9.55382
拉着	-9.55392
风声	-9.55413
阵法	-9.55416
下了	-9.5542
是他	-9.55488
越是	-9.55588
不便	-9.55726
隐	-9.5573
鼻	-9.55747
铁掌帮	-9.55856
必定	-9.55865
矮	-9.55896
悔	-9.56005
不着	-9.56029
好罢	-9.56119
驰	-9.56122
尾	-9.56123
亡	-9.56131
网	-9.56139
夫妻	-9.56141
胡涂	-9.56144
迅捷	-9.56145
谷中	-9.56192
四下里	-9.56222
都史	-9.56243
握	-9.5625
在一旁	-9.56275
想是	-9.56396
竟会	-9.56477
岁	-9.56553
一口气	-9.56553
暗中	-9.56662
说起	-9.56697
饶	-9.56716
说甚么	-9.56727
陷	-9.57002
重阳宫	-9.57034
累	-9.57086
又想	-9.57101
年轻	-9.57128
只盼	-9.57247
整	-9.57296
减	-9.57354
扭	-9.57367
降	-9.57368
赐	-9.57371
王罕	-9.5739
敌手	-9.5746
不明	-9.57486
暗自	-9.57491
醒	-9.57558
纵马	-9.57588
大宋	-9.57638
赶到	-9.57641
自知	-9.57807
另一个	-9.5793
掉	-9.57992
列	-9.58133
严	-9.58138
▁此时	-9.58362
挥出	-9.58371
施展	-9.58381
我这	-9.58412
这两个	-9.58466
扇	-9.58479
荡	-9.58483
▁金轮法王	-9.58496
来势	-9.5855
拥	-9.58634
动弹不得	-9.58643
高台	-9.58645
杨兄弟	-9.58667
性子	-9.58746
汉子	-9.58799
床	-9.58835
有了	-9.58842
套	-9.58915
师姊	-9.58931
自幼	-9.58931
中间	-9.58954
厅	-9.58979
跑	-9.59007
房中	-9.59039
殿	-9.59369
保	-9.59596
反手	-9.5973
瞧得	-9.59787
人物	-9.59803
骗	-9.59805
波	-9.5982
误	-9.59839
执	-9.59844
旗	-9.59859
皆	-9.59887
”、“	-9.59891
寂	-9.59895
奋力	-9.59906
碰	-9.59938
一顿	-9.59973
本领	-9.59977
双方	-9.59985
峰	-9.6002
招架	-9.60049
林中	-9.6006
而且	-9.60121
靠	-9.60126
对手	-9.6013
那道人	-9.6022
不妙	-9.60272
径	-9.60371
一眼	-9.60544
胡	-9.60671
墓	-9.60709
救了	-9.60741
只好	-9.60746
教你	-9.60926
抗	-9.61052
移	-9.61052
才是	-9.61067
逆	-9.61075
一家	-9.61102
烟	-9.61114
薄	-9.61149
郭大侠	-9.61186
都已	-9.61205
豹子	-9.61218
昏	-9.6136
不去	-9.61409
男子	-9.61744
印	-9.61796
拉住	-9.61823
▁只见	-9.61827
他二人	-9.61926
宋	-9.62046
也要	-9.62058
忧	-9.6207
之内	-9.62171
密	-9.62173
当世	-9.62249
明明	-9.62278
度	-9.62375
的小	-9.6241
福	-9.62412
窝阔台	-9.62454
拖	-9.62471
邀	-9.62477
衫	-9.62481
朗声	-9.62498
有的	-9.62584
那少年	-9.62638
重伤	-9.62639
句	-9.62733
有时	-9.62739
只感	-9.6285
将下来	-9.62887
不起	-9.62949
七人	-9.62949
岂不	-9.63021
素	-9.63038
爷爷	-9.63048
一句话	-9.63087
增	-9.63295
抱起	-9.63309
眼下	-9.63318
左足	-9.63322
已知	-9.63329
顺	-9.63402
右足	-9.63457
李萍	-9.63491
腿上	-9.63559
属	-9.63635
尘	-9.63646
以为	-9.63686
大是	-9.63762
达	-9.63786
裂	-9.63786
缝	-9.63792
六位师父	-9.63816
休息	-9.63818
尽皆	-9.63828
落地	-9.63916
双腿	-9.6398
杀人	-9.63996
猛地	-9.64012
颇为	-9.64114
不断	-9.64322
也好	-9.64403
这许多	-9.64479
几步	-9.64519
拚	-9.64561
腹	-9.64662
但若	-9.64681
崖	-9.64801
一看	-9.64858
牢牢	-9.64863
君	-9.64984
凝	-9.65007
续	-9.65013
无力	-9.65024
撒	-9.6505
联	-9.65051
非同小可	-9.6508
词	-9.65103
搬	-9.65125
私	-9.6513
乘机	-9.65145
晃动	-9.65194
让我	-9.6523
转头向	-9.65309
中毒	-9.65366
尽是	-9.65436
高兴	-9.6545
上下	-9.65484
得到	-9.65498
铁掌	-9.65603
再无	-9.6561
孔	-9.65697
你怎么	-9.65773
拆	-9.6579
竹	-9.65963
连连	-9.66061
大石	-9.66194
任	-9.66238
携	-9.66242
取胜	-9.66378
之地	-9.66414
起了	-9.66431
滑	-9.66439
歇	-9.66453
残	-9.66461
忌惮	-9.66479
陈玄风	-9.66481
脾气	-9.66482
家伙	-9.66487
拚命	-9.66523
▁裘千仞	-9.66538
那女子	-9.66545
群道	-9.66579
很好	-9.66616
接口	-9.66646
不知如何	-9.66686
亲兵	-9.66694
友	-9.66736
认得	-9.66795
存	-9.66943
就在	-9.67073
断了	-9.67108
几下	-9.67136
教他	-9.67139
?’	-9.67155
得住	-9.67299
错了	-9.67398
鸟	-9.67472
疑	-9.67565
直到	-9.676
喝了	-9.67621
很是	-9.67648
您	-9.678
掩	-9.67814
英	-9.67816
不死	-9.67828
缸	-9.67837
襄儿	-9.67859
点点头	-9.67939
发作	-9.67947
玉蜂	-9.67977
成亲	-9.68088
知她	-9.68115
了过去	-9.68145
抱住	-9.68161
脱手	-9.68177
河	-9.68203
走向	-9.68212
吓	-9.68214
迟	-9.68272
之势	-9.6842
全真教的	-9.68447
奔去	-9.6847
此后	-9.6847
今	-9.68554
是要	-9.6856
▁裘千尺	-9.68888
本已	-9.68966
张口	-9.68968
▁铁木真	-9.68991
好不好	-9.69057
心意	-9.69122
决不能	-9.69216
克	-9.69216
抵	-9.69219
搜	-9.69221
杂	-9.69228
补	-9.6923
大伙儿	-9.69236
张阿生	-9.6924
群丐	-9.69242
这件事	-9.6929
过了一会	-9.69323
戴	-9.69345
脱身	-9.69371
▁杨康	-9.69525
颇有	-9.69579
客店	-9.69597
仇	-9.69599
接连	-9.69692
▁朱聪	-9.69722
外人	-9.69743
便在	-9.69763
带了	-9.6982
的名字	-9.69825
听着	-9.69934
有如	-9.69956
牵	-9.69985
一切	-9.7001
不在	-9.70012
递	-9.70197
不语	-9.70208
清楚	-9.70324
感激	-9.70364
辱	-9.70442
凶	-9.70475
悲	-9.7054
一会	-9.70576
速	-9.70588
广	-9.70604
打狗棒	-9.70609
剧痛	-9.70626
擦	-9.70632
黄岛主	-9.70635
衣襟	-9.70644
她是	-9.7065
故意	-9.70705
庙	-9.70781
后心	-9.70842
总算	-9.70875
说不定	-9.70902
夫人	-9.70924
素来	-9.70978
敌军	-9.70998
一言	-9.71039
占	-9.71119
之旁	-9.71166
▁陆无双	-9.71236
转过	-9.7152
不绝	-9.71666
世间	-9.71732
抹	-9.71836
双剑	-9.71885
经过	-9.71923
脉	-9.7199
吸	-9.72049
挤	-9.7207
大踏步	-9.72085
全真	-9.72149
士	-9.72383
只见她	-9.72509
叫你	-9.72794
悟	-9.72854
更无	-9.72885
肩	-9.72894
斗然	-9.72917
四周	-9.72923
向上	-9.72928
了两	-9.72947
了不起	-9.73039
我说	-9.73116
窗	-9.73177
朮赤	-9.73193
剑尖	-9.73231
叫做	-9.73236
不怕	-9.73261
歌	-9.73292
孙	-9.7332
五个	-9.73376
随着	-9.73437
油	-9.73517
地方	-9.73531
郭夫人	-9.73537
试试	-9.73537
东邪	-9.73539
嘉兴	-9.73546
追赶	-9.73564
数次	-9.73579
片刻之间	-9.73584
老前辈	-9.73616
相交	-9.73668
打架	-9.73696
随手	-9.73755
幸好	-9.73777
还没	-9.73799
辨	-9.73802
毒蛇	-9.73808
两步	-9.73879
抖	-9.74161
难过	-9.74171
之言	-9.74192
一动	-9.74203
壁	-9.74299
颈	-9.74312
原来他	-9.74416
两只	-9.74467
你还	-9.74469
正中	-9.74494
闭	-9.74509
从前	-9.74526
但她	-9.74687
简长老	-9.74691
二十	-9.74713
显得	-9.74743
拿起	-9.74768
未曾	-9.74823
冒	-9.74917
那公子	-9.7493
愁	-9.74968
一阳指	-9.74981
西山一窟鬼	-9.74989
州	-9.74991
脑袋	-9.75002
拾起	-9.7501
男女	-9.75011
眼泪	-9.75015
恼怒	-9.75031
之术	-9.75102
提防	-9.75133
发觉	-9.75186
才知	-9.75237
绝情丹	-9.75259
城头	-9.75311
杨过心想	-9.75367
永远	-9.75463
截	-9.75602
胆	-9.75631
不管	-9.75694
临安	-9.75742
给人	-9.75745
件	-9.75954
也未必	-9.76001
一头	-9.76008
忍	-9.76013
浑	-9.7607
情势	-9.76086
多谢	-9.76099
便如	-9.7611
侠	-9.76186
不足	-9.76232
诧异	-9.76242
示	-9.76293
你快	-9.76318
柱	-9.76388
段	-9.76403
闷	-9.76413
华	-9.76425
蓉二人	-9.76459
耗	-9.76475
察合台	-9.76491
明日	-9.76503
相互	-9.76526
迎面	-9.76527
号令	-9.7653
怪异	-9.76532
兵器	-9.76553
精神	-9.76561
小子	-9.7658
生性	-9.76592
顺着	-9.76692
大师父	-9.76808
▁赵志敬	-9.76812
第	-9.76813
退开	-9.7682
七八	-9.76885
砰的一声	-9.77025
一剑	-9.77076
理会	-9.77116
快快	-9.7713
半截	-9.77155
擒	-9.77247
论	-9.77354
上山	-9.77356
七公	-9.77392
古墓派	-9.77421
▁尹志平	-9.77449
红马	-9.7746
忙问	-9.77474
不来	-9.77554
村	-9.77607
也必	-9.77651
舌	-9.77717
毕竟	-9.7774
不该	-9.77756
象	-9.77858
她们	-9.7787
两条	-9.77887
务	-9.77958
叉	-9.77969
雅	-9.77984
)	-9.77999
(	-9.77999
软猬甲	-9.78
抵御	-9.78001
黑风双煞	-9.78004
胡闹	-9.78013
每一	-9.78051
以致	-9.78179
答允	-9.7818
挥动	-9.78218
大哥哥	-9.78315
大金国	-9.78453
一挥	-9.78498
走罢	-9.78524
相会	-9.78545
般的	-9.78603
摔倒	-9.78614
始终不	-9.78617
力道	-9.78625
下面	-9.78672
一一	-9.78683
设法	-9.78692
数丈	-9.78795
不明白	-9.78899
瞧出	-9.78942
比之	-9.78953
两声	-9.78965
撕	-9.78978
十八	-9.79036
▁完颜康	-9.79089
曾听	-9.7918
便已	-9.79191
名字	-9.79205
纵跃	-9.79217
杯	-9.79225
识	-9.79295
他说	-9.79411
环	-9.79422
寸	-9.79425
的所在	-9.79428
与她	-9.79438
备	-9.7947
迷	-9.79497
疼	-9.79514
嘿嘿	-9.79519
丘道长	-9.7956
了几下	-9.79573
心中一凛	-9.79593
主意	-9.79632
几句	-9.79685
迟疑	-9.79727
甩	-9.79731
合力	-9.79748
其时	-9.79796
笑声	-9.79837
辈	-9.79886
只须	-9.79926
我和	-9.80191
何处	-9.80213
了一个	-9.80217
积	-9.80347
平时	-9.80352
了过来	-9.80503
与黄蓉	-9.80521
府	-9.80559
师徒	-9.80562
卧	-9.80568
终南山	-9.80576
要待	-9.80668
振	-9.80745
不久	-9.80789
▁穆念慈	-9.80795
掠	-9.80797
行走	-9.80801
衣袖	-9.80807
也都	-9.80823
恼	-9.80832
竖	-9.80847
化子	-9.80978
誓	-9.8102
了半晌	-9.81088
朱	-9.81094
狼狈	-9.81098
咽	-9.81099
蛤蟆功	-9.811
卖	-9.811
吓了一跳	-9.811
悬崖	-9.811
突觉	-9.8115
师伯	-9.81211
已在	-9.81276
捏	-9.81468
全力	-9.81534
坐着	-9.81535
容易	-9.81653
走去	-9.81676
举手	-9.81727
两字	-9.8176
说是	-9.81852
女人	-9.81866
令人	-9.81888
何等	-9.81889
服了	-9.81993
杆	-9.82018
一手	-9.82021
也不会	-9.82029
本就	-9.82064
突见	-9.82081
手法	-9.82082
早知	-9.82202
西域	-9.82292
郭啸天	-9.82386
一身	-9.82411
银	-9.82435
名叫	-9.8245
已自	-9.82459
程	-9.82541
决计	-9.82595
但听得	-9.82607
春	-9.82626
先师	-9.82632
那渔人	-9.82643
昨晚	-9.82689
何师我	-9.82692
英雄好汉	-9.82695
些甚么	-9.82754
岩石	-9.8278
身穿	-9.82815
如何能	-9.82845
高人	-9.82942
仍然	-9.83012
室中	-9.83062
找寻	-9.83066
你先	-9.83097
好啦	-9.83224
终身	-9.83245
赶来	-9.83396
至于	-9.83463
胜过	-9.83535
死在	-9.83571
犯	-9.83668
欲待	-9.83737
跃开	-9.83786
紧紧	-9.83819
迫	-9.83883
桌	-9.83942
买	-9.83971
丝毫不	-9.84
师哥	-9.84032
依言	-9.84111
婆婆	-9.84113
打在	-9.8412
史	-9.84159
一碗	-9.84181
器	-9.84188
劳	-9.84228
辞	-9.84265
的本事	-9.84272
修习	-9.84292
天竺僧	-9.84297
岳飞	-9.84301
博尔朮	-9.84309
札木合	-9.84312
躬身	-9.84314
拍的一声	-9.84364
沉重	-9.8443
在自己	-9.84439
从此	-9.84455
你若	-9.8451
救人	-9.84558
掌风	-9.84607
一晃	-9.84672
去找	-9.84701
伤人	-9.84703
白雕	-9.84711
剧毒	-9.8472
方能	-9.84721
明明是	-9.84735
疑心	-9.84741
又见	-9.84742
细细	-9.84777
给了	-9.84785
而至	-9.84864
有此	-9.8495
推出	-9.85099
反正	-9.85107
拿了	-9.85264
又已	-9.85275
上一	-9.85418
阻	-9.85483
俯	-9.85523
参	-9.85596
得罪	-9.85607
十余年	-9.85647
公孙绿萼	-9.8565
飘	-9.85675
一团	-9.85684
潜	-9.85707
佛	-9.85768
那可	-9.85788
造	-9.8582
跌倒	-9.85845
经文	-9.85867
承	-9.85903
脏	-9.8591
戏	-9.85912
嚼	-9.8593
伏在	-9.85932
祖师婆婆	-9.85935
陆立鼎	-9.85937
帆	-9.85942
银针	-9.85948
义父	-9.85956
相貌	-9.85974
斗然间	-9.85984
与小龙女	-9.86039
恶斗	-9.86113
认输	-9.8612
下山	-9.86141
出口	-9.86152
弟	-9.863
还要	-9.86302
所传	-9.86319
待他	-9.86463
候	-9.86597
壮	-9.86698
一拍	-9.86708
堕	-9.86777
进去	-9.86834
北方	-9.86871
又不是	-9.86981
缚	-9.87007
山洞	-9.87044
的模样	-9.87049
讲	-9.87101
祖	-9.87322
点了	-9.87365
丧	-9.8739
竟不	-9.87403
不知道	-9.87443
未必	-9.87553
甲	-9.87553
宿	-9.87589
译	-9.87595
铺	-9.87596
屈	-9.87599
胖	-9.87604
大头鬼	-9.87607
拜见	-9.87624
呼喝	-9.87634
飞舞	-9.87681
联手	-9.87696
奔跑	-9.87761
这事	-9.87815
掠过	-9.87929
急奔	-9.8793
不自禁的	-9.87976
你去	-9.88011
三分	-9.88044
原本	-9.88089
行礼	-9.88138
要我	-9.8824
固	-9.88241
抢到	-9.88352
长大	-9.88436
不知他	-9.88484
一样	-9.88484
又要	-9.88545
罢了	-9.88556
对她	-9.88563
折断	-9.88587
梁	-9.88591
一刀	-9.88597
不忍	-9.88606
只待	-9.8864
▁一灯	-9.88804
城中	-9.88831
传来	-9.88893
历	-9.88929
▁完颜洪烈	-9.88944
伤势	-9.8899
奸	-9.89012
练成	-9.89024
掌心	-9.89056
请你	-9.89076
四字	-9.89088
元	-9.89207
展	-9.89213
兔	-9.89215
瘦	-9.89247
纯	-9.89268
破绽	-9.89294
诚	-9.89299
胡说八道	-9.89299
武三娘	-9.89302
鹿清笃	-9.89302
容貌	-9.89304
巨岩	-9.89318
所在	-9.89327
蓦地里	-9.89342
单刀	-9.89367
铁枪	-9.8941
在桃花岛上	-9.89426
一些	-9.89429
强敌	-9.89501
大笑	-9.89504
龙儿	-9.89531
大厅	-9.89609
一听	-9.89696
拿着	-9.898
妙极	-9.89919
得知	-9.90011
也只	-9.90039
不服	-9.90158
过招	-9.90264
刺去	-9.90384
岸	-9.90398
说来	-9.9046
前后	-9.90485
挡在	-9.90572
棒法	-9.90609
几次	-9.90621
岛上	-9.90637
倒转	-9.9064
还能	-9.90677
好汉	-9.90698
所以	-9.90808
练到	-9.90811
饶了	-9.90827
旨	-9.90841
担	-9.90892
假装	-9.90895
揭	-9.90925
灰	-9.90931
生了	-9.90954
出招	-9.90971
注	-9.90989
请教	-9.91001
局	-9.91005
吞	-9.91012
愕然	-9.91027
瀑布	-9.91032
黯然	-9.91037
洪帮主	-9.91044
黎生	-9.91045
周大哥	-9.91051
犹似	-9.91052
另外	-9.91116
停步	-9.91217
瞧见	-9.91247
当的一声	-9.91289
展开	-9.91322
山峰	-9.91442
打不过	-9.91621
等人	-9.91634
待会	-9.9166
跟随	-9.91745
我在	-9.91757
有趣	-9.91843
蛮	-9.91929
谷	-9.91953
一半	-9.92023
先行	-9.92065
赢	-9.92075
不敢再	-9.92078
一扬	-9.92086
好手	-9.92099
跃下	-9.92144
溪	-9.92278
迹	-9.92292
谅	-9.92299
竟有	-9.9237
想要	-9.92451
决意	-9.9249
要他	-9.92553
快走	-9.92649
而起	-9.92657
穷	-9.92689
倏	-9.92691
鞋	-9.92698
扳	-9.9276
悬	-9.92769
浓	-9.92772
甫	-9.92773
浪	-9.92774
浸	-9.92779
乞丐	-9.92783
逝世	-9.92784
祖师爷	-9.92784
忍耐不住	-9.9279
凶险	-9.92794
二哥	-9.92795
神态	-9.92796
竟尔	-9.92806
向北	-9.9281
精妙	-9.92834
不由自主的	-9.92841
再行	-9.9286
莫非	-9.929
喝酒	-9.92931
几年	-9.92931
知觉	-9.93129
这些人	-9.93145
五指	-9.93247
而过	-9.93275
更不	-9.93464
瞎	-9.9368
丹	-9.93802
将军	-9.93849
下马	-9.9388
楼	-9.93939
没了	-9.94006
数十年	-9.94102
僧	-9.94145
术	-9.94186
颜烈	-9.94263
穆易	-9.94276
艺	-9.94327
抚	-9.94341
倏地	-9.94344
言道	-9.94348
肚	-9.94389
洪	-9.94393
打死	-9.94406
瓶	-9.94456
惧	-9.94457
烂	-9.94533
采	-9.94537
载	-9.9455
甜	-9.94555
弃	-9.94555
愧	-9.94559
爪	-9.94562
朗声说	-9.94566
呸	-9.94566
挽	-9.94568
奥妙	-9.9457
刘贵妃	-9.94571
率领	-9.946
也有	-9.94712
是在	-9.94783
快步	-9.94853
又何必	-9.94995
该当	-9.94999
▁公孙谷主	-9.95054
圈子	-9.9511
念头	-9.95113
马上	-9.95183
又有甚么	-9.95197
自来	-9.95234
竟自	-9.95503
数招	-9.9556
得多	-9.956
向东	-9.95605
牙齿	-9.9565
这一次	-9.95772
势必	-9.95826
树干	-9.95926
灯	-9.95988
数百	-9.96016
仗	-9.96058
手脚	-9.96073
定了	-9.96091
还道	-9.96173
渔网	-9.96186
策	-9.96222
一百	-9.96237
匹	-9.96244
回身	-9.96271
习	-9.96293
乖	-9.96371
嫌	-9.96381
洗	-9.96385
转过身来	-9.96386
询问	-9.96392
思索	-9.9641
身受重伤	-9.96411
数尺	-9.96413
哪敢	-9.96418
且慢	-9.96422
并肩	-9.96424
黑暗中	-9.96425
呼呼	-9.9643
黄帮主	-9.96471
相遇	-9.96515
拍手	-9.96518
可怜	-9.96537
斤	-9.96538
心愿	-9.96602
杀他	-9.96615
黄二人	-9.96696
旁边	-9.96766
看时	-9.96803
袍	-9.96855
剑柄	-9.96864
另一	-9.96894
搭	-9.97047
但听	-9.97084
看了	-9.97192
不识	-9.97203
袭	-9.97262
先生	-9.97274
遗	-9.97381
有所	-9.97451
最好	-9.97459
空中	-9.9747
▁杨铁心	-9.9748
道路	-9.97633
石室	-9.97665
知晓	-9.97671
深谷	-9.97754
尺	-9.97829
快去	-9.97863
遇上	-9.97867
那便	-9.97932
斥	-9.97972
屋顶	-9.97986
金杵	-9.98002
焦急	-9.98082
告	-9.98084
查	-9.98097
挣扎	-9.98118
得罪了	-9.98138
伤口	-9.98156
破了	-9.98164
于他	-9.9821
店小二	-9.98212
健	-9.98233
丹田	-9.98234
拣	-9.98236
汤	-9.98237
浮	-9.9824
李志常	-9.9824
哈哈一笑	-9.98267
华山	-9.98296
胸前	-9.98388
他武功	-9.98418
可不是	-9.98464
面门	-9.98485
牛家村	-9.98493
掌教	-9.98493
松树	-9.98589
抓起	-9.98634
那也	-9.98699
他在	-9.98764
客人	-9.98827
晕了过去	-9.9884
成功	-9.98866
小腹	-9.98944
叫化	-9.98951
不小	-9.98954
正想	-9.98969
自然是	-9.99249
的一响	-9.99267
手持	-9.99287
一闪	-9.99333
上面	-9.99336
暗叫	-9.99473
一双	-9.99522
幼时	-9.99539
支	-9.99667
大军	-9.99767
幼	-9.99775
汗	-9.99808
雨	-9.99816
详	-9.99846
倾	-9.99869
赌	-10
杀死	-10.0006
简	-10.0007
驱	-10.0008
妖	-10.0009
桨	-10.0009
暴	-10.0011
佳	-10.0012
车	-10.0012
刘处玄	-10.0013
枚	-10.0013
我来	-10.0016
了片刻	-10.0016
岂非	-10.0016
仇人	-10.0026
动静	-10.0029
之功	-10.0031
有余	-10.0038
当作	-10.004
第四	-10.0047
发足	-10.0051
缘	-10.0051
要想	-10.0055
若要	-10.0056
怒气	-10.0067
来去	-10.0073
招呼	-10.0079
里面	-10.0086
郭靖与黄蓉	-10.0088
肥	-10.0089
相识	-10.0092
失了	-10.0096
而上	-10.0096
挡住	-10.0099
酸	-10.011
下的	-10.0112
这套	-10.0112
锋	-10.0113
如此说	-10.012
进了	-10.0123
岩	-10.0124
亲自	-10.0125
底下	-10.0127
数步	-10.0129
相对	-10.0129
不致	-10.013
丛	-10.014
头颈	-10.0144
桌上	-10.0147
瞧去	-10.0149
斯	-10.0151
不幸	-10.0152
长矛	-10.0153
禁	-10.0157
了些	-10.0158
线	-10.0159
剪	-10.0159
往他	-10.0164
剑招	-10.0164
有一	-10.0182
征	-10.0183
呼叫	-10.0189
豪	-10.0195
跪下	-10.0198
率	-10.0201
豪杰	-10.0203
宴	-10.0203
窜出	-10.0203
湿	-10.0204
有异	-10.0204
醉	-10.0204
狠辣	-10.0205
放在心上	-10.0205
耳朵	-10.0205
烦恼	-10.0205
凄然	-10.0206
折扇	-10.0207
▁只听得	-10.0208
银子	-10.0208
颈中	-10.021
防备	-10.0211
绝技	-10.0213
惊觉	-10.0217
时分	-10.0217
的女儿	-10.0217
怀里	-10.0218
掷出	-10.0221
白衣	-10.0223
好玩	-10.023
额头	-10.0234
万分	-10.0235
放了	-10.0237
的好	-10.0243
出现	-10.0245
人人都	-10.0245
一天	-10.025
苦头	-10.0255
那农夫	-10.0257
数年	-10.0266
打我	-10.0272
惊叫	-10.0277
我想	-10.0282
这就	-10.0283
按住	-10.0286
放心	-10.0289
高举	-10.0291
说他	-10.0293
握住	-10.0301
声势	-10.0309
毙	-10.0312
刀剑	-10.0319
使用	-10.0325
那位	-10.0325
这场	-10.0326
四名	-10.0328
雕儿	-10.0336
拨	-10.0336
提气	-10.034
一拉	-10.0348
恐	-10.035
娘	-10.0356
帮众	-10.036
大船	-10.0361
外面	-10.0362
胜了	-10.0363
鲨鱼	-10.0367
吃饭	-10.0369
▁瑛姑	-10.0371
山后	-10.0373
不弱	-10.0377
这少年	-10.0379
坟	-10.0388
魔	-10.039
李	-10.0396
横扫	-10.0397
襄阳城	-10.0397
痒	-10.04
林朝英	-10.04
泼	-10.04
笑嘻嘻的	-10.0401
岂	-10.0401
声中	-10.0402
丹药	-10.0403
毒性	-10.0406
药兄	-10.0406
石子	-10.0406
路上	-10.041
抚摸	-10.041
向黄蓉	-10.0413
轮子	-10.0416
站定	-10.042
杵	-10.0425
之辈	-10.0426
黑剑	-10.043
不上	-10.0432
汉人	-10.044
只可惜	-10.0452
当下将	-10.0456
退后	-10.0458
山上	-10.0464
泪水	-10.0472
好看	-10.0478
洞口	-10.0478
洪七公笑	-10.0479
飞起	-10.0482
天地	-10.0486
落入	-10.0486
难得	-10.0489
拳脚	-10.049
多了	-10.0491
打开	-10.0492
走开	-10.0495
说要	-10.0496
台下	-10.0499
我没	-10.0509
毒手	-10.0513
跟她	-10.0518
疯	-10.0524
就如	-10.0526
见面	-10.0535
算是	-10.054
送了	-10.0542
感到	-10.0553
镇	-10.0557
跪	-10.0563
将出来	-10.0565
连声	-10.0565
无异	-10.0568
少了	-10.0569
张君宝	-10.0571
问起	-10.0577
危	-10.0582
向小龙女	-10.0587
道理	-10.0588
绝无	-10.0589
那书生	-10.0591
小孩	-10.0594
着地	-10.0595
卫	-10.0596
秘	-10.0597
建	-10.0598
酸麻	-10.0599
废	-10.0599
侵	-10.06
演	-10.06
米	-10.06
寺	-10.06
商	-10.06
圣	-10.06
归云庄	-10.0601
饱	-10.0601
笑吟吟的	-10.0601
叔父	-10.0601
危险	-10.0602
啸声	-10.0605
便可	-10.0605
约莫	-10.0605
耳边	-10.0607
娘子	-10.0608
轻易	-10.0613
桃花岛主	-10.0614
大奇	-10.0615
危急中	-10.0619
扶着	-10.0624
喷	-10.0629
表	-10.0649
要杀	-10.065
高声叫	-10.0661
只道他	-10.067
叫她	-10.0672
心思	-10.0672
树林	-10.0673
对自己	-10.0679
那老者	-10.0684
十二	-10.0691
着实	-10.0693
披	-10.0704
以来	-10.0708
心中却	-10.0713
说的	-10.0714
被她	-10.0717
中有	-10.0722
▁绿萼	-10.0726
抬头	-10.0735
张开	-10.0739
你自己	-10.0742
责	-10.0747
军士	-10.0748
已极	-10.0754
皇	-10.0761
营	-10.0765
晕	-10.0768
不想	-10.0775
顶上	-10.0776
山石	-10.0778
要你	-10.0778
三下	-10.0784
开了	-10.0786
义兄	-10.0788
乡	-10.079
扰	-10.0791
赖	-10.0795
孤	-10.0795
一交	-10.0797
几声	-10.0801
叶	-10.0803
罗	-10.0803
遣	-10.0803
亭	-10.0804
陈	-10.0804
冯默风	-10.0804
逞	-10.0805
坑	-10.0805
灵狐	-10.0805
诡计	-10.0805
赤	-10.0805
叔叔	-10.0807
上马	-10.0807
皱眉	-10.0813
张望	-10.0815
一大	-10.0815
耳听得	-10.0815
不能再	-10.0817
而下	-10.0817
侧身	-10.0819
独自	-10.0837
右腿	-10.0839
苦练	-10.084
和她	-10.0843
殊	-10.0845
明儿	-10.0854
双脚	-10.0855
所学	-10.0857
素知	-10.087
毁	-10.088
火光	-10.088
成为	-10.0883
大漠	-10.0883
掷去	-10.0895
在半空	-10.0895
可就	-10.0901
岂不是	-10.0901
常人	-10.0904
排	-10.0915
也不用	-10.0917
究	-10.0929
竟也	-10.0931
▁王处一	-10.0932
一枝	-10.0943
之命	-10.0946
▁霍都	-10.0952
忽觉	-10.0959
便道	-10.0959
仰天	-10.0962
永	-10.0963
无已	-10.0964
遮	-10.0964
既是	-10.0965
天色	-10.0968
睁开眼	-10.0971
既已	-10.0975
这一来	-10.0976
是了	-10.0983
陆乘风	-10.0983
专	-10.0999
也不敢	-10.1003
秀	-10.1004
盒	-10.1008
设	-10.1009
膝	-10.101
尿	-10.1012
从怀中取出	-10.1013
选	-10.1013
耶律燕	-10.1013
茫然	-10.1014
语音	-10.1016
一辈子	-10.1017
便了	-10.1017
机关	-10.1018
长袍	-10.102
乘势	-10.1021
相抗	-10.1022
阁下	-10.1026
这番话	-10.103
救你	-10.1032
语气	-10.1033
大声叫	-10.1036
之余	-10.1039
猛力	-10.1039
和你	-10.1045
在后	-10.1053
抢着	-10.1057
诸将	-10.1058
正待	-10.1062
护住	-10.1062
大和尚	-10.1068
犹	-10.1068
闻到	-10.1071
酒杯	-10.1071
出门	-10.1073
左腿	-10.1075
插入	-10.1083
已久	-10.1084
觉远	-10.1086
击在	-10.1089
声息	-10.109
酒楼	-10.1096
说完	-10.11
▁包惜弱	-10.1104
向西	-10.1115
小道士	-10.1119
发掌	-10.1121
拦在	-10.1123
中国	-10.1126
在郭靖	-10.1137
墓中	-10.1141
出来的	-10.1144
量	-10.1149
出力	-10.1163
他身上	-10.1163
腕	-10.1169
岛	-10.1172
还在	-10.1176
袋	-10.1184
大胆	-10.1195
妇	-10.1196
咱	-10.1209
水中	-10.121
时候	-10.121
伴	-10.121
哪里还	-10.1214
慰	-10.122
裘	-10.1223
考	-10.1224
牙	-10.1224
效	-10.1224
层	-10.1225
粘	-10.1225
愈来愈	-10.1226
凛然	-10.1226
满腔	-10.1226
勉强	-10.1227
南帝	-10.1227
绸带	-10.1227
入内	-10.1227
有点	-10.1228
宛似	-10.1228
跟你说	-10.1229
父王	-10.123
铁轮	-10.123
肚子	-10.1231
站立	-10.1233
抵挡不住	-10.1233
郭姑娘	-10.1234
连叫	-10.124
拔都	-10.1241
骑马	-10.1244
扶起	-10.1248
夹着	-10.1248
一年	-10.1249
短剑	-10.125
规矩	-10.125
绕着	-10.1251
欺侮	-10.1255
心情	-10.1256
救命	-10.1256
只是他	-10.1257
均已	-10.126
挂	-10.1265
再过	-10.1266
也得	-10.1274
碰到	-10.128
!’	-10.128
心中大喜	-10.1281
起身	-10.1282
腾	-10.1283
真正	-10.1287
料知	-10.1293
也无	-10.1295
处处	-10.1296
竟能	-10.1297
大人	-10.1302
不安	-10.1311
听见	-10.1312
懂	-10.1315
无可	-10.1333
倒退	-10.1334
树枝	-10.1341
那是甚么	-10.1342
可没	-10.1352
王子	-10.1353
将过来	-10.1354
七兄	-10.1367
大大的	-10.1369
不出来	-10.1374
飞身	-10.1384
扣	-10.1386
又将	-10.1388
又说	-10.139
热闹	-10.1391
▁黄蓉见	-10.1395
哪有	-10.14
小王	-10.1402
可不能	-10.1402
状	-10.1403
舟	-10.1404
十多年	-10.1407
又在	-10.1413
题	-10.1416
了上来	-10.1418
我若	-10.142
的人物	-10.1421
仆	-10.1423
期	-10.1423
有甚	-10.1428
束	-10.1432
式	-10.1433
映	-10.1434
若无	-10.1436
娇	-10.144
违	-10.144
呀	-10.1442
扎	-10.1442
篇	-10.1442
召	-10.1442
轻身功夫	-10.1443
丢	-10.1443
粒	-10.1443
劫	-10.1443
媳妇儿	-10.1444
袍袖	-10.1444
疗伤	-10.1444
安慰	-10.1444
蒙哥	-10.1445
奔驰	-10.1446
十招	-10.1448
被人	-10.1451
移动	-10.1452
君子	-10.1452
丈余	-10.1455
周身	-10.1456
客气	-10.1465
自负	-10.1466
一时之间	-10.1468
品	-10.147
骂我	-10.147
郭靖夫妇	-10.1471
修为	-10.1474
我先	-10.1484
跟我说	-10.1487
山谷	-10.1491
也真	-10.1492
空手	-10.1496
向着	-10.15
累得	-10.1504
为他	-10.1513
不下	-10.1516
我妈	-10.1522
火把	-10.1536
那道姑	-10.1543
倚	-10.1553
出掌	-10.1555
方向	-10.156
的兵刃	-10.1567
惊人	-10.1577
我瞧	-10.159
再去	-10.1595
藏在	-10.1597
一击	-10.1599
追来	-10.1602
▁公孙止	-10.1602
只能	-10.1607
军中	-10.161
说出	-10.1613
千万	-10.1613
飞去	-10.1617
使劲	-10.1619
勾	-10.1623
还手	-10.1629
唯	-10.1631
要将	-10.1632
十多	-10.1633
绳	-10.1638
渔	-10.1639
的穴道	-10.1642
好笑	-10.1642
泪	-10.1652
逢	-10.1655
雾	-10.1659
俗	-10.1659
彩	-10.166
赵	-10.166
尝	-10.1662
陡	-10.1662
延	-10.1664
瓦	-10.1665
紫	-10.1665
嘱	-10.1665
笨	-10.1665
赠	-10.1666
北丐	-10.1666
暗暗心惊	-10.1667
山下	-10.1667
二丐	-10.1667
谈论	-10.1667
门户	-10.1669
闭目	-10.1669
弯腰	-10.167
或许	-10.167
郭靖心想	-10.1671
南下	-10.1671
他胸口	-10.1671
饮酒	-10.1672
呼的一声	-10.1673
暗算	-10.1674
无穷	-10.1676
胸中	-10.1677
长索	-10.1678
心肠	-10.1679
牵着	-10.1684
决不会	-10.1687
一件事	-10.1692
大叫一声	-10.1694
师门	-10.1698
抓住了	-10.1698
隐居	-10.1698
毒针	-10.1702
天罡北斗阵	-10.1703
显然	-10.1709
一副	-10.1709
剑刃	-10.1713
牛肉	-10.1717
对杨过	-10.1719
写的	-10.1719
答话	-10.1726
一颗	-10.1727
父女	-10.1728
三字	-10.1731
六七	-10.1734
大师兄	-10.1735
妹妹	-10.1736
自己也	-10.1736
递给	-10.1743
所说	-10.1745
有意	-10.1746
珠	-10.175
方位	-10.175
这种	-10.1757
每人	-10.1766
饶是	-10.1768
盼望	-10.1768
瞒	-10.1772
同去	-10.1774
金人	-10.1779
畔	-10.1781
但见她	-10.1787
遇上了	-10.1797
去啦	-10.1806
颗	-10.1813
气息	-10.1815
了不少	-10.1815
得他	-10.1817
▁陆冠英	-10.1818
半分	-10.1821
不解	-10.1824
的招数	-10.1833
震得	-10.1833
学得	-10.1836
向下	-10.1837
便有	-10.184
特	-10.1849
知道了	-10.1851
在此处	-10.1853
便似	-10.1853
他知	-10.1855
轻声	-10.1856
使得	-10.186
老头儿	-10.1861
尸	-10.1867
钢	-10.1868
不迟	-10.1873
景	-10.1881
法子	-10.1881
不开	-10.1881
砖	-10.1883
杀我	-10.1884
我师	-10.1884
糟	-10.1885
烦	-10.1886
辩	-10.1887
兽	-10.1887
不放	-10.1888
溅	-10.1889
铜	-10.189
吵	-10.1891
魂	-10.1891
仁	-10.1891
握着	-10.1891
桥	-10.1892
彭	-10.1892
赔	-10.1893
琢磨	-10.1893
工	-10.1893
畅	-10.1893
末	-10.1893
谦	-10.1893
北斗阵	-10.1893
逾	-10.1893
呆呆出神	-10.1893
呛啷	-10.1893
克制	-10.1894
现今	-10.1894
顷刻间	-10.1894
侠义	-10.1894
一拂	-10.1895
玉蜂针	-10.1895
方始	-10.1895
不多时	-10.1896
口诀	-10.1897
蒙古大军	-10.1898
温柔	-10.1902
腰带	-10.1904
极大	-10.1906
领会	-10.191
荒山	-10.191
打扮	-10.191
内劲	-10.1911
好在	-10.1912
了罢	-10.1914
出洞	-10.1916
物事	-10.192
侧头	-10.1921
哪能	-10.1922
挺剑	-10.1924
放开	-10.1926
向右	-10.1929
走上	-10.1929
变招	-10.1933
情意	-10.1933
语声	-10.1938
便将	-10.1939
依着	-10.1941
挡开	-10.1941
洞中	-10.1944
哪知他	-10.1946
重大	-10.1947
就会	-10.1948
金针	-10.1958
你想	-10.196
喊	-10.1963
万万	-10.1968
不顾	-10.1972
决无	-10.1977
竟似	-10.1979
太湖	-10.1981
武功了得	-10.1984
不等	-10.199
传了	-10.2003
大将	-10.2016
十倍	-10.2025
避过	-10.2027
让你	-10.2028
守在	-10.2034
大大	-10.2035
也不是	-10.2036
只想	-10.2046
刃	-10.2054
免	-10.206
多年	-10.2065
定会	-10.2082
抢过	-10.2086
温	-10.2087
▁杨过见	-10.2089
爷	-10.2092
埋	-10.2101
柴	-10.2102
秋	-10.2102
宁	-10.2106
扮	-10.2106
不定	-10.2109
驴	-10.211
遵	-10.2114
绣	-10.2114
挥手	-10.2115
让她	-10.2118
伯伯	-10.2118
颜	-10.2118
烈	-10.2118
筋	-10.2119
这样的	-10.2119
痴	-10.212
冤	-10.2121
是我的	-10.2121
肿	-10.2123
哀	-10.2123
污	-10.2124
秦	-10.2124
苍	-10.2124
猪	-10.2125
某	-10.2125
拦阻	-10.2126
干净	-10.2127
教训	-10.2129
呆	-10.2131
二十年	-10.2131
巨响	-10.2135
除非	-10.2137
我也不	-10.2139
就只	-10.2139
东边	-10.2139
仗着	-10.214
杨二人	-10.2141
父子	-10.2143
金刀	-10.2143
使者	-10.2158
只消	-10.2159
正面	-10.2163
我可	-10.2169
我只	-10.2172
不大	-10.2173
笑容	-10.2174
相信	-10.2175
诸人	-10.2177
甚多	-10.2181
死后	-10.2187
之一	-10.219
往往	-10.2192
点穴	-10.2193
将这	-10.2198
又怎	-10.2214
送给	-10.2232
拱手	-10.2237
老子	-10.2237
几日	-10.2241
再打	-10.2252
撑	-10.2256
作为	-10.2262
纵横	-10.2264
不让	-10.227
了一顿	-10.2277
要去	-10.2278
换了	-10.2278
果然是	-10.228
▁武三通	-10.2291
化解	-10.2292
让开	-10.2292
便能	-10.2292
休	-10.2294
智	-10.2295
高声	-10.2297
田	-10.2313
安排	-10.2316
郭靖见	-10.2322
雷	-10.2326
一处	-10.2329
就不	-10.2333
技	-10.2336
怜	-10.2337
统	-10.2337
权	-10.2342
访	-10.2349
定神	-10.2355
料得	-10.2355
可别	-10.2356
鲜	-10.2358
翅	-10.2358
丽	-10.236
忠	-10.236
诱	-10.236
贪	-10.2361
矣	-10.2363
驼	-10.2363
咳	-10.2363
刘	-10.2363
不动声色	-10.2364
了半天	-10.2364
烤	-10.2364
继续	-10.2364
折磨	-10.2364
摇了摇头	-10.2365
偷袭	-10.2365
格格	-10.2366
从未见过	-10.2366
又惊又怒	-10.2367
经历	-10.2367
凝目	-10.2367
你老人家	-10.2367
最是	-10.2368
说罢	-10.2368
狂奔	-10.2369
手帕	-10.2369
便宜	-10.237
体内	-10.2372
师母	-10.2373
二武	-10.2376
阵势	-10.2377
观看	-10.2379
灵动	-10.238
与自己	-10.2382
一株	-10.2385
六个	-10.2388
▁黄蓉笑	-10.2392
茅屋	-10.2394
一震	-10.2395
本门	-10.2395
此言	-10.2401
时时	-10.2406
两下	-10.2406
称为	-10.2413
拍出	-10.2414
好人	-10.2417
走得	-10.2419
可说	-10.2423
眼见他	-10.243
他身子	-10.2434
左脚	-10.2435
晓	-10.2437
一跃	-10.2442
得出	-10.2448
的法门	-10.2451
了吗	-10.2455
了上去	-10.2459
长老	-10.2461
快说	-10.2465
这女子	-10.2476
俩	-10.2485
的东西	-10.2487
结成	-10.2488
共有	-10.2491
触	-10.2494
的儿子	-10.2497
跨	-10.2499
本是	-10.2512
的言语	-10.2518
如飞	-10.2523
坏了	-10.2526
招招	-10.2529
升	-10.2532
据	-10.2535
平平	-10.2539
撞在	-10.2542
椅	-10.2544
忌	-10.2545
到此处	-10.2554
途	-10.2555
出神	-10.2556
相隔	-10.2561
矛	-10.2561
午	-10.2567
拆了	-10.2576
使力	-10.2578
妹	-10.2581
氏	-10.2585
猎	-10.2586
在地	-10.2586
不算	-10.2586
可是他	-10.2588
挟	-10.259
族	-10.2601
恭	-10.2602
鞑子	-10.2604
俊	-10.2606
琴	-10.2607
顽皮	-10.2607
攀	-10.2607
敲	-10.2607
衰	-10.2607
撤	-10.2607
焦木	-10.2608
九指神丐	-10.2608
依稀	-10.2608
烟雨楼	-10.2608
空隙	-10.2609
的名头	-10.2611
蒙古武士	-10.2612
筷子	-10.2614
内息	-10.2615
气恼	-10.2617
治伤	-10.2621
老和尚	-10.2621
时日	-10.2626
袖子	-10.2627
和小龙女	-10.2631
陪着	-10.2634
径自	-10.2635
便算	-10.2637
骗人	-10.2646
皇宫	-10.2647
相同	-10.2649
三十	-10.2653
左肩	-10.2656
只剩下	-10.2656
相似	-10.2658
可不	-10.2658
五六	-10.266
一套	-10.2664
▁郭靖见	-10.2667
大海	-10.2668
▁彭连虎	-10.2671
回家	-10.2672
活着	-10.2674
难道你	-10.2675
真人	-10.2675
那边	-10.2678
又不	-10.269
数声	-10.2693
打到	-10.2702
字诀	-10.2708
▁这一	-10.2725
细看	-10.2725
脚步声响	-10.2729
不意	-10.2733
心事	-10.2733
一路上	-10.2738
看到	-10.2739
▁那少女	-10.2748
缚在	-10.2751
一脚	-10.2752
院	-10.2753
怎知	-10.2753
深厚	-10.2765
我再	-10.2776
转眼	-10.2779
脑	-10.2781
剧	-10.2781
却哪里	-10.2783
丐帮中	-10.2787
他虽	-10.2788
飞步	-10.2791
才好	-10.2794
捧	-10.2799
扑上	-10.2802
见那	-10.2803
是为了	-10.2809
裹	-10.2823
你既	-10.2824
舱	-10.2828
见到了	-10.2829
几天	-10.2834
老僧	-10.2842
净	-10.2843
自小	-10.2843
说些甚么	-10.2844
放手	-10.2846
焦	-10.285
置	-10.285
讯	-10.2852
获	-10.2855
规	-10.2856
兜	-10.2856
嘿	-10.2856
懒	-10.2857
小丫头	-10.2857
献	-10.2857
枕	-10.2857
盆	-10.2857
耕	-10.2857
姊妹	-10.2858
完颜洪熙	-10.2858
女婿	-10.2859
昔日	-10.2859
良机	-10.286
经脉	-10.2861
神智	-10.2861
二来	-10.2863
神功	-10.2867
宁可	-10.2872
舞动	-10.2872
这位姑娘	-10.2872
揭开	-10.2872
怪人	-10.2878
电	-10.2883
到得	-10.2886
将士	-10.2887
乘着	-10.2897
帮手	-10.2899
▁二人	-10.2899
任何	-10.2904
肘	-10.2904
一匹	-10.2918
有一个	-10.292
这两人	-10.2921
好心	-10.2921
去瞧瞧	-10.2934
彭连虎等	-10.2944
两年	-10.2958
援	-10.2959
▁三人	-10.2959
用功	-10.2961
事情	-10.2965
无所	-10.2968
时刻	-10.2969
一带	-10.2974
分手	-10.2977
赶去	-10.2989
坐在地下	-10.299
危急	-10.2999
送到	-10.2999
追去	-10.3005
抓去	-10.3006
不听	-10.3008
嗤的一声	-10.3018
再不	-10.3018
你把	-10.302
出声	-10.3021
十六年	-10.303
▁程英	-10.304
得手	-10.3047
黄金	-10.3049
念着	-10.3056
八个	-10.3072
也不过	-10.3075
驾	-10.3079
梁长老	-10.3083
抱了	-10.3085
项	-10.3087
好事	-10.3087
杀得	-10.3088
再问	-10.3092
或是	-10.3092
阁	-10.3099
貌	-10.3101
当晚	-10.3102
擅	-10.3102
催	-10.3103
患	-10.3104
户	-10.3106
唇	-10.3106
可要	-10.311
月光	-10.3112
疏	-10.3113
翠	-10.3113
戟	-10.3114
亢龙有悔	-10.3114
惊喜交集	-10.3114
桅杆	-10.3114
花剌子模	-10.3114
怜惜	-10.3114
阻拦	-10.3115
商量	-10.3115
突然之间	-10.3116
投降	-10.3116
狠狠	-10.3117
的对手	-10.3118
老弟	-10.3121
醒转	-10.3122
大骇	-10.3123
激斗	-10.3124
胜败	-10.3125
一派	-10.3127
剑术	-10.3129
指挥	-10.3133
怔怔的	-10.3135
桃花岛上	-10.3142
下杀手	-10.3151
攻击	-10.3151
海中	-10.3157
一字	-10.3163
众弟子	-10.3167
两兄弟	-10.3171
弟弟	-10.3181
打去	-10.3186
二师父	-10.319
的伤势	-10.3197
微一	-10.32
传给	-10.3202
当胸	-10.3203
拿去	-10.3204
绕过	-10.3211
只见那	-10.3212
坐骑	-10.3216
重剑	-10.3219
当先	-10.3219
荒	-10.3222
果真	-10.3225
大雪	-10.3241
华山论剑	-10.325
开口	-10.325
这条	-10.3257
小畜生	-10.3257
到底是	-10.3259
痛得	-10.3266
两头	-10.3274
逃命	-10.3278
军马	-10.3283
未免	-10.3294
对准	-10.3297
若有	-10.3303
左首	-10.3305
好意	-10.3305
你说甚么	-10.3305
这么说	-10.3309
逐	-10.331
抢了	-10.3313
丘处机等	-10.3322
嘶	-10.3323
这招	-10.3328
吃过	-10.3329
伤害	-10.3335
奔向	-10.3341
失手	-10.3348
面上	-10.3348
剪刀	-10.3349
瞧你	-10.3353
半个时辰	-10.3353
豹	-10.3362
怪不得	-10.3363
啸	-10.3363
留在	-10.3369
拒	-10.337
尹	-10.3373
冠	-10.3373
曰	-10.3373
一望	-10.3374
彼	-10.3375
纳	-10.3375
挖	-10.3375
涉	-10.3376
谨	-10.3376
蟀	-10.3376
驶	-10.3376
大不相同	-10.3376
绞	-10.3377
泉	-10.3377
吊	-10.3377
歪	-10.3377
嗔	-10.3377
弦	-10.3377
蠢	-10.3377
史氏兄弟	-10.3377
倦	-10.3377
王志坦	-10.3377
叫了声	-10.3377
鳄鱼	-10.3377
咽喉	-10.3378
僵尸	-10.3378
说不出的	-10.3378
偏偏	-10.338
西征	-10.338
牵了	-10.3381
招术	-10.3382
学艺	-10.3382
树皮	-10.3383
黑影	-10.3383
恰好	-10.3384
了开去	-10.3385
那马	-10.3386
反复	-10.3387
向旁	-10.3388
数月	-10.3391
顺势	-10.3394
已把	-10.3395
大敌	-10.3397
哪里还有	-10.3399
之仇	-10.3402
虫	-10.3403
老大	-10.3403
不休	-10.3405
心中一动	-10.3406
之计	-10.3417
将那	-10.3417
擒住	-10.3419
歌声	-10.3419
不知如何是好	-10.3421
杖头	-10.3429
钻出	-10.343
事先	-10.3433
转动	-10.3437
未能	-10.3438
厅上	-10.344
从小	-10.3447
跃入	-10.3454
一箭	-10.3454
也不怕	-10.3455
救我	-10.3455
够	-10.3461
听来	-10.3462
越来越是	-10.3464
拦	-10.3472
的情景	-10.3481
没甚么	-10.3486
取过	-10.3486
终是	-10.3487
你可	-10.3487
辛苦	-10.349
数里	-10.3497
稳稳	-10.3503
丐帮帮主	-10.3503
罩	-10.3503
稍有	-10.3504
十余丈	-10.3509
不远	-10.3511
诀	-10.3513
剑上	-10.3513
那大汉	-10.3516
枉	-10.3523
打听	-10.3523
眼珠	-10.3526
道姑	-10.3534
▁正	-10.3541
得快	-10.3542
在江湖上	-10.3552
怕他	-10.3553
不胜	-10.3554
麻	-10.3558
缺	-10.3568
今天	-10.357
晚上	-10.357
上台	-10.3579
与人	-10.3582
惊惶	-10.3582
城下	-10.3584
磕	-10.3586
平安	-10.3592
追上	-10.3599
她身子	-10.3599
这可	-10.3602
半句	-10.3603
童	-10.3617
一推	-10.3621
周伯通笑	-10.3624
七个	-10.3626
杨过和小龙女	-10.3626
他既	-10.3627
颤	-10.3629
水面	-10.363
以此	-10.3634
绊	-10.3635
猛听得	-10.3639
打死了	-10.3639
尔	-10.364
叫嚷	-10.3641
人马	-10.3642
郎	-10.3643
傲	-10.3643
欧阳	-10.3645
佩	-10.3645
我跟	-10.3645
医	-10.3646
炉	-10.3646
暖	-10.3647
价	-10.3647
比武招亲	-10.3647
程大小姐	-10.3647
出其不意	-10.3647
卸	-10.3647
芙妹	-10.3647
淋	-10.3647
胎	-10.3647
汗血宝马	-10.3647
谭处端	-10.3647
吕文德	-10.3647
惭愧	-10.3647
讯息	-10.3647
耶律晋	-10.3648
宋朝	-10.3648
禀报	-10.3649
收拾	-10.3649
竹杖	-10.365
蓦地	-10.3651
挡架	-10.3651
欧阳克笑	-10.3652
臭道士	-10.3652
虽在	-10.3654
每次	-10.3655
拚斗	-10.3656
这两句话	-10.3656
伸臂	-10.3656
留神	-10.3659
大喝一声	-10.366
追兵	-10.3664
攻城	-10.3669
再加上	-10.3672
的女子	-10.3681
两枚	-10.3681
用以	-10.3682
故事	-10.3683
武功高强	-10.3683
反击	-10.3684
在古墓中	-10.3685
家传	-10.3686
不像	-10.3686
在蒙古	-10.3695
攻打	-10.3698
领教	-10.3703
搂住	-10.3705
这一剑	-10.3706
蜜	-10.3707
热气	-10.3709
又怎能	-10.3712
不已	-10.3714
太阳	-10.3715
不待	-10.3717
问他	-10.3718
插在	-10.373
围攻	-10.3732
身手	-10.3739
数人	-10.3743
不敌	-10.3743
多少	-10.3749
创口	-10.375
▁樊一翁	-10.375
男	-10.3751
挥掌	-10.3762
放着	-10.3762
在意	-10.3771
大丈夫	-10.3775
家里	-10.3783
畜生	-10.3783
身披	-10.3784
和杨过	-10.3786
对面	-10.3788
真有	-10.379
是你的	-10.3794
的妻子	-10.3797
命他	-10.3797
见二人	-10.38
十四	-10.3804
用意	-10.3812
从中	-10.3822
一举	-10.3825
心中一	-10.3825
了一层	-10.3833
过的	-10.3837
心想这	-10.3838
也能	-10.3842
去势	-10.3844
好兄弟	-10.3845
的神色	-10.3849
十三	-10.3851
师兄弟	-10.3865
大树	-10.3866
劲风	-10.3867
还未	-10.3881
箫	-10.3882
允	-10.3882
拿住	-10.3883
小妹	-10.3884
幽	-10.3892
也会	-10.3892
纵声	-10.3894
但这	-10.3895
果见	-10.3898
公子	-10.3898
我给你	-10.3898
惜	-10.39
书房	-10.3902
和郭靖	-10.3902
月光下	-10.3905
这小	-10.3907
过了良久	-10.3908
能够	-10.3913
筷	-10.3914
一分	-10.3918
旋	-10.3919
之气	-10.3919
掀	-10.392
捕	-10.3921
摇晃	-10.3921
虑	-10.3923
乌	-10.3923
抄	-10.3924
犬	-10.3924
姿	-10.3924
九阴白骨爪	-10.3924
染	-10.3924
咕	-10.3925
掘	-10.3925
叫甚么名字	-10.3925
洪老帮主	-10.3925
钦佩	-10.3925
勿	-10.3925
阔	-10.3925
玄铁剑	-10.3925
荣	-10.3925
面面相觑	-10.3925
裘千丈	-10.3925
摘	-10.3925
老天爷	-10.3926
微一沉吟	-10.3926
背脊	-10.3926
锦帕	-10.3926
万人队	-10.3926
盘旋	-10.3927
索性	-10.3927
悄声	-10.3927
胆敢	-10.3927
门人	-10.3927
雕兄	-10.3928
他背心	-10.3928
老爷	-10.393
叹息	-10.3931
兼之	-10.3936
虽有	-10.3938
练武	-10.3941
羽箭	-10.3945
西边	-10.3945
腰里	-10.3946
丐帮弟子	-10.3949
胆子	-10.3949
花树	-10.3951
打伤	-10.3951
我姑姑	-10.3957
在手	-10.3958
这副	-10.3961
住手	-10.3962
挥剑	-10.3965
脑中	-10.397
给他们	-10.3971
猜到	-10.3973
下盘	-10.3976
毫无	-10.3979
咬住	-10.3979
不妨	-10.3984
亲手	-10.3986
你知道	-10.3987
胁下	-10.3988
本帮	-10.399
饭菜	-10.3992
派人	-10.3999
面子	-10.4
郭靖大喜	-10.4005
便走	-10.4006
官人	-10.4011
屋中	-10.4018
一层	-10.4018
见黄蓉	-10.4018
日间	-10.4021
一转	-10.4032
所有	-10.4032
雪地	-10.4034
一群	-10.4035
将下去	-10.4037
茫茫	-10.4043
这日	-10.4047
闯进	-10.4051
一队	-10.4056
大呼	-10.4056
分开	-10.406
兄弟俩	-10.4061
一抖	-10.4063
搂	-10.4067
太过	-10.4072
凡	-10.4073
余人	-10.4079
从来不	-10.4087
先后	-10.4088
辛	-10.409
▁梁子翁	-10.4092
进攻	-10.4093
早有	-10.4095
这时见	-10.4095
的心意	-10.4102
答应了	-10.4104
柳	-10.4114
可真	-10.4117
各有	-10.4118
愈是	-10.412
又是一	-10.4127
抱住了	-10.4131
又怕	-10.4136
表姊	-10.414
只听他	-10.4144
谁也	-10.4145
就可	-10.4145
片刻间	-10.4147
大会	-10.4148
自当	-10.4148
傻小子	-10.4158
潭	-10.4161
囊	-10.4166
传出	-10.4174
作甚	-10.418
有事	-10.4181
▁当下	-10.4182
也不必	-10.4186
我教	-10.4187
擒拿	-10.4188
没半点	-10.419
逃出	-10.4192
把这	-10.4194
愤	-10.4194
几乎	-10.4195
去路	-10.4197
默	-10.4198
玄	-10.4201
怎么办	-10.4203
僵	-10.4204
谋	-10.4208
后跃	-10.4208
情花之毒	-10.4209
贤	-10.4209
妄	-10.4209
支持	-10.421
耽	-10.421
史叔刚	-10.4211
无论如何	-10.4211
跃起身来	-10.4211
芦	-10.4211
拢	-10.4211
长叹一声	-10.4211
狼	-10.4211
啄	-10.4211
残废	-10.4211
迅速	-10.4211
霎时之间	-10.4211
脸上一红	-10.4213
毙命	-10.4214
平素	-10.4215
偷偷	-10.4216
小侄	-10.4216
奇特	-10.4216
号称	-10.4216
不中	-10.4216
算帐	-10.4217
嚷	-10.4218
危难	-10.4219
礼物	-10.4222
种种	-10.4223
母子	-10.4223
借力	-10.4226
插口	-10.4227
停留	-10.4228
黄姑娘	-10.4229
蛇杖	-10.4229
三尺	-10.423
鼻子	-10.4231
应声	-10.4231
爱女	-10.4233
白雪	-10.4235
甚是得意	-10.4236
使的是	-10.4239
两句	-10.4239
百倍	-10.4241
之手	-10.4242
寻找	-10.4243
明白了	-10.4244
害人	-10.4246
斗得	-10.4248
见是	-10.4252
欢呼	-10.4252
在桃花岛	-10.4253
烛火	-10.4254
相接	-10.4254
怒火	-10.4254
死活	-10.4259
右肩	-10.4259
宫中	-10.4263
写着	-10.4263
抛下	-10.4266
那少妇	-10.4266
跟前	-10.4268
杀手	-10.427
了一遍	-10.4277
爬上	-10.4278
淡淡的	-10.4282
损伤	-10.4282
甘	-10.4283
听他说	-10.4286
轰	-10.4289
不得不	-10.4291
潇湘子等	-10.4291
大仇	-10.4294
免得	-10.4295
变成了	-10.4296
人多	-10.4297
白发	-10.4298
身份	-10.4306
之理	-10.4308
两次	-10.4309
撕下	-10.4316
再看	-10.4321
为之	-10.4327
好不	-10.4328
俏	-10.4328
着了	-10.4335
难当	-10.4339
足下	-10.4346
在此时	-10.4347
瞧不出	-10.4349
瞧她	-10.435
练了	-10.435
三天	-10.4353
一臂	-10.4355
于此	-10.4358
放眼	-10.4365
真心	-10.4365
的手掌	-10.4368
口气	-10.4381
惊呼	-10.4384
尹志平道	-10.4384
他心中	-10.4387
都说	-10.4388
瞧在	-10.4395
个筋斗	-10.4396
是非	-10.4401
▁这一下	-10.4404
一味	-10.4406
紧急	-10.4409
加害	-10.441
的少年	-10.441
帮中	-10.4412
起初	-10.4419
始	-10.4422
竟无	-10.4434
将过去	-10.4441
凑	-10.4442
害死了	-10.4443
丐帮的	-10.4444
兄妹	-10.4445
的地方	-10.4451
这和尚	-10.4453
你这般	-10.4454
练得	-10.4454
烛	-10.4455
三步	-10.4455
伸手在	-10.4461
秃	-10.4468
竟被	-10.447
不闻	-10.4475
以及	-10.4477
▁杨过心想	-10.4482
渔人	-10.4483
这二人	-10.4486
肠	-10.4487
那女郎	-10.4487
天下英雄	-10.4493
斧	-10.4494
蛋	-10.4494
本想	-10.4496
慌	-10.4498
几招	-10.4499
京	-10.45
梅	-10.45
帝	-10.4501
所授的	-10.4502
一段	-10.4503
业	-10.4503
占上风	-10.4504
唐	-10.4504
碧	-10.4504
政	-10.4504
深湛	-10.4504
怯	-10.4504
肌肉	-10.4505
意料之外	-10.4505
韩	-10.4505
放声大哭	-10.4505
枣核钉	-10.4505
恭恭敬敬的	-10.4505
冰魄银针	-10.4506
较量	-10.4506
惶急	-10.4507
黑衣僧	-10.4507
已到	-10.451
十余年来	-10.451
不堪	-10.451
楼梯	-10.451
安答	-10.4511
第一次	-10.4511
尚且	-10.4511
高明	-10.4512
马匹	-10.4513
更增	-10.4515
宋军	-10.4515
驴子	-10.4516
虎口	-10.4517
吃亏	-10.4517
猛地里	-10.4517
睡觉	-10.4517
两件	-10.4517
精兵	-10.4518
瞎子	-10.4519
大侠	-10.4521
七子	-10.4522
一颗心	-10.4522
推举	-10.4524
蜜蜂	-10.4525
敌兵	-10.453
三次	-10.453
一来	-10.4534
半边	-10.4535
十余招	-10.4536
一把抓住	-10.4537
却无	-10.4548
从来没	-10.4549
瞧我	-10.4557
一部	-10.456
大感	-10.4572
没人	-10.4573
我自然	-10.4575
提着	-10.4577
蒙古兵将	-10.4582
眼望	-10.4584
不够	-10.4592
一撑	-10.4592
转了	-10.4595
教人	-10.4595
其后	-10.4602
没事	-10.4603
大功	-10.4603
船上	-10.4604
亲热	-10.4604
想着	-10.461
斜眼	-10.4612
如风	-10.4615
石棺	-10.4617
义弟	-10.4619
与黄药师	-10.4628
后院	-10.4629
我把	-10.4631
公公	-10.4631
那老妇	-10.4638
只求	-10.464
一杯	-10.4644
的掌力	-10.4644
一酸	-10.4645
▁韩小莹	-10.4646
已从	-10.4657
说的是	-10.4657
拆解	-10.4658
店伴	-10.4659
手段	-10.4663
内伤	-10.4667
师祖	-10.467
出城	-10.4673
来救	-10.4676
后颈	-10.4676
痛快	-10.4697
地步	-10.4706
毒药	-10.4711
一命	-10.4714
经中	-10.4718
了一下	-10.472
我不知道	-10.4721
劲急	-10.4724
抽出	-10.4725
▁耶律齐	-10.4725
道家	-10.4725
话声	-10.4726
击去	-10.4728
尤	-10.4734
他手	-10.4736
退出	-10.4736
际	-10.4738
滴	-10.4738
见这	-10.4747
好处	-10.4747
不行	-10.475
过得	-10.4754
却仍是	-10.4754
一摆	-10.4758
房门	-10.476
认出	-10.4767
可是我	-10.4768
三弟	-10.4772
围住	-10.4773
济	-10.4779
下令	-10.4781
四位	-10.4783
臣	-10.4783
交手	-10.4785
两根	-10.4786
将郭靖	-10.4788
学武	-10.4789
教了	-10.4792
兄长	-10.4796
蹄声	-10.4797
将自己	-10.4799
樵	-10.4799
酣	-10.4799
昂	-10.4801
锤	-10.4804
的内功	-10.4805
枯	-10.4805
粉	-10.4805
附	-10.4805
章	-10.4806
源	-10.4806
狐	-10.4806
继	-10.4806
掳	-10.4807
哨	-10.4807
霜	-10.4807
享	-10.4807
冯铁匠	-10.4808
寡	-10.4808
墨	-10.4808
贯	-10.4808
不耐烦	-10.4808
抑	-10.4808
钻研	-10.4808
芳	-10.4808
简管家	-10.4808
岳父	-10.4808
胜于	-10.4808
著	-10.4808
好奇心起	-10.4808
金娃娃	-10.4809
忠义	-10.4809
对郭靖	-10.4809
木筏	-10.481
察觉	-10.481
手执	-10.481
布置	-10.481
暂且	-10.481
神雕大侠	-10.481
数十丈	-10.4811
隐约	-10.4812
双轮	-10.4812
王旗	-10.4812
千户	-10.4812
软鞭	-10.4813
巧妙	-10.4813
尊师	-10.4814
焉能	-10.4814
对头	-10.4814
威猛	-10.4815
不要脸	-10.4816
木棒	-10.4818
聚会	-10.4822
变色	-10.4822
猛恶	-10.4825
大叔	-10.4826
以防	-10.4828
走啦	-10.4828
扇子	-10.4829
营帐	-10.4829
远不及	-10.483
马道长	-10.4831
份	-10.4834
跃到	-10.4836
扶住	-10.4838
随口	-10.4838
正色	-10.4839
活命	-10.484
尚在	-10.484
飘飘	-10.484
猛击	-10.484
运功	-10.4841
呆了半晌	-10.4841
途中	-10.4843
长须	-10.4845
寒玉床	-10.4847
袭击	-10.4853
马背	-10.4858
想不出	-10.4859
了七八	-10.486
王府	-10.4864
嗤嗤	-10.4865
▁公孙绿萼	-10.4865
▁郭靖心想	-10.4865
真相	-10.4873
半身	-10.4875
找不到	-10.488
胡说	-10.4883
瞧来	-10.4885
来得	-10.4888
▁便在此	-10.4893
学了	-10.4894
竟将	-10.4909
疾冲	-10.4913
一提	-10.4913
一撞	-10.4916
剑锋	-10.493
自有	-10.4932
等到	-10.494
过人	-10.4941
瞧不见	-10.4952
饿	-10.4955
身畔	-10.4957
松手	-10.4963
缓步	-10.4972
我跟你	-10.4981
提到	-10.5001
刚好	-10.5005
打中	-10.5007
大理	-10.5008
道袍	-10.5009
写了	-10.5012
一紧	-10.5017
号角	-10.5018
难道我	-10.5023
小孩儿	-10.5025
所见	-10.5028
你不用	-10.5033
日子	-10.5042
闪身	-10.5044
辣	-10.5045
的脸	-10.5047
恶人	-10.5055
实非	-10.5058
猛向	-10.5066
回转	-10.5067
飞奔	-10.5069
奸贼	-10.5075
留着	-10.5075
大小	-10.5076
喷出	-10.5076
自称	-10.5088
二道	-10.5095
转念一想	-10.5097
都有	-10.5103
潮	-10.5106
掌上	-10.5108
知是	-10.511
伸指	-10.5112
左侧	-10.5113
怎么会	-10.5116
朗	-10.5117
池	-10.5117
磨	-10.5118
棍	-10.5118
拗	-10.5119
宣	-10.5119
乞	-10.5119
丁	-10.5119
夕	-10.5119
宾	-10.5119
孝	-10.5119
屁股	-10.512
侯	-10.512
无可奈何	-10.512
绑	-10.512
窝	-10.512
喝彩	-10.512
全真五子	-10.512
盲	-10.512
吉	-10.512
此言一出	-10.512
逊	-10.512
狮	-10.512
仅	-10.512
双颊	-10.5121
恨恨的	-10.5121
雌雕	-10.5121
商议	-10.5121
焦躁	-10.5121
万料不到	-10.5122
牛鼻子	-10.5122
支持不住	-10.5122
常言道	-10.5123
向后跃开	-10.5123
竭力	-10.5124
小小年纪	-10.5124
不打紧	-10.5125
此番	-10.5131
齿	-10.5131
三位	-10.5131
外公	-10.5131
修练	-10.5132
应付	-10.5133
点儿	-10.5133
大门	-10.5133
布袋	-10.5134
威风	-10.5134
抱拳	-10.5134
误会	-10.5135
撒手	-10.5138
冲出	-10.5139
之所	-10.5139
未到	-10.5143
养伤	-10.5145
照料	-10.5149
南方	-10.515
难分	-10.5152
拦住	-10.5153
对敌	-10.5156
与李莫愁	-10.5159
兵马	-10.5164
快活	-10.5166
一千	-10.5167
爹爹妈妈	-10.5167
加劲	-10.5171
脸现	-10.5173
坏人	-10.5173
身分	-10.5179
竟没	-10.518
尽力	-10.5181
上岸	-10.5182
一记	-10.5191
▁郭靖与黄蓉	-10.5191
斩断	-10.5194
呆了	-10.521
出家	-10.521
前去	-10.5213
哪一个	-10.5213
救他	-10.5215
一个是	-10.5218
之念	-10.5219
这门	-10.5221
灭了	-10.5226
快来	-10.5228
后退	-10.5229
无用	-10.5237
要来	-10.5238
▁眼见	-10.5245
又没	-10.5246
石上	-10.5246
前胸	-10.5247
一个大	-10.5253
不见了	-10.5256
有甚么好	-10.5258
与欧阳锋	-10.5259
多半是	-10.5263
撞去	-10.5265
大汉	-10.5267
生得	-10.5268
待你	-10.5277
岂有	-10.5278
道爷	-10.5282
决非	-10.5285
铁桨	-10.5288
日夜	-10.529
小心了	-10.531
食指	-10.5314
的么	-10.5316
抢出	-10.5319
在外	-10.532
非但	-10.5322
就能	-10.5336
来不及	-10.5337
近身	-10.534
了大半	-10.5341
实在太	-10.5346
却听得	-10.5348
的孩子	-10.5352
伐	-10.5358
一门	-10.5365
就这么	-10.5366
婆	-10.5375
十九	-10.539
却有	-10.5391
吼	-10.5392
益	-10.5393
出了一	-10.5396
虽只	-10.5403
轿	-10.5407
表妹	-10.5418
杀了他	-10.5421
谁都	-10.5422
蜂	-10.5425
起疑	-10.5425
兼	-10.5429
拾	-10.5432
纷	-10.5433
挂念	-10.5434
距	-10.5438
态	-10.544
质	-10.544
谷底	-10.5441
莲	-10.5441
暂	-10.5442
敝	-10.5442
脚上	-10.5442
贺	-10.5442
锁	-10.5442
钓	-10.5442
寿	-10.5442
疯疯癫癫	-10.5443
锅	-10.5443
诀窍	-10.5443
返	-10.5443
陆家庄	-10.5443
冻	-10.5443
渡	-10.5443
鲁长老	-10.5444
史孟捷	-10.5444
钢针	-10.5444
及得上	-10.5444
又惊又	-10.5444
舒服	-10.5445
酒菜	-10.5445
戏弄	-10.5445
尸首	-10.5446
忽尔	-10.5447
金银	-10.5447
惊惧	-10.5448
胜负	-10.5449
摇摇头	-10.5449
杨家	-10.5454
抖动	-10.5455
我可不	-10.5455
竟敢	-10.5459
黑衣	-10.5459
动弹	-10.5459
小僧	-10.546
情由	-10.5461
神妙	-10.5461
怎敢	-10.5462
当场	-10.5463
携手	-10.5463
三名	-10.5463
今后	-10.5465
也非	-10.5466
告知	-10.5468
何不	-10.5468
去世	-10.5469
文字	-10.547
喉头	-10.5474
必然	-10.5476
下毒手	-10.5477
却听	-10.5482
却没	-10.5484
对答	-10.5484
刻着	-10.5487
惊奇	-10.5487
丐	-10.549
平常	-10.5491
当此	-10.5494
七日	-10.5496
▁穆易	-10.5498
气得	-10.5504
耳中	-10.5505
那晚	-10.5509
似有	-10.551
之徒	-10.551
究竟	-10.5515
桃花岛的	-10.5519
拍拍	-10.5521
赶上	-10.5522
因而	-10.5525
明天	-10.5529
必能	-10.5529
▁陆庄主	-10.5541
已到了	-10.5542
一扯	-10.5545
花丛	-10.5546
缓缓的	-10.5546
招手	-10.5547
个圈子	-10.5554
的尸身	-10.5563
的踪迹	-10.5563
多说	-10.5565
难道还	-10.5566
墓门	-10.5566
当地	-10.5572
一堆	-10.5582
徒弟	-10.5605
三只	-10.5608
床上	-10.5615
没能	-10.5616
远远的	-10.562
面具	-10.5627
一响	-10.563
解救	-10.5631
现出	-10.5633
吃的	-10.5642
是天下	-10.5644
伸手去	-10.5651
呆呆	-10.5651
十六	-10.5654
一个个	-10.5655
将起来	-10.5656
接了	-10.5658
练过	-10.5678
墙头	-10.5683
更有	-10.5684
立时便	-10.5685
限	-10.5687
跟在	-10.569
都要	-10.569
三年	-10.5697
死人	-10.5698
刺死	-10.5698
远去	-10.5701
得过	-10.5704
小腿	-10.5711
你干么	-10.5712
腹中	-10.5718
想起自己	-10.572
别再	-10.5725
有这等	-10.5732
传你	-10.5734
全都	-10.5746
厉声喝	-10.5747
到这里	-10.5747
自如	-10.5749
却也是	-10.5758
法王等	-10.576
肩上	-10.5761
老儿	-10.5762
小姐	-10.5762
类	-10.5763
之士	-10.5766
一边	-10.5766
适	-10.5769
就没	-10.577
去救	-10.5773
既不	-10.5773
以前	-10.5774
议	-10.5774
蹲	-10.5774
帖	-10.5775
▁忽听得	-10.5775
流下泪来	-10.5775
儒	-10.5776
慕	-10.5776
操	-10.5776
弹指神通	-10.5776
滋味	-10.5776
镜	-10.5776
杨龙二人	-10.5776
自言自语	-10.5776
提了	-10.5777
英雄大宴	-10.5777
黑暗之中	-10.5777
畏惧	-10.5777
沾	-10.5777
木华黎	-10.5777
姿式	-10.5777
剥	-10.5777
面颊	-10.5777
丈许	-10.5777
宝贝	-10.5777
秘诀	-10.5777
拐杖	-10.5777
身躯	-10.5777
那也罢了	-10.5777
我师哥	-10.5777
霎时间	-10.5777
硬生生	-10.5778
根基	-10.5778
到头来	-10.5778
展开轻功	-10.5779
领悟	-10.5779
计较	-10.5779
无伦	-10.5779
附近	-10.5779
冰凉	-10.5779
可怖	-10.578
半尺	-10.5781
千万不可	-10.5782
身材	-10.5782
热血	-10.5782
那老人	-10.5783
举止	-10.5784
毒计	-10.5785
数寸	-10.5786
取了	-10.5787
变故	-10.5788
这么大	-10.5789
之类	-10.579
七位	-10.5791
眉头	-10.5792
以免	-10.5792
打量	-10.5793
鞋子	-10.5793
与你	-10.5793
神像	-10.5793
只吓得	-10.5795
护身	-10.5795
小辈	-10.5797
七怪	-10.5797
勒马	-10.58
小艇	-10.58
所授	-10.58
左边	-10.5801
怒目	-10.5804
述说	-10.5805
用劲	-10.581
追击	-10.581
不妥	-10.5812
两个人	-10.5813
他身后	-10.5816
家数	-10.5816
清水	-10.5819
二字	-10.5821
敬重	-10.5821
一惊之下	-10.5821
又听	-10.5823
跌落	-10.5824
几位	-10.5825
▁那书生	-10.5828
向自己	-10.583
夺回	-10.5833
遗书	-10.5833
暗暗好笑	-10.5836
三声	-10.5837
军官	-10.5839
溪水	-10.584
半天	-10.5845
最多	-10.5846
回手	-10.5847
自觉	-10.5851
急叫	-10.5852
容情	-10.5853
生日	-10.5857
小孔	-10.5859
余下	-10.586
谁说	-10.586
每日	-10.5866
是为	-10.5866
上乘	-10.5868
绝顶	-10.5868
加上	-10.5871
正当	-10.5875
猛往	-10.5876
射去	-10.5877
千人	-10.5889
光闪闪	-10.5889
均有	-10.589
饶你	-10.5893
石梁	-10.5896
折了	-10.5902
从来	-10.5912
定有	-10.5912
学会了	-10.5914
齐上	-10.5914
杨过与小龙女	-10.5916
想想	-10.5916
▁忽必烈	-10.5921
的说话	-10.5928
在桌上	-10.5932
击出	-10.5935
等等	-10.594
玉箫	-10.5952
不停	-10.5955
威名	-10.5957
懂得	-10.5958
自己性命	-10.5958
也不知道	-10.5966
掌中	-10.5968
一会儿	-10.5968
之至	-10.5969
深知	-10.5969
想到了	-10.5969
躺在	-10.5971
零	-10.5979
哪里有	-10.5979
姓名	-10.5983
全不	-10.5988
眼前一	-10.5989
西藏	-10.599
好教	-10.5991
众人都	-10.6001
放入	-10.6004
打败	-10.6004
打倒	-10.6006
四五	-10.6015
逐一	-10.6017
淡淡一	-10.6022
老是	-10.6024
城门	-10.6026
当头	-10.6027
挣	-10.6029
着急	-10.6036
但不知	-10.6037
接住	-10.6039
笑着	-10.6041
向黄药师	-10.6043
大半	-10.6043
也没甚么	-10.6049
学会	-10.6051
这部	-10.6055
但郭靖	-10.6058
勒	-10.6071
不喜	-10.6072
一般的	-10.6074
碑	-10.6081
供	-10.6082
但此时	-10.6082
到哪里	-10.6085
有几	-10.6088
来此	-10.6099
喘	-10.6099
不轻	-10.61
不尽	-10.6102
婚	-10.6103
昔	-10.6105
锦	-10.6111
料到	-10.6111
焉	-10.6113
诈	-10.6114
橱	-10.6115
充	-10.6117
拐	-10.6117
恋	-10.6117
疲	-10.6118
未及	-10.6119
舒	-10.6119
牢	-10.6119
逝	-10.6119
朝廷	-10.6119
拙	-10.612
狡	-10.612
翼	-10.6121
灌	-10.6121
武穆遗书	-10.6121
寨主	-10.6121
叠	-10.6121
暗暗称奇	-10.6121
夸	-10.6121
搁	-10.6121
嘛	-10.6121
潇洒	-10.6121
革	-10.6121
漏	-10.6121
冬	-10.6122
境界	-10.6122
凌空	-10.6122
铜尸	-10.6122
欧阳先生	-10.6122
兰	-10.6122
顷刻之间	-10.6122
利器	-10.6123
解释	-10.6123
包裹	-10.6123
特异	-10.6123
旗杆	-10.6124
枯木	-10.6124
王真人	-10.6124
吐露	-10.6125
赵王府	-10.6125
说不出话来	-10.6126
士卒	-10.6126
黄蓉叹	-10.6128
不测	-10.6129
弓箭	-10.6129
清清楚楚	-10.6129
已无	-10.6129
阴毒	-10.6131
苦思	-10.6131
身不由主的	-10.6132
凝视着	-10.6133
十余里	-10.6134
转念	-10.6135
里许	-10.6136
来回	-10.6137
今儿	-10.6137
看出	-10.6138
连环	-10.6138
不爱	-10.6141
现身	-10.6142
传令	-10.6144
坟墓	-10.6144
男人	-10.6147
在身上	-10.6152
感诧异	-10.6155
普天下	-10.6156
双双	-10.6164
只要你	-10.617
几时	-10.617
他手腕	-10.6171
割断	-10.6173
一翻	-10.6179
这功夫	-10.618
却在	-10.6183
何时	-10.6183
同行	-10.6187
匹马	-10.6191
随后	-10.6193
好容易	-10.62
向南	-10.6202
射出	-10.6202
不知她	-10.6204
恶毒	-10.6205
再见	-10.6206
三枚	-10.6209
帐外	-10.6211
一麻	-10.6216
八人	-10.6217
一个时辰	-10.6217
的伤	-10.622
水底	-10.6226
▁马钰	-10.623
这老儿	-10.6231
料来	-10.6231
往事	-10.6233
不知是	-10.6235
忽然想起	-10.6236
陷入	-10.6236
这时听	-10.6236
撞击	-10.6239
马鞭	-10.624
别让	-10.6241
二百	-10.6243
这声音	-10.6243
尽头	-10.625
年幼	-10.6254
也自	-10.6257
自尽	-10.6261
▁完颜萍	-10.6264
去见	-10.6265
响亮	-10.6274
对准了	-10.6275
一生之中	-10.6277
帐中	-10.628
向内	-10.6281
两响	-10.6282
在他身上	-10.6286
跪倒	-10.6288
右边	-10.6292
个大	-10.6294
老头	-10.6297
贴	-10.6305
到哪里去	-10.6305
但随即	-10.6306
中都	-10.6307
的意思	-10.6309
大金	-10.631
无事	-10.6312
请问	-10.6317
竟已	-10.632
大祸	-10.6324
拳头	-10.6328
问我	-10.6332
奔来	-10.6335
身在	-10.6344
得起	-10.6346
上当	-10.6347
奔上	-10.6348
受了伤	-10.6348
团	-10.6349
一按	-10.635
坐了	-10.6352
下风	-10.6353
记挂	-10.6354
▁韩宝驹	-10.6358
探头	-10.636
说笑	-10.6363
老者	-10.6369
极大的	-10.6372
地上	-10.6372
缠住	-10.6382
作了	-10.64
瞧那	-10.6403
要她	-10.6406
靠在	-10.6406
万里	-10.6407
也不肯	-10.641
倒有	-10.6416
送来	-10.642
大乱	-10.642
半夜	-10.6423
内堂	-10.6426
日久	-10.6437
之毒	-10.6439
▁就在	-10.6443
曲三	-10.6443
木剑	-10.6445
老贼	-10.645
若再	-10.6451
的厉害	-10.6452
付	-10.6454
传到	-10.6454
你便	-10.6455
所说的	-10.6456
沿	-10.6462
察	-10.6464
凝视	-10.6471
变幻	-10.6471
叛	-10.6472
拟	-10.6472
僻	-10.6474
跌下	-10.6474
勤	-10.6474
趋	-10.6474
旁观	-10.6475
壶	-10.6475
武士	-10.6475
繁	-10.6476
屠	-10.6477
绘	-10.6477
耶律楚材	-10.6477
奶	-10.6477
藤	-10.6478
狡猾	-10.6478
艳	-10.6478
髅	-10.6478
纠缠	-10.6478
全真诸子	-10.6478
九花玉露丸	-10.6478
侣	-10.6478
一模一样	-10.6478
得干干净净	-10.6478
手忙脚乱	-10.6478
霞	-10.6478
拭	-10.6478
空明拳	-10.6478
祝	-10.6479
奸臣	-10.6479
手下留情	-10.6479
肋骨	-10.6479
轻飘飘的	-10.6479
抢攻	-10.6479
一言不发	-10.6479
蓝	-10.6479
但那	-10.6479
南海神尼	-10.6479
加快脚步	-10.6479
痛楚	-10.648
秀眉	-10.648
勉力	-10.648
噗的一声	-10.648
挣脱	-10.648
服侍	-10.6481
群兽	-10.6481
杆棒	-10.6482
欧阳锋笑	-10.6482
转眼间	-10.6482
巨钟	-10.6483
垂下	-10.6484
瓷瓶	-10.6484
双眉	-10.6484
横卧	-10.6484
郭靖笑	-10.6485
干系	-10.6486
颤动	-10.6486
铁钉	-10.6487
迎接	-10.6487
暗暗叫苦	-10.6489
看清楚	-10.649
远胜于	-10.6492
石屋	-10.6492
发抖	-10.6493
皇后	-10.6493
你是谁	-10.6493
足底	-10.6496
幼小	-10.6496
尽管	-10.6498
怪蛇	-10.65
三十六	-10.6501
大惊之下	-10.6501
起伏	-10.6504
夹击	-10.6504
众位	-10.6506
嘴里	-10.6507
雪白	-10.6508
等他	-10.6508
是从	-10.651
携着	-10.651
柔和	-10.6514
山东	-10.6515
极少	-10.6516
破解	-10.6519
有关	-10.652
奸人	-10.6521
崖顶	-10.6526
送命	-10.6526
伤痛	-10.6526
做甚么	-10.6531
真情	-10.6531
天上	-10.6532
轻重	-10.6535
几口	-10.6537
数万	-10.654
两旁	-10.6546
四个人	-10.6546
架开	-10.6546
说甚么也	-10.6548
记着	-10.655
长刀	-10.6553
全凭	-10.6555
为师	-10.6556
缚住	-10.6556
醒来	-10.6558
的背影	-10.6558
这样一个	-10.6565
见小龙女	-10.6575
两家	-10.6575
不分	-10.6581
关心	-10.6582
来着	-10.6583
完了	-10.6586
记起	-10.6599
极高	-10.6603
扑去	-10.6606
部下	-10.6611
交出	-10.6613
哪知道	-10.6621
心惊	-10.6623
成一团	-10.6626
丹房	-10.6626
他手掌	-10.6633
生下	-10.6633
不加	-10.6636
真好	-10.6637
却被	-10.6643
如是	-10.6643
吐出	-10.6643
九个	-10.6645
一挡	-10.6646
自会	-10.6648
▁武氏兄弟	-10.6653
他手臂	-10.6655
也不禁	-10.6655
法门	-10.6656
甚么都	-10.6656
情状	-10.6674
千百	-10.6675
怪客	-10.6676
地底	-10.6682
有许多	-10.6683
传人	-10.6685
一事	-10.6688
抵敌	-10.6691
了几句	-10.6693
▁一灯大师	-10.6693
而前	-10.6694
自身	-10.6699
未见	-10.6702
住在	-10.6707
下楼	-10.6709
我不是	-10.6716
苦苦	-10.6718
骗我	-10.6733
因为	-10.674
不难	-10.6744
开门	-10.6744
却不是	-10.6744
墙上	-10.6748
老妇	-10.675
报了	-10.6754
股	-10.6758
杨过见她	-10.6761
睡了	-10.6761
若能	-10.6772
刺出	-10.6777
会意	-10.6783
那里	-10.6784
你要我	-10.6786
的日子	-10.6786
柯	-10.6786
我虽	-10.6792
最后一	-10.6793
人品	-10.6801
深深	-10.6802
怎么又	-10.6806
石壁	-10.6812
剩下	-10.6817
妻	-10.6823
惟	-10.6828
甚么人	-10.6828
这姑娘	-10.6828
大起	-10.6831
锐	-10.6832
岔	-10.6837
博	-10.6839
都在	-10.6841
爽	-10.6841
不似	-10.6842
穆	-10.6843
即令	-10.6843
鲁	-10.6844
预	-10.6845
吴	-10.6845
级	-10.6846
牌	-10.6846
迅	-10.6846
盟	-10.6847
园	-10.6847
便想	-10.6847
富	-10.6847
奏	-10.6847
公主	-10.6847
栽	-10.6848
荆	-10.6848
同归于尽	-10.6848
编	-10.6848
订	-10.6848
哑巴	-10.6848
姬清虚	-10.6848
助你	-10.6848
精湛	-10.6848
启	-10.6848
素不相识	-10.6848
产	-10.6848
情急之下	-10.6848
痊愈	-10.6848
无恙	-10.6848
陆展元	-10.6849
麻雀	-10.6849
窄	-10.6849
老太婆	-10.6849
臂膀	-10.6849
脸色惨白	-10.6849
庭	-10.6849
眼眶	-10.6849
劣	-10.6849
苏	-10.6849
骤	-10.6849
醉仙楼	-10.6849
】	-10.6849
棺盖	-10.6849
富贵	-10.6849
惊诧	-10.6849
自刎	-10.6849
悲愤	-10.6849
皇爷	-10.6849
团团	-10.6849
跟随在后	-10.685
郑重	-10.685
庄丁	-10.685
隐瞒	-10.685
尺许	-10.685
臂上	-10.685
担忧	-10.685
守御	-10.6851
世界	-10.6851
贼汉子	-10.6851
山坡	-10.6851
差遣	-10.6851
艰难	-10.6851
勇士	-10.6852
挡格	-10.6852
即是	-10.6852
怀疑	-10.6852
乱成一团	-10.6852
厮杀	-10.6852
慌乱	-10.6853
脸上变色	-10.6854
脑门	-10.6855
望一眼	-10.6855
料不到	-10.6856
存心	-10.6856
峰顶	-10.6856
主持	-10.6857
临敌	-10.6858
进境	-10.6859
石板	-10.6859
句话	-10.6859
神仙	-10.6859
使将出来	-10.686
王道长	-10.686
锋锐	-10.6861
击中	-10.6863
绳子	-10.6864
四顾	-10.6864
逼近	-10.6867
火折	-10.6867
桌子	-10.6868
拔剑	-10.6869
上乘武功	-10.6869
自然而然的	-10.687
之期	-10.6871
一筹	-10.6871
右脚	-10.6872
刚猛	-10.6873
胡乱	-10.6876
半步	-10.6876
相差	-10.6877
消失	-10.6883
埋伏	-10.6883
倾听	-10.6883
比试	-10.6884
城外	-10.6886
老帮主	-10.6886
有毒	-10.6892
书生	-10.6893
▁当晚	-10.6893
化为	-10.6895
喝问	-10.6897
平生	-10.69
那时候	-10.69
其意	-10.6901
一二	-10.6902
一个筋斗	-10.6903
见识	-10.6904
你好好	-10.6907
攻势	-10.6907
晕去	-10.6909
神力	-10.6911
走远	-10.6915
一物	-10.6916
你放心	-10.6922
老顽童周伯通	-10.6923
喜爱	-10.6926
当面	-10.6929
一振	-10.6933
想不起	-10.6935
一摸	-10.6937
不救	-10.6937
直击	-10.6938
我跟你说	-10.694
大急	-10.694
喀喇一声	-10.6941
我和你	-10.6943
难受	-10.6947
三四	-10.6947
急步	-10.6948
教她	-10.6952
的影子	-10.6957
偷了	-10.6961
金帐	-10.6965
压在	-10.6966
手腕上	-10.6967
思念	-10.6972
一排	-10.6976
天空	-10.6979
一点儿	-10.6979
的长剑	-10.6979
▁程瑶迦	-10.6982
很多	-10.6984
的姑娘	-10.6985
路子	-10.6988
甚么地方	-10.6991
分心	-10.6993
跟人	-10.6997
来历	-10.6998
数十名	-10.6998
在先	-10.6999
甚为	-10.6999
好些	-10.7
我在这里	-10.7004
都想	-10.7006
难看	-10.7013
一死	-10.7013
咱们再	-10.7016
沙通天等	-10.7017
四十	-10.7023
总有	-10.7026
在前	-10.7027
说出来	-10.7031
求见	-10.7035
但要	-10.7035
关头	-10.7035
珍	-10.7038
吃得	-10.7038
那怪客	-10.704
一红	-10.7042
没想到	-10.7043
响声	-10.7047
与洪七公	-10.7048
大举	-10.7048
御	-10.7053
窗外	-10.7056
▁拖雷	-10.7061
缩回	-10.7062
救援	-10.7065
如山	-10.7065
消息	-10.7065
笑话	-10.7066
跟他们	-10.7067
便往	-10.7069
无一不	-10.7069
可知	-10.707
大汗的	-10.7071
叫好	-10.7075
追到	-10.7078
撞到	-10.7083
上身	-10.7088
情景	-10.7089
哥	-10.7098
便知	-10.7099
直至	-10.71
昏晕	-10.7111
尸身	-10.7122
解下	-10.7128
与周伯通	-10.7134
裘老前辈	-10.714
葬	-10.7147
狠毒	-10.7154
但想到	-10.7154
奇妙	-10.7155
了几次	-10.7159
街	-10.7168
郭靖忙	-10.7173
立足不	-10.7173
收回	-10.7177
都被	-10.7184
的心思	-10.7185
的手臂	-10.7187
壁上	-10.7188
等三人	-10.719
做得	-10.7192
述	-10.7195
棺	-10.7196
去看	-10.7203
她手	-10.721
得甚是	-10.7212
树丛	-10.7212
胁	-10.7213
两块	-10.7214
侍	-10.7216
偷听	-10.722
鞍	-10.7228
一凛	-10.7229
屏	-10.7229
界	-10.723
畏	-10.723
履	-10.7231
财	-10.7231
庸	-10.7231
影踪	-10.7231
凿	-10.7232
巡	-10.7232
窥	-10.7232
涂	-10.7232
嫩	-10.7232
叙	-10.7232
吻	-10.7232
贞	-10.7233
夏	-10.7233
哄	-10.7233
覆	-10.7233
黄河四鬼	-10.7233
呵呵	-10.7233
笃	-10.7233
默默	-10.7233
尹赵二人	-10.7233
棺材	-10.7233
沉吟半晌	-10.7234
塔	-10.7234
洋洋	-10.7234
舒畅	-10.7234
盟主	-10.7234
欧阳伯伯	-10.7234
牲口	-10.7234
医治	-10.7234
肃	-10.7234
乳	-10.7234
愤怒	-10.7234
诡异	-10.7235
装束	-10.7235
嘴唇	-10.7235
冷汗	-10.7236
碎裂	-10.7236
躺在地下	-10.7236
徒孙	-10.7236
长须鬼	-10.7236
猛烈	-10.7237
颠倒	-10.7237
快捷	-10.7238
无耻	-10.7239
如电	-10.7239
单凭	-10.724
喘气	-10.724
沉思	-10.7241
灯火	-10.7241
报答	-10.7241
命人	-10.7242
常常	-10.7243
击落	-10.7245
君山	-10.7245
市镇	-10.7246
窗口	-10.7246
过于	-10.7247
尖刀	-10.7247
已抓住	-10.7248
提醒	-10.7248
不敢怠	-10.725
激动	-10.7253
宛如	-10.7255
厅中	-10.7256
了半日	-10.7257
虚实	-10.7258
青年	-10.7259
草原上	-10.7259
相思	-10.7262
之策	-10.7262
咱们走罢	-10.7263
已给	-10.7263
亲近	-10.7265
▁这一日	-10.7268
睡得	-10.7269
白色	-10.727
交情	-10.727
动武	-10.7271
铁枪庙	-10.7273
寒气	-10.7275
一块大石	-10.7276
半年	-10.7281
之境	-10.7282
只说	-10.7289
抢先	-10.7294
两边	-10.7298
两军	-10.7298
这时他	-10.7299
两大	-10.7307
必当	-10.7307
山崖	-10.7307
又再	-10.7308
这傻小子	-10.7308
村中	-10.7309
三哥	-10.7309
好朋友	-10.7309
听黄蓉	-10.7309
四方	-10.7311
要找	-10.7312
雄雕	-10.7315
小说	-10.7317
但愿	-10.7317
决不肯	-10.7324
无情	-10.7327
三掌	-10.7328
说到此处	-10.7328
所能	-10.734
几名	-10.7341
放松	-10.7344
抓着	-10.7344
武功虽	-10.7344
旁的	-10.7347
全真派武功	-10.7349
不是我	-10.735
大弟子	-10.7358
小兄弟	-10.7362
要穴	-10.7363
站起来	-10.7364
会神	-10.7366
她知	-10.7366
如何不	-10.7378
对着	-10.7385
说着将	-10.7391
八名	-10.7395
却非	-10.7399
微感	-10.74
▁那人	-10.7404
抢在	-10.7405
极深	-10.7406
回想	-10.7407
大哭	-10.7408
瞎了	-10.741
脸有	-10.741
内心	-10.7411
下马来	-10.7416
所知	-10.7419
大英雄	-10.7419
珠宝	-10.7428
学过	-10.743
除去	-10.7432
法儿	-10.7433
▁杨过见她	-10.7444
不善	-10.7447
让他们	-10.7448
这中间	-10.7452
大声喝	-10.7454
正与	-10.7455
的神情	-10.746
住口	-10.7462
这便	-10.7462
两招	-10.7462
等我	-10.7464
一遍	-10.7474
不离	-10.7475
千里	-10.7477
潭中	-10.7479
望望	-10.748
胜得	-10.7481
的法子	-10.7482
上船	-10.7487
委	-10.7487
虽强	-10.7488
倒在地	-10.7488
信了	-10.7493
高出	-10.7494
贫	-10.7496
还给	-10.7504
平日	-10.7505
的那个	-10.7507
了许多	-10.7509
先将	-10.7513
受到	-10.7515
说明	-10.7526
被欧阳锋	-10.7528
怕她	-10.7529
你身上	-10.7529
一世	-10.7537
却似	-10.7538
在地上	-10.754
飞来	-10.754
作声	-10.754
只怕他	-10.754
叫化子	-10.7542
便请	-10.7547
全没	-10.7551
惯	-10.7561
穿着	-10.7565
十五	-10.7566
你猜	-10.7577
下落	-10.7578
叫人	-10.7583
你倒	-10.7586
柄剑	-10.7587
遥	-10.7591
叔	-10.7591
伯	-10.7595
宛	-10.76
脸颊	-10.76
高高	-10.7604
少年时	-10.7605
凭你	-10.7606
羽	-10.7606
他想	-10.761
蹄	-10.7613
受人	-10.7617
蓉	-10.7619
痕	-10.7621
梯	-10.7622
奋	-10.7626
熬	-10.7627
竭	-10.7627
跛	-10.763
莽	-10.763
渊	-10.763
鬓	-10.763
婿	-10.7631
释	-10.7631
督	-10.7631
筏	-10.7631
桶	-10.7631
孽	-10.7632
役	-10.7632
霸	-10.7632
旷	-10.7632
款	-10.7632
玉女素心剑法	-10.7633
翁	-10.7633
金龙鞭	-10.7633
邻	-10.7633
班	-10.7633
史季强	-10.7633
典	-10.7633
将信将疑	-10.7633
淑女剑	-10.7633
宋德方	-10.7633
跳起身来	-10.7633
丫鬟	-10.7633
鲜血淋漓	-10.7633
森森	-10.7633
渊源	-10.7633
肌肤	-10.7634
闹着玩	-10.7634
搓	-10.7634
公孙姑娘	-10.7634
殴	-10.7634
无意中	-10.7634
卓绝	-10.7634
嫣然一笑	-10.7634
首级	-10.7634
计议	-10.7634
玩耍	-10.7634
背诵	-10.7634
割了	-10.7635
野兽	-10.7635
全真剑法	-10.7635
银轮	-10.7635
毒质	-10.7635
上乘内功	-10.7636
小觑	-10.7636
大理国	-10.7636
猛兽	-10.7636
美丽	-10.7637
丐帮帮众	-10.7637
半个	-10.7637
周师叔	-10.7637
红晕	-10.7638
点点	-10.7638
感奇怪	-10.7639
了他一眼	-10.7639
躲避	-10.764
昂然	-10.764
称赞	-10.764
恶贼	-10.7643
低低	-10.7643
特别	-10.7643
关怀	-10.7644
无限	-10.7644
混乱	-10.7645
一同	-10.7645
脉门	-10.7646
惊异	-10.7648
我倒	-10.7649
力大	-10.7649
原因	-10.7649
现下我	-10.765
丧命	-10.765
惨然	-10.765
直冲	-10.7651
再斗	-10.7652
相聚	-10.7652
他日	-10.7652
精通	-10.7652
袍子	-10.7653
说了出来	-10.7653
有谁	-10.7653
五位	-10.7657
失望	-10.7657
情形	-10.7658
打仗	-10.7658
墙壁	-10.766
听到这里	-10.7661
怒喝	-10.7662
两个孩子	-10.7665
书信	-10.7665
性儿	-10.7666
上天	-10.7667
拚着	-10.7668
命丧	-10.7669
要旨	-10.7672
正欲	-10.768
却要	-10.7681
刀法	-10.7683
发了	-10.7687
却仍	-10.7687
梢	-10.7693
还礼	-10.7695
在半空中	-10.7701
蒙古大汗	-10.7702
使一招	-10.7703
怒极	-10.7707
舌头	-10.7708
这女孩儿	-10.7708
高强	-10.7709
扰乱	-10.771
一碰	-10.7711
为何	-10.7712
睡着了	-10.7717
斜身	-10.7717
顾不得	-10.7722
身受	-10.7723
逃开	-10.7725
百出	-10.7727
那样	-10.7728
必须	-10.7729
毒辣	-10.773
用心	-10.7731
真气	-10.7735
满脸通红	-10.7739
了进去	-10.7739
奔近	-10.774
使开	-10.774
土山	-10.7741
了良久	-10.7742
重又	-10.7743
不会武功	-10.7746
不通	-10.7749
大高手	-10.7754
重行	-10.7756
刀子	-10.7757
有气	-10.7761
于是将	-10.7762
蒙古军中	-10.7767
行动	-10.7771
得着	-10.7772
甚高	-10.7776
丫头	-10.7787
中土	-10.7787
急转	-10.7791
没听见	-10.7796
没用	-10.7799
在石上	-10.78
只要他	-10.78
除下	-10.7804
藏语	-10.781
原来她	-10.7811
为她	-10.783
瞪	-10.783
替他	-10.7832
拿来	-10.7838
数千	-10.7844
你在这里	-10.7844
番	-10.7846
意思	-10.7848
苦笑	-10.7853
的手段	-10.7854
过后	-10.7855
可得	-10.7866
铁掌帮的	-10.7868
▁尼摩星	-10.7868
中指	-10.7871
天生	-10.7881
举刀	-10.7882
出房	-10.7886
钻入	-10.7888
不提	-10.7889
死啦	-10.7898
跟着又	-10.7902
几句话	-10.7905
这一拳	-10.7911
名家	-10.7912
树上	-10.7912
守城	-10.7927
学到	-10.7934
离去	-10.7934
话未说	-10.7937
轻轻的	-10.7938
屋子	-10.7945
卷住	-10.7954
助我	-10.7955
年老	-10.7962
老婆	-10.7965
呼声	-10.7978
哪一位	-10.7989
西首	-10.7989
来罢	-10.799
绕到	-10.7991
却给	-10.7994
那么你	-10.7994
救她	-10.7995
急奔而	-10.7995
甚么话	-10.7995
叫了起来	-10.8
▁沙通天	-10.8003
天下第一	-10.8004
放你	-10.8006
大穴	-10.8007
崩	-10.8012
剩	-10.8012
好好的	-10.8018
姑	-10.8021
齐向	-10.8022
店中	-10.8023
就得	-10.8025
峰上	-10.8025
这小姑娘	-10.8028
冲到	-10.8034
已被他	-10.8035
岳	-10.804
幻	-10.8041
只见一个	-10.8043
我叫	-10.8043
肆	-10.8045
鲨	-10.8046
蒲团	-10.8047
连连点头	-10.8047
研	-10.8047
梳	-10.8048
炼	-10.8048
饰	-10.8048
证	-10.8049
重阳真人	-10.8049
烫	-10.8049
到此	-10.8049
鼠	-10.8049
悍	-10.8049
泄漏	-10.8049
朴	-10.805
单打独斗	-10.805
莹	-10.805
页	-10.805
人皮面具	-10.805
粪	-10.805
嵌	-10.805
浆	-10.805
蜡烛	-10.805
棘藤	-10.805
耸	-10.805
评	-10.805
伯父	-10.805
赤老温	-10.805
痴痴	-10.805
哑仆	-10.805
明明白白	-10.805
耽搁	-10.805
煮	-10.8051
黑龙潭	-10.8051
博尔忽	-10.8051
盈盈	-10.8051
二位	-10.8051
恕罪	-10.8051
闺女	-10.8051
铜轮	-10.8051
踏上一步	-10.8051
北极星位	-10.8051
意中人	-10.8052
锋兄	-10.8052
烛台	-10.8052
容颜	-10.8053
刷的一声	-10.8054
周师兄	-10.8054
教导	-10.8055
默然	-10.8055
威震	-10.8055
这门功夫	-10.8055
忘记	-10.8055
内脏	-10.8057
关节	-10.8058
甘愿	-10.8058
轻薄	-10.8059
菜肴	-10.806
贵由	-10.8061
为妻	-10.8062
哼哼	-10.8062
拉扯	-10.8062
渐感	-10.8064
江山	-10.8064
打断	-10.8065
所谓	-10.8065
潮水	-10.8066
急速	-10.8067
相抵	-10.8067
形势	-10.8069
冷然	-10.807
战阵	-10.8071
逃脱	-10.8071
实无	-10.8071
苦楚	-10.8072
一愕	-10.8072
寻仇	-10.8072
杯酒	-10.8073
身周	-10.8074
寻访	-10.8074
守军	-10.8075
▁次日	-10.8075
接战	-10.8077
一行人	-10.8078
疾风	-10.8081
深入	-10.8081
支撑	-10.8083
乖乖的	-10.8084
而坐	-10.8085
偏生	-10.8087
一瞧	-10.8089
干吗	-10.809
有心要	-10.809
难道是	-10.8091
滑溜	-10.8092
亲口	-10.8094
可也	-10.8095
驰到	-10.8096
无人能	-10.8097
晚间	-10.81
刺杀	-10.8101
贼秃	-10.8101
负着	-10.8102
她身上	-10.8104
本教	-10.8106
断折	-10.8113
深意	-10.8114
冲杀	-10.812
得胜	-10.812
树林中	-10.8123
缩身	-10.8126
这路	-10.8127
卒	-10.8128
从旁	-10.813
顾念	-10.8139
你就是	-10.814
手中长剑	-10.8141
的安危	-10.8142
这位是	-10.8143
的手腕	-10.8144
纵身而	-10.8146
奔得	-10.8152
怎么啦	-10.8155
的父亲	-10.8155
纵起	-10.8157
跃过	-10.8161
引见	-10.8162
好极	-10.8166
千万别	-10.8166
请两位	-10.8167
急跃	-10.817
别怕	-10.8172
抢上去	-10.8173
众多	-10.8174
外号	-10.8178
可有	-10.818
的心事	-10.8181
两个娃娃	-10.8184
极快	-10.8185
重阳祖师	-10.8186
见他神色	-10.8187
不凡	-10.8188
便欲	-10.8195
害我	-10.8197
美人	-10.8199
此间	-10.8199
一晚	-10.82
倒地	-10.82
攻敌	-10.8204
将上来	-10.8207
占了	-10.8209
八九	-10.8213
既有	-10.8216
只把	-10.8216
抬起	-10.822
快马	-10.8224
下场	-10.8228
要请	-10.8229
在临安	-10.823
你当真	-10.8231
海底	-10.8233
也不懂	-10.8237
十个	-10.8239
毒发	-10.8242
处所	-10.8242
日前	-10.8243
身子已	-10.8246
瞧这	-10.8246
杨过大喜	-10.8246
摸出	-10.8254
曾在	-10.8257
那女孩	-10.8258
逼他	-10.8259
她爹爹	-10.8262
▁尹克西	-10.8263
万人	-10.8266
你叫我	-10.8267
你若不	-10.8274
忽而	-10.8275
那也是	-10.8279
心法	-10.828
的经文	-10.8284
命在	-10.8287
各处	-10.829
那就是	-10.8292
这四人	-10.8295
只是她	-10.8299
娃娃	-10.8305
不透	-10.8306
固是	-10.8307
可比	-10.8309
难道他	-10.8316
寻到	-10.8321
待她	-10.8343
不清	-10.8344
为甚么要	-10.8346
多时	-10.8348
骑了	-10.8352
有这么	-10.8352
极重	-10.8358
感动	-10.8359
她肩头	-10.8363
交好	-10.8366
倍	-10.8367
急了	-10.8373
陪你	-10.8375
有点儿	-10.8378
一瞥	-10.8379
两人都是	-10.8382
向郭靖道	-10.8387
的眼光	-10.8387
掉了	-10.8396
与之	-10.84
迈	-10.84
已死	-10.8407
竟未	-10.8413
七道	-10.8415
解开了	-10.8423
郭靖一怔	-10.8423
千余	-10.8426
划了	-10.8427
鞘	-10.8429
指向	-10.8431
也曾	-10.8434
睡罢	-10.8438
的时候	-10.8443
极难	-10.8445
他怕	-10.8445
你们两个	-10.8446
城墙	-10.8449
已成	-10.8451
榻	-10.8453
艇	-10.8455
漠	-10.8456
到桃花岛	-10.8457
说着向	-10.8462
助他	-10.8465
长草	-10.8467
头脑	-10.8469
训	-10.8469
叫他们	-10.847
岂肯	-10.8471
人丛中	-10.8473
大路	-10.8476
凄	-10.8479
新娘	-10.8479
那女人	-10.8479
几条	-10.848
笼	-10.848
中所载	-10.848
的高手	-10.848
球	-10.8481
柄长剑	-10.8482
》、《	-10.8482
耶律	-10.8482
慨	-10.8482
基	-10.8482
县	-10.8482
哉	-10.8483
厌	-10.8483
豁	-10.8483
泊	-10.8483
堵	-10.8483
逗	-10.8484
完颜	-10.8484
鸳	-10.8484
罚	-10.8484
鸦	-10.8484
婆娘	-10.8484
维	-10.8484
恰到好处	-10.8484
丁大全	-10.8484
蚁	-10.8484
脸色大变	-10.8484
织	-10.8484
酸软	-10.8484
出神入化	-10.8484
灵机一动	-10.8484
庆	-10.8485
韵	-10.8485
炭	-10.8485
九尾灵狐	-10.8485
继承	-10.8485
这些年来	-10.8485
窃	-10.8485
悴	-10.8485
杨大嫂	-10.8485
脑海中	-10.8485
蓬的一声	-10.8485
合撒儿	-10.8485
旺	-10.8485
默不作声	-10.8485
好端端的	-10.8485
您老人家	-10.8485
公子爷	-10.8485
武林盟主	-10.8486
百夫长	-10.8486
扁担	-10.8486
违抗	-10.8486
一步步的	-10.8486
梅师姊	-10.8486
不住口的	-10.8486
爹娘	-10.8486
颤抖	-10.8486
桌椅	-10.8486
四肢	-10.8486
丘真人	-10.8486
张十五	-10.8487
莽撞	-10.8487
绝伦	-10.8487
昏迷	-10.8487
恁地	-10.8487
显示	-10.8487
形貌	-10.8487
银鞭	-10.8488
恩公	-10.8488
武术	-10.8488
呐喊	-10.8488
鼻息	-10.8488
照顾	-10.8489
哀求	-10.849
公平	-10.849
宁定	-10.849
柔软	-10.849
月亮	-10.8491
爱惜	-10.8491
那天	-10.8492
摸到	-10.8494
心中怦怦乱跳	-10.8494
又是好笑	-10.8495
腕上	-10.8495
胯下	-10.8495
树木	-10.8496
宝物	-10.8497
日光	-10.8498
能胜	-10.8499
不约而同的	-10.8499
南北	-10.85
手背	-10.85
来来来	-10.85
二次	-10.85
莫怪	-10.85
等候	-10.8502
坏事	-10.8505
后来怎样	-10.8506
正宗	-10.8508
飞扬	-10.8508
水性	-10.8508
决定	-10.8509
老夫	-10.851
精深	-10.851
相迎	-10.8511
铁蛇	-10.8511
脸上神色	-10.8511
一揖	-10.8513
暗喜	-10.8517
一楞	-10.8518
怒色	-10.852
见他如此	-10.8522
放箭	-10.8522
猛然	-10.8522
情势危急	-10.8522
天权	-10.8523
风流	-10.8527
伸掌	-10.8528
全神	-10.8529
白须	-10.8531
比我	-10.8531
山边	-10.8531
大殿	-10.8531
轻视	-10.8532
身体	-10.8537
一朵	-10.8537
温言	-10.8539
转头对	-10.8542
暗藏	-10.8543
众兄弟	-10.8547
笔直	-10.8549
每当	-10.8553
打滚	-10.8553
分辨	-10.8553
讨好	-10.8554
竖起	-10.8554
无双	-10.8555
离地	-10.8558
镇上	-10.8559
那武官	-10.856
小叫化	-10.8561
居住	-10.8562
不容	-10.8566
▁郭啸天	-10.8569
运起	-10.8571
毒物	-10.858
为敌	-10.858
方才	-10.8582
一倍	-10.8586
洞穴	-10.8593
毕生	-10.8598
乘马	-10.8605
一批	-10.8606
小女	-10.861
的遗	-10.8611
重会	-10.8615
黄蓉心想	-10.862
几人	-10.8623
却始终	-10.8624
指尖	-10.8632
岂是	-10.8633
相处	-10.8634
多谢你	-10.8634
这不是	-10.8635
犯了	-10.8635
求你	-10.8636
见到他	-10.8637
久了	-10.8638
所伤	-10.864
尽可	-10.8641
竹林	-10.8641
伸手到	-10.8644
怎不	-10.8645
呆呆的	-10.8645
一棵	-10.8646
打了个	-10.8651
疾奔	-10.8661
火烧	-10.8662
赢了	-10.8665
甚么东西	-10.8665
从不	-10.8668
好孩子	-10.8677
远胜	-10.8681
你不肯	-10.8681
可爱	-10.8682
御厨	-10.8685
之日	-10.8686
一架	-10.8689
读书	-10.8691
生出	-10.8694
向法王	-10.8697
往外	-10.87
喝一声	-10.87
找他	-10.8702
瞪眼	-10.8703
那店伴	-10.8704
还有甚么	-10.8706
一个女子	-10.8709
饿死	-10.8714
隐隐传来	-10.8718
出外	-10.8723
追问	-10.8723
想得	-10.8725
又怎样	-10.8734
的朋友	-10.8735
亦不	-10.8737
不杀	-10.8745
撞得	-10.8747
又叫	-10.8752
是何	-10.8755
解毒	-10.8755
挡住了	-10.876
回房	-10.8766
没见过	-10.877
知道自己	-10.8771
矮子	-10.8777
有一位	-10.878
魔头	-10.878
结义	-10.8781
臭小子	-10.8784
还得	-10.8786
不走	-10.8787
吃完	-10.8798
高深	-10.8805
去取	-10.8811
了结	-10.8813
被郭靖	-10.8814
甚有	-10.8816
树后	-10.8821
不相干	-10.8825
洞外	-10.8829
伙	-10.8837
中年	-10.8842
怎么说	-10.8848
两人同时	-10.885
眼看	-10.8851
下山去	-10.8851
手肘	-10.8854
打落	-10.8854
禅	-10.8856
厨	-10.8862
如何是好	-10.8864
倘	-10.8864
一刻	-10.8874
在牛家村	-10.8875
你这小子	-10.8878
向里	-10.8879
的道理	-10.888
茅	-10.888
得远了	-10.8884
步步	-10.8885
黄蓉微笑	-10.8885
就请	-10.8887
好歹	-10.8895
咱们就	-10.8899
高处	-10.89
说说	-10.8906
水声	-10.8906
的故事	-10.8907
守住	-10.8911
凳	-10.8911
均感	-10.8912
累了	-10.8918
牧	-10.8919
急攻	-10.8919
铸	-10.8921
市	-10.8922
有丝毫	-10.8923
有一股	-10.8924
望见	-10.8927
辰	-10.893
钦	-10.893
注视	-10.8931
哈	-10.8931
赤练仙子	-10.8932
概	-10.8932
耀	-10.8933
挫	-10.8934
瞬	-10.8934
戒	-10.8934
舵	-10.8935
蹙	-10.8937
逸	-10.8937
阿	-10.8937
使个眼色	-10.8937
唆	-10.8938
斑	-10.8938
蒸	-10.8938
岭	-10.8938
瞬息之间	-10.8938
陋	-10.8939
陆二娘	-10.8939
予	-10.8939
洁	-10.8939
教诲	-10.8939
暮	-10.8939
抡	-10.8939
不怀好意	-10.8939
拘	-10.8939
腐	-10.8939
煞	-10.8939
泽	-10.8939
喧	-10.8939
扼	-10.8939
粉身碎骨	-10.8939
踪影	-10.8939
咸	-10.8939
省悟	-10.894
伸了伸舌头	-10.894
彭寨主	-10.894
毡	-10.894
爬起身来	-10.894
呈	-10.894
胡言乱语	-10.894
纵声长笑	-10.894
嫂子	-10.894
灾	-10.894
▁说话之间	-10.894
黑黝黝的	-10.894
缠绵	-10.894
小妖女	-10.894
转过头来	-10.894
程英和陆无双	-10.894
头下脚上	-10.894
死里逃生	-10.894
孩童	-10.894
锦袍	-10.894
案	-10.894
出帐	-10.8941
躬身行礼	-10.8941
山坳	-10.8941
炮	-10.8941
清脆	-10.8941
卫士	-10.8941
呼哨	-10.8941
护卫	-10.8942
歇歇	-10.8942
赵师兄	-10.8942
相询	-10.8942
乌云	-10.8942
后悔	-10.8942
站在一旁	-10.8942
包扎	-10.8942
性格	-10.8943
冒险	-10.8943
阴阳	-10.8943
转身便走	-10.8943
绿衫弟子	-10.8943
官府	-10.8944
摸索	-10.8944
尘土	-10.8944
玩意儿	-10.8944
急得	-10.8944
屋角	-10.8944
不知怎的	-10.8944
众丐	-10.8944
恼恨	-10.8944
爱怜	-10.8945
务须	-10.8945
半夜里	-10.8946
花园	-10.8947
贵客	-10.8947
一般无异	-10.8948
招式	-10.8948
眉目	-10.8948
纵身跃起	-10.8948
言辞	-10.8948
令尊	-10.8949
食物	-10.8949
点头答应	-10.895
相逢	-10.895
棒端	-10.895
称呼	-10.8952
盘算	-10.8952
此时已	-10.8952
论剑	-10.8955
立刻	-10.8956
低微	-10.8956
舍不得	-10.8958
轻灵	-10.8958
性情	-10.8958
只震得	-10.8959
功劳	-10.896
红色	-10.896
老兄	-10.896
接应	-10.896
口音	-10.8961
听得清清楚楚	-10.8962
假意	-10.8962
擒拿手	-10.8963
散开	-10.8964
受苦	-10.8966
避让	-10.8967
通红	-10.8967
运力	-10.8968
这股	-10.8968
臀上	-10.8969
乡下	-10.8969
几欲	-10.897
山洪	-10.8971
吃惊	-10.8972
买了	-10.8972
暗骂	-10.8974
服输	-10.8975
国家	-10.8977
大王	-10.8977
明师	-10.8978
脸颊上	-10.8979
原委	-10.8979
失声	-10.898
进门	-10.8981
扑击	-10.8981
以便	-10.8981
该死	-10.8982
奇功	-10.8983
心存	-10.8984
不在乎	-10.8984
不合	-10.8987
首先	-10.8988
西毒欧阳锋	-10.899
看清	-10.899
也只有	-10.8992
这么多	-10.8993
重阳宫中	-10.8996
脚步声	-10.8997
再也不敢	-10.8998
隔着	-10.9006
黄马	-10.9006
相比	-10.9008
穿了	-10.9009
一跳	-10.9011
难怪	-10.9012
斗到	-10.9013
另一人	-10.9014
一共	-10.9017
▁突然	-10.9018
不肯说	-10.9022
在他肩头	-10.9023
左腕	-10.9023
至此	-10.9025
这一抓	-10.9025
殿上	-10.9026
跌入	-10.9027
天边	-10.903
用兵	-10.903
进入	-10.9032
山洞中	-10.9032
但这时	-10.9034
古人	-10.9035
大异	-10.9036
纵有	-10.9038
睁眼	-10.9039
。’”	-10.9039
所发	-10.904
郭靖奇	-10.9043
只用	-10.9045
饿了	-10.9048
三日	-10.905
相待	-10.9051
穿过	-10.9054
须知	-10.9054
嫁给	-10.9055
可见	-10.9056
因之	-10.9059
甚感	-10.9059
大厅上	-10.9061
连日	-10.9062
扣住	-10.9063
委实	-10.9066
如果	-10.9069
苦于	-10.9073
连刺	-10.9074
忍住	-10.9076
不利	-10.9076
▁段天德	-10.908
飞到	-10.9083
船舱	-10.9083
马蹄	-10.9084
洞里	-10.9084
也没有	-10.9085
要是我	-10.9086
道兄	-10.9088
柳树	-10.9089
之感	-10.9089
大队	-10.9092
不须	-10.9093
使个	-10.9096
一点也不	-10.9099
我问你	-10.9099
娶她	-10.9104
进洞	-10.9107
死命	-10.9114
密室	-10.9116
的用意	-10.9118
触到	-10.912
我帮	-10.9122
枪杆	-10.9122
古墓派的	-10.9123
劈去	-10.9123
了这许多	-10.9124
我才不	-10.913
发怒	-10.913
让路	-10.9135
也算	-10.9136
上卷	-10.9139
走入	-10.914
脚底	-10.9143
不容易	-10.9145
却只	-10.9146
钻进	-10.9153
幼女	-10.9153
问你	-10.9155
要知	-10.9155
已近	-10.917
船头	-10.9175
刚要	-10.9177
毁了	-10.918
她脸上	-10.9184
的劲力	-10.9184
喝骂	-10.9186
这件	-10.919
郭兄	-10.9203
刺入	-10.9203
贱	-10.9205
这是我	-10.9207
否	-10.9209
关上	-10.9211
黄蓉的手	-10.9212
个时辰	-10.9218
何人	-10.9221
却也不	-10.9224
▁武修文	-10.9229
藏僧	-10.9237
去寻	-10.9239
对小龙女	-10.9242
均觉	-10.9245
任他	-10.9252
你爱	-10.9253
直刺	-10.9258
裤	-10.9258
手势	-10.9261
救得	-10.9267
但求	-10.9272
门边	-10.9283
骂人	-10.9284
强劲	-10.9285
我妈妈	-10.9286
前行	-10.9296
幸得	-10.9301
捉住	-10.9307
黄蓉与郭靖	-10.9308
任你	-10.931
来攻	-10.9311
儿女	-10.9314
的来历	-10.9315
打中了	-10.9315
额	-10.9315
说得是	-10.9316
厮	-10.932
纸上	-10.9323
炕	-10.9324
湖边	-10.9339
幅	-10.9343
谎	-10.9346
顶门	-10.9353
在手中	-10.9361
妥	-10.9361
收了	-10.9367
株	-10.9368
活死人墓	-10.9371
歹	-10.9371
只叫	-10.9373
出气	-10.9373
未必便	-10.9374
飘忽	-10.9375
就死	-10.9378
一间	-10.9378
惯了	-10.9378
实不知	-10.9384
别来	-10.9386
大营	-10.9395
人身	-10.9396
难道这	-10.9397
干么要	-10.9398
打发	-10.9398
成名	-10.94
微有	-10.9401
字迹	-10.9403
又听得	-10.9406
海面	-10.941
床边	-10.941
也觉	-10.9411
顽童	-10.9411
屁	-10.9411
熄	-10.9411
撰	-10.9412
劝他	-10.9412
凭着	-10.9413
焚	-10.9413
啼	-10.9413
叱	-10.9413
申志凡	-10.9413
涛	-10.9414
站立不稳	-10.9414
漫	-10.9414
腻	-10.9414
溢	-10.9414
审	-10.9415
曲灵风	-10.9415
盏	-10.9415
祁志诚	-10.9415
阿弥陀佛	-10.9415
枣核	-10.9415
惊心动魄	-10.9415
猿	-10.9415
资质	-10.9415
泛	-10.9415
燕	-10.9415
刮	-10.9415
恍然大悟	-10.9415
骄	-10.9415
裙	-10.9415
森	-10.9415
斡赤斤	-10.9415
憾	-10.9415
赫然	-10.9415
妒	-10.9415
一男一女	-10.9415
蕴	-10.9415
敕封	-10.9415
络	-10.9415
倔强	-10.9415
喀的一声	-10.9415
塘	-10.9416
揉	-10.9416
鬼鬼祟祟	-10.9416
叹了一口气	-10.9416
竹签	-10.9416
疾驰	-10.9416
兴高采烈	-10.9416
惊疑不定	-10.9416
喇	-10.9416
上前去	-10.9416
侧身避过	-10.9416
迷糊	-10.9416
撒谎	-10.9416
乘隙	-10.9416
回过身来	-10.9416
玉女剑法	-10.9416
喜悦	-10.9417
皮清玄	-10.9417
铁尸	-10.9417
欣喜	-10.9417
敛	-10.9417
尊驾	-10.9417
肩膀	-10.9417
洪恩师	-10.9418
新郎	-10.9418
歹毒	-10.9418
搏击	-10.9418
就把	-10.9418
计策	-10.9418
影踪不见	-10.9418
转瞬间	-10.9418
咒骂	-10.9419
奸计	-10.9419
爱妻	-10.9419
昔年	-10.9419
四杰	-10.942
宰相	-10.942
逐步	-10.942
笼罩	-10.942
尤其	-10.942
部属	-10.9421
钢刀	-10.9421
丑雕	-10.9421
长长的	-10.9421
呆立	-10.9422
贵帮	-10.9422
黄夫人	-10.9422
但如	-10.9422
桌边	-10.9422
这小小	-10.9424
六位	-10.9424
惊疑	-10.9424
结果	-10.9424
破烂	-10.9425
怨毒	-10.9425
猛虎	-10.9425
雪地里	-10.9425
这两位	-10.9426
君子剑	-10.9427
哭了出来	-10.9428
石块	-10.943
拆招	-10.943
借势	-10.943
无声	-10.943
勾当	-10.9431
领兵	-10.9432
相候	-10.9432
休想	-10.9433
提及	-10.9433
长辈	-10.9434
弯刀	-10.9434
绝情谷中	-10.9435
自恃	-10.9435
越想越是	-10.9435
胸间	-10.9435
格开	-10.9436
霍都王子	-10.9436
摇动	-10.9436
哪里还能	-10.9437
淡淡	-10.9438
是何用意	-10.9439
武功天下第一	-10.9439
石阵	-10.944
气闷	-10.944
刺客	-10.944
怪物	-10.9441
隐没	-10.9442
柄匕首	-10.9443
断骨	-10.9443
精进	-10.9443
一行	-10.9444
万万不能	-10.9444
遍地	-10.9445
说一句	-10.9445
小船	-10.9445
遥遥	-10.9446
袖手	-10.9447
第二个	-10.9449
令爱	-10.9452
对不起	-10.9456
观斗	-10.9457
自创	-10.9457
后辈	-10.946
不济	-10.946
却未	-10.946
黄蓉低声	-10.946
兵法	-10.9463
多端	-10.9466
如此了得	-10.9467
参与	-10.9467
▁过了良久	-10.9469
遗命	-10.9469
大剪刀	-10.9472
未得	-10.9474
叫唤	-10.9475
我家	-10.9475
哭叫	-10.9476
说到后来	-10.9477
借着	-10.9479
这几日	-10.9479
推门	-10.9481
说谎	-10.9482
剑刺	-10.9482
闪开	-10.9484
一幅	-10.9485
屋顶上	-10.9489
分明	-10.949
石弹	-10.9491
惊动	-10.9491
深山	-10.9491
▁这日	-10.9493
风响	-10.9495
相通	-10.9495
地势	-10.9497
一搭	-10.9502
不知去向	-10.9503
一丛	-10.9504
或能	-10.9507
容让	-10.9508
海水	-10.9513
深处	-10.9518
最爱	-10.9519
使不得	-10.9522
行刺	-10.9525
草丛中	-10.9528
有限	-10.9531
那便是	-10.9532
无怪	-10.9532
洞内	-10.9532
传下	-10.9534
大腿	-10.9534
是蒙古	-10.9534
只听她	-10.9539
真要	-10.9542
双膝	-10.9546
右腕	-10.9549
藏身	-10.955
上升	-10.955
襄阳城中	-10.9551
刺向	-10.9551
缺口	-10.9558
口里	-10.9563
时光	-10.9567
死得	-10.9568
一直在	-10.9571
瞧不起	-10.9575
这一日	-10.9581
不受	-10.9592
三月	-10.9593
一试	-10.9594
与拖雷	-10.9596
荒谷	-10.9601
摔得	-10.9603
恃	-10.9606
便不能	-10.9611
了一半	-10.9611
虽已	-10.9613
竟把	-10.9619
松了	-10.9621
门前	-10.9627
边上	-10.9627
回家去	-10.9627
过了一阵	-10.9629
倒也不	-10.9631
送上	-10.9632
黄蓉见他	-10.9633
那怪人	-10.9641
一变	-10.9642
喀喇	-10.9643
再练	-10.9646
言下	-10.9647
周围	-10.9647
这一场	-10.9648
台上	-10.965
贴身	-10.965
这时候	-10.9651
的情状	-10.9655
在何处	-10.9655
给你们	-10.9657
四师父	-10.9659
白纸	-10.9661
倒似	-10.9661
自此	-10.9662
攻上	-10.9664
莫要	-10.9666
进招	-10.9668
算得	-10.9672
找个	-10.9676
你为甚么	-10.9678
盘膝坐在	-10.9678
叫甚么	-10.9682
梁上	-10.969
▁朱子柳	-10.9691
向洪七公	-10.9691
娶了	-10.9692
也均	-10.9696
害了	-10.9699
生生	-10.9701
这几句	-10.9703
并没	-10.9705
▁鲁有脚	-10.9711
所使的	-10.9715
震断	-10.9716
小路	-10.9717
了两下	-10.972
有心	-10.9721
开心	-10.9722
抓到	-10.9724
点中	-10.9728
棵	-10.9728
一只大	-10.9733
好说	-10.9742
你到底	-10.9744
的对头	-10.9744
也决不能	-10.9746
负了	-10.9749
你干甚么	-10.9758
一送	-10.9758
当今	-10.9759
世人	-10.976
怕甚么	-10.9762
名道人	-10.9762
黄蓉微微一笑	-10.9771
几只	-10.9775
便不	-10.9776
也不致	-10.9778
农夫	-10.978
的力道	-10.9783
没料到	-10.9784
有难	-10.9788
▁潇湘子	-10.9788
子弟	-10.9789
手指上	-10.9792
在床上	-10.9806
高下	-10.9808
黑雕	-10.9817
打出	-10.9819
奔回	-10.982
叫喊	-10.9822
又自	-10.9825
猜想	-10.9825
单是	-10.9825
版	-10.9828
说不得	-10.9833
这几个	-10.9843
永远不	-10.9849
鼻中	-10.9851
趣	-10.9853
虽多	-10.9861
果是	-10.9867
打个	-10.9867
个手势	-10.9868
皱	-10.987
弹出	-10.9877
王将军	-10.9878
桃	-10.988
一大块	-10.9883
碍	-10.9884
送出	-10.9884
史伯威	-10.9884
在襄阳	-10.9886
骇然	-10.9887
阵阵	-10.9893
惊醒	-10.9896
年纪虽	-10.9896
次日	-10.9896
杀敌	-10.9896
叩	-10.9899
脱下	-10.99
押	-10.9902
瓜	-10.9903
身侧	-10.9903
点去	-10.9904
搔	-10.9905
是好人	-10.9905
女的	-10.9907
一沉	-10.9908
导	-10.9909
川	-10.9909
促	-10.991
泰	-10.9911
咒	-10.9911
迁	-10.9912
驳	-10.9912
脆	-10.9913
膀	-10.9913
骷髅头	-10.9913
符	-10.9913
肤	-10.9913
叮	-10.9913
荆棘	-10.9913
醒悟	-10.9914
躁	-10.9914
爆	-10.9914
胀	-10.9914
祭	-10.9914
恕	-10.9914
哥儿俩	-10.9915
蜜浆	-10.9915
脂	-10.9915
有性命之忧	-10.9915
研习	-10.9915
全真六子	-10.9915
寄	-10.9915
呵	-10.9915
小娃儿	-10.9915
郭破虏	-10.9915
宏	-10.9915
飒	-10.9915
臻	-10.9915
镶	-10.9915
江南七侠	-10.9915
瞧了一眼	-10.9915
聪明伶俐	-10.9915
添	-10.9916
仙姑	-10.9916
端倪	-10.9916
聘	-10.9916
不碍事	-10.9916
旭烈兀	-10.9916
绵绵	-10.9916
圆球	-10.9916
雁	-10.9916
也速该	-10.9916
苦苦思索	-10.9916
转过了头	-10.9916
余暇	-10.9916
侍卫	-10.9916
枯柴	-10.9916
性命不保	-10.9916
统率	-10.9916
笑脸鬼	-10.9916
莫测	-10.9916
抗拒	-10.9916
希奇	-10.9916
猫	-10.9916
亲眼见到	-10.9917
骇异	-10.9917
昨日	-10.9917
波涛	-10.9917
瞪视	-10.9917
师徒俩	-10.9917
嘴巴	-10.9917
松柴	-10.9917
图谋	-10.9917
激烈	-10.9917
鲁帮主	-10.9917
齐声惊呼	-10.9918
顾忌	-10.9918
敝帮	-10.9918
微蹙	-10.9918
抢上前去	-10.9919
毫不理会	-10.9919
祖宗	-10.9919
老朽	-10.9919
激荡	-10.9919
阻止	-10.9919
凶狠	-10.992
题目	-10.992
在洞中	-10.992
避开了	-10.992
原来如此	-10.992
一生一世	-10.992
不准	-10.992
惊慌	-10.992
妙策	-10.9921
冰冷	-10.9921
孤苦	-10.9921
恭喜	-10.9922
修习内功	-10.9922
捡起	-10.9922
凶猛	-10.9923
遇险	-10.9923
决不致	-10.9923
师尊	-10.9924
放在桌上	-10.9924
愁苦	-10.9924
习练	-10.9924
关切	-10.9924
无碍	-10.9925
图画	-10.9925
才智	-10.9925
玩玩	-10.9926
任由	-10.9926
立誓	-10.9926
强忍	-10.9927
极厉害的	-10.9927
示意	-10.9929
新娘子	-10.993
援手	-10.993
大校场	-10.993
女娃娃	-10.9931
身在半空	-10.9931
得悉	-10.9932
迎敌	-10.9933
▁第三十	-10.9934
农家	-10.9934
了个空	-10.9934
抢夺	-10.9935
无赖	-10.9936
微微冷笑	-10.9937
何苦	-10.9937
▁第二十	-10.9938
逆行	-10.9939
装作	-10.9939
酒饭	-10.9939
众百姓	-10.9939
我兄弟	-10.9939
花香	-10.9939
行径	-10.9939
一痛	-10.994
怪文	-10.994
痛哭	-10.994
风吹	-10.994
处境	-10.994
枪法	-10.9941
流血	-10.9941
夺去	-10.9942
何用	-10.9943
做个	-10.9943
利剑	-10.9944
保护	-10.9944
发现	-10.9944
郭家	-10.9945
射来	-10.9945
亲随	-10.9946
轰轰	-10.9946
疾刺	-10.9946
暗暗吃惊	-10.9947
那魔头	-10.9947
不脱	-10.9947
恨不得	-10.9948
来找	-10.9948
震动	-10.9949
抚着	-10.9949
小事	-10.9953
向李莫愁	-10.9956
两侧	-10.9958
胜得过	-10.996
临安府	-10.9961
曾说	-10.9962
二女	-10.9965
写得	-10.9966
充满了	-10.9966
回桃花岛	-10.9967
不止	-10.9968
不枉了	-10.9968
安好	-10.9968
好小子	-10.9971
两尺	-10.9971
传过	-10.9971
提剑	-10.9973
凡是	-10.9973
陪笑	-10.9973
山西	-10.9974
求情	-10.9975
夺得	-10.9976
这魔头	-10.9977
脚力	-10.9979
只知	-10.998
朱聪等	-10.9982
去买	-10.9983
世事	-10.9983
你说我	-10.9986
为主	-10.999
古墓中	-10.9991
深情	-10.9993
之故	-10.9994
更甚	-10.9995
满身	-10.9995
帮着	-10.9996
用手指	-10.9996
领着	-10.9997
那船	-10.9997
相求	-11.0002
郭靖依言	-11.0004
处女	-11.0006
倒在地下	-11.0008
’!”	-11.0011
出墓	-11.0012
见到杨过	-11.0015
之约	-11.0015
▁那渔人	-11.0016
不假	-11.0017
和李莫愁	-11.0022
我且	-11.0022
刺中	-11.0023
留心	-11.0025
满心	-11.0025
椅上	-11.0026
停住	-11.0031
所书	-11.0031
回掌	-11.0032
一线	-11.0034
难解	-11.0035
一放	-11.0037
惶恐	-11.004
一辈	-11.0043
▁那少年	-11.0044
小石子	-11.0045
双拳	-11.0046
神色间	-11.0049
浑不	-11.0049
发招	-11.0052
谁要你	-11.0053
冲天	-11.0053
立足	-11.0054
没见到	-11.0058
拿住了	-11.0066
心生	-11.0067
向欧阳锋	-11.0072
仰头	-11.0073
跟我们	-11.0074
撞向	-11.0075
转出	-11.0075
都是一惊	-11.0077
一个小小	-11.0079
对你说	-11.008
心血	-11.0081
枪头	-11.0083
阻住	-11.0083
未免太	-11.0086
上峰	-11.0088
这时却	-11.009
▁马光佐	-11.0101
余下的	-11.0103
小孩子	-11.0105
黄蓉拍手	-11.0105
尖刺	-11.0105
家中	-11.0105
分离	-11.0106
乱打	-11.0108
却是个	-11.0109
居中	-11.011
也不理会	-11.0111
这一惊	-11.0115
三剑	-11.0118
妙法	-11.012
长发	-11.0121
挂着	-11.0122
不久便	-11.0125
了一场	-11.0126
够了	-11.0127
心中甚是	-11.0127
铁掌山	-11.0128
有理	-11.0129
大口	-11.0133
马蹄声	-11.0133
但此刻	-11.0136
竟要	-11.014
言语中	-11.0141
隆	-11.0146
▁华筝	-11.0157
咱们先	-11.016
红了	-11.0162
当前	-11.0165
舍命	-11.0167
爬起	-11.017
箭射	-11.0172
▁孙婆婆	-11.0174
大力	-11.0178
稍一	-11.0185
见物	-11.0198
数招一	-11.0201
这一脚	-11.0201
这一刀	-11.0201
不喜欢	-11.0205
去捉	-11.0213
再加	-11.0215
横过	-11.0216
矮胖子	-11.0224
铁剑	-11.0225
攻到	-11.0233
两剑	-11.0234
书画	-11.0235
出鞘	-11.0238
无能	-11.0245
说些	-11.0246
甘心	-11.0246
心地	-11.0249
见了他	-11.0249
妇人	-11.025
骂得	-11.0253
目不	-11.0254
原也	-11.0255
干么不	-11.0257
人数	-11.0258
教过	-11.0263
总得	-11.0264
踏上	-11.0269
惊得	-11.0272
了多少	-11.0274
祖师	-11.0275
隐身	-11.0278
▁黄蓉心想	-11.0286
猛攻	-11.0288
摔下	-11.0288
的道人	-11.0293
击下	-11.0296
问她	-11.0298
那道士	-11.031
不自禁	-11.0313
戴上	-11.0315
北边	-11.0316
也罢	-11.0321
方得	-11.0327
发劲	-11.0327
满是	-11.0329
武功虽然	-11.0339
鹰	-11.0339
也奇怪	-11.0348
北上	-11.0355
铁锤	-11.0357
定能	-11.0359
冲去	-11.036
险恶	-11.0362
武官	-11.0364
乎	-11.0366
责骂	-11.0377
和郭芙	-11.0382
快些	-11.0388
剑光	-11.039
喉	-11.039
此人武功	-11.0394
也顾不得	-11.0397
丸	-11.0399
杨过一怔	-11.0401
箱	-11.0403
愿意	-11.0408
阻挡	-11.0409
咬牙	-11.0412
贸然	-11.0414
太多	-11.0415
守着	-11.0415
草原	-11.042
此去	-11.0421
耻	-11.0421
要死	-11.0421
恰	-11.0425
传我	-11.0425
同声	-11.0426
踪	-11.0426
从没	-11.0428
帽	-11.0431
深陷	-11.0431
井	-11.0434
捡	-11.0434
禀	-11.0435
紧迫	-11.0437
循	-11.0437
绿衫	-11.0438
纪	-11.0438
谭	-11.0438
妾	-11.0439
寝	-11.044
巴	-11.044
赵王	-11.044
造诣	-11.044
姬	-11.044
七日七夜	-11.0441
暴躁	-11.0441
骸骨	-11.0441
挪	-11.0441
鸭	-11.0441
鹿	-11.0441
丰	-11.0441
诏	-11.0441
莫名其妙	-11.0441
心念	-11.0441
轴	-11.0441
弥	-11.0441
蚌	-11.0441
近年来	-11.0442
浩	-11.0442
成千成万	-11.0442
酷	-11.0442
岳爷爷	-11.0442
剧烈	-11.0442
偶尔	-11.0442
坐起身来	-11.0442
断肠草	-11.0442
迭	-11.0442
坛	-11.0442
鉴	-11.0442
刹那间	-11.0442
祝寿	-11.0442
神龙摆尾	-11.0442
有话	-11.0442
阔阔出	-11.0442
八袋弟子	-11.0442
我义父	-11.0442
黯然销魂掌	-11.0442
放在眼里	-11.0442
置之度外	-11.0442
半枚丹药	-11.0442
一时三刻	-11.0442
东南西北	-11.0442
做声不得	-11.0442
妙手书生	-11.0442
厄	-11.0442
讲究	-11.0442
精神大振	-11.0442
犹豫	-11.0442
踹	-11.0442
溃	-11.0442
帷	-11.0442
e	-11.0442
沉沉睡去	-11.0443
傍晚	-11.0443
戒备	-11.0443
白眉僧	-11.0443
是真是假	-11.0443
越听越	-11.0443
一跃而起	-11.0443
自忖	-11.0443
哭泣	-11.0443
御敌	-11.0443
告辞	-11.0444
灰尘	-11.0444
穆姊姊	-11.0444
钦服	-11.0444
利刃	-11.0444
吸一口气	-11.0444
宾客	-11.0445
污泥	-11.0445
乃蛮	-11.0445
形状	-11.0445
颜色	-11.0446
棺木	-11.0446
群豪	-11.0446
凝思	-11.0446
宛然	-11.0446
长春子丘处机	-11.0446
天下无双	-11.0446
多少时候	-11.0447
谢罪	-11.0447
恶妇	-11.0447
一般见识	-11.0447
奸恶	-11.0448
汉语	-11.0448
酣斗	-11.0449
凶恶	-11.045
婚事	-11.045
全仗	-11.0451
广东	-11.0451
守护	-11.0453
重逢	-11.0453
今年	-11.0453
催马	-11.0453
处置	-11.0453
一阵剧痛	-11.0454
画像	-11.0454
退避	-11.0454
十五掌	-11.0454
练剑	-11.0455
撇下	-11.0456
微微一惊	-11.0456
忽听身后	-11.0457
高僧	-11.0457
瞪着	-11.0457
该当如何	-11.0458
沉沉	-11.0459
相传	-11.0459
罢休	-11.0459
性命难保	-11.046
转念又想	-11.046
火堆	-11.0461
重阳	-11.0461
铁棒	-11.0463
非凡	-11.0464
径往	-11.0464
在那边	-11.0465
▁又过	-11.0465
踢出	-11.0466
气喘	-11.0466
一想	-11.0467
睡着	-11.0467
举步	-11.047
之技	-11.0472
杖法	-11.0473
宝马	-11.0473
眼色	-11.0473
右拳	-11.0474
若说	-11.0474
子孙	-11.0474
一只手	-11.0475
鬼怪	-11.0475
请各位	-11.0478
痛苦	-11.0478
受重伤	-11.048
药丸	-11.0481
虚招	-11.0482
存心要	-11.0483
抢去	-11.0484
劲敌	-11.0485
天性	-11.0487
了几分	-11.0487
落败	-11.0488
收势	-11.049
点燃了	-11.0492
无计	-11.0493
服食	-11.0495
何事	-11.0499
也不以为意	-11.0503
四尺	-11.0506
扑上去	-11.0507
各路	-11.0509
外功	-11.0511
之恩	-11.0512
想像	-11.0512
满地	-11.0512
蒙古包	-11.0513
在水中	-11.0515
进击	-11.0515
作势	-11.0518
同门	-11.0518
▁陆乘风	-11.052
归天	-11.0521
背负	-11.0524
比拚	-11.0525
仇怨	-11.053
小妹子	-11.0531
侧过	-11.0531
刷的一	-11.0534
扬起	-11.0537
毒气	-11.0538
直立	-11.0544
老实	-11.0545
带动	-11.0546
这丫头	-11.0548
堂上	-11.0548
你怎么啦	-11.0549
铃声	-11.0549
变成	-11.0549
灵便	-11.0552
天黑	-11.0554
的衣袖	-11.0556
乱石	-11.0559
多日	-11.056
冲入	-11.0561
带到	-11.0563
转弯	-11.0566
知他是	-11.0571
始终没	-11.0572
光闪烁	-11.0572
扑到	-11.0574
以内力	-11.0576
两日	-11.0576
▁那道人	-11.0582
去找他	-11.0588
解了	-11.0589
四弟子	-11.0589
毙了	-11.059
一缩	-11.059
▁这一来	-11.0592
直奔	-11.0593
数十年来	-11.0594
讲到	-11.0596
那妇人	-11.0598
▁哪知	-11.0601
生长	-11.0605
翻转	-11.0605
▁江南六怪	-11.0611
砰的一	-11.0611
那老丐	-11.0611
等情	-11.0617
之伤	-11.062
百年	-11.0623
难言	-11.0626
还击	-11.0629
牛羊	-11.0632
直扑	-11.0637
制住	-11.0639
闪过	-11.064
郭靖摇头	-11.0645
任谁	-11.0648
压得	-11.065
见到她	-11.0654
还会	-11.0656
教中	-11.0659
李莫愁师徒	-11.0661
捉了	-11.0661
约有	-11.0671
一棒	-11.0672
好姑娘	-11.0674
小儿	-11.0674
▁第十	-11.0678
声呼叫	-11.0682
有甚么用	-11.0684
席上	-11.0687
小鬼	-11.0687
第三个	-11.0689
行到	-11.0695
两手	-11.0696
▁慈恩	-11.0699
半空	-11.0705
罢手	-11.0706
陪我	-11.0707
爹爹说	-11.0708
▁郭	-11.071
斟了	-11.0712
倚在	-11.0715
听到他	-11.0715
女孩儿	-11.0716
斟	-11.0716
睡在	-11.0722
的徒弟	-11.0725
径向	-11.0737
现下你	-11.0739
快逃	-11.0753
跌得	-11.076
枪尖	-11.076
处穴道	-11.0763
领了	-11.0774
不避	-11.0777
就在这	-11.0782
还怕	-11.0786
马钰等	-11.0788
人情	-11.0792
笑问	-11.0793
想必	-11.0797
眼角	-11.0797
三师父	-11.0798
一个少年	-11.0804
副	-11.0814
一卷	-11.0815
如此厉害	-11.0817
开城	-11.0819
在左近	-11.082
人间	-11.0825
掉下	-11.0825
樵子	-11.0826
棺中	-11.0836
又行	-11.0838
碑上	-11.0848
不还手	-11.0865
安稳	-11.087
无疑	-11.0873
几十	-11.0875
就算是	-11.0878
拉住了	-11.0879
影子	-11.088
大金国的	-11.0881
托在	-11.0883
虽说	-11.0895
英雄豪杰	-11.09
响起	-11.0906
藏着	-11.0906
跟我来	-11.0907
十指	-11.0912
长身	-11.093
迟了	-11.093
拉开	-11.0933
可说是	-11.0934
碟	-11.0935
谁敢	-11.094
一松	-11.0942
姓杨的	-11.0949
进房	-11.0949
崖边	-11.0952
晕倒	-11.0954
左拳	-11.0956
筹	-11.0958
两只手	-11.0962
落得	-11.0963
次晨	-11.0967
骇	-11.0968
奴	-11.0972
都不禁	-11.0975
侄	-11.0978
见他脸色	-11.098
跟他说	-11.098
隙	-11.0984
一阵阵	-11.0984
搏	-11.0984
霎	-11.0987
捷	-11.0987
飞过	-11.0989
耐	-11.099
泄	-11.099
呕	-11.0993
冈	-11.0993
才能	-11.0993
尼	-11.0994
赶快	-11.0995
漆	-11.0995
再好也没有	-11.0995
藏边五丑	-11.0995
郁	-11.0995
洒	-11.0996
录	-11.0996
在华山绝顶	-11.0996
窍	-11.0996
侮	-11.0996
摩	-11.0996
葛	-11.0996
魄	-11.0996
欠	-11.0996
徐	-11.0996
灶	-11.0996
斫	-11.0996
易如反掌	-11.0997
殉	-11.0997
蔽	-11.0997
卑	-11.0997
伞	-11.0997
刑	-11.0997
四大长老	-11.0997
践	-11.0997
低下头来	-11.0997
行侠仗义	-11.0997
诉	-11.0997
熏	-11.0997
驯	-11.0997
堪堪	-11.0997
锭	-11.0997
双剑合璧	-11.0997
大惊失色	-11.0997
姓郭的小子	-11.0997
风陵渡	-11.0997
五毒神掌	-11.0997
飘逸	-11.0997
天翻地覆	-11.0997
武氏父子	-11.0997
郁郁	-11.0997
咬紧牙关	-11.0997
议论	-11.0997
腮	-11.0997
夷	-11.0997
尾巴	-11.0997
翘	-11.0997
点苍渔隐	-11.0998
栏	-11.0998
范	-11.0998
委屈	-11.0998
纹丝不动	-11.0998
叔侄	-11.0998
见识见识	-11.0998
大惑不解	-11.0998
得粉碎	-11.0998
伟	-11.0998
筋疲力尽	-11.0998
姊夫	-11.0998
何沅君	-11.0998
严厉	-11.0998
寂静无声	-11.0998
责备	-11.0998
帐幕	-11.0998
神骏	-11.0998
说给我听	-11.0998
娇艳	-11.0999
师侄	-11.0999
李师伯	-11.0999
趋避	-11.0999
昼	-11.0999
烟雾	-11.1
智计	-11.1
新婚	-11.1
赵王爷	-11.1
尹师兄	-11.1
求恳	-11.1
凑巧	-11.1
凄苦	-11.1
杂毛	-11.1001
虎虎	-11.1001
麻木	-11.1001
怔怔的望着	-11.1001
争吵	-11.1001
获胜	-11.1001
她手腕	-11.1001
天下无敌	-11.1002
饮食	-11.1002
杨兄	-11.1002
部族	-11.1002
蛇毒	-11.1002
饭铺	-11.1002
肚皮	-11.1002
六侠	-11.1004
厮守	-11.1005
玩弄	-11.1005
同伴	-11.1005
房屋	-11.1006
悲痛	-11.1006
舱门	-11.1006
掀开	-11.1006
长啸	-11.1007
手中拿着	-11.1007
了一个多时辰	-11.1008
盖世	-11.1008
无大碍	-11.1009
脱险	-11.1009
葬身	-11.1009
奔了一阵	-11.1009
低呼	-11.101
罕见	-11.1011
男儿	-11.1011
银光	-11.1012
他生平	-11.1012
抛在地下	-11.1012
五轮	-11.1012
槐树	-11.1012
挥舞	-11.1013
到了何处	-11.1013
你怎知	-11.1014
兵刃相交	-11.1015
顺口	-11.1017
肚腹	-11.1018
伸手接过	-11.1019
尺来长	-11.1019
海边	-11.1019
柔情	-11.1019
美女	-11.102
时机	-11.102
大宗师	-11.1021
断臂	-11.1022
门下弟子	-11.1022
拿到	-11.1023
姓杨	-11.1023
数十招	-11.1024
年纪轻轻	-11.1024
大红	-11.1025
坐船	-11.1026
护着	-11.1027
毒液	-11.1028
美酒	-11.103
放脱	-11.1031
宝剑	-11.1032
近前	-11.1032
孙子	-11.1033
将近	-11.1033
而论	-11.1033
满面	-11.1036
两场	-11.1036
钢刺	-11.1036
雪花	-11.1036
写字	-11.1036
深夜	-11.1037
潜入	-11.104
礼法	-11.104
潜心	-11.1041
观战	-11.1042
松开	-11.1043
香气	-11.1044
亲传	-11.1045
家师	-11.1046
山坡上	-11.1046
这几位	-11.105
名目	-11.1052
进退	-11.1054
到这里来	-11.1054
门后	-11.1054
遗体	-11.1054
究是	-11.1055
带同	-11.1058
听他说得	-11.1058
言明	-11.1059
追逐	-11.106
拚了	-11.106
一咬牙	-11.1061
裹住	-11.1062
身随	-11.1063
南阳	-11.1063
见不到	-11.1064
悉	-11.1065
大雨	-11.1065
回过	-11.1069
月光下只见	-11.107
大驾	-11.1071
托着	-11.1071
细想	-11.1071
回入	-11.1073
回首	-11.1074
斥责	-11.1076
尚自	-11.1077
而为	-11.1082
羊腿	-11.1082
书写	-11.1083
▁张君宝	-11.1083
硬接	-11.1086
连夜	-11.1089
三个人	-11.109
那瘦丐	-11.1096
这边	-11.1098
下次	-11.1102
追出	-11.1104
磕了	-11.1106
探出	-11.1106
按在	-11.1107
迈步	-11.1108
化成	-11.1115
在田	-11.1116
瞧清楚	-11.1116
走过去	-11.1116
莫说	-11.1117
踢中	-11.1118
我怎能	-11.1119
还不是	-11.112
奇门	-11.1126
故人	-11.1129
众军	-11.1129
激得	-11.1131
喊声	-11.1143
穿出	-11.1144
闭住	-11.1144
两人一齐	-11.1145
见机	-11.1146
惨死	-11.1148
事迹	-11.1148
的手法	-11.115
片刻间已	-11.1151
条鲨鱼	-11.1152
多言	-11.1155
这剑	-11.1157
了一些	-11.1164
入门	-11.1166
缩手	-11.1171
上山来	-11.1172
两掌	-11.1175
却见他	-11.1177
散乱	-11.1179
虽知	-11.1186
若在	-11.119
踢去	-11.1193
严守	-11.1195
响动	-11.1196
腾腾	-11.1197
▁六怪	-11.1198
为此	-11.1199
的规矩	-11.1199
也未必能	-11.1202
都感	-11.1206
同来	-11.1207
▁哲别	-11.121
阳光	-11.1212
树下	-11.1214
一番话	-11.122
散了	-11.1226
听声音	-11.1227
任帮主	-11.123
外边	-11.1231
的目光	-11.1234
巨石	-11.1238
逐出	-11.1238
相干	-11.1241
悟到	-11.1244
大火	-11.1249
▁达尔巴	-11.1249
向敌人	-11.1253
▁侯通海	-11.1254
借了	-11.1255
一面说	-11.1257
就走	-11.1257
瞧瞧去	-11.1258
人声	-11.126
安睡	-11.1263
伤得	-11.1266
说了一遍	-11.1268
骑在	-11.1268
欺侮你	-11.1268
十余人	-11.1277
所为	-11.1278
百斤	-11.1278
的姓名	-11.1281
姓郭	-11.1282
黄河	-11.1294
囊中	-11.1294
练到了	-11.1297
五年	-11.1303
更为	-11.1306
这一路	-11.1306
冲进	-11.1312
脚踢	-11.132
最高	-11.1324
一轮	-11.1325
一问	-11.1326
太平	-11.1331
回头向	-11.1332
只道是	-11.1342
略有	-11.1352
后殿	-11.1352
的坐骑	-11.1369
踪迹	-11.1369
听话	-11.1371
解说	-11.1372
紧闭	-11.1375
绝招	-11.1381
得多了	-11.1384
我可要	-11.1385
大战	-11.1385
向前急	-11.1386
举掌	-11.1389
在大漠	-11.1391
急冲	-11.1402
十几	-11.1403
郭靖听了	-11.1405
要将他	-11.141
拂中	-11.1419
虽非	-11.142
几个字	-11.1421
艘	-11.1425
溜下	-11.1428
守得	-11.1433
有什么	-11.1436
便此	-11.1439
柴草	-11.1449
刷刷刷	-11.1449
男的	-11.1455
想念	-11.1462
西北方	-11.1464
入口	-11.1466
再比	-11.1468
你们要	-11.147
均知	-11.1472
宰	-11.1478
有失	-11.1482
话中	-11.1485
见情势	-11.1493
常说	-11.1496
奔逃	-11.1497
饶他	-11.1498
步而行	-11.1498
朵	-11.1509
之能	-11.1513
唤	-11.1513
马缰	-11.1513
打扰	-11.1515
树丛中	-11.1517
去找寻	-11.1527
湖中	-11.1528
拿出	-11.1529
睛	-11.153
在嘉兴	-11.1534
伸左手	-11.1535
害你	-11.1543
甲板	-11.1548
楼下	-11.1551
希罕	-11.1556
谓	-11.1561
不敢再说	-11.1563
其实是	-11.1563
递出	-11.1564
草丛	-11.1566
小可	-11.1569
胯	-11.157
居士	-11.1572
肝	-11.1572
思潮起伏	-11.1574
急驰	-11.1576
厉	-11.1579
躬	-11.1579
塌	-11.1579
帅	-11.1581
旁观众人	-11.1582
窟	-11.1582
郭靖和黄蓉	-11.1582
纤	-11.1583
稀	-11.1583
忆	-11.1584
诡	-11.1584
彩雪蛛	-11.1584
超	-11.1584
姬妾	-11.1584
寨	-11.1584
炸	-11.1584
泣	-11.1584
阿沅	-11.1584
仓卒	-11.1585
疆	-11.1585
魁	-11.1585
搅	-11.1585
愚	-11.1585
呼呼风响	-11.1585
瞪了一眼	-11.1585
耶律大爷	-11.1585
秤杆	-11.1585
傻里傻气	-11.1585
慑	-11.1585
迟钝	-11.1585
颠三倒四	-11.1585
站直身子	-11.1585
长春子	-11.1585
脸色苍白	-11.1585
恶狠狠的	-11.1585
卑鄙	-11.1585
后会有期	-11.1585
从头至尾	-11.1585
韩世忠	-11.1586
藏经阁	-11.1586
作恶多端	-11.1586
阴谋	-11.1586
朦胧	-11.1586
赌赛	-11.1586
泡	-11.1586
毛骨悚然	-11.1586
区区	-11.1586
讥嘲	-11.1586
目瞪口呆	-11.1586
拚个你死我活	-11.1586
独孤前辈	-11.1586
邦	-11.1586
呆在当地	-11.1586
刁	-11.1586
个鬼脸	-11.1586
侧耳倾听	-11.1586
自相残杀	-11.1586
的份儿	-11.1586
陶	-11.1586
小沙弥	-11.1586
喏	-11.1586
队伍	-11.1586
辔	-11.1586
诛	-11.1586
诚恳	-11.1586
三头蛟侯通海	-11.1586
严峻	-11.1586
柳妹	-11.1586
保佑	-11.1586
淫贼	-11.1587
驻	-11.1587
照耀	-11.1587
繁复	-11.1587
柯大侠	-11.1587
玉箫剑法	-11.1587
追踪	-11.1588
洪老前辈	-11.1588
音讯	-11.1588
齐声喝彩	-11.1588
跟在后面	-11.1588
喘息	-11.1588
她老人家	-11.1588
漆黑	-11.1588
故乡	-11.1589
断为两截	-11.1589
讥刺	-11.1589
傲慢	-11.1589
丘师伯	-11.1589
挂怀	-11.1589
幸亏	-11.1589
一个女子声音	-11.1589
断肠崖前	-11.1589
害羞	-11.159
双翅	-11.159
连绵	-11.159
岳母	-11.159
觅路	-11.159
疲累	-11.159
恩怨	-11.159
公鸡	-11.159
浑厚	-11.1591
奔腾	-11.1591
稍减	-11.1592
一动不动	-11.1592
谈谈	-11.1592
金环	-11.1593
华筝公主	-11.1593
瞧得明白	-11.1593
血迹	-11.1594
泥沙	-11.1594
碰撞	-11.1594
局面	-11.1594
再拆数	-11.1594
个不停	-11.1595
嘴角	-11.1595
美人儿	-11.1595
气愤	-11.1595
成婚	-11.1596
曲折	-11.1596
伤处	-11.1596
两柄长剑	-11.1597
爹妈	-11.1597
船板	-11.1598
听了此言	-11.1598
两丈	-11.1598
有多大	-11.1598
微晃	-11.1598
四王子	-11.1599
亲密	-11.1599
日后再	-11.1599
携带	-11.16
三长老	-11.1602
欺骗	-11.1602
低沉	-11.1602
武学中	-11.1602
容色	-11.1603
一心要	-11.1603
微侧	-11.1603
仗剑	-11.1605
瘦马	-11.1605
逆转	-11.1605
之遥	-11.1606
身子一晃	-11.1606
丐帮的帮主	-11.1606
后患	-11.1606
离岛	-11.1606
五丑	-11.1606
己方	-11.1607
追寻	-11.1607
千斤	-11.1607
脑后	-11.1607
升起	-11.1608
小哥	-11.161
银两	-11.1611
至宝	-11.1611
伸手往	-11.1611
牧人	-11.1612
相公	-11.1613
闭气	-11.1613
我一生	-11.1613
叫了几声	-11.1613
蛇阵	-11.1613
室门	-11.1613
来袭	-11.1613
腰刀	-11.1614
所擒	-11.1614
几个时辰	-11.1614
玩意	-11.1614
两个儿子	-11.1615
神通	-11.1616
缠斗	-11.1616
笑了笑	-11.1619
额上	-11.162
明月	-11.162
连续	-11.1621
险些儿	-11.1622
之状	-11.1623
寒意	-11.1624
提刀	-11.1624
柔儿	-11.1626
行止	-11.1626
嘉兴府	-11.1626
这柄	-11.1628
没死	-11.163
小溪	-11.1632
岂不是好	-11.1632
着恼	-11.1632
恨极	-11.1634
长鞭	-11.1634
自保	-11.1634
机会	-11.1634
缰绳	-11.1635
数合	-11.1635
几个月	-11.1636
活死人墓中	-11.1637
万难	-11.1638
纵上	-11.1639
就是这样	-11.1639
推拿	-11.1639
之象	-11.1639
光明	-11.1643
中途	-11.1643
远离	-11.1643
参见	-11.1645
刺伤	-11.1648
之位	-11.1649
疾向	-11.1649
来接	-11.165
疾忙	-11.165
甚远	-11.165
心中好生	-11.1651
但知	-11.1651
带领	-11.1652
落在地下	-11.1653
小师妹	-11.1653
书法	-11.1653
墓碑	-11.1653
掌柜的	-11.1657
大殿上	-11.1659
船夫	-11.1659
围着	-11.1659
明言	-11.1661
这份	-11.1664
忽然间	-11.1664
卷起	-11.1665
样子	-11.1666
敌意	-11.1668
随身	-11.167
只管	-11.1676
是也不是	-11.1676
跃上马背	-11.1677
不支	-11.1678
第一个	-11.1678
四面	-11.1678
迷迷糊糊的	-11.168
原可	-11.1683
一战	-11.1685
回夺	-11.1687
近处	-11.1689
挡得住	-11.1689
忽听得远处	-11.1693
怎肯	-11.1697
所料	-11.1698
看招	-11.1701
起落	-11.1703
骗你	-11.1705
一份	-11.1705
喜色	-11.1707
斗口	-11.1709
五行	-11.171
若肯	-11.1711
小嘴	-11.1713
你怎知道	-11.1717
舍却	-11.1718
叫一声	-11.172
一滴	-11.172
变得	-11.1727
起始	-11.1727
一个月	-11.1728
念及此	-11.1736
长声	-11.1739
定须	-11.174
他一生	-11.174
大袖	-11.174
我教你	-11.1742
这一击	-11.1742
流传	-11.1746
打坐	-11.1747
一弹	-11.1752
斯文	-11.1753
说着伸手	-11.1755
之礼	-11.1755
来找你	-11.1756
抛去	-11.1757
二子	-11.1764
在岛上	-11.1764
加之	-11.1765
出世	-11.1769
含笑	-11.1771
认定	-11.1773
船只	-11.1774
裤子	-11.178
光一闪	-11.1781
听见了	-11.1787
好生奇怪	-11.1787
大增	-11.1795
所杀	-11.1797
岩洞	-11.1797
只打得	-11.1798
都吃了一惊	-11.1801
洪七公与欧阳锋	-11.1802
大义	-11.1802
料定	-11.1803
难事	-11.1805
双手齐	-11.1805
足尖	-11.1811
两眼	-11.1811
凭他	-11.1812
点心	-11.1813
北风	-11.1816
个大字	-11.1823
取笑	-11.1825
拍去	-11.1825
那红马	-11.183
无辜	-11.1832
不作	-11.1835
丛中	-11.1837
这匹	-11.184
回剑	-11.1841
学着	-11.1846
不认	-11.1848
但因	-11.1854
处于	-11.1859
非常	-11.1869
金丝	-11.1872
不敬	-11.1878
长生	-11.1879
在窗外	-11.1884
那化子	-11.1889
转为	-11.1889
念及	-11.1892
踢开	-11.1894
罢啦	-11.1896
见怪	-11.1897
收留	-11.1899
剑鞘	-11.1899
刀枪	-11.1901
的方位	-11.1918
叽哩咕噜的	-11.1918
握住了	-11.1922
这是甚么	-11.1923
所及	-11.1932
舍命救	-11.1934
运内力	-11.1941
那男子	-11.1947
这傻蛋	-11.195
已抓住了	-11.1951
好似	-11.1958
又想起	-11.1962
到手	-11.1966
抬头望	-11.197
已不过	-11.197
生满	-11.1975
周伯通大喜	-11.1975
桩	-11.1976
也即	-11.1977
盼他	-11.198
就只怕	-11.1984
来寻	-11.1985
停在	-11.2004
师父们	-11.2004
有一天	-11.2008
你妈妈	-11.201
纵是	-11.201
十余丈外	-11.2015
之名	-11.2017
虽无	-11.202
完全	-11.203
营中	-11.2031
走过	-11.2039
是大出意料之外	-11.2041
叹了一口长气	-11.2044
已不知去向	-11.2044
挂在	-11.2046
在一边	-11.2046
小贼	-11.2046
一端	-11.2047
枚金针	-11.2048
殊无	-11.2051
两股	-11.2053
只见欧阳锋	-11.2054
回进	-11.2059
十人	-11.2061
臂弯	-11.2066
一丝	-11.2069
奔进	-11.2081
铃	-11.2081
背向	-11.2085
心里一	-11.2087
全神贯注	-11.2087
尸体	-11.2089
哭得	-11.2092
何况他	-11.2098
也不知是	-11.21
一曲	-11.2108
快出来	-11.2124
连珠	-11.2125
进屋	-11.214
好奇	-11.2141
充满	-11.2142
得清清楚楚	-11.2158
怔	-11.2158
▁过了	-11.2162
臀	-11.2167
孩	-11.2167
出于	-11.2174
已失	-11.2179
筝	-11.2185
室顶	-11.2186
我这就	-11.2186
慈	-11.2195
栗	-11.2196
只剩	-11.2197
觅	-11.2197
兀	-11.2199
就怕	-11.2199
册	-11.2199
材	-11.22
睁大	-11.2201
烛光	-11.2203
杰	-11.2206
西方	-11.2206
落英神剑掌	-11.2207
先天功	-11.2207
恳	-11.2207
滩	-11.2207
燃	-11.2208
忍耐	-11.2208
屎	-11.2208
彻	-11.2208
白驼山	-11.2208
校	-11.2209
涩	-11.2209
迸	-11.2209
嘉	-11.2209
摧	-11.2209
许配于	-11.2209
饼	-11.2209
涨	-11.221
隐隐作痛	-11.221
哑	-11.221
洞房花烛	-11.221
嘻嘻	-11.221
安安静静的	-11.221
庞	-11.221
矫	-11.221
婉	-11.221
滞	-11.221
偿	-11.221
移魂大法	-11.221
串	-11.221
破口大骂	-11.221
窘	-11.221
鼎	-11.221
秘奥	-11.221
郭二姑娘	-11.221
唔	-11.221
张志光	-11.221
盛怒之下	-11.221
谊	-11.221
千军万马	-11.221
迷惘	-11.221
光明磊落	-11.221
轻描淡写	-11.221
仪	-11.221
锭银子	-11.221
哭丧棒	-11.2211
武功再高	-11.2211
燕京	-11.2211
铁链	-11.2211
四面八方	-11.2211
热辣辣的	-11.2211
嘘	-11.2211
夭	-11.2211
一拥而上	-11.2211
克敌制胜	-11.2211
嗅	-11.2211
廊	-11.2211
挚	-11.2211
烦躁	-11.2211
摊	-11.2211
凸	-11.2211
许配给	-11.2211
百忙中	-11.2211
痊可	-11.2211
乌鸦	-11.2211
独个儿	-11.2211
貂	-11.2211
金刚杵	-11.2211
哎唷	-11.2211
绿衣弟子	-11.2211
见龙	-11.2211
大胜关	-11.2211
童大海	-11.2211
宠爱	-11.2211
敷	-11.2211
诡计多端	-11.2211
慈悲	-11.2211
铲	-11.2211
攀援	-11.2211
过意不去	-11.2211
铎	-11.2212
默然不语	-11.2212
具石棺	-11.2212
丑陋	-11.2212
这回事	-11.2212
官职	-11.2212
越说越	-11.2212
货	-11.2212
斑斑	-11.2212
秘密	-11.2212
妖妇	-11.2212
皮帽	-11.2212
振翅	-11.2212
武学之士	-11.2212
啼哭	-11.2213
海滩	-11.2213
野蜂	-11.2213
包氏	-11.2213
夫妻俩	-11.2213
遭逢	-11.2213
奉承	-11.2213
这少女	-11.2213
杨爷	-11.2213
浓烟	-11.2213
赔罪	-11.2213
庄主	-11.2214
岂敢	-11.2214
转瞬	-11.2214
惊骇	-11.2214
捕捉	-11.2214
锋利	-11.2214
站稳	-11.2215
内力深厚	-11.2215
比赛	-11.2215
分毫	-11.2215
昂首	-11.2215
的问话	-11.2215
隔了半晌	-11.2215
五哥	-11.2216
这样一来	-11.2216
娇美	-11.2216
全然不同	-11.2216
青袍	-11.2216
这些日子	-11.2216
施展轻功	-11.2216
粗浅	-11.2216
隔了一会	-11.2217
组成	-11.2217
鬼魂	-11.2217
行踪	-11.2218
颜面	-11.2218
灵台	-11.2218
了几遍	-11.2218
册子	-11.2219
二妹	-11.2219
过了好一阵	-11.2219
难保	-11.2219
转眼之间	-11.2219
天井	-11.222
蒙古鞑子	-11.222
试探	-11.222
喜慰	-11.222
上乘功夫	-11.222
箱子	-11.2221
伸手扶起	-11.2221
禁不住	-11.2222
发颤	-11.2222
流星	-11.2223
从所未见	-11.2224
南朝	-11.2224
两丐	-11.2225
十多名	-11.2225
一十六年	-11.2225
足印	-11.2225
依照	-11.2226
听了这几句话	-11.2226
相烦	-11.2226
反悔	-11.2226
王师弟	-11.2227
难以抵挡	-11.2227
按理	-11.2227
用得着	-11.2227
微弱	-11.2228
不传	-11.2229
眉间	-11.223
勃然	-11.223
坚实	-11.223
跳跃	-11.2231
罕有	-11.2231
骑兵	-11.2232
两银子	-11.2232
掌影	-11.2232
排成	-11.2233
青布	-11.2233
想法子	-11.2234
中神通	-11.2235
午后	-11.2235
鼓掌	-11.2236
信义	-11.2236
千金	-11.2237
沉猛	-11.2237
程二人	-11.2238
十余名	-11.2239
全真教中	-11.2239
冒犯	-11.224
黄色	-11.2242
路径	-11.2242
脸皮	-11.2243
绣着	-11.2244
惟有	-11.2244
恶念	-11.2245
奇险	-11.2247
争斗	-11.2248
留情	-11.2249
相劝	-11.2249
摇手	-11.225
长胡子	-11.225
伸手接住	-11.2252
旧事	-11.2253
大臣	-11.2257
榻上	-11.2257
庄子	-11.2258
心灵	-11.226
好生为难	-11.2261
七兄弟	-11.2261
土地	-11.2262
每个	-11.2263
他小腹	-11.2264
极目	-11.2265
份上	-11.2267
找些	-11.2268
无幸	-11.2268
精力	-11.2269
行功	-11.227
万一	-11.2271
穿上	-11.2274
军情	-11.2276
拳招	-11.2277
对己	-11.2278
不好意思	-11.2279
厉害之极	-11.2279
拜倒	-11.228
▁猛听得	-11.2283
挨打	-11.2285
退让	-11.2286
所制	-11.2286
异样	-11.2288
已不在	-11.2288
玩儿	-11.229
必可	-11.229
来见我	-11.2296
甚至	-11.2298
荒岛	-11.2298
手印	-11.2298
不知有多少	-11.2299
内外	-11.2302
石门	-11.2302
幽幽的	-11.2303
汗国	-11.2307
托住	-11.2309
横行	-11.2309
甚重	-11.2311
布囊	-11.2312
矛头	-11.2313
心中一惊	-11.2315
头皮	-11.2315
抹去	-11.2316
好东西	-11.2316
太子	-11.2319
宰了	-11.232
未定	-11.2322
往日	-11.2322
深重	-11.2323
来瞧瞧	-11.2327
会面	-11.2327
二十余年	-11.2335
骨头	-11.2335
约定	-11.2336
你可知道	-11.2336
海上	-11.2338
乱走	-11.2342
此外	-11.2345
掌劈	-11.2352
就可惜	-11.2353
迫得	-11.2354
当下也不	-11.2362
身处	-11.2362
强行	-11.2364
一尺	-11.2364
红花	-11.2371
叫了一声	-11.2372
害得	-11.2374
那矮子	-11.2374
惯了的	-11.2375
毫	-11.2377
搭在	-11.2377
驰来	-11.2378
之首	-11.238
女孩	-11.238
异人	-11.238
随从	-11.2381
自必	-11.2383
齐施	-11.2386
老丐	-11.2394
举剑	-11.2395
一觉	-11.2396
那姑娘	-11.2403
那婆婆	-11.2406
接住了	-11.2406
兵将	-11.2407
回教	-11.2407
这棒法	-11.2409
下地来	-11.2419
攻襄阳	-11.242
横梁	-11.2422
在武林中	-11.2423
▁待得	-11.2426
动怒	-11.2438
火头	-11.244
落入了	-11.2441
数倍	-11.2442
贱人	-11.2444
有约	-11.2446
杀害	-11.2454
发难	-11.2456
不理会	-11.2457
在道上	-11.246
脚边	-11.246
引得	-11.2461
庙门	-11.2462
两柄	-11.2464
练成了	-11.2471
个圆圈	-11.2477
得片刻	-11.2481
一语	-11.2482
好险	-11.2483
确也	-11.2485
师父是谁	-11.249
猛见	-11.2495
不屑	-11.2496
的消息	-11.2497
三成	-11.2497
剑身	-11.2498
这一推	-11.2499
的绝招	-11.2501
数下	-11.2502
杖上	-11.2506
▁突然间	-11.2507
树梢	-11.2511
转世	-11.2525
桌旁	-11.2526
之交	-11.253
既无	-11.2537
半枚	-11.2544
才把	-11.2545
水潭	-11.2549
不改	-11.2557
恩德	-11.256
姓郭的	-11.2562
郭靖一呆	-11.2565
▁各人	-11.2567
在帐中	-11.2568
算来	-11.2573
打败了	-11.2576
隐隐有	-11.2582
晃身	-11.2584
急退	-11.2587
所用的	-11.2588
左手抓住	-11.2589
也很	-11.259
就似	-11.2599
掌缘	-11.2605
踏在	-11.2606
多久	-11.2607
张渔网	-11.2607
三杯	-11.261
挥拳	-11.2615
官儿	-11.2616
他后心	-11.2621
你敢	-11.2623
来跟我	-11.2626
不坏	-11.2627
放回	-11.2647
一探	-11.2647
大雕	-11.2648
进帐	-11.2648
几岁	-11.265
扑面	-11.2654
信中	-11.2658
路旁	-11.2662
推去	-11.2669
看着	-11.267
围墙	-11.268
夹攻	-11.2684
滚开	-11.2687
草堆	-11.2689
压住	-11.2695
是甚么人	-11.2696
禀告	-11.2697
虽高	-11.2708
那张	-11.2708
睡去	-11.2709
我叫你	-11.2711
说下去	-11.2714
一角	-11.2733
抬头向	-11.2739
都曾	-11.2743
好友	-11.2744
少妇	-11.2754
齐名	-11.2754
山顶	-11.2763
好让	-11.2763
溜走	-11.2778
又多了	-11.2779
掌握	-11.278
极强	-11.278
伸出左手	-11.2786
弄得	-11.2788
急欲	-11.279
甩出	-11.2791
问明	-11.2797
出全力	-11.2804
几块	-11.2812
后领	-11.2823
输在	-11.2823
不暇	-11.2824
北京	-11.2825
点中了	-11.2826
遥望	-11.2839
菱	-11.2844
女郎	-11.285
割下	-11.2853
帕	-11.2853
青草	-11.2855
不禁暗暗	-11.2858
多想	-11.2858
也决计	-11.2858
松林	-11.2859
合十	-11.286
武林中人	-11.2861
缰	-11.2861
鳄	-11.2862
怦怦乱跳	-11.2862
皆是	-11.2863
之顶	-11.2864
康	-11.2867
恍	-11.2867
府中	-11.2869
粮	-11.2872
顷刻	-11.2872
诵	-11.2872
赛	-11.2873
身负	-11.2873
纷飞	-11.2874
钹	-11.2874
况	-11.2874
偶	-11.2874
疤	-11.2875
为两截	-11.2875
汁	-11.2875
噗	-11.2875
撩	-11.2875
髻	-11.2875
凤	-11.2876
垢	-11.2876
八卦	-11.2876
长春真人	-11.2876
值	-11.2876
朕	-11.2876
汴梁	-11.2876
岳武穆	-11.2876
元帅	-11.2876
省	-11.2876
切磋	-11.2876
玄门正宗	-11.2876
得心应手	-11.2876
椎	-11.2876
玉虚洞	-11.2876
菩萨	-11.2876
辈份	-11.2876
不计其数	-11.2876
贤侄	-11.2876
净衣派	-11.2877
扁	-11.2877
小武哥哥	-11.2877
有恃无恐	-11.2877
囚	-11.2877
羡	-11.2877
荷塘	-11.2877
毅	-11.2877
瞧在眼里	-11.2877
元史	-11.2877
横了一眼	-11.2877
上官剑南	-11.2877
豆	-11.2877
个寒噤	-11.2877
捣甚么鬼	-11.2877
念念不忘	-11.2877
到了极处	-11.2877
武功最强	-11.2877
赤手空拳	-11.2877
万夫长	-11.2877
心满意足	-11.2877
一瞬间	-11.2877
滨	-11.2877
东奔西	-11.2877
律	-11.2877
择	-11.2877
誉	-11.2877
转过头去	-11.2877
双腿一夹	-11.2877
孤零零的	-11.2877
我姑母	-11.2877
媚	-11.2877
巾	-11.2877
结结实实	-11.2877
奶奶	-11.2877
君臣	-11.2877
狐狸	-11.2877
依样葫芦	-11.2877
懈	-11.2877
柳叶刀	-11.2877
棉	-11.2877
伺	-11.2877
怒气勃发	-11.2877
金刀驸马	-11.2877
扒	-11.2877
沟	-11.2877
是何等样人	-11.2877
遁	-11.2877
猱身	-11.2877
胸膛	-11.2877
茫然不解	-11.2878
辉	-11.2878
凝望	-11.2878
喜出望外	-11.2878
沿途	-11.2878
心念一转	-11.2878
垫	-11.2878
俘虏	-11.2878
似笑非笑	-11.2878
叮叮	-11.2878
双手互搏	-11.2878
咱哥儿俩	-11.2878
那胖子	-11.2878
鲁莽	-11.2878
蒲儿帖	-11.2878
惊怒交集	-11.2878
温暖	-11.2878
行了一礼	-11.2878
糟糕	-11.2878
两头白雕	-11.2878
应手而	-11.2878
荒僻	-11.2878
密密层层	-11.2878
根柢	-11.2878
迂	-11.2878
侮辱	-11.2878
凶多吉少	-11.2878
萼儿	-11.2878
从怀里取出	-11.2878
劈空掌	-11.2878
花瓣	-11.2878
仰天大笑	-11.2879
崇	-11.2879
机括	-11.2879
篙	-11.2879
含泪	-11.2879
郭大爷	-11.2879
周密	-11.2879
奋勇	-11.2879
李莫愁拂尘	-11.2879
破空之声	-11.2879
历史	-11.2879
李氏	-11.2879
好生失望	-11.2879
沙漠	-11.2879
仰慕	-11.2879
哇哇大叫	-11.2879
焚烧	-11.2879
吐纳	-11.2879
贪图	-11.2879
我知道啦	-11.2879
漠北	-11.288
杨公子	-11.288
心神不定	-11.288
假扮	-11.288
油灯	-11.288
感慨	-11.288
帮规	-11.288
伯通	-11.288
剧震	-11.288
焦木大师	-11.2881
思量	-11.2881
站在当地	-11.2881
鬓边	-11.2881
一个筋斗翻	-11.2881
悠悠醒转	-11.2881
荡荡	-11.2881
水帘	-11.2881
哪肯	-11.2882
躺着	-11.2882
撑持	-11.2882
本拟	-11.2882
伸手去接	-11.2882
何尝	-11.2882
侧身避开	-11.2882
仗义	-11.2883
并不答话	-11.2883
放屁	-11.2883
勾结	-11.2883
红烛	-11.2883
屏风	-11.2883
轻轻一推	-11.2884
黑夜之中	-11.2884
躲了起来	-11.2884
及不上	-11.2884
逼迫	-11.2885
六弟	-11.2885
欺压	-11.2885
遗训	-11.2885
光彩	-11.2886
四大弟子	-11.2886
何方	-11.2886
神技	-11.2886
逐渐	-11.2886
铁舟	-11.2886
第三次	-11.2886
一声喊	-11.2886
麻袋	-11.2887
赤练仙子李莫愁	-11.2887
七十二	-11.2887
月余	-11.2887
呆呆的望着	-11.2887
送了性命	-11.2887
花驴	-11.2888
拦路	-11.2888
短短	-11.2888
忍痛	-11.2888
满腹	-11.2889
外敌	-11.2889
算计	-11.289
口唇	-11.289
跳了起来	-11.289
悲苦	-11.289
风景	-11.289
当先一人	-11.289
垂首	-11.2891
半寸	-11.2891
身子摇晃	-11.2891
掩面	-11.2891
众军士	-11.2892
形容	-11.2892
流了下来	-11.2892
精熟	-11.2892
好哇	-11.2893
相触	-11.2893
到哪里去啦	-11.2893
护送	-11.2893
深仇	-11.2894
亲切	-11.2894
孤身	-11.2894
吼叫	-11.2895
也遂	-11.2895
这几句话说得	-11.2895
酒保	-11.2895
二十年前	-11.2896
先锋	-11.2896
任意	-11.2897
侍从	-11.2898
方圆	-11.2898
争夺	-11.2898
众亲兵	-11.2898
铸成	-11.2898
斧头	-11.2898
显露	-11.2898
允可	-11.2899
黑夜中	-11.29
读四人	-11.29
真乃	-11.2901
反弹	-11.2901
二十余	-11.2901
这位前辈	-11.2901
合围	-11.2902
发见	-11.2902
抢步	-11.2903
报应	-11.2903
歹人	-11.2905
青衣	-11.2905
远不如	-11.2906
说了几句	-11.2906
板门	-11.2906
给我瞧瞧	-11.2906
下头去	-11.2907
血色	-11.2908
疯子	-11.2908
相顾	-11.2909
一动也不动	-11.2909
忽施	-11.2909
疑难	-11.291
有缘	-11.2911
相护	-11.2911
细微	-11.2911
狂风	-11.2911
这一掷	-11.2912
矮身	-11.2913
郭兄弟	-11.2913
未答	-11.2914
如刀	-11.2914
三路	-11.2915
流露出	-11.2915
长袖	-11.2916
打赌	-11.2917
来找我	-11.2918
精明	-11.2918
几乎要	-11.2918
实则	-11.2919
小娃娃	-11.2919
的一声大叫	-11.292
哪里来的	-11.2921
两片	-11.2921
专心	-11.2922
偷学	-11.2922
大感诧异	-11.2923
难民	-11.2923
活活	-11.2925
拔起	-11.2926
哭声	-11.2927
小贱人	-11.2929
居然还	-11.293
不再说话	-11.2931
有几分	-11.2931
横刀	-11.2932
上马背	-11.2934
垂手	-11.2935
老英雄	-11.2936
尽快	-11.2941
不甘	-11.2941
架子	-11.2942
大爷	-11.2942
白骨	-11.2943
窗下	-11.2943
真传	-11.2944
总不能	-11.2945
至少	-11.2945
板凳	-11.2945
项颈	-11.2946
伤感	-11.2948
回臂	-11.2949
第五	-11.295
扬手	-11.2951
学全	-11.2953
怪招	-11.2954
流水	-11.2955
满口	-11.2957
名满	-11.2957
一匹马	-11.2958
败在	-11.2958
这样罢	-11.296
到了这里	-11.2961
的名号	-11.2963
为止	-11.2964
两穴	-11.2964
抢起	-11.2966
这老贼	-11.2967
会使	-11.2967
袋中	-11.2969
轰然	-11.2969
部位	-11.297
心中奇怪	-11.2971
这张	-11.2971
盘子	-11.2973
齐叫	-11.2973
落空	-11.2975
敌招	-11.2976
大师哥	-11.2976
▁觉远	-11.2977
冲击	-11.2977
气运	-11.2978
蛇头	-11.2979
这奸贼	-11.298
的痕迹	-11.2981
过节	-11.2982
听人说	-11.2984
坐起	-11.2985
岸上	-11.2985
送入	-11.2988
在洞口	-11.299
年纪比	-11.2995
▁颜烈	-11.2995
不识得	-11.2996
逼开	-11.3
到哪里去了	-11.3002
两个少年	-11.3003
摔出	-11.3006
洪七公摇头	-11.3007
上楼	-11.3007
只恨	-11.3008
而立	-11.3009
女孩儿家	-11.301
全神贯注的	-11.3011
的尸体	-11.3011
那小子	-11.3012
今日之事	-11.3016
已奔到	-11.3017
没有啊	-11.302
平地	-11.3021
▁那公子	-11.3025
脱出	-11.3026
之义	-11.3026
疾驰而	-11.3026
接任	-11.3027
服药	-11.3027
七八个	-11.3029
▁过了一会	-11.303
半日	-11.3033
▁李萍	-11.3038
领军	-11.3039
无知	-11.3041
有这许多	-11.3042
连问	-11.3044
相击	-11.3048
大忌	-11.3049
罩在	-11.3054
那藏僧	-11.3054
直向	-11.3056
石碑	-11.306
去禀告	-11.3062
万想不到	-11.3062
一个少女	-11.3063
势危	-11.3067
之女	-11.3068
装得	-11.308
十五年	-11.3086
忧急	-11.3087
上前动手	-11.3097
脸孔	-11.3099
指望	-11.31
进厅	-11.3102
有多少	-11.3102
截住	-11.3103
近身来	-11.3104
出去罢	-11.3107
那樵子	-11.3108
轻拍	-11.3108
西南	-11.3108
死不了	-11.3113
▁郝大通	-11.3117
这臭小子	-11.3117
事事	-11.3122
及时	-11.3125
用强	-11.3132
数百名	-11.3135
东首	-11.3137
下拜	-11.3139
决不敢	-11.3141
一抬头	-11.3144
殿后	-11.3152
走路	-11.3152
在墓中	-11.3152
分头	-11.3154
欺侮我	-11.3154
颇感	-11.3155
庙中	-11.3156
强自	-11.3158
竟连	-11.3159
堕入	-11.3161
一插	-11.3162
三千	-11.3167
了几声	-11.3171
下卷	-11.3178
未必就	-11.3181
这小丫头	-11.3185
这句	-11.3187
怀抱	-11.3197
托大	-11.3199
被逼	-11.32
折断了	-11.3207
国王	-11.3209
自杀	-11.3215
还记得	-11.3221
那条	-11.3225
一顶	-11.3227
回去罢	-11.3231
跌出	-11.3232
一登	-11.324
如不是	-11.3241
的威名	-11.3245
房里	-11.3246
墙角	-11.3248
第二次	-11.3256
飞跃	-11.3262
帮主之位	-11.3277
想得到	-11.3286
这一番	-11.3294
却不见	-11.3295
东方	-11.3301
碎片	-11.3302
均各	-11.3305
跑得	-11.3309
他的手臂	-11.331
天晚上	-11.331
一月	-11.3311
出谷	-11.3314
一格	-11.3316
嗤的一	-11.3316
须得先	-11.3319
有物	-11.3328
河南	-11.3328
怎么能	-11.3344
也不想	-11.3346
一艘	-11.3358
进店	-11.336
轻挥	-11.3365
心跳	-11.3377
决不是	-11.3381
入海	-11.3388
捣乱	-11.3396
一起去	-11.341
亲亲	-11.3423
亦无	-11.3425
喝止	-11.3442
相扶	-11.3452
只觉得	-11.3457
掏	-11.3465
在树上	-11.3467
已抵	-11.347
我妹妹	-11.3473
盗去	-11.3474
逼出	-11.3474
是全真派的	-11.3481
相撞	-11.3483
敌不过	-11.3491
好胜	-11.3493
厢	-11.3495
没听见过	-11.3504
叫苦	-11.351
鞭子	-11.3514
说不上	-11.3515
请进	-11.3519
那贵官	-11.353
说得好	-11.3546
动手罢	-11.3546
罕	-11.3548
少年人	-11.3549
听见过	-11.355
动也不动	-11.3558
战马	-11.3562
逼着	-11.3562
哇	-11.3573
从所未	-11.3576
精奥	-11.358
整整齐齐	-11.3581
屋外	-11.3582
颠	-11.3584
手爪	-11.3585
半空中	-11.3585
蓄	-11.3587
匠	-11.3588
断龙石	-11.3589
雀	-11.3589
俨然	-11.3589
韧	-11.3589
闺	-11.359
宇	-11.359
晋	-11.359
钳	-11.359
敏	-11.359
秤	-11.359
污衣派	-11.359
深不可测	-11.359
饥	-11.359
豆腐	-11.3591
睹	-11.3591
n	-11.3591
胫	-11.3591
厌憎	-11.3591
成平手	-11.3591
i	-11.3591
寡不敌众	-11.3591
一败涂地	-11.3591
歉仄	-11.3591
轻轻巧巧的	-11.3591
翻翻滚滚	-11.3591
打定了主意	-11.3591
眸	-11.3591
捆	-11.3591
心甘情愿	-11.3591
揽	-11.3591
遥遥望见	-11.3591
哑梢公	-11.3591
愠	-11.3591
判	-11.3591
愉	-11.3591
昏昏沉沉	-11.3591
高姓大名	-11.3591
乏	-11.3591
口口声声	-11.3591
鲁老伯	-11.3591
奈何不了	-11.3591
弩	-11.3591
匪夷所思	-11.3591
缕	-11.3591
模糊	-11.3591
诺	-11.3592
也是枉然	-11.3592
武功再强	-11.3592
姨	-11.3592
无耻之徒	-11.3592
撅	-11.3592
汤祖德	-11.3592
沮丧	-11.3592
五毒秘传	-11.3592
嫡传	-11.3592
藉	-11.3592
手足无措	-11.3592
脸如死灰	-11.3592
滑稽	-11.3592
史仲猛	-11.3592
相顾骇然	-11.3592
心中甚喜	-11.3592
郭世兄	-11.3592
锄	-11.3592
醋	-11.3592
诃额伦夫人	-11.3592
小杂种	-11.3592
陵	-11.3592
大叫大嚷	-11.3592
罐	-11.3592
相视一笑	-11.3592
法华寺	-11.3592
渴	-11.3592
目眩	-11.3592
筹思	-11.3592
衔	-11.3592
舅舅	-11.3592
啊唷	-11.3592
武功大进	-11.3592
充耳不闻	-11.3592
心痒难搔	-11.3592
一顿饭时分	-11.3592
憎恨	-11.3592
祠堂	-11.3592
点中了穴道	-11.3592
a	-11.3592
低下了头	-11.3592
青灵子	-11.3592
冤枉	-11.3592
蒲扇	-11.3592
这会儿	-11.3592
天真烂漫	-11.3592
颚	-11.3592
果然名不虚传	-11.3593
占了便宜	-11.3593
救命之恩	-11.3593
镬	-11.3593
俊雅	-11.3593
剌	-11.3593
船舷	-11.3593
漆黑一团	-11.3593
智慧	-11.3593
凄凉	-11.3593
亚	-11.3593
惨厉	-11.3593
越打越	-11.3593
判官笔	-11.3593
秀丽	-11.3593
跪倒在地	-11.3593
锦旗	-11.3593
呼叱	-11.3593
事到临头	-11.3593
金铃	-11.3593
又有何用	-11.3593
麻烦	-11.3593
呆了一呆	-11.3593
罪孽	-11.3593
倏忽之间	-11.3594
早晨	-11.3594
岛主	-11.3594
哇的一声	-11.3594
英俊	-11.3594
钢叉	-11.3594
瞧出破绽	-11.3594
统治	-11.3594
为了何事	-11.3594
动起手来	-11.3594
一言甫	-11.3594
在梦中	-11.3594
这当儿	-11.3594
无聊	-11.3594
木箱	-11.3594
掠而过	-11.3594
逃得性命	-11.3594
巡视	-11.3594
浑小子	-11.3594
计谋	-11.3594
桃花	-11.3594
精研	-11.3595
考较	-11.3595
寸许	-11.3595
祖父	-11.3595
火焰	-11.3595
灰影	-11.3595
财物	-11.3595
欺辱	-11.3596
一声长啸	-11.3596
黑夜	-11.3596
欲滴	-11.3596
严密	-11.3596
低头不语	-11.3596
以一敌	-11.3597
云雾	-11.3597
循声	-11.3597
个绿衫人	-11.3597
天资	-11.3597
点了穴道	-11.3597
折辱	-11.3597
前后左右	-11.3597
昨天	-11.3597
白衣女子	-11.3597
第二件	-11.3597
英雄宴	-11.3598
减弱	-11.3598
前辈高人	-11.3598
天枢	-11.3598
牢牢抓住	-11.3598
精纯	-11.3598
深渊	-11.3598
熄灭	-11.3598
康儿	-11.3598
整治	-11.3599
万状	-11.3599
高声大叫	-11.3599
两张	-11.3599
硬拚	-11.3599
无甚	-11.3599
心中一喜	-11.36
转述	-11.36
积雪	-11.36
面貌	-11.36
助威	-11.36
隔室	-11.3601
梅花	-11.3601
走上前去	-11.3601
烈火	-11.3601
救我性命	-11.3601
旋转	-11.3602
捉摸	-11.3602
越高	-11.3602
点头称是	-11.3602
晚饭	-11.3602
不住倒退	-11.3602
斩首	-11.3602
最厉害的	-11.3603
右手食指	-11.3603
生辰	-11.3603
蛇胆	-11.3603
波的一声	-11.3603
难熬	-11.3603
渗出	-11.3604
帽子	-11.3604
掉在地下	-11.3604
练习	-11.3604
搔头	-11.3605
鳄潭	-11.3605
使诈	-11.3605
反手一掌	-11.3605
合心意	-11.3606
慈和	-11.3606
宋兵	-11.3606
黑烟	-11.3606
铁扇	-11.3607
反抗	-11.3608
包围	-11.3608
点穴功夫	-11.3608
料理	-11.3608
久闻	-11.3609
保全	-11.3609
终须	-11.3609
上前相助	-11.361
想起一事	-11.361
躺下	-11.361
难免	-11.3611
临近	-11.3611
轿子	-11.3612
草木	-11.3612
受辱	-11.3612
安葬	-11.3612
纵身上前	-11.3612
耳目	-11.3612
拔足	-11.3613
大拇指	-11.3613
受内伤	-11.3613
已经死了	-11.3613
此仇	-11.3613
发疯	-11.3614
三颗	-11.3614
嘴边	-11.3615
每个人	-11.3615
也算得	-11.3615
南归	-11.3616
您老	-11.3616
衣角	-11.3616
改变	-11.3616
本性	-11.3617
牵动	-11.3618
十六年后	-11.3618
不忿	-11.3619
实是非同小可	-11.3619
摔交	-11.362
刚硬	-11.362
远远不及	-11.362
并肩而立	-11.3621
退缩	-11.3622
有话说	-11.3622
军民	-11.3622
出手相救	-11.3623
失色	-11.3623
江水	-11.3623
南边	-11.3624
这批	-11.3624
白眉	-11.3624
一绊	-11.3625
临死	-11.3627
落下风	-11.3627
左颊	-11.3627
运转	-11.3628
斗在一起	-11.3628
先父	-11.3629
药物	-11.363
兔子	-11.3631
▁次晨	-11.3631
第二招	-11.3632
防身	-11.3633
一株大树	-11.3633
这一晚	-11.3634
交战	-11.3634
半碗	-11.3635
缘故	-11.3635
两颗	-11.3635
数十里	-11.3636
大家都	-11.3636
恶鬼	-11.3637
部众	-11.3637
依法	-11.364
性急	-11.3641
打造	-11.3641
流下	-11.3641
改口	-11.3642
所害	-11.3642
未复	-11.3643
头戴	-11.3643
微变	-11.3645
主将	-11.3646
征服	-11.3648
一顿饭	-11.3649
花木	-11.365
厉害无比	-11.365
衣带	-11.3651
右手伸出	-11.3652
终生	-11.3652
伤愈	-11.3653
拍马	-11.3656
长臂	-11.3656
下堕	-11.3657
最近	-11.3658
你可知	-11.3659
这些话	-11.3659
没入	-11.366
示下	-11.3661
回复	-11.3662
这个自然	-11.3662
于怀	-11.3662
回思	-11.3662
现在	-11.3663
箭法	-11.3663
眼神	-11.3663
心中大是	-11.3666
恶意	-11.3667
横飞	-11.3667
花毒	-11.3667
义气	-11.3668
是甚么意思	-11.3669
小龙女与杨过	-11.367
向后急	-11.3671
那句话	-11.3672
扑地	-11.3673
楼上	-11.3673
▁梁长老	-11.3679
伸右手	-11.368
金国钦使	-11.3681
指教	-11.3681
这法儿	-11.3682
准头	-11.3682
这藏僧	-11.3683
斗不过	-11.3683
石壁上	-11.3684
蒙古话	-11.3685
笑了起来	-11.3691
黑马	-11.3698
坐倒	-11.3698
记住了	-11.3701
一枪	-11.3703
两腿	-11.3706
白日	-11.3707
是哪一位	-11.3712
虽不及	-11.3712
气血	-11.3713
昏暗	-11.3714
且莫	-11.3717
葬了	-11.372
终南山上	-11.372
这矮子	-11.3721
玩笑	-11.3723
小菜	-11.3723
使剑	-11.3723
▁欧阳克见	-11.3724
咱们一起	-11.3725
豪杰之士	-11.3726
臭叫化	-11.3727
黑气	-11.3728
捉拿	-11.373
咬着	-11.3731
我几时	-11.3735
坐定	-11.3737
救治	-11.3739
打算	-11.3743
▁简长老	-11.3746
手劲	-11.3757
头黑雕	-11.3758
驰出	-11.376
投入	-11.376
下毒	-11.3762
一拨	-11.3766
一阵响	-11.3772
在西域	-11.3776
重责	-11.3778
箭头	-11.3779
如同	-11.3782
却见她	-11.3785
牵过	-11.3786
总之	-11.3787
疾往	-11.3787
高低	-11.3788
却何以	-11.3789
被擒	-11.379
有这等事	-11.3792
别哭	-11.3794
将官	-11.3797
一十五年	-11.3805
向一灯	-11.3808
石墓	-11.3811
说错了	-11.3811
说几句话	-11.3812
几枚	-11.3815
那也不用	-11.3823
杀气	-11.3826
袭到	-11.3826
▁群雄	-11.3828
三更	-11.3828
管教	-11.3831
如常	-11.3832
这叫做	-11.3835
第二人	-11.3839
跨出	-11.3839
决不容	-11.384
而言	-11.3849
左眼	-11.3852
过世	-11.3853
飞脚	-11.3854
十斤	-11.3854
蹄印	-11.3855
上次	-11.3863
划破	-11.3864
身高	-11.3868
却也不能	-11.3873
毫不费力	-11.3874
伸手抓住	-11.3875
出圈子	-11.3876
顿足	-11.3877
夺过	-11.3881
排列	-11.3882
气力	-11.3882
遇见	-11.3892
遗下	-11.3896
此次	-11.39
那矮胖子	-11.39
收起	-11.3909
这一着	-11.3912
出林	-11.3919
这时才	-11.3922
咬牙切齿的	-11.3924
一只小	-11.393
是假的	-11.3934
存了	-11.3937
不防	-11.394
放开了	-11.3945
横蛮	-11.3951
场中	-11.3955
看守	-11.3955
出数丈	-11.3972
夺下	-11.3972
这一手	-11.3979
不醒	-11.398
惊吓	-11.3989
壮汉	-11.3999
扑向	-11.4
赶回	-11.4002
出家人	-11.401
削去	-11.4014
说起过	-11.4014
只余	-11.4017
做官	-11.4018
静静	-11.4031
胆小	-11.4031
打伤了	-11.4032
俏脸	-11.4041
邪门	-11.4044
谁也不敢	-11.4052
句句	-11.4056
你要杀	-11.4062
是我师父	-11.4062
铁掌水上飘	-11.4074
一捏	-11.4078
这四个	-11.4082
觉奇怪	-11.409
阴世	-11.4094
问问	-11.4096
即使	-11.4099
欺近	-11.4119
此生	-11.4122
西行	-11.4141
厨房	-11.4142
睁	-11.4153
李莫愁冷笑	-11.4169
内室	-11.4183
三百	-11.4185
饿得	-11.4187
金狗	-11.4191
安危	-11.4196
兵卒	-11.4199
猜中	-11.4204
须发	-11.4205
背影	-11.4206
画中	-11.4209
好菜	-11.421
喧哗	-11.4211
涌身	-11.4221
瘦丐	-11.4227
见她神色	-11.423
舟中	-11.4234
迷迷糊糊	-11.4238
跳起	-11.4239
高山	-11.424
显然是	-11.4243
玩得	-11.4261
西北	-11.4263
记住	-11.4266
不住向	-11.4274
妖法	-11.4274
加强	-11.4275
毒虫	-11.4278
奥	-11.4282
船身	-11.4282
坡	-11.4288
楚	-11.43
青蛇	-11.4304
宜	-11.4308
解衣	-11.4312
箱中	-11.4317
液	-11.4319
缆	-11.432
我瞧你	-11.4321
山脚	-11.4325
悦	-11.4325
越想越	-11.4329
忿	-11.4333
转了个	-11.4333
小舟	-11.4338
拇指	-11.4339
校场	-11.434
遂	-11.4341
相敬	-11.4342
寒玉	-11.4343
伦	-11.4348
黎	-11.4349
刀锋	-11.4349
昨	-11.4351
沸	-11.4351
绵	-11.4351
襄	-11.4351
怖	-11.4352
艰	-11.4353
流露	-11.4355
郊	-11.4356
耍	-11.4357
凌	-11.4357
马青雄	-11.4358
职	-11.4358
鸽	-11.4358
哇哇	-11.4358
肌	-11.4358
为国为民	-11.4358
腔	-11.4359
舷	-11.4359
獐	-11.4359
筒	-11.4359
贤弟	-11.4359
捶	-11.4359
蝶	-11.4359
陀	-11.4359
盔	-11.4359
验	-11.4359
万兽山庄	-11.436
司	-11.436
希奇古怪的	-11.436
公孙先生	-11.436
哒	-11.436
歼	-11.436
冯	-11.436
玎玎	-11.436
全心全意	-11.436
脸上无光	-11.436
心意已决	-11.436
下卷经文	-11.436
邪魔外道	-11.436
餐	-11.436
腥	-11.436
例	-11.436
浙	-11.436
澄	-11.436
锥	-11.436
羡慕	-11.436
第三代弟子	-11.436
奋不顾身	-11.4361
气喘吁吁	-11.4361
粮食	-11.4361
脸上微微一红	-11.4361
随后跟去	-11.4361
啐	-11.4361
伸伸舌头	-11.4361
灵芝	-11.4361
逍遥游	-11.4361
杨家枪法	-11.4361
拜你为师	-11.4361
淮	-11.4361
银梭	-11.4361
忤	-11.4361
瞧不清楚	-11.4361
轩	-11.4361
摸不着头脑	-11.4361
认贼作父	-11.4361
悄没声的	-11.4361
活在世上	-11.4361
了这么久	-11.4361
定睛看	-11.4361
泗水渔隐	-11.4361
稚	-11.4361
序	-11.4361
捋	-11.4361
瞑	-11.4361
笛	-11.4361
比划比划	-11.4361
之声大作	-11.4361
再好不过	-11.4361
东北角	-11.4361
此起彼	-11.4361
重重叠叠	-11.4361
炙	-11.4361
甘拜下风	-11.4361
虐	-11.4361
一声长叹	-11.4361
奈何他不得	-11.4361
糖	-11.4361
慈祥	-11.4361
荷叶	-11.4361
参详	-11.4361
花言巧语	-11.4361
万念俱灰	-11.4361
养育	-11.4361
钱镖	-11.4361
诞	-11.4361
东闪西	-11.4361
玄铁重剑	-11.4361
安抚使吕文德	-11.4361
摩诃末	-11.4361
疑惑	-11.4361
央求	-11.4361
寂然无声	-11.4361
居高临下	-11.4361
盾牌	-11.4362
心花怒放	-11.4362
预备	-11.4362
藤枝	-11.4362
玉蜂蜜浆	-11.4362
纵声长啸	-11.4362
郁闷	-11.4362
责罚	-11.4362
激射而出	-11.4362
猜测	-11.4362
搂在怀里	-11.4362
癫	-11.4362
跷	-11.4362
在归云庄上	-11.4362
杨居士	-11.4362
侍候	-11.4362
罗唆	-11.4362
全无血色	-11.4362
绑缚	-11.4362
坏蛋	-11.4362
斜睨	-11.4362
踏上两步	-11.4362
焦虑	-11.4362
往地下一掷	-11.4362
酋长	-11.4362
灶王爷	-11.4362
主帅	-11.4363
个千人队	-11.4363
泪珠	-11.4363
放心不下	-11.4363
娘娘	-11.4363
擒获	-11.4363
捣鬼	-11.4363
查察	-11.4363
周旋	-11.4363
习俗	-11.4363
柳枝	-11.4363
有病	-11.4363
残忍	-11.4363
铁锚	-11.4363
失措	-11.4363
清晨	-11.4363
枝叶	-11.4363
无不骇然	-11.4363
竹亭	-11.4363
呕血	-11.4363
捏造	-11.4363
熟悉	-11.4363
你有本事	-11.4363
豹夫	-11.4364
长须道人	-11.4364
黎明	-11.4364
残暴	-11.4364
玄功	-11.4364
召集	-11.4364
郭芙与武氏兄弟	-11.4364
西瓜	-11.4365
铁菱	-11.4365
太祖	-11.4365
挑拨	-11.4365
递了过去	-11.4365
灵智	-11.4365
忠厚	-11.4365
英雄帖	-11.4365
在风中	-11.4365
竹枝	-11.4365
冰柱	-11.4365
往地下一	-11.4365
僵持	-11.4365
孤身一人	-11.4366
禀明	-11.4366
来得及	-11.4366
驱赶	-11.4366
劝阻	-11.4366
双手合十	-11.4366
愤恨	-11.4366
穆姑娘	-11.4366
隔壁	-11.4366
功力深厚	-11.4366
众兵将	-11.4367
曲师哥	-11.4367
筋骨	-11.4367
一大片	-11.4367
南征	-11.4367
最大的	-11.4367
连声答应	-11.4367
学武之人	-11.4368
退了两步	-11.4368
乱石阵	-11.4368
发泄	-11.4368
武林高手	-11.4368
洞孔	-11.4368
另一端	-11.4369
呀的一声	-11.4369
搜寻	-11.4369
站了起来	-11.4369
早料到	-11.4369
急促	-11.4369
结识	-11.4369
一块岩石	-11.4369
驱蛇	-11.437
绝艺	-11.437
没趣	-11.4371
明珠	-11.4371
花豹	-11.4371
之声不绝	-11.4372
缘由	-11.4372
机灵	-11.4372
绿色	-11.4373
无此	-11.4373
气概	-11.4373
咱两个	-11.4373
居室	-11.4373
决计不会	-11.4373
窗边	-11.4374
难为你	-11.4374
正酣	-11.4374
虚晃	-11.4374
六王爷	-11.4374
船尾	-11.4375
中央	-11.4375
激射	-11.4376
初次	-11.4376
各执	-11.4376
催动	-11.4376
交互	-11.4376
诸位	-11.4376
火候	-11.4377
相互间	-11.4377
触动	-11.4377
四溅	-11.4378
数百年	-11.4378
忒也	-11.4378
拔步	-11.4378
发麻	-11.4379
肯不肯	-11.4379
耻笑	-11.4379
押着	-11.4379
拔出长剑	-11.4379
情不自禁的	-11.4379
三妹	-11.438
激战	-11.438
狗王	-11.4381
汗水	-11.4381
结拜	-11.4381
坐了下来	-11.4382
够啦	-11.4384
境内	-11.4384
悲伤	-11.4384
我带你	-11.4384
十多年前	-11.4385
威势	-11.4385
淡然	-11.4385
提了起来	-11.4385
端的是	-11.4386
打岔	-11.4386
飘动	-11.4386
想得出	-11.4386
灵药	-11.4386
第七	-11.4386
蒙古官兵	-11.4387
惧怕	-11.4387
店家	-11.4387
铁鞭	-11.4387
重任	-11.4387
手中接过	-11.4387
厅外	-11.4388
心中伤痛	-11.4388
群蛇	-11.4388
椅子	-11.4388
蛇群	-11.4389
骨肉	-11.4389
义女	-11.4389
摔在地下	-11.4389
团团围住	-11.439
恩情	-11.4391
元气	-11.4391
怎么样	-11.4391
讨教	-11.4391
纵身过去	-11.4392
紧紧抓住	-11.4392
大纛	-11.4395
白影	-11.4395
如雨	-11.4395
一条条	-11.4395
一出手就	-11.4396
错乱	-11.4396
无暇	-11.4396
右首	-11.4396
余地	-11.4399
国师	-11.4399
瓶子	-11.4401
气度	-11.4401
福气	-11.4402
为伴	-11.4403
梁子	-11.4403
稻草	-11.4406
殊不知	-11.4406
个响头	-11.4406
有甚么事	-11.4406
地图	-11.4407
教主	-11.4408
酒碗	-11.4408
窗子	-11.4409
恶战	-11.441
一托	-11.441
挣扎着	-11.4412
身遭	-11.4413
而卧	-11.4413
语意	-11.4413
玉女	-11.4413
金刚	-11.4415
闻声	-11.4416
缚着	-11.4418
舍身	-11.4418
他妈的	-11.4418
但转念一想	-11.442
这两掌	-11.4421
另行	-11.4421
最怕	-11.4422
军营	-11.4422
拆开	-11.4422
五绝	-11.4423
退兵	-11.4424
识破	-11.4426
我表妹	-11.4426
人氏	-11.4427
一股大力	-11.4428
相避	-11.4429
喊声大	-11.4429
了开来	-11.4429
尚能	-11.443
那老儿	-11.4432
休得	-11.4432
个个都是	-11.4434
仆人	-11.4435
长官	-11.4436
拳掌	-11.4439
外衣	-11.4439
那怎么办	-11.444
跟你在一起	-11.4441
中秋	-11.4443
一柄长剑	-11.4443
火势	-11.4445
逃得	-11.4445
是天下第一	-11.4445
郭二人	-11.4446
捏住	-11.4446
足足	-11.4447
径行	-11.4447
一碟	-11.4448
若干	-11.4448
深奥	-11.4449
接待	-11.4449
水流	-11.4452
势力	-11.4452
那官员	-11.4454
到底是谁	-11.4457
两派	-11.4458
退路	-11.446
一股热气	-11.446
异状	-11.4462
这几天	-11.4463
眉心	-11.4463
花轿	-11.4464
遗物	-11.4466
加快	-11.4468
厢房	-11.4468
大梁	-11.4468
挺起	-11.4468
▁到得	-11.4469
急流	-11.4469
回归	-11.4471
本意	-11.4473
一个念头	-11.4473
入城	-11.4474
橱门	-11.4474
按着	-11.4475
一桌	-11.4478
怒骂	-11.4479
心性	-11.4479
一勾	-11.4482
这厮	-11.4483
自不免	-11.4484
推动	-11.4485
纵使	-11.4485
亲信	-11.4486
极尽	-11.4489
强得多	-11.4492
眼力	-11.4492
突然想起	-11.4493
街上	-11.4496
赶着	-11.4497
有要事	-11.4499
心怀	-11.45
拔下	-11.4502
断剑	-11.4502
份量	-11.4503
闯入	-11.4503
谅来	-11.4505
听母亲	-11.4506
跃后	-11.4509
炕上	-11.4512
手背上	-11.4517
声名	-11.4518
▁其时	-11.452
真力	-11.452
第六	-11.4522
射死	-11.4523
两指	-11.4526
跟她说	-11.453
数十人	-11.453
▁朮赤	-11.453
拉起	-11.4532
天大的	-11.4539
相若	-11.454
求生	-11.4541
斗地	-11.4546
眉毛	-11.4549
自管	-11.4549
武三通等	-11.4557
非寻常	-11.4557
无望	-11.4557
有法子	-11.4558
大丑	-11.4563
平和	-11.4567
掌力震	-11.4569
作弄	-11.4572
墓室	-11.4572
大鸟	-11.4577
罩住	-11.4577
气派	-11.4582
作主	-11.4584
是万万	-11.4586
不足以	-11.4586
细心	-11.4588
南湖	-11.4594
枝长矛	-11.4595
飞回	-11.4597
喀喇一	-11.46
是丐帮的	-11.4602
砍下	-11.4607
喝令	-11.4615
只见前面	-11.4616
大致	-11.4631
右侧	-11.4637
雕背	-11.464
激起	-11.4642
枉自	-11.4648
意欲	-11.4652
得无影无踪	-11.4652
天色渐	-11.4653
入海中	-11.4654
是个女子	-11.4654
一桩	-11.4656
硬要	-11.4661
帐门	-11.4666
在海中	-11.4673
左近	-11.4676
他的用意	-11.4687
去摸	-11.4689
爱吃	-11.4695
踏进	-11.4696
偷看	-11.4708
猛觉	-11.4711
不敢作声	-11.4721
号角声	-11.4725
下床	-11.4728
猛冲	-11.4729
收藏	-11.4735
盖上	-11.4739
桨柄	-11.4764
如铁	-11.4765
瞒过	-11.479
服下	-11.4798
既不肯	-11.4801
一抬	-11.4805
自然知道	-11.4809
爬到	-11.482
要设法	-11.482
屑	-11.4821
一拱	-11.4824
这一箭	-11.4835
渺茫	-11.4837
河北	-11.4841
肥胖	-11.4843
在他身旁	-11.485
绝非	-11.4851
不知该	-11.4852
并排	-11.4856
均未	-11.4867
暗赞	-11.488
无影无踪	-11.4887
花枝	-11.4903
男孩	-11.4909
过多少	-11.4913
交换	-11.4916
不用怕	-11.4925
十多个	-11.4937
呼喊	-11.495
闪烁	-11.496
不是好人	-11.4971
三件	-11.4972
说甚么也不	-11.4976
在外面	-11.4985
死战	-11.4985
一张脸	-11.4996
墙边	-11.5002
每晚	-11.5004
不放心	-11.5008
密林	-11.5022
发热	-11.503
窑	-11.5045
石窟	-11.5051
跃下马	-11.5056
九年	-11.5059
幽幽	-11.5073
受惊	-11.5076
乍	-11.5079
一剑刺	-11.5089
借给	-11.5092
官员	-11.5093
身上穿	-11.5097
林外	-11.511
悠悠	-11.5113
无仇	-11.5113
突听	-11.5114
只觉一股	-11.5118
在江南	-11.512
二三	-11.5127
楞	-11.5129
揖	-11.5133
骏马	-11.5141
两枝	-11.515
挡不住	-11.5153
凳上	-11.5161
农	-11.5162
至今	-11.517
撑着	-11.517
撇	-11.5173
意思说	-11.5173
东南	-11.5174
进城	-11.5175
枣	-11.5178
潜运	-11.5182
哟	-11.5185
勉	-11.5186
枢	-11.5187
晨	-11.5187
偎	-11.5188
盈	-11.5189
讥	-11.519
绸	-11.519
措	-11.5191
蟒	-11.5191
焰	-11.5191
帚	-11.5191
杜	-11.5191
杀人不眨眼	-11.5191
馆	-11.5192
楞伽经	-11.5192
吾	-11.5192
惠	-11.5192
萧	-11.5192
禽	-11.5192
屡	-11.5192
融	-11.5192
脊	-11.5193
拙夫	-11.5193
一日一夜	-11.5193
嬉	-11.5193
平白无端的	-11.5193
郝	-11.5193
炫	-11.5193
嗣	-11.5193
孕	-11.5193
脑浆迸裂	-11.5193
世代相传	-11.5193
壳	-11.5193
千方百计	-11.5193
虞	-11.5193
的克星	-11.5193
龙象般若功	-11.5193
亲生女儿	-11.5193
模	-11.5193
峻	-11.5193
斩钉截铁	-11.5193
津	-11.5193
叨	-11.5193
桅	-11.5193
躯体	-11.5193
酬	-11.5193
荷	-11.5193
吕	-11.5193
一招一式	-11.5193
悠	-11.5193
安抚使	-11.5194
魂飞天外	-11.5194
赎	-11.5194
粥	-11.5194
从何说起	-11.5194
h	-11.5194
何足道哉	-11.5194
神通广大	-11.5194
靴	-11.5194
湘	-11.5194
胜之不武	-11.5194
九阳真经	-11.5194
馋	-11.5194
曲曲折折	-11.5194
分筋错骨手	-11.5194
易筋锻骨篇	-11.5194
的一声叫了出来	-11.5194
平平无奇	-11.5194
拜我为师	-11.5194
无声无息	-11.5194
铐	-11.5194
吠	-11.5194
喀的一响	-11.5194
障	-11.5194
光秃秃的	-11.5194
兰花拂穴手	-11.5194
少林寺	-11.5194
武老伯	-11.5194
巴巴的	-11.5194
摇头晃脑	-11.5194
旁门左道	-11.5194
格格作响	-11.5194
大声吆喝	-11.5194
篷	-11.5194
围在垓心	-11.5194
淹	-11.5194
趁	-11.5194
大发脾气	-11.5194
辅	-11.5194
那贵公子	-11.5194
噗哧一笑	-11.5194
眉大眼	-11.5194
钗	-11.5194
满头大汗	-11.5194
萦	-11.5194
胡思乱想	-11.5194
嗒	-11.5194
情深爱	-11.5194
玲	-11.5194
俄罗斯	-11.5194
四肢百骸	-11.5194
伸出手去	-11.5194
一饮而尽	-11.5194
相差太远	-11.5194
宅	-11.5194
癞	-11.5194
走来走去	-11.5194
紧急关头	-11.5194
中气充沛	-11.5194
这首诗	-11.5194
二姊	-11.5194
滴溜溜	-11.5194
萨多	-11.5194
一转念间	-11.5194
防范	-11.5194
今而后	-11.5194
吊死鬼	-11.5194
尘土飞扬	-11.5194
狂怒之下	-11.5194
扑地倒了	-11.5194
个窟窿	-11.5195
差不多	-11.5195
心惊胆战	-11.5195
狼牙棒	-11.5195
-------------	-11.5195
偏袒	-11.5195
斡儿朵	-11.5195
苗	-11.5195
到此地步	-11.5195
险象环生	-11.5195
四张机	-11.5195
巷	-11.5195
陆氏夫妇	-11.5195
屠戮	-11.5195
核	-11.5195
者勒米	-11.5195
兮	-11.5195
负在背上	-11.5195
无意之中	-11.5195
涕	-11.5195
猿猴	-11.5195
砰嘭	-11.5195
机伶	-11.5195
酸楚	-11.5195
侧过了头	-11.5195
骑在马上	-11.5195
金铃索	-11.5195
这女魔头	-11.5195
左右互搏之术	-11.5195
姊妹俩	-11.5195
樊	-11.5195
呼的一掌	-11.5195
貂裘	-11.5195
僧人	-11.5195
统帅	-11.5195
身上有伤	-11.5195
旷野	-11.5195
两枚银针	-11.5195
检视	-11.5195
戈	-11.5195
殷红	-11.5195
衣钵	-11.5195
越走越	-11.5196
没来由的	-11.5196
肉瘤	-11.5196
冲天而起	-11.5196
吹奏	-11.5196
兴奋	-11.5196
冒充	-11.5196
还了一招	-11.5196
呼呼喘气	-11.5196
冢	-11.5196
父女俩	-11.5196
不明其意	-11.5196
扑通一声	-11.5196
泄露	-11.5196
正是求之不得	-11.5196
手下容情	-11.5196
寡妇	-11.5196
陈设	-11.5196
敬畏	-11.5196
状元	-11.5196
鼾声	-11.5197
向旁跃开	-11.5197
缎子	-11.5197
珍宝	-11.5197
轻盈	-11.5197
额角	-11.5197
乐趣	-11.5197
迟了一步	-11.5197
欣然	-11.5197
临死之时	-11.5197
倏忽间	-11.5197
驾临	-11.5197
狂妄	-11.5197
黄贤弟	-11.5198
齐声欢呼	-11.5198
别无他	-11.5198
陪伴	-11.5198
拉屎	-11.5198
铁筝	-11.5198
嘴角边	-11.5198
这套掌法	-11.5198
怨仇	-11.5198
揪住	-11.5198
一名武官	-11.5198
服饰	-11.5198
所住的	-11.5198
赵王完颜洪烈	-11.5198
罗汉	-11.5198
跃上屋顶	-11.5198
从来没见过	-11.5198
疾趋	-11.5198
拿在手中	-11.5198
作揖	-11.5198
元朝	-11.5199
劝慰	-11.5199
食盒	-11.5199
哪料到	-11.5199
悄立	-11.5199
金球	-11.5199
百来斤	-11.5199
轻捷	-11.5199
郊外	-11.5199
树叶	-11.5199
仁义	-11.5199
两名军士	-11.5199
丐帮大会	-11.5199
步履	-11.5199
耳畔	-11.5199
玄虚	-11.52
世伯	-11.52
拦腰	-11.52
开玩笑	-11.52
看得清楚	-11.52
铁蹄	-11.52
迁怒	-11.52
坐倒在地	-11.52
再也支持不住	-11.5201
落下地来	-11.5201
复仇	-11.5201
抵挡得住	-11.5201
酒壶	-11.5201
奸徒	-11.5201
大姊	-11.5201
尸骨	-11.5201
永不再	-11.5201
七妹	-11.5201
礁石	-11.5202
并列	-11.5202
不及细想	-11.5202
尊敬	-11.5202
指甲	-11.5202
凑眼	-11.5202
历代	-11.5203
抚养	-11.5203
说了几句话	-11.5203
观赏	-11.5203
危急之际	-11.5203
奔过去	-11.5203
世俗	-11.5203
裘帮主	-11.5203
跪在地下	-11.5203
也就是了	-11.5204
光景	-11.5204
毒砂	-11.5204
拔出匕首	-11.5204
拍的一响	-11.5204
怪责	-11.5205
遭遇	-11.5205
嘿嘿冷笑	-11.5205
配制	-11.5205
四哥	-11.5205
盘膝坐下	-11.5205
拿捏	-11.5205
寻觅	-11.5206
严加	-11.5206
四个儿子	-11.5207
弯曲	-11.5207
马鞍	-11.5207
口齿	-11.5207
独臂	-11.5207
双掌齐出	-11.5207
术数	-11.5207
冰雪	-11.5207
酒量	-11.5207
几分	-11.5207
缓缓而行	-11.5207
胸怀	-11.5207
铁甲	-11.5208
苦恼	-11.5208
峭壁	-11.5208
剧斗	-11.5208
战士	-11.5208
情势紧迫	-11.5209
平台	-11.5209
爽快	-11.5209
轻轻一拍	-11.521
妙计	-11.521
士兵	-11.521
凶光	-11.521
也是无用	-11.521
对付不了	-11.5211
得出奇	-11.5212
武功之高	-11.5212
老伯伯	-11.5212
一回事	-11.5213
仇敌	-11.5213
木屋	-11.5213
粗布	-11.5213
烛光下	-11.5213
铁钟	-11.5213
台边	-11.5213
游玩	-11.5213
原该	-11.5213
重量	-11.5214
整日	-11.5214
首领	-11.5214
光亮	-11.5215
宋五	-11.5215
侧目	-11.5215
伸左臂	-11.5215
急智	-11.5216
挺枪	-11.5216
出乎	-11.5216
长期	-11.5217
报复	-11.5217
老娘	-11.5217
双耳	-11.5218
肚子里	-11.5218
皮肉	-11.5218
石窟中	-11.5218
面临	-11.5219
公然	-11.5219
一百个	-11.5219
即行	-11.5219
两位居士	-11.522
巧劲	-11.522
轻轻叹了口气	-11.5221
随即会意	-11.5221
小擒拿手	-11.5222
第二日	-11.5222
沿着	-11.5222
大批	-11.5223
束手	-11.5223
谢过	-11.5224
不悦	-11.5225
斩落	-11.5225
斗志	-11.5225
厅口	-11.5226
挂念着	-11.5227
撞见了	-11.5229
映照	-11.5229
奴才	-11.523
了一夜	-11.523
精微	-11.5231
拳风	-11.5231
乱闯	-11.5231
查问	-11.5231
活不成	-11.5231
松林中	-11.5231
太重	-11.5232
小时候	-11.5232
脚色	-11.5233
单掌	-11.5233
圆睁	-11.5233
不中用	-11.5233
负伤	-11.5233
一皱	-11.5234
指引	-11.5234
头晕	-11.5236
接骨	-11.5237
各持	-11.5238
在台上	-11.5239
牢牢记住	-11.5239
长江	-11.5239
一条手臂	-11.5239
遵从	-11.5239
不肖	-11.5239
长箭	-11.524
小爷	-11.524
何日	-11.524
柯镇恶铁杖	-11.5241
越加	-11.5241
凶手	-11.5241
心智	-11.5242
陆地	-11.5242
▁郭靖和黄蓉	-11.5242
异声	-11.5243
哪想到	-11.5244
这姓杨的	-11.5244
女鬼	-11.5245
柱子	-11.5246
喜乐	-11.5246
回护	-11.5246
岁年纪	-11.5248
所创	-11.5248
然则	-11.5249
相谢	-11.525
颈后	-11.525
心下大喜	-11.5252
事隔	-11.5253
易于	-11.5255
回音	-11.5256
不论如何	-11.5256
天堂	-11.5257
后脑	-11.5258
拨开	-11.5258
!’”	-11.5258
味儿	-11.5258
尘头	-11.5259
兵书	-11.5259
相帮	-11.526
失足	-11.526
斜飞	-11.5261
撑住	-11.5261
木然	-11.5261
一百年	-11.5262
矮小	-11.5262
进步	-11.5262
南行	-11.5265
自以为	-11.5267
闻名	-11.5267
受伤之后	-11.5268
口边	-11.5268
猎人	-11.5268
荡开	-11.5269
统兵	-11.5269
闪闪	-11.527
传言	-11.5271
得不知去向	-11.5273
崩断	-11.5274
主要	-11.5274
见谅	-11.5274
是他对手	-11.5275
翻飞	-11.5277
说话声音	-11.5278
之辱	-11.5279
忽变	-11.5279
复生	-11.528
错啦	-11.528
奔马	-11.528
当初	-11.5282
拖雷与郭靖	-11.5286
此举	-11.5286
▁那女郎	-11.5287
心中焦急	-11.5288
相逼	-11.5288
下峰	-11.5289
破空	-11.5291
所思	-11.5292
难愈	-11.5292
满门	-11.5292
瞧得起	-11.5293
只见地下	-11.5293
跨上	-11.5293
早日	-11.5298
集于	-11.5305
无功	-11.5306
使妖法	-11.5306
力战	-11.5309
探子	-11.531
极轻	-11.5311
乍见	-11.5312
大半个时辰	-11.5313
伸剑	-11.5313
四望	-11.5315
特来	-11.5316
小朋友	-11.5317
照着	-11.5321
击刺	-11.5321
偏心	-11.5324
▁杨过与小龙女	-11.5324
狠心	-11.5326
唯一	-11.5327
可算得	-11.5328
击毙	-11.5328
连称	-11.5328
这小贼	-11.5329
有意要	-11.533
带风	-11.533
驰马	-11.5332
骑着	-11.5333
向前扑	-11.5334
出版	-11.5337
不怕死	-11.5338
不听话	-11.5338
在绝情谷中	-11.5343
击掌	-11.5343
窑洞	-11.5344
亲事	-11.5345
那僧人	-11.5366
在他背上	-11.5371
细问	-11.5372
门派	-11.5377
双掌齐	-11.5381
前日	-11.5382
桌面	-11.5391
想出来的	-11.5392
决意要	-11.5398
还有谁	-11.5398
遮住	-11.5399
筋斗	-11.5399
甚是疼痛	-11.5414
草地	-11.5414
这许多人	-11.5414
待我好	-11.5418
一挣	-11.542
引着	-11.5424
蒙古语	-11.5427
处大穴	-11.5436
站住	-11.5443
又有谁	-11.5446
感到一阵	-11.5458
就在这里	-11.5472
瞧是谁	-11.5477
兵力	-11.5482
转头问	-11.5498
着地滚	-11.5499
自幼便	-11.5516
情花丛	-11.5518
三场	-11.5525
艘船	-11.5535
是自己人	-11.5539
算数	-11.5554
接任掌教	-11.5558
林子	-11.5561
是否能	-11.5565
挥拂尘	-11.5573
几口气	-11.5575
拍的一	-11.5581
碰上	-11.5608
始终没有	-11.5621
并肩坐在	-11.5621
入耳	-11.5625
抵住	-11.5626
总觉	-11.5631
坐在石上	-11.5632
两个道人	-11.5633
布成	-11.5634
被缚	-11.5636
也不以为	-11.5637
渔网阵	-11.5646
就像	-11.5658
挺剑刺	-11.566
妨	-11.5673
将经文	-11.568
七八十	-11.5692
九成	-11.5693
摸着	-11.57
茫	-11.5709
厅门	-11.572
跃进	-11.5731
圆圈	-11.5731
五尺	-11.5743
不相识	-11.5746
说几句	-11.5763
个法儿	-11.5768
百岁	-11.5776
挺刀	-11.5778
流泪	-11.5794
未必能	-11.5805
追杀	-11.5806
小径	-11.5848
得满脸通红	-11.5866
静坐	-11.5872
受挫	-11.5874
家父	-11.5889
重围	-11.5907
舱中	-11.5908
块牛肉	-11.5911
传来一阵	-11.5929
跟谁	-11.5931
震开	-11.5931
快走罢	-11.594
痕迹	-11.5963
谷口	-11.5967
根本	-11.5969
有一件事	-11.5977
认错	-11.5979
西游	-11.5982
电闪	-11.5987
几根	-11.5989
由此	-11.5992
悄	-11.5995
一瞬之间	-11.5996
致命	-11.6
钦使	-11.6001
臭贼	-11.6001
针刺	-11.6003
请安	-11.6006
在寒玉床上	-11.6022
呼啸	-11.6029
要是给	-11.6034
蜂群	-11.6044
一把火	-11.6045
毫没	-11.6046
未受伤	-11.6048
株大树	-11.6053
天灵盖	-11.6059
轿中	-11.6061
怠	-11.6062
无异状	-11.6064
蓦	-11.6071
梢公	-11.6074
十万	-11.6076
如雷	-11.6077
论到	-11.6081
忒	-11.6082
巅	-11.6085
个多时辰	-11.6087
询	-11.6092
闪电般	-11.6093
捣	-11.6096
帘	-11.6097
憎	-11.6097
伪	-11.6098
肢	-11.6098
髯	-11.6099
柜	-11.6099
衡	-11.6099
跋	-11.61
药材	-11.61
监	-11.61
乙	-11.61
狱	-11.61
籍	-11.61
钝	-11.6101
蜂巢	-11.6101
压根儿	-11.6102
铁匠	-11.6102
千夫长	-11.6102
柔情蜜意	-11.6102
参仙老怪	-11.6102
铜钹	-11.6102
摧心掌	-11.6102
锈	-11.6102
深仇大怨	-11.6102
胃	-11.6102
兄嫂	-11.6102
崔志方	-11.6102
眼睁睁的	-11.6102
竿	-11.6102
窒	-11.6102
除此之外	-11.6102
幕	-11.6102
在伯仲之间	-11.6102
虏	-11.6102
煞神鬼	-11.6102
达尔巴和霍都	-11.6102
眼花缭乱	-11.6102
仞	-11.6102
一窍不通	-11.6102
凹	-11.6102
讳	-11.6103
不守信约	-11.6103
翻来覆去	-11.6103
腊	-11.6103
言出如山	-11.6103
三日三夜	-11.6103
所作所为	-11.6103
玑	-11.6103
虹	-11.6103
绰	-11.6103
镖	-11.6103
咎	-11.6103
斜刺里	-11.6103
死于非命	-11.6103
缩了回去	-11.6103
翩	-11.6103
喀喀	-11.6103
我姑丈	-11.6103
冒大险	-11.6103
肺	-11.6103
苦寒之地	-11.6103
滚来滚去	-11.6103
皱起眉头	-11.6103
愁眉苦脸	-11.6103
炽	-11.6103
碌	-11.6103
瑰	-11.6103
血肉之躯	-11.6103
赃	-11.6103
二十八宿大阵	-11.6103
蚌壳	-11.6103
在赵王府中	-11.6103
痰	-11.6103
灯笼	-11.6103
涯	-11.6103
馁	-11.6103
那四川人	-11.6103
冲口而出	-11.6103
拈	-11.6103
动上了手	-11.6103
绝口不提	-11.6103
掉下泪来	-11.6103
斡难河	-11.6103
就此别过	-11.6103
飞龙在天	-11.6103
枉自送了性命	-11.6103
祷祝	-11.6103
走近身去	-11.6103
勃勃	-11.6103
十天半月	-11.6103
大呼小叫	-11.6103
安安稳稳的	-11.6103
雇	-11.6103
满脸怒容	-11.6103
拜了几拜	-11.6103
刊	-11.6103
杀父仇人	-11.6104
熊	-11.6104
轧轧	-11.6104
兜圈子	-11.6104
提心吊胆	-11.6104
催促	-11.6104
悠然神往	-11.6104
嬉皮笑脸	-11.6104
文武全才	-11.6104
转身便逃	-11.6104
情是何物	-11.6104
矫捷	-11.6104
治疗	-11.6104
苟	-11.6104
努	-11.6104
怒目而视	-11.6104
刹	-11.6104
汪	-11.6104
猜想不透	-11.6104
盘膝而坐	-11.6104
袜	-11.6104
不知所措	-11.6104
岳州	-11.6104
攘	-11.6104
支颐	-11.6104
袖手旁观	-11.6104
刀斧手	-11.6104
泻	-11.6104
炒	-11.6104
调匀呼吸	-11.6104
越奔越	-11.6104
薰	-11.6104
记诵	-11.6104
伸出手来	-11.6104
荫	-11.6104
恭谨	-11.6104
十夫长	-11.6104
摇摇晃晃	-11.6104
任掌教	-11.6104
潇湘子和尹克西	-11.6104
狼狈不堪	-11.6104
远远望见	-11.6104
告诉	-11.6104
放慢脚步	-11.6104
凄厉	-11.6104
鲁钝	-11.6104
汗巾	-11.6104
提高声音	-11.6104
僻静	-11.6104
穴道被点	-11.6104
纠缠不清	-11.6104
窒滞	-11.6104
血渍	-11.6104
恢复	-11.6104
拿在手里	-11.6104
傻瓜	-11.6105
惟恐	-11.6105
变化精微	-11.6105
中所述	-11.6105
就此罢手	-11.6105
讲述	-11.6105
麻痒	-11.6105
嘻笑	-11.6105
伙计	-11.6105
刃锋	-11.6105
余兆兴	-11.6105
枯枝	-11.6105
筋脉	-11.6105
委顿	-11.6105
转马头	-11.6105
郭贤侄	-11.6105
隔了良久	-11.6105
一间石室	-11.6105
嘻嘻一笑	-11.6105
草莽	-11.6106
越看越	-11.6106
锐利	-11.6106
听我的话	-11.6106
腥臭	-11.6106
纵声大笑	-11.6106
晦气	-11.6106
猜不透	-11.6106
飞翔	-11.6106
打他不过	-11.6106
这路掌法	-11.6106
齐声呐喊	-11.6106
无歹意	-11.6106
交迸	-11.6106
逗留	-11.6106
贼婆娘	-11.6106
花纹	-11.6106
尹师弟	-11.6106
巨鲨	-11.6106
全身发颤	-11.6106
怨愤	-11.6107
心头一震	-11.6107
偶然	-11.6107
啪的一声	-11.6107
宁静	-11.6107
恭敬	-11.6107
银丝	-11.6107
横行天下	-11.6107
机缘	-11.6107
一股劲风	-11.6107
十八岁	-11.6107
心中突突乱跳	-11.6107
海潮	-11.6108
愤愤的	-11.6108
楼板	-11.6108
一宵	-11.6108
不输于	-11.6108
犯不着	-11.6108
退开两步	-11.6108
借宿	-11.6108
静候	-11.6108
庄严	-11.6108
听你的话	-11.6108
瞪目	-11.6108
屋瓦	-11.6108
山巅	-11.6108
听你话	-11.6109
神尼	-11.6109
恍然	-11.6109
再斗下去	-11.6109
郭爷	-11.6109
谎言	-11.6109
双斧	-11.6109
内功深湛	-11.6109
脸一沉	-11.6109
有趣得紧	-11.611
师叔祖	-11.611
远远传来	-11.611
猛然间	-11.611
机密	-11.611
任性	-11.611
恍若	-11.611
筹划	-11.6111
吓得魂不附体	-11.6111
详加	-11.6111
大声喝彩	-11.6111
止歇	-11.6111
求婚	-11.6111
但随即想起	-11.6111
跟踪	-11.6111
胸口热血	-11.6111
中含意	-11.6111
闲谈	-11.6112
听他这么说	-11.6112
缓步走到	-11.6112
红肿	-11.6112
救他性命	-11.6113
扭曲	-11.6113
如沸	-11.6113
永世	-11.6113
陆兄	-11.6114
违背	-11.6114
遍体	-11.6114
没有听见	-11.6114
拳术	-11.6115
赴桃花岛	-11.6115
奸细	-11.6115
霎时	-11.6115
各族	-11.6116
酸痛	-11.6116
举杯	-11.6116
交叉	-11.6116
横扫过去	-11.6117
脚程	-11.6117
狗贼	-11.6117
擒拿法	-11.6117
临死时	-11.6117
山谷间	-11.6117
能否	-11.6117
恶女人	-11.6118
睁着	-11.6118
兵士	-11.6119
瓜子	-11.6119
听了这话	-11.6119
并骑	-11.6119
点拨	-11.612
分辩	-11.612
故居	-11.612
大声呼喝	-11.612
啊哈	-11.612
裹伤	-11.612
进袭	-11.612
移步	-11.612
站在门口	-11.6121
五弟	-11.6121
节拍	-11.6121
寒冷	-11.6121
母女	-11.6121
老婆子	-11.6122
称谢	-11.6122
轮流	-11.6122
三丐	-11.6122
应该	-11.6122
华筝妹子	-11.6122
治愈	-11.6123
仙女	-11.6123
四弟	-11.6123
摆脱	-11.6123
三子窝阔台	-11.6123
好极啦	-11.6123
▁次日清晨	-11.6123
本门功夫	-11.6124
的长子	-11.6124
撑地	-11.6124
渔舟	-11.6124
碍着	-11.6124
靠近	-11.6125
走了进来	-11.6125
心肝	-11.6125
千万不能	-11.6125
相距不过	-11.6125
抗敌	-11.6125
我和姑姑	-11.6126
厮打	-11.6126
四名弟子	-11.6127
读者	-11.6127
陆姑娘	-11.6127
哪容	-11.6128
很喜欢	-11.6128
虚劈	-11.6128
制服	-11.6128
蜂子	-11.6128
饭碗	-11.6129
难题	-11.6129
老先生	-11.6129
本来面目	-11.613
永远不会	-11.613
十五六岁	-11.613
乘坐	-11.6131
共同	-11.6131
花样	-11.6131
清香	-11.6131
抬头望着	-11.6131
触手	-11.6132
郭大哥	-11.6132
来得好快	-11.6133
反贼	-11.6133
原由	-11.6133
觉得怎样	-11.6133
钟声	-11.6133
刀柄	-11.6134
挥鞭	-11.6134
落将下来	-11.6135
又是难过	-11.6135
室内	-11.6135
脑子	-11.6135
露面	-11.6136
那男孩	-11.6136
数十年前	-11.6137
金主	-11.6137
了几眼	-11.6137
互击	-11.6137
到口边	-11.6137
两个时辰	-11.6137
都是一样	-11.6137
结交	-11.6138
蒙古军官	-11.6139
机变	-11.614
胜算	-11.6141
久经	-11.6142
短刀	-11.6142
面容	-11.6143
若在平	-11.6144
老虎	-11.6145
相碰	-11.6145
伤敌	-11.6146
女流	-11.6146
射箭	-11.6147
做梦	-11.6147
无缘	-11.6147
白胡子	-11.6148
旧情	-11.6148
捧着	-11.6149
▁这一晚	-11.615
断腿	-11.615
挟着	-11.615
微微摇头	-11.615
八字	-11.615
墓前	-11.6151
童心	-11.6151
尊长	-11.6151
大缆	-11.6152
在马背上	-11.6153
▁旁观众人	-11.6153
从洞中	-11.6153
被困	-11.6153
逃不了	-11.6155
又是害怕	-11.6155
凑到	-11.6156
被害	-11.6156
长鸣	-11.6156
手刃	-11.6157
了一圈	-11.6157
养神	-11.6158
一身武功	-11.6158
吹动	-11.6159
奇异	-11.6159
韩宝驹等	-11.616
遭难	-11.616
拍拍两	-11.6161
▁史伯威	-11.6161
直透	-11.6161
海面上	-11.6163
也不算	-11.6163
一人之力	-11.6165
摆动	-11.6166
甲板上	-11.6169
求救	-11.617
向来路	-11.6171
又是欢喜	-11.6172
字条	-11.6172
身子略	-11.6172
并肩而行	-11.6173
两排	-11.6173
抢前	-11.6174
引开	-11.6178
急忙转身	-11.6178
游动	-11.6179
在北京	-11.6179
用不着	-11.618
吹起	-11.6181
马群	-11.6182
跃落	-11.6184
戴着	-11.6184
傻子	-11.6184
了半夜	-11.6185
那丐	-11.6185
▁那道士	-11.6188
情欲	-11.6188
早些	-11.6189
悠悠醒	-11.619
也不须	-11.6191
半月	-11.6191
横挥	-11.6191
撒麻尔罕城	-11.6191
中午	-11.6197
所乘	-11.6199
轻敌	-11.62
流落	-11.6201
美事	-11.6202
属于	-11.6202
长久	-11.6202
聚集	-11.6204
自古	-11.6206
随意	-11.6206
还没死	-11.6211
端起	-11.6212
不知是何	-11.6214
记在心	-11.6215
吼声	-11.6216
之父	-11.6219
宽心	-11.6219
饭店	-11.6222
眼望着	-11.6227
左足踏	-11.6229
凑近	-11.6231
闭穴	-11.6232
牢牢抱住	-11.6232
兴起	-11.624
无益	-11.6241
铁箱	-11.6242
长眉	-11.6243
决不可	-11.6249
五岁	-11.625
块大石	-11.6255
给人害死	-11.6261
在道旁	-11.6265
如你这般	-11.627
四个字	-11.6274
大鹰	-11.6284
向前疾	-11.6285
瞥眼	-11.6293
躲开	-11.6297
还说甚么	-11.6298
一伙	-11.6304
剪断	-11.631
枚毒菱	-11.632
有甚么法子	-11.6322
尤胜	-11.6324
不用再	-11.6328
挫折	-11.635
卧室	-11.6352
分站	-11.6357
大出意料之外	-11.6358
难道我就	-11.6367
进屋去	-11.637
始终不肯	-11.6381
塞入	-11.6391
全真派的武功	-11.6401
硬逼	-11.6423
飞身而	-11.6426
被他抓住	-11.6436
偷眼	-11.6446
既知	-11.6468
两只小	-11.6475
小女孩	-11.6475
风扑面	-11.6476
了十几	-11.6477
两人并肩	-11.6483
好生感激	-11.6497
山壁	-11.6516
谁也没	-11.6529
刷刷	-11.6543
钟底	-11.6545
混入	-11.655
躲闪	-11.6561
刺破	-11.6595
不作声	-11.6601
咬牙切齿	-11.6648
师祖爷	-11.6661
恃强	-11.6662
▁李莫愁见	-11.667
令兄	-11.6673
牛皮	-11.6685
闻到一阵	-11.6687
觉有趣	-11.6724
三个化子	-11.6739
批	-11.6744
截断	-11.6766
羊肉	-11.6775
也说不	-11.6809
一灯微笑	-11.6815
知己	-11.686
九岁	-11.6873
四散	-11.6876
杯口	-11.6878
学到了	-11.6884
拳打出	-11.689
墙外	-11.6892
认不出	-11.69
毒菱	-11.6912
山腰	-11.6927
廿	-11.6932
全真教掌教	-11.6939
女婴	-11.6944
知悉	-11.6945
惨叫	-11.6945
金光	-11.6961
掌柜	-11.6985
家客店	-11.7009
猛地想起	-11.702
名号	-11.7028
意义	-11.7042
船边	-11.7046
红光	-11.7051
两句话	-11.7052
起手来	-11.7058
畜	-11.706
洪七公与郭靖	-11.7072
峭	-11.7086
砂	-11.709
资	-11.7094
欣	-11.7095
惶	-11.7096
枚冰魄银针	-11.7097
断肠崖	-11.7097
朽	-11.7098
无常鬼	-11.7099
襟	-11.71
蹑	-11.71
描	-11.71
胶	-11.71
螺	-11.71
颂	-11.71
恢	-11.7101
亢	-11.7101
奇珍异宝	-11.7101
目不转瞬的	-11.7101
域	-11.7101
兑	-11.7101
天竺国	-11.7101
五根手指	-11.7101
揣	-11.7101
束手无策	-11.7101
稽	-11.7101
季	-11.7101
惑	-11.7101
祠	-11.7102
鸠	-11.7102
必有蹊跷	-11.7102
巍	-11.7102
秉	-11.7102
阙	-11.7102
涎	-11.7102
陈大方	-11.7102
登峰造极	-11.7102
顷	-11.7102
烹	-11.7102
欧	-11.7102
需	-11.7102
懦	-11.7102
五袋弟子	-11.7102
爽爽快快	-11.7102
清净散人	-11.7102
周遭情势	-11.7102
只守不攻	-11.7102
社	-11.7102
说一是一	-11.7102
渔樵耕读	-11.7102
百草仙	-11.7102
听在耳里	-11.7102
沙龙王	-11.7102
眺望	-11.7102
了一口长气	-11.7102
抗御	-11.7102
少说也有	-11.7102
闭上眼睛	-11.7102
院子中	-11.7102
巢	-11.7102
千难万难	-11.7102
黑沉沉的	-11.7103
十之八九	-11.7103
钱青健	-11.7103
绌	-11.7103
蜇	-11.7103
吮吸	-11.7103
摇了几摇	-11.7103
刹时之间	-11.7103
孟	-11.7103
梵文	-11.7103
闩	-11.7103
隐隐约约	-11.7103
勤修苦练	-11.7103
纱	-11.7103
置之不理	-11.7103
命不久长	-11.7103
喃喃自语	-11.7103
大椎穴	-11.7103
摔了一交	-11.7103
软软的	-11.7103
饥饿	-11.7103
人厨子	-11.7103
内心深处	-11.7103
大武哥哥	-11.7103
玎玲	-11.7103
睡梦中	-11.7103
党	-11.7103
如箭般	-11.7103
心狠手辣	-11.7103
无法可施	-11.7103
洞庭湖	-11.7103
怅	-11.7103
得更加紧了	-11.7103
控	-11.7103
神出鬼没	-11.7103
这倒奇了	-11.7103
各家各派	-11.7103
告诫	-11.7103
四下眺望	-11.7103
张家口	-11.7103
得死去活来	-11.7103
絮	-11.7103
搞	-11.7103
咭咭咯咯	-11.7103
把持不定	-11.7103
灵柩	-11.7103
轩辕台	-11.7103
抽抽噎噎的	-11.7103
来来去去	-11.7103
腾挪	-11.7103
哈里发	-11.7103
回心转意	-11.7103
妒忌	-11.7103
衙役	-11.7103
驸马爷	-11.7103
北斗大阵	-11.7103
杨陆二人	-11.7103
唾沫	-11.7103
大头矮子	-11.7103
连人带	-11.7103
香扑鼻	-11.7103
说给你听	-11.7103
酿	-11.7103
叫了两声	-11.7103
整日价	-11.7103
无路可走	-11.7103
署	-11.7103
足智多谋	-11.7103
唳	-11.7103
蹲下身来	-11.7103
拄	-11.7103
酌	-11.7103
旅	-11.7103
叮嘱	-11.7103
结结巴巴	-11.7103
那老仆	-11.7103
鄂尔多	-11.7103
功力大进	-11.7103
戾	-11.7103
佑	-11.7103
远眺	-11.7103
胡里胡涂	-11.7103
欧阳叔侄	-11.7103
四头骆驼	-11.7104
瑟	-11.7104
若游丝	-11.7104
不加理睬	-11.7104
又好气又好笑	-11.7104
成这个样子	-11.7104
标	-11.7104
眠	-11.7104
嘟	-11.7104
届	-11.7104
踱	-11.7104
判官	-11.7104
喜极而	-11.7104
跌跌撞撞	-11.7104
玉镯	-11.7104
简略说了	-11.7104
鳞	-11.7104
一声长笑	-11.7104
脏腑	-11.7104
百花谷	-11.7104
侧耳听	-11.7104
千斤坠	-11.7104
暴跳如雷	-11.7104
一小队	-11.7104
报仇雪恨	-11.7104
缨	-11.7104
脸如土色	-11.7104
铅轮	-11.7104
欣慰	-11.7104
脸露微笑	-11.7104
取他性命	-11.7104
贼厮鸟	-11.7104
无怨无仇	-11.7104
神不守舍	-11.7104
禽兽	-11.7104
伊	-11.7104
篾儿乞惕	-11.7104
瘫	-11.7104
走火入魔	-11.7104
连人带椅	-11.7104
喜不自胜	-11.7104
别来无恙	-11.7104
信口胡	-11.7104
谦逊	-11.7104
灵蛇拳	-11.7104
婢女	-11.7104
心中一荡	-11.7104
豪迈	-11.7104
哪里还来得及	-11.7104
怒从心	-11.7104
油腻	-11.7104
亲眼目睹	-11.7104
温馨	-11.7104
疗毒	-11.7104
苍苍	-11.7104
粮草	-11.7104
讨厌	-11.7104
大得异乎寻常	-11.7104
心念甫	-11.7104
s	-11.7104
弧形	-11.7104
心情激动	-11.7104
檀	-11.7104
歼灭	-11.7104
翻阅	-11.7104
书籍	-11.7104
喻	-11.7104
笺	-11.7104
驷	-11.7104
总纲	-11.7105
烈焰	-11.7105
陡然间	-11.7105
贾	-11.7105
那胖妇人	-11.7105
不想活了	-11.7105
倍增	-11.7105
着实不轻	-11.7105
鞭梢	-11.7105
欢悦	-11.7105
咕咕	-11.7105
越斗越	-11.7105
这部经书	-11.7105
扫帚	-11.7105
汗珠	-11.7105
舍侄	-11.7105
在其内	-11.7105
监视	-11.7105
好得很啊	-11.7105
歉然	-11.7105
体贴	-11.7105
碧绿	-11.7105
大有进境	-11.7105
临安府牛家村	-11.7105
男装	-11.7106
钦仰	-11.7106
疑团	-11.7106
肚兜	-11.7106
甜甜	-11.7106
凝神倾听	-11.7106
心头一凛	-11.7106
唯恐	-11.7106
的精要	-11.7106
茅舍	-11.7106
跃下地来	-11.7106
四十岁	-11.7106
店伙	-11.7106
僧袍	-11.7106
的神气	-11.7106
干粮	-11.7106
只觉一股大力	-11.7106
棘手	-11.7106
安寝	-11.7106
牵挂	-11.7106
不加理会	-11.7106
又喜又	-11.7106
纵横江湖	-11.7106
坐在椅上	-11.7107
途径	-11.7107
高高举起	-11.7107
衣裤	-11.7107
师傅	-11.7107
肉搏	-11.7107
比武之约	-11.7107
坦然	-11.7107
木桩	-11.7107
歇宿	-11.7107
声长嘶	-11.7107
飞驰而	-11.7107
臭虫	-11.7107
壮健	-11.7107
所居的	-11.7107
任脉	-11.7107
吹箫	-11.7107
扳桨	-11.7107
少庄主	-11.7107
险些摔倒	-11.7108
领头的	-11.7108
坚壁	-11.7108
拿捏不住	-11.7108
纷纷跌落	-11.7108
新鲜	-11.7108
也就罢了	-11.7108
板壁	-11.7108
垂泪	-11.7108
木桶	-11.7108
受伤不轻	-11.7108
羞愧	-11.7108
角落里	-11.7108
父仇	-11.7108
哪里还敢	-11.7109
云梯	-11.7109
堂堂	-11.7109
满拟	-11.7109
窗格	-11.7109
柯大哥	-11.7109
夫妇俩	-11.7109
为伍	-11.7109
作伪	-11.7109
熟习	-11.7109
周老前辈	-11.7109
英雄大会	-11.7109
挟制	-11.7109
令牌	-11.711
听她语气	-11.711
应援	-11.711
落英神剑掌法	-11.711
木棍	-11.711
放入口中	-11.711
轻贱	-11.711
防护	-11.711
沉吟不语	-11.711
池穴	-11.711
纯熟	-11.711
花朵	-11.711
锦衣	-11.711
子聪	-11.711
感应	-11.711
太阳穴	-11.711
全身酸软	-11.711
李道长	-11.711
偎倚	-11.7111
剧毒无比	-11.7111
东邪西毒	-11.7111
京师	-11.7111
脸上满是	-11.7111
戒指	-11.7111
王十三	-11.7111
威严	-11.7111
宛若	-11.7111
惧色	-11.7112
不久就	-11.7112
回头一望	-11.7112
全真道人	-11.7112
装傻	-11.7112
震荡	-11.7112
你敢不敢	-11.7112
吼一声	-11.7112
手臂酸麻	-11.7113
兴致	-11.7113
一封信	-11.7113
抵敌不住	-11.7113
奇幻	-11.7113
看得清清楚楚	-11.7113
大嫂	-11.7114
急忙后跃	-11.7114
个耳光	-11.7114
统军	-11.7114
翻腾	-11.7115
偷盗	-11.7115
立时毙命	-11.7115
拒敌	-11.7115
俯首	-11.7115
块石头	-11.7115
怜爱	-11.7115
一上来就	-11.7116
师娘	-11.7116
端严	-11.7116
势挟	-11.7116
注目	-11.7116
钻了出来	-11.7116
边缘	-11.7116
卫兵	-11.7116
又是愤怒	-11.7116
第八	-11.7117
诱敌	-11.7117
岸边	-11.7117
领袖	-11.7118
含义	-11.7118
帕子	-11.7118
与人动手	-11.7118
尖利	-11.7119
隙可	-11.7119
冤家	-11.7119
不敢逼近	-11.712
俗家	-11.712
建立	-11.712
关系	-11.712
嗯了一声	-11.712
开始	-11.712
略略	-11.7121
计算	-11.7121
群盗	-11.7121
闪躲	-11.7121
无人敢	-11.7122
迫近	-11.7122
店房	-11.7122
充满着	-11.7123
倏忽	-11.7123
追不上	-11.7123
杨帮主	-11.7123
两匹马	-11.7123
数招之间	-11.7124
高手比武	-11.7124
一门功夫	-11.7124
闭眼	-11.7124
傻孩子	-11.7124
心中思潮起伏	-11.7125
正午	-11.7125
山腰里	-11.7125
得好快	-11.7125
中指峰	-11.7125
锦囊	-11.7125
射雕	-11.7125
数度	-11.7126
平野	-11.7127
断续	-11.7127
略加	-11.7127
座位	-11.7127
挑战	-11.7128
不再言语	-11.7128
正式	-11.7128
一听之下	-11.7129
迷路	-11.7129
一旦	-11.7129
仇家	-11.7129
走到门口	-11.7129
瞧一眼	-11.7129
了好一阵	-11.713
可有多	-11.713
发呆	-11.713
斗胆	-11.713
止步	-11.713
青龙	-11.713
错过了	-11.713
全是为了	-11.713
招架不住	-11.7131
烟火	-11.7131
长春	-11.7132
爱护	-11.7132
简直	-11.7132
酒席	-11.7132
默写	-11.7132
说不出口	-11.7132
秀发	-11.7133
危急之中	-11.7133
捧起	-11.7133
拜师	-11.7133
伏在地下	-11.7134
相距既	-11.7134
全真教主	-11.7135
那梢公	-11.7135
倾倒	-11.7137
叩见	-11.7138
稍稍	-11.7138
果然了得	-11.7138
幸喜	-11.7139
云云	-11.7139
凝望着	-11.7139
明晚	-11.7139
苦功	-11.714
筝声	-11.714
豪气	-11.714
向他后心	-11.714
举拂尘	-11.714
招惹	-11.714
四壁	-11.7141
服色	-11.7141
其余三人	-11.7141
任凭	-11.7142
不宜	-11.7142
金珠	-11.7142
布阵	-11.7143
移开	-11.7143
左手一挥	-11.7143
尊重	-11.7144
呼痛	-11.7144
乱舞	-11.7144
无别物	-11.7145
擅自	-11.7145
带队	-11.7145
出手相助	-11.7145
本该	-11.7145
北国	-11.7146
吓得魂飞魄散	-11.7146
厉害得紧	-11.7148
真假	-11.7148
砖头	-11.7148
逃避	-11.7149
意图	-11.7149
尖声	-11.7149
想起当日	-11.715
甚是了得	-11.715
渐远	-11.7151
天灵盖上	-11.7152
粗声	-11.7152
结亲	-11.7153
姓黄	-11.7153
猛扑	-11.7153
乘早	-11.7153
拔开	-11.7154
几行字	-11.7154
丝丝	-11.7154
只使了	-11.7155
第三招	-11.7155
境地	-11.7156
说的都是	-11.7157
不敢贸然	-11.7157
床前	-11.7157
不禁大为	-11.7158
刺耳	-11.7159
扑通	-11.7159
心中一震	-11.7159
赶路	-11.7161
小童	-11.7162
面色	-11.7164
不禁骇然	-11.7164
相较	-11.7164
应敌	-11.7165
村子	-11.7166
施展出来	-11.7166
黑血	-11.7167
要诀	-11.7168
金铁	-11.7172
四个女子	-11.7178
微光	-11.7179
不敢违拗	-11.718
楼头	-11.7181
发毛	-11.7185
小店	-11.7187
话题	-11.719
多费	-11.719
决计不肯	-11.7191
算得甚么	-11.7192
腿骨	-11.7194
微笑不答	-11.7195
佛经	-11.7205
台前	-11.7215
我偏不	-11.7224
无处可	-11.7232
差得远	-11.724
是丐帮中的	-11.7243
详细	-11.7245
成两截	-11.7255
失常	-11.7258
智取	-11.7264
化开	-11.7265
这一节	-11.7269
捧住	-11.7269
终南山重阳宫	-11.7271
大铁锤	-11.7278
掌教真人	-11.7283
掏出	-11.7287
此际	-11.7294
禅房	-11.7295
万岁	-11.7306
马嘶	-11.731
搭住	-11.7324
安排下	-11.7324
不用担心	-11.7334
千余人	-11.7336
在杨过身上	-11.7345
盘膝坐	-11.7349
座山峰	-11.7358
由此而	-11.7361
左手食指	-11.7363
遗言	-11.7365
十六岁	-11.7365
树顶	-11.7368
无妨	-11.737
熟知	-11.7379
微笑不语	-11.7384
来捣乱	-11.739
剑尖刺	-11.7396
一掌击	-11.7399
店堂	-11.7405
据说	-11.7417
飞身跃	-11.7418
疯汉	-11.7429
入座	-11.743
谁教你	-11.7447
日一早	-11.7454
忽听得身后	-11.7462
难忍	-11.7484
牙齿咬	-11.7486
呆望	-11.7501
敌营	-11.7506
后梢	-11.7522
此节	-11.7536
隐藏	-11.7545
是甚么东西	-11.7554
强好胜	-11.7577
吹牛	-11.7585
惨呼	-11.7589
出谷去	-11.7599
二次华山论剑	-11.7618
运内功	-11.7628
感恩	-11.7638
退三步	-11.7648
个规矩	-11.7686
十七八	-11.7729
掌教之位	-11.7744
一件大事	-11.7815
出数里	-11.7871
安静	-11.7881
第一件	-11.7887
片片	-11.7903
呼应	-11.7915
光耀眼	-11.7932
拉着她手	-11.7969
两个孩儿	-11.798
须眉	-11.7981
声叫喊	-11.7987
枚绝情丹	-11.8003
右胁	-11.8009
宗师	-11.8021
小女孩儿	-11.8042
说笑话	-11.8058
加紧	-11.806
迟迟	-11.8081
半晌不语	-11.8093
嗤嗤嗤	-11.8107
封住	-11.8117
光滑	-11.8129
违拗	-11.8131
几颗	-11.8135
纛	-11.8166
绪	-11.8204
觑	-11.8204
脾	-11.8207
刺了一	-11.8207
瘤	-11.8211
揪	-11.8211
润	-11.8212
昆	-11.8212
威风凛凛	-11.8212
煎	-11.8212
羁	-11.8212
识广	-11.8212
问个明白	-11.8212
处心积虑	-11.8212
炎	-11.8213
竞	-11.8213
吏	-11.8213
无情无义	-11.8213
雌	-11.8213
浊	-11.8213
铅	-11.8213
条血痕	-11.8213
这幅画	-11.8213
伶俐	-11.8213
淘	-11.8213
若是换作	-11.8213
警	-11.8213
励	-11.8213
嫣然	-11.8213
衷	-11.8213
擂	-11.8213
剃	-11.8213
当今之世	-11.8213
无法可想	-11.8213
空荡荡的	-11.8213
一点儿也不错	-11.8213
透骨钉	-11.8213
姜	-11.8213
淫	-11.8213
一跷一拐	-11.8213
万里迢迢的	-11.8213
五位师长	-11.8213
无言可对	-11.8213
眨	-11.8213
一招半式	-11.8213
千千万万	-11.8213
在天之灵	-11.8214
诣	-11.8214
阴恻恻的	-11.8214
一年半载	-11.8214
尼摩星的铁蛇	-11.8214
幸灾乐祸	-11.8214
戮	-11.8214
涨得通红	-11.8214
宁死不屈	-11.8214
攒	-11.8214
申师叔	-11.8214
嘶哑着嗓子	-11.8214
惩	-11.8214
出了一身冷汗	-11.8214
娃	-11.8214
炊	-11.8214
逛	-11.8214
多管闲事	-11.8214
瑶	-11.8214
破涕为笑	-11.8214
不可思议	-11.8214
俦	-11.8214
债	-11.8214
卜	-11.8214
煤	-11.8214
眼前金星乱冒	-11.8214
粗糙	-11.8214
绝世武功	-11.8214
锣	-11.8214
一个白衣少女	-11.8214
蒙古第一国师	-11.8214
谢天谢地	-11.8214
豪爽	-11.8214
动过手	-11.8214
山谷鸣响	-11.8214
毫不理睬	-11.8214
辅佐	-11.8214
退了几步	-11.8214
刀枪不入	-11.8214
潇湘兄	-11.8214
霄	-11.8214
龟	-11.8214
碌碌	-11.8214
哗	-11.8214
悯	-11.8214
从腰间拔出	-11.8214
喀喇喇一声	-11.8214
沉着脸	-11.8214
百余里	-11.8214
行若无事	-11.8214
欧阳世兄	-11.8214
殷勤	-11.8214
蛾眉钢刺	-11.8214
得滚瓜烂熟	-11.8214
馋涎	-11.8214
篮	-11.8214
晒	-11.8214
揍	-11.8214
不知天高地厚	-11.8214
填膺	-11.8214
灿然	-11.8214
爷儿俩	-11.8214
碗口粗细	-11.8214
靡	-11.8214
笑眯眯的	-11.8214
衬	-11.8214
讨不了好去	-11.8214
戕	-11.8214
涧	-11.8214
耳括子	-11.8214
嘭	-11.8214
靥	-11.8214
丹阳子马钰	-11.8214
仰天长笑	-11.8214
左右互搏	-11.8214
面红耳赤	-11.8214
一声不响	-11.8214
刁钻古怪	-11.8214
女娃儿	-11.8214
带在身边	-11.8214
庇	-11.8214
皓	-11.8214
迈开大步	-11.8214
怜悯之	-11.8214
淳	-11.8214
砰砰砰	-11.8214
谁胜谁败	-11.8214
闻所未闻	-11.8214
伕	-11.8214
撮	-11.8214
隅	-11.8214
不明不白的	-11.8214
倚多为胜	-11.8214
心灰意懒	-11.8214
翠寒堂	-11.8214
身中剧毒	-11.8214
那美貌少妇	-11.8215
大功告成	-11.8215
大着胆子	-11.8215
灿烂	-11.8215
喝了一大口酒	-11.8215
指手划脚	-11.8215
缒	-11.8215
盾	-11.8215
上卷经文	-11.8215
两行字	-11.8215
旌旗	-11.8215
舐	-11.8215
不听使唤	-11.8215
听而不闻	-11.8215
唣	-11.8215
排山倒海	-11.8215
一前一后	-11.8215
奴隶	-11.8215
炉火纯青	-11.8215
言而有信	-11.8215
小酒店	-11.8215
以毒攻毒	-11.8215
拆了数十招	-11.8215
拜伏在地	-11.8215
活得不耐烦了	-11.8215
门缝中	-11.8215
黄前帮主	-11.8215
贪生怕死	-11.8215
皱纹	-11.8215
潇	-11.8215
丑八怪	-11.8215
哑然失笑	-11.8215
捉迷藏	-11.8215
铁铸的	-11.8215
蔑	-11.8215
勇悍	-11.8215
一片寂静	-11.8215
▁睡到	-11.8215
戏耍	-11.8215
磁	-11.8215
铜杵	-11.8215
周老爷子	-11.8215
过了一盏茶	-11.8215
无缘无故的	-11.8215
一流高手	-11.8215
乱七八糟	-11.8215
拖泥带水	-11.8215
硬碰硬	-11.8215
远远传了出去	-11.8215
心下暗惊	-11.8215
恻	-11.8215
拳打足踢	-11.8215
沙滩	-11.8215
理也不理	-11.8215
冒昧	-11.8215
胖瘦二丐	-11.8215
袄	-11.8215
记耳光	-11.8215
愕然相顾	-11.8215
半截断剑	-11.8215
同胞	-11.8215
炎热	-11.8215
质朴	-11.8215
剽悍	-11.8215
劳什子	-11.8215
在古墓之中	-11.8215
柯老公公	-11.8215
黑袍将军	-11.8215
明其理	-11.8215
杏	-11.8215
言中之意	-11.8215
叽叽	-11.8215
差愕	-11.8215
下不了手	-11.8215
事已如此	-11.8215
交过手	-11.8215
寇	-11.8215
手足酸软	-11.8215
茸	-11.8215
启禀	-11.8215
忽高忽低	-11.8215
糟老头子	-11.8215
一本正经的	-11.8215
不是他的敌手	-11.8215
妓	-11.8215
一往情深	-11.8215
啼鸣	-11.8215
拆了十余招	-11.8215
可要小心了	-11.8215
在客店中	-11.8215
繁华	-11.8215
厌烦	-11.8215
清净散人孙不二	-11.8215
翅膀	-11.8215
灵敏	-11.8216
拍了拍	-11.8216
赦	-11.8216
蹒	-11.8216
全神戒备	-11.8216
跚	-11.8216
占便宜	-11.8216
吁	-11.8216
性子暴躁	-11.8216
躺在床上	-11.8216
麻痒难当	-11.8216
纠葛	-11.8216
星聚会	-11.8216
偕	-11.8216
屋檐	-11.8216
上下打量	-11.8216
惊得呆了	-11.8216
温雅	-11.8216
柯瞎子	-11.8216
适逢	-11.8216
繁星	-11.8216
江南六侠	-11.8216
妙龄	-11.8216
在这当口	-11.8216
蓝天和	-11.8217
快给我滚	-11.8217
愤激	-11.8217
纤夫	-11.8217
试一试	-11.8217
隐秘	-11.8217
木材	-11.8217
血手印	-11.8217
团聚	-11.8217
我来助你	-11.8217
纤腰	-11.8217
打你不过	-11.8217
珍贵	-11.8217
丹田之气	-11.8217
剧痛难当	-11.8217
踏上半步	-11.8217
毫不在意	-11.8217
彻骨	-11.8217
带刀渔网	-11.8217
不识水性	-11.8217
蛇奴	-11.8217
蹑足	-11.8217
冠英	-11.8217
追赶不上	-11.8217
双膝跪地	-11.8217
朱伯伯	-11.8217
一忽儿	-11.8218
临死之际	-11.8218
足为奇	-11.8218
上乘轻功	-11.8218
抵赖	-11.8218
舍命相救	-11.8218
哪想得到	-11.8218
漫游	-11.8218
母鹿	-11.8218
蓄势	-11.8218
遭际	-11.8218
守城官	-11.8218
异族	-11.8219
抢步上前	-11.8219
加倍	-11.8219
铁掌水上飘裘千仞	-11.8219
娇柔	-11.8219
妥善	-11.8219
卫护	-11.8219
左胁	-11.8219
父母之命	-11.8219
欲呕	-11.8219
难测	-11.8219
武艺高强	-11.8219
各执兵刃	-11.8219
宁海	-11.8219
叛徒	-11.8219
洪亮	-11.8219
欧阳锋与裘千仞	-11.8219
低头避过	-11.8219
倾侧	-11.822
猴儿	-11.822
阿根	-11.822
你可不许	-11.822
蜂涌	-11.822
较艺	-11.822
在她耳边	-11.822
端丽	-11.822
吵闹	-11.822
吞吐	-11.822
臭尿	-11.822
拜倒在地	-11.822
膝弯	-11.822
四下张望	-11.822
统领	-11.822
随侍	-11.822
丘师哥	-11.8221
丈有余	-11.8221
齐哥	-11.8221
所受的	-11.8221
程师妹	-11.8221
伏魔	-11.8221
文章	-11.8221
机智	-11.8221
热泪	-11.8221
坚冰	-11.8221
探访	-11.8221
低啸	-11.8221
包抄	-11.8221
丈许之外	-11.8221
投缘	-11.8221
一心一意	-11.8221
拉了郭靖	-11.8221
汉奸	-11.8221
湿透	-11.8221
陆师哥	-11.8221
抛弃	-11.8222
斟酒	-11.8222
快如闪电	-11.8222
男子汉	-11.8222
诗词	-11.8222
掌教师兄	-11.8222
怪僻	-11.8222
侧身闪避	-11.8222
灵丹	-11.8222
却不答话	-11.8222
隔了片刻	-11.8222
疯狗	-11.8222
俯身拾起	-11.8222
傻哥哥	-11.8222
村民	-11.8222
波斯	-11.8222
二小姐	-11.8222
铁拐	-11.8223
免不了	-11.8223
声震天	-11.8223
背叛	-11.8223
放火烧	-11.8223
挺矛	-11.8223
郭叔父	-11.8223
午夜	-11.8223
埋骨	-11.8223
灰土	-11.8223
骑术	-11.8223
防御	-11.8223
干预	-11.8223
圈套	-11.8223
跛足	-11.8223
潭边	-11.8224
游戏	-11.8224
玉环	-11.8224
记载	-11.8224
头绪	-11.8224
不敢硬接	-11.8224
形迹	-11.8224
大宋百姓	-11.8224
奔出数丈	-11.8224
周兄	-11.8224
秀美	-11.8224
登时醒悟	-11.8225
进益	-11.8225
宝庄	-11.8225
勤练	-11.8225
素闻	-11.8225
俯耳	-11.8225
一时说不出话来	-11.8225
拍了几下	-11.8225
相搏	-11.8225
双爪	-11.8225
毒蛇咬	-11.8225
想见见	-11.8226
得更快	-11.8226
左翅	-11.8226
争执	-11.8226
杯盘	-11.8226
倒也罢了	-11.8227
朝阳	-11.8227
调息	-11.8227
听他语气	-11.8227
黑驴	-11.8227
坚厚	-11.8227
南宋	-11.8227
听我话	-11.8227
惨遭	-11.8227
讲解	-11.8227
治病	-11.8228
腾的一声	-11.8228
干休	-11.8228
珍重	-11.8228
能耐	-11.8228
仇恨	-11.8229
采药	-11.8229
七寸	-11.8229
背后风声	-11.8229
攻拒	-11.8229
缓慢	-11.8229
长子朮赤	-11.823
闹了个	-11.823
师承	-11.823
不顾性命	-11.823
野果	-11.823
不下去了	-11.823
傲然	-11.8231
石盒	-11.8231
羊太傅庙	-11.8231
拜堂	-11.8231
腾的一	-11.8231
稍加	-11.8231
并不理会	-11.8231
之巅	-11.8231
陡然	-11.8231
正自沉吟	-11.8232
太公	-11.8232
镇定	-11.8232
图形	-11.8232
开口说话	-11.8233
军务	-11.8233
争闹	-11.8233
尽量	-11.8233
十多岁	-11.8233
远征	-11.8233
武学高手	-11.8234
难以脱身	-11.8234
羊皮	-11.8234
从半空中	-11.8234
玄门	-11.8234
已自不及	-11.8234
沉稳	-11.8234
痴情	-11.8235
治好了	-11.8235
师恩	-11.8235
王公	-11.8235
老道姑	-11.8236
足迹	-11.8236
三件事	-11.8236
僵直	-11.8236
两大高手	-11.8236
拜谢	-11.8236
急忙跃开	-11.8236
须得好好	-11.8237
哭了起来	-11.8237
金钱	-11.8238
人影不见	-11.8238
黄影	-11.8239
得正急	-11.8239
白雾	-11.8239
得山来	-11.8239
赞叹	-11.824
依次	-11.824
横削	-11.824
查看	-11.8241
慢慢走近	-11.8242
复原	-11.8242
眼波	-11.8242
并世	-11.8243
心下暗自	-11.8243
年岁	-11.8244
独步	-11.8244
席间	-11.8245
注视着	-11.8245
晕红	-11.8246
灰白	-11.8247
斜斜	-11.8247
我和靖哥哥	-11.8247
三个月	-11.8247
闪跃	-11.8247
重誓	-11.8247
想不通	-11.8248
两根手指	-11.8249
助拳	-11.8249
脸蛋	-11.8249
明亮	-11.825
火星	-11.825
成了亲	-11.825
满嘴	-11.8251
路程	-11.8251
个美貌少女	-11.8251
闭门	-11.8251
昔时	-11.8251
确然	-11.8251
新帮主	-11.8252
到襄阳来	-11.8252
脸露	-11.8253
露脸	-11.8253
糟啦	-11.8254
躲在这里	-11.8254
微扬	-11.8255
惊险	-11.8255
退了出去	-11.8257
所教的	-11.8257
隆起	-11.8259
向郭靖望了一眼	-11.8264
说过的话	-11.8265
不敢再看	-11.8265
不敢再问	-11.8265
瞧热闹	-11.8266
得有字	-11.8267
见了这等	-11.8273
门大开	-11.8275
宝石	-11.8278
瞥见	-11.8279
消解	-11.8281
从人丛中	-11.8292
力量	-11.8294
代替	-11.8306
瞥眼见	-11.8309
岂难道	-11.8311
你的臭	-11.8318
装假	-11.833
侠士	-11.8336
枝长箭	-11.834
悄然	-11.8341
供桌	-11.8344
幽谷	-11.8351
烧毁	-11.8359
不知好歹	-11.8363
好生佩服	-11.8367
法之快	-11.8373
转了几个	-11.8378
十八年前	-11.8388
柯老头	-11.8404
也算不了甚么	-11.8407
廿四	-11.8408
损折	-11.8421
件件	-11.8458
睁开	-11.8459
足踝	-11.8465
没学到	-11.8481
法王与尼摩星	-11.8487
耀眼	-11.8511
伐金	-11.8523
出重围	-11.8538
性命要紧	-11.854
没法子	-11.8545
占住	-11.8565
往他头顶	-11.8566
入树林	-11.8596
轻舟	-11.8615
不必说了	-11.8641
口鼻	-11.8641
有甚么古怪	-11.8643
一一说了	-11.865
二十岁	-11.8656
斜眼看	-11.867
叽哩咕噜	-11.8771
退数步	-11.8776
衣囊	-11.8777
轰隆	-11.8798
夹住	-11.8828
隆隆	-11.8842
也不在意	-11.8933
开橱门	-11.8946
虽不甚	-11.8953
湖南	-11.8958
东北方	-11.9029
一交摔倒	-11.9063
破洞	-11.9068
抬头看	-11.9077
未必能胜	-11.9125
文士	-11.9129
白光闪	-11.9156
势凌厉	-11.9166
踝	-11.9187
一意要	-11.9237
中原武林	-11.9251
拉住她手	-11.9262
一十八年	-11.9271
居古墓	-11.9306
普	-11.9333
瞥	-11.9335
怔怔	-11.9343
点燃	-11.935
愕	-11.9389
箱盖	-11.9411
测	-11.9427
旦	-11.9429
说不出话	-11.9434
堪	-11.9435
组	-11.9449
使的正是	-11.945
猴	-11.9453
婴	-11.9455
不欲伤	-11.9455
躯	-11.9457
坦	-11.9459
霍地站起	-11.9459
阅	-11.9459
恁	-11.9459
瓣	-11.946
翔	-11.946
卓	-11.946
光溜溜的	-11.946
宠	-11.946
纹	-11.9461
束手待毙	-11.9461
捺	-11.9461
殷	-11.9461
庐	-11.9462
喀	-11.9462
优	-11.9462
棋	-11.9462
嫡	-11.9462
姻	-11.9462
搽	-11.9462
锚	-11.9462
青龙滩	-11.9462
脐	-11.9462
辗	-11.9462
豺狼谷	-11.9462
括	-11.9462
瘟疫	-11.9462
茶馆	-11.9462
惘	-11.9462
眷	-11.9462
尼姑	-11.9462
曹	-11.9462
鬼门龙王	-11.9462
快捷无伦	-11.9462
落荒而逃	-11.9462
梁老怪	-11.9463
心旷神怡	-11.9463
胡作非为	-11.9463
反唇相	-11.9463
大仁大义	-11.9463
诸葛亮	-11.9463
钵	-11.9463
熙	-11.9463
虬髯	-11.9463
萍	-11.9463
无善策	-11.9463
辽	-11.9463
闪闪发光	-11.9463
分进合击	-11.9463
龄	-11.9463
扩	-11.9463
肋	-11.9463
个措手不及	-11.9463
千里迢迢	-11.9463
糕	-11.9463
偷鸡摸狗	-11.9463
视而不见	-11.9463
饵	-11.9463
华山二次论剑	-11.9463
检	-11.9463
公孙	-11.9463
瞻	-11.9463
结为夫妇	-11.9463
圣因师太	-11.9463
许许多多	-11.9463
檐	-11.9463
十成中	-11.9463
瞬息间	-11.9463
脸如白纸	-11.9463
按捺	-11.9463
坎	-11.9463
也还罢了	-11.9464
圆圆的	-11.9464
恸	-11.9464
正人君子	-11.9464
金丝手套	-11.9464
不知所云	-11.9464
凋	-11.9464
这些日来	-11.9464
十月廿四	-11.9464
逆行经脉	-11.9464
嘈	-11.9464
桂	-11.9464
樱桃	-11.9464
蹬	-11.9464
乔	-11.9464
蹦	-11.9464
涵	-11.9464
男子汉大丈夫	-11.9464
神采飞扬	-11.9464
谱	-11.9464
构	-11.9464
反来复去	-11.9464
身材魁梧	-11.9464
唾吐	-11.9464
沫	-11.9464
鄙夷	-11.9464
一笔勾销	-11.9464
t	-11.9464
火浣室	-11.9464
见死不救	-11.9464
侧耳静听	-11.9464
祥	-11.9464
两个老丐	-11.9464
又气又急	-11.9464
惹恼了	-11.9464
裕	-11.9464
鸳鸯五珍脍	-11.9464
钧	-11.9464
出家为僧	-11.9464
契	-11.9464
浑浑噩噩	-11.9464
牡丹	-11.9464
先声夺人	-11.9464
半斤八两	-11.9464
捞	-11.9464
无意间	-11.9464
见纸上写	-11.9464
失魂落魄	-11.9464
惊世骇俗	-11.9464
歪歪斜斜	-11.9464
浪得虚名	-11.9464
言语相激	-11.9464
醺	-11.9464
白驼山少主	-11.9464
从怀中摸出	-11.9464
一语不发	-11.9464
巴格达	-11.9464
谐	-11.9464
那幅画	-11.9464
间不容发	-11.9464
秃头老者	-11.9464
五百两银子	-11.9464
头晕眼花	-11.9464
奇耻大辱	-11.9464
这几年来	-11.9464
阶	-11.9464
鲜血长流	-11.9464
垣	-11.9464
沮	-11.9464
天旋地转	-11.9464
一首诗	-11.9464
已不在人世	-11.9464
快速无伦	-11.9464
身材高大	-11.9464
那还了得	-11.9464
刹时间	-11.9464
大祸临头	-11.9464
异想天开	-11.9464
弯了腰	-11.9464
褪	-11.9464
踢了一脚	-11.9464
连声称是	-11.9464
半死不活	-11.9464
发射暗器	-11.9464
抢在头里	-11.9464
段智兴	-11.9464
直娘贼	-11.9464
笨拙	-11.9464
腹中饥饿	-11.9464
连连摇手	-11.9464
韩侂胄	-11.9464
一个多月	-11.9464
啐了一口	-11.9464
抬起了头	-11.9464
难说得很	-11.9464
七十二路空明拳	-11.9464
走一遭	-11.9464
洋	-11.9464
神威凛凛	-11.9464
剐	-11.9464
咄	-11.9464
垂头丧气	-11.9464
娇媚	-11.9464
我命休矣	-11.9464
栅	-11.9464
独孤求败	-11.9464
蛙	-11.9464
郝师弟	-11.9464
霉	-11.9464
心惊肉跳	-11.9464
丧门鬼	-11.9464
亡妻	-11.9464
娇滴滴的	-11.9464
悲从中来	-11.9464
症	-11.9464
齐声发喊	-11.9464
千真万确	-11.9464
厘毫	-11.9465
叶三姐	-11.9465
咭	-11.9465
天可怜见	-11.9465
屹立	-11.9465
心悦诚服	-11.9465
槁	-11.9465
皱起了眉头	-11.9465
直上直下的	-11.9465
精神为之一振	-11.9465
见势头不	-11.9465
长生不老	-11.9465
黄家妹子	-11.9465
家叔	-11.9465
不以为然	-11.9465
☆	-11.9465
不自量力	-11.9465
嘻嘻哈哈的	-11.9465
1	-11.9465
乘人之危	-11.9465
冷冰冰	-11.9465
奕	-11.9465
监禁	-11.9465
盖运聪	-11.9465
身子不适	-11.9465
长长叹了口气	-11.9465
单名一个	-11.9465
一番美意	-11.9465
哦	-11.9465
头一低	-11.9465
广宁子郝大通	-11.9465
玫瑰花	-11.9465
移形换位	-11.9465
纷至沓来	-11.9465
』	-11.9465
义结金兰	-11.9465
大汗淋漓	-11.9465
媒妁之言	-11.9465
嫌隙	-11.9465
次子察合台	-11.9465
盏油灯	-11.9465
直教生死相许	-11.9465
篆	-11.9465
胸襟	-11.9465
诳	-11.9465
丧生于	-11.9465
从窗中	-11.9465
形于色	-11.9465
慢吞吞的	-11.9465
五行生克	-11.9465
从怀里摸出	-11.9465
在战场上	-11.9465
的名称	-11.9465
隐蔽	-11.9465
亲眼所见	-11.9465
各挺长剑	-11.9465
蒙力克	-11.9465
欢声雷动	-11.9465
猾	-11.9465
乖僻	-11.9465
基业	-11.9465
心慌意乱	-11.9465
愤慨	-11.9465
赫赫	-11.9465
加入战团	-11.9465
『	-11.9465
一口鲜血喷	-11.9465
母女俩	-11.9465
盈眶	-11.9465
规模	-11.9465
这口恶气	-11.9465
金创药	-11.9465
马王神韩宝驹	-11.9465
弯弓搭箭	-11.9465
九阴神功	-11.9465
十八年来	-11.9465
恩惠	-11.9465
熔	-11.9465
西山十鬼	-11.9465
豁出了性命	-11.9465
个落花流水	-11.9465
分心二用	-11.9465
搠	-11.9465
更加响了	-11.9465
磕了四个头	-11.9465
烬	-11.9465
调匀	-11.9465
坪	-11.9465
不寒而栗	-11.9465
不知身在何处	-11.9465
唠唠叨叨	-11.9465
大出意外	-11.9465
清晰	-11.9465
鬼门龙王沙通天	-11.9465
悲喜交集	-11.9465
心中大慰	-11.9465
直飞出去	-11.9465
阿里不哥	-11.9465
天已大明	-11.9465
突如其来	-11.9465
八十一只麻雀	-11.9465
趟	-11.9465
连声称谢	-11.9465
第三日上	-11.9465
鸳鸯织就欲双飞	-11.9465
端端正正的	-11.9465
晴	-11.9465
蒙古第一勇士	-11.9465
叹了口长气	-11.9465
玉阳子王处一	-11.9465
连使眼色	-11.9465
那童子	-11.9465
旗鼓相当	-11.9465
那姓孙的	-11.9465
家破人亡	-11.9465
默默无言	-11.9465
百余招	-11.9465
伸手入怀	-11.9465
星光下	-11.9465
说个明白	-11.9465
迄今	-11.9465
个水落石出	-11.9465
作了一揖	-11.9465
从怀里掏出	-11.9465
牧童	-11.9465
于无形	-11.9465
罪该万死	-11.9465
震天价	-11.9465
追得上	-11.9465
骎	-11.9465
伤他不得	-11.9466
呆滞	-11.9466
音律	-11.9466
香雪厅	-11.9466
再好没有	-11.9466
精微奥妙	-11.9466
领教领教	-11.9466
仇深似海	-11.9466
那天竺僧人	-11.9466
忽都虎	-11.9466
又是好气	-11.9466
禅院	-11.9466
相顾愕然	-11.9466
示警	-11.9466
印证	-11.9466
死有余辜	-11.9466
越女剑法	-11.9466
欧阳公子	-11.9466
喀喀两声	-11.9466
笑了一笑	-11.9466
难以自已	-11.9466
美女拳法	-11.9466
湍急	-11.9466
配得上	-11.9466
稍有疏	-11.9466
静悄悄的	-11.9466
仆役	-11.9466
招两式	-11.9466
机警	-11.9466
满脸喜色	-11.9466
谭师哥	-11.9466
有道之士	-11.9466
财宝	-11.9466
那书记	-11.9466
太监	-11.9466
松鼠	-11.9466
疑心大起	-11.9466
豁达	-11.9466
撕下衣襟	-11.9466
赐予	-11.9466
坚牢	-11.9467
滑腻	-11.9467
最上乘的	-11.9467
玉衡	-11.9467
姿态	-11.9467
新元史	-11.9467
突兀	-11.9467
许婚	-11.9467
况且	-11.9467
肘锤	-11.9467
高举火把	-11.9467
同样的	-11.9467
市集	-11.9467
朱大叔	-11.9467
狗屁	-11.9467
痴呆	-11.9467
愕然不解	-11.9467
喜悦之情	-11.9467
憎恶	-11.9467
乱石堆	-11.9467
诵读	-11.9467
怀孕	-11.9467
目睹	-11.9467
康复	-11.9468
掳掠	-11.9468
抱在怀里	-11.9468
按摩	-11.9468
陆爷	-11.9468
善哉	-11.9468
微一迟疑	-11.9468
这件大事	-11.9468
得远远地	-11.9468
介意	-11.9468
瞎说八道	-11.9468
粗鲁	-11.9468
绝顶聪明	-11.9468
侍奉	-11.9468
圣旨	-11.9468
天色渐黑	-11.9468
武学名家	-11.9468
缓步而出	-11.9468
做兄弟的	-11.9468
掩映	-11.9468
望了几眼	-11.9468
说话的正是	-11.9468
侵犯	-11.9468
掩埋	-11.9468
断成两截	-11.9468
金盔	-11.9468
虎啸	-11.9468
上前夹攻	-11.9468
脸色一沉	-11.9468
奔驰来去	-11.9469
印痕	-11.9469
精锐	-11.9469
举起马鞭	-11.9469
聪明绝顶	-11.9469
低头沉思	-11.9469
一股疾风	-11.9469
皮肤	-11.9469
毒蟒	-11.9469
苦涩	-11.9469
杨郎	-11.9469
报此仇	-11.9469
海螺	-11.9469
屠牛	-11.9469
窥探	-11.9469
雷鸣	-11.9469
活生生	-11.9469
向他使个眼色	-11.947
老铁匠	-11.947
宽慰	-11.947
毒汁	-11.947
父皇	-11.947
翻身上马	-11.947
的住处	-11.947
四十来岁	-11.947
丸药	-11.947
退了一步	-11.947
麻软	-11.947
密密	-11.9471
擦擦	-11.9471
纵身扑上	-11.9471
线索	-11.9471
武林人物	-11.9471
七个道人	-11.9471
怔怔的瞧着	-11.9471
耗损	-11.9471
中了情花之毒	-11.9471
所能及	-11.9471
空有一身	-11.9471
座小山	-11.9471
迅疾	-11.9471
恩仇	-11.9471
看了一眼	-11.9471
不明所以	-11.9471
瞥眼间	-11.9472
时刻稍	-11.9472
霍地	-11.9472
彼端	-11.9472
心眼儿	-11.9472
督战	-11.9472
争辩	-11.9472
贤徒	-11.9472
存亡	-11.9472
君宝	-11.9472
浑忘了	-11.9472
伏在桌上	-11.9472
鲜美	-11.9472
砍柴	-11.9473
武家兄弟	-11.9473
星星	-11.9473
待我很好	-11.9473
叛师	-11.9473
蓬头	-11.9473
悲切	-11.9473
蹲在地下	-11.9473
悟性	-11.9473
功效	-11.9473
摔倒在地	-11.9473
使上了十成	-11.9473
精钢	-11.9473
反驳	-11.9474
约束	-11.9474
缓步上前	-11.9474
全不理会	-11.9474
一切全是	-11.9474
放肆	-11.9474
山冈	-11.9474
颇具	-11.9474
来捉我	-11.9474
广博	-11.9474
蒲团之上	-11.9474
恋战	-11.9474
药粉	-11.9474
四川	-11.9474
追捕	-11.9474
微颤	-11.9474
蜂毒	-11.9475
查探	-11.9475
金冠	-11.9475
完颜兄弟	-11.9475
玉瓶	-11.9475
桃花岛黄岛主	-11.9475
铁尸梅超风	-11.9475
结束	-11.9475
挡在身前	-11.9475
凑合	-11.9475
柳姑娘	-11.9476
手里拿着一	-11.9476
一上手	-11.9476
伸手去拿	-11.9476
悔改	-11.9476
铁箫	-11.9476
帝国	-11.9476
是当代	-11.9476
该不该	-11.9476
转舵	-11.9477
唇边	-11.9477
肥肉	-11.9477
姓李	-11.9477
尘沙	-11.9477
泰山	-11.9477
溪底	-11.9477
惊呼一声	-11.9477
志敬	-11.9477
不到半个时辰	-11.9477
倒塌	-11.9478
佛像	-11.9478
暗暗佩服	-11.9478
团团围	-11.9478
拾起地下	-11.9478
传讯	-11.9478
旗号	-11.9479
听了这番话	-11.9479
沿路	-11.9479
武器	-11.9479
群英	-11.9479
灰色	-11.9479
粗索	-11.9479
北宋	-11.9479
厅角	-11.948
救人哪	-11.948
主母	-11.9481
上心来	-11.9481
尚浅	-11.9481
推究	-11.9481
十五招	-11.9481
交锋	-11.9481
恐怕	-11.9481
有名的	-11.9481
个平手	-11.9482
溪边	-11.9482
奔波	-11.9482
人影闪	-11.9483
扇骨	-11.9483
算不算	-11.9484
箭杆	-11.9484
插嘴	-11.9485
无别法	-11.9488
闭上了眼	-11.9488
枣树	-11.9488
鼻血	-11.9489
整理	-11.949
新野	-11.949
了一大半	-11.9492
了转来	-11.9492
我有话跟	-11.9495
伤痕	-11.9498
暇	-11.9508
到绝情谷去	-11.9508
亲口答应	-11.951
的望着自己	-11.951
尊夫	-11.9515
奔出数里	-11.9517
清净	-11.9525
咱三个	-11.9535
提缰	-11.9546
急驰而	-11.9546
部小说	-11.9547
桃树	-11.9549
七八丈	-11.9552
艘大船	-11.9558
好生后悔	-11.956
牵引	-11.956
勒住	-11.9564
几个圈子	-11.9578
声呼啸	-11.9579
一出手便	-11.9585
认识	-11.9589
决不能让	-11.9592
条青蛇	-11.9615
石窟之	-11.9655
一声惊呼	-11.966
躲藏	-11.9668
连珠箭	-11.969
就只这么	-11.9691
有甚么好玩	-11.9692
雷震	-11.9701
群玉蜂	-11.971
声喧哗	-11.972
到杨过身前	-11.9731
瞧瞧热闹	-11.9746
第九	-11.9787
两个小贼	-11.9791
隔十六年	-11.9819
凝神看	-11.9819
搂抱	-11.986
百余人	-11.988
仰天一交	-11.9888
砰	-11.9916
十七八岁	-11.9917
的那块	-11.9918
七名道人	-11.9969
悄悄溜	-12.0095
堆积	-12.0111
啪的一	-12.0117
静室	-12.0177
啪	-12.0181
是铁木真的	-12.0186
翻身坐	-12.02
情谷底	-12.0228
头顶击落	-12.0242
神色有异	-12.0274
手一伸	-12.0294
块巨石	-12.0329
辨认	-12.0373
开房门	-12.0382
急步抢	-12.043
蜂蜜	-12.0462
使的都是	-12.0466
双膝跪	-12.05
现喜色	-12.0682
裘老帮主	-12.0718
不以为意	-12.0735
群鲨	-12.0763
乖乖	-12.0776
拱	-12.0839
肴	-12.0856
次日清晨	-12.0862
瓷	-12.0868
瓶塞	-12.0877
聪	-12.088
蓬	-12.088
什	-12.0884
踏步进	-12.0886
乔寨主	-12.0887
饲养	-12.0888
鼾	-12.0888
是求之不得	-12.0888
上官帮主	-12.0889
歉	-12.0889
构筑	-12.0889
陷溺	-12.0889
铁脚仙	-12.0889
摄	-12.0889
香港	-12.0889
横练功夫	-12.089
诬	-12.089
好生之德	-12.089
凤冠	-12.089
蛟	-12.089
蹈	-12.089
殆	-12.089
闷闷不乐	-12.089
牛鼻子老道	-12.089
临终时	-12.089
两不相助	-12.0891
拓	-12.0891
每一招每一式	-12.0891
沦	-12.0891
结为兄弟	-12.0891
忠臣	-12.0891
抒	-12.0891
只作不见	-12.0891
洛	-12.0891
签	-12.0891
睨	-12.0891
全军覆没	-12.0891
副对联	-12.0891
狭	-12.0891
秽	-12.0891
三头蛟	-12.0891
镯	-12.0891
怦然心动	-12.0891
身材高瘦	-12.0891
匪	-12.0891
K	-12.0891
截然不同	-12.0891
阻挠	-12.0891
匀	-12.0891
如痴如狂	-12.0891
狭窄	-12.0891
各有所长	-12.0892
明霞岛	-12.0892
十二个时辰之内	-12.0892
茂	-12.0892
蝇	-12.0892
阴阳双刃	-12.0892
化敌为友	-12.0892
顽劣	-12.0892
骚	-12.0892
咕嘟咕嘟的	-12.0892
力充沛	-12.0892
砰砰两	-12.0892
阅历	-12.0892
衽	-12.0892
一揖到地	-12.0892
全真诸道	-12.0892
斋	-12.0892
羹	-12.0892
神定气闲	-12.0892
一问一答	-12.0892
嘲讽	-12.0892
无穷无尽	-12.0892
狼心狗肺	-12.0892
岂有此理	-12.0892
文武双全	-12.0892
震耳欲聋	-12.0892
嘲	-12.0892
蜡	-12.0892
身赤裸	-12.0892
这贼谷主	-12.0892
火花四溅	-12.0892
汝	-12.0892
购	-12.0892
赤练魔头	-12.0892
找上门来	-12.0892
傍	-12.0892
不到一盏茶	-12.0892
加油添酱	-12.0892
又有何难	-12.0892
天罗地网势	-12.0892
怎生想个法儿	-12.0892
雷轰电	-12.0892
笑腰穴	-12.0892
迫不得已	-12.0892
员	-12.0892
摸了摸	-12.0892
越墙而出	-12.0892
身经百战	-12.0892
连遇险招	-12.0892
噬	-12.0892
微感惊讶	-12.0892
红红的	-12.0892
血肉模糊	-12.0892
防不胜防	-12.0892
猎豹	-12.0892
仰天打个哈哈	-12.0892
剖	-12.0892
杀父之仇	-12.0892
考证	-12.0892
黑压压的	-12.0892
低沉着嗓子	-12.0892
浪涛	-12.0892
层出不穷	-12.0892
暗暗纳罕	-12.0892
融会贯通	-12.0892
梵语	-12.0892
贝	-12.0892
直挺挺的	-12.0892
程陆二人	-12.0892
筋折骨断	-12.0892
蹲下身子	-12.0892
那姓穆的	-12.0892
镇慑心神	-12.0892
两名官军	-12.0892
从怀中掏出	-12.0892
得津津有味	-12.0892
哩	-12.0893
密密麻麻	-12.0893
戒律	-12.0893
横冲直撞	-12.0893
相依为命	-12.0893
千言万语	-12.0893
大剌剌	-12.0893
不逊于	-12.0893
双剑齐出	-12.0893
撼	-12.0893
百余丈	-12.0893
以大欺小	-12.0893
o	-12.0893
大喜若狂	-12.0893
奇经八脉	-12.0893
忘恩负义	-12.0893
知难而退	-12.0893
祟	-12.0893
手舞足蹈	-12.0893
溜之大吉	-12.0893
道君皇帝	-12.0893
黑漆漆的	-12.0893
一连串	-12.0893
逮	-12.0893
为非作歹	-12.0893
心念忽动	-12.0893
指了指	-12.0893
缚手缚脚	-12.0893
迁延	-12.0893
这贼杀才	-12.0893
那矮小汉子	-12.0893
郡	-12.0893
怦怦而跳	-12.0893
屯	-12.0893
碧波掌法	-12.0893
绕弯儿	-12.0893
达摩祖师	-12.0893
心胆俱裂	-12.0893
一株树上	-12.0893
三股叉	-12.0893
八月中秋	-12.0893
天竺神僧	-12.0893
胆战心惊	-12.0893
死心塌地	-12.0893
没出息	-12.0893
贩	-12.0893
那中年妇人	-12.0893
那姓杨的小子	-12.0893
鄙	-12.0893
汉武帝	-12.0893
一无所知	-12.0893
低沉了声音	-12.0893
大蒙古国	-12.0893
天涯海角	-12.0893
如箭离弦	-12.0893
婚姻	-12.0893
帛	-12.0893
意料之中	-12.0893
晋南	-12.0893
毒龙鞭	-12.0893
比武决胜	-12.0893
瘁	-12.0893
白了一眼	-12.0893
眉清目	-12.0893
肃然起敬	-12.0893
蝉	-12.0893
言出必践	-12.0893
课	-12.0893
跃跃欲试	-12.0893
家学渊源	-12.0893
招了招手	-12.0893
武家哥哥	-12.0893
神机妙算	-12.0893
蚕	-12.0893
越练越	-12.0893
远远传送出去	-12.0893
从何而来	-12.0893
兼而有之	-12.0893
小嘴一扁	-12.0893
灵丹妙药	-12.0893
独来独往	-12.0893
绒	-12.0893
镫	-12.0893
百感交集	-12.0893
幸何如之	-12.0893
王公大将	-12.0893
风驰电	-12.0893
马上乘客	-12.0893
驸	-12.0893
郑	-12.0893
只作不知	-12.0893
天突穴	-12.0893
岳父岳母	-12.0893
恍惚	-12.0893
生死系于一	-12.0893
秘笈	-12.0893
转角处	-12.0893
铄	-12.0893
九旄大纛	-12.0893
千手人屠彭连虎	-12.0893
半晌说不出话来	-12.0893
夸奖	-12.0893
弓弩手	-12.0893
心头火起	-12.0893
惊天动地	-12.0893
晃亮火折	-12.0893
歉疚	-12.0893
称之为	-12.0893
累赘	-12.0893
耸然动容	-12.0893
这对白雕	-12.0893
这路棒法	-12.0893
点亮了	-12.0893
〗	-12.0893
敏捷	-12.0893
更加近了	-12.0893
深深一揖	-12.0893
箕	-12.0893
聆	-12.0893
尚在人世	-12.0893
可怜未老头先白	-12.0893
峨	-12.0893
平平安安的	-12.0893
抓了一把	-12.0893
格格直响	-12.0893
聋	-12.0893
谒	-12.0893
库里尔台	-12.0893
年老力衰	-12.0893
提高嗓子	-12.0893
沓	-12.0893
用起功来	-12.0893
罡	-12.0893
蛮不讲理	-12.0893
剑魔独孤求败	-12.0893
峡	-12.0893
匙	-12.0893
打抱不平	-12.0893
拉着郭靖的手	-12.0893
探头探脑	-12.0893
丈开外	-12.0893
不去理他	-12.0893
兆	-12.0893
匣	-12.0893
探手入	-12.0893
痴恋	-12.0893
瞧上一眼	-12.0893
缘巧合	-12.0893
自身安危	-12.0893
销	-12.0893
姓杨名过	-12.0893
晃了几晃	-12.0893
追他不上	-12.0893
镇帮之宝	-12.0893
不顺眼	-12.0894
在哪儿	-12.0894
天色大明	-12.0894
如影随形	-12.0894
挖掘	-12.0894
敦	-12.0894
罕见罕闻	-12.0894
裁	-12.0894
钞	-12.0894
的秘要	-12.0894
中神通五人	-12.0894
伏地大哭	-12.0894
体会到	-12.0894
笑逐颜开	-12.0894
众兵丁	-12.0894
卑职	-12.0894
委顿在地	-12.0894
分从左右	-12.0894
深情无限	-12.0894
程陆二女	-12.0894
随机应变	-12.0894
飞天蝙蝠柯镇恶	-12.0894
一件件的	-12.0894
宪宗	-12.0894
笑出声来	-12.0894
辆	-12.0894
出言相激	-12.0894
一块大岩石	-12.0894
一条明路	-12.0894
吃饱了	-12.0894
大英雄大豪杰	-12.0894
教他读书	-12.0894
稍纵即逝	-12.0894
不害臊	-12.0894
中午时分	-12.0894
乱成一片	-12.0894
株大松树	-12.0894
獒	-12.0894
脉搏	-12.0894
柔肠百转	-12.0894
瓜葛	-12.0894
鬼魅	-12.0894
创教祖师	-12.0894
虎吼一声	-12.0894
那姓龙的女子	-12.0894
嗬	-12.0894
有死无生	-12.0894
城上城下	-12.0894
言而无信	-12.0894
凌波	-12.0894
武功全失	-12.0894
贡	-12.0894
双颊晕红	-12.0894
巫师	-12.0894
捡拾	-12.0894
具骸骨	-12.0894
收他为徒	-12.0894
脑筋	-12.0894
呼吸急促	-12.0894
娇嫩	-12.0894
竹帘	-12.0894
锦缎	-12.0894
骑了一匹	-12.0894
黑漆一团	-12.0894
两把剑	-12.0894
伤她不得	-12.0894
寸步不离	-12.0894
耶律兄妹	-12.0894
难解难分	-12.0894
愚蠢	-12.0894
足不停步的	-12.0894
壁上挂着	-12.0894
六太子	-12.0894
稍稍放心	-12.0894
做哥哥的	-12.0894
城内城外	-12.0894
斗笠	-12.0894
静夜之中	-12.0894
厮拚	-12.0895
育	-12.0895
合十行礼	-12.0895
脸色焦黄	-12.0895
枭鸣	-12.0895
柯大爷	-12.0895
潜心思索	-12.0895
洪伯父	-12.0895
到极处	-12.0895
称得上	-12.0895
黄葛短	-12.0895
菜篮	-12.0895
诡秘	-12.0895
啧啧	-12.0895
恭贺	-12.0895
说不出的舒服	-12.0895
那瘦子	-12.0895
梁三长老	-12.0895
恳切	-12.0895
机敏	-12.0895
冤孽	-12.0895
泪痕	-12.0895
郭二小姐	-12.0895
帐篷	-12.0895
程英与陆无双	-12.0895
恒	-12.0895
为的是要	-12.0895
喆	-12.0895
捶胸	-12.0895
有骨气	-12.0895
西北角	-12.0895
那对白雕	-12.0895
杨过与绿萼	-12.0895
中年汉子	-12.0895
农舍	-12.0895
右颊	-12.0895
今日得见	-12.0895
小棒头	-12.0895
斜坡	-12.0895
口长气	-12.0895
智谋	-12.0895
身有武功	-12.0895
一名千夫长	-12.0895
眼睁睁的瞧着	-12.0895
不知不觉的	-12.0895
无一能	-12.0895
如刀割	-12.0896
杨相公	-12.0896
兜截	-12.0896
坚韧	-12.0896
奸诈	-12.0896
并无恶意	-12.0896
神力惊人	-12.0896
艰险	-12.0896
一排排	-12.0896
必有缘故	-12.0896
随后赶去	-12.0896
郭芙和武氏兄弟	-12.0896
督脉	-12.0896
催动掌力	-12.0896
参仙老怪梁子翁	-12.0896
称他为	-12.0896
纷纷议论	-12.0896
团圆	-12.0896
放入怀中	-12.0896
红润	-12.0896
的欢心	-12.0896
岳丈	-12.0896
聪明才智	-12.0896
顾虑	-12.0896
杯筷	-12.0896
大宋江山	-12.0896
獐腿	-12.0896
再也追赶不上	-12.0896
符号	-12.0896
沅江	-12.0896
狡计	-12.0896
这路剑法	-12.0896
总有一日	-12.0896
维护	-12.0896
娶妻	-12.0896
守住门户	-12.0896
一张椅子	-12.0896
秘史	-12.0897
臀部	-12.0897
周师叔祖	-12.0897
结义之情	-12.0897
讲故事	-12.0897
越行越	-12.0897
不敢轻忽	-12.0897
严谨	-12.0897
羽毛	-12.0897
恭候	-12.0897
羊梯	-12.0897
虎翼	-12.0897
册封	-12.0897
久战不	-12.0897
展翅	-12.0897
咒语	-12.0897
虎豹	-12.0897
记忆	-12.0897
屈膝	-12.0898
影踪全无	-12.0898
已有计较	-12.0898
秀雅	-12.0898
欢嘶	-12.0898
巨大的	-12.0898
裘铁掌	-12.0898
在他的手里	-12.0898
骷髅头骨	-12.0898
皱眉不语	-12.0898
施展轻身功夫	-12.0898
杨大侠	-12.0898
丝毫不惧	-12.0898
穷酸	-12.0898
垂柳	-12.0898
三十来岁	-12.0898
铁八卦	-12.0898
尹兄	-12.0898
谁也不许	-12.0898
钓鱼	-12.0898
夕阳	-12.0898
畏缩	-12.0898
娇羞	-12.0899
紧紧跟随	-12.0899
渔隐	-12.0899
临危	-12.0899
所作的	-12.0899
凝神观看	-12.0899
波浪	-12.0899
真是再好也没有	-12.0899
疼痛难当	-12.09
涉险	-12.09
怎生是好	-12.09
宣扬	-12.09
焦木和尚	-12.09
决胜负	-12.09
一不做	-12.0901
垂危	-12.0901
整整	-12.0903
没留意	-12.0905
场大病	-12.0905
的光头	-12.0905
只怪我	-12.0905
把话说	-12.0914
认他为	-12.0916
得自由	-12.0916
得不得了	-12.0921
栗树	-12.0922
又哭又	-12.0924
心爱的	-12.0925
练就了	-12.0925
芝房	-12.0926
感吃力	-12.0931
是我杀的	-12.0935
久久不	-12.0937
怎想得到	-12.0939
一场大战	-12.0944
在他的身上	-12.0952
折而向	-12.0953
斤重的	-12.0956
不闪不	-12.0956
交了给	-12.096
伤她性命	-12.0963
有甚么希罕	-12.0968
堆乱石	-12.0968
抵受不	-12.0969
哪知她竟	-12.0979
匹骏马	-12.099
我总是不	-12.1049
在这一瞬之间	-12.1067
放心好啦	-12.1069
听杨过说	-12.1093
飞身抢	-12.1106
倏地飞	-12.1129
根树枝	-12.1149
腾空而起	-12.1201
邪魔	-12.1228
一念之	-12.1232
股大力	-12.1258
跃入海中	-12.1302
板橱	-12.1322
柴房	-12.1397
奔出十余丈	-12.1404
帮之主	-12.1443
零碎	-12.1541
珍珠	-12.1668
慈悲为怀	-12.1674
害无辜	-12.186
颊	-12.2464
听父亲说	-12.2465
肖	-12.2469
那使单刀的	-12.2499
羊太傅	-12.2533
伍	-12.2546
晦	-12.255
疗	-12.2551
骏	-12.2552
希	-12.2553
武侠小说	-12.2553
坳	-12.2554
到临头	-12.2555
铭	-12.2555
癞皮狗	-12.2555
挢	-12.2556
忽喜忽	-12.2556
越女剑	-12.2556
泪流满面	-12.2556
哑谜	-12.2556
楚楚可怜	-12.2556
缴	-12.2556
说个清楚	-12.2556
以二敌一	-12.2557
急切难	-12.2557
恤	-12.2557
惭	-12.2557
眩	-12.2557
取个名字	-12.2557
占了上风	-12.2557
敕	-12.2557
摇了摇	-12.2557
是死是活	-12.2557
秤锤	-12.2557
凹凹凸凸	-12.2557
一艘小船	-12.2558
污秽	-12.2558
着着进逼	-12.2558
逆运经脉	-12.2558
玉阳子	-12.2558
嘶哑	-12.2558
珠穆朗玛	-12.2558
颓	-12.2558
信口开河	-12.2558
猪狗不如	-12.2558
砌	-12.2558
虾	-12.2558
长身玉立	-12.2558
纠	-12.2558
冰清玉洁	-12.2558
孤苦伶仃	-12.2558
梳妆	-12.2558
库	-12.2558
第二指节	-12.2558
经受不起	-12.2558
有说有笑	-12.2558
仓	-12.2558
一千两银子	-12.2558
搔搔头	-12.2558
橐	-12.2558
亥	-12.2558
二三十招	-12.2558
茎	-12.2558
鬣	-12.2558
你管得着	-12.2558
灯光下	-12.2558
膛	-12.2558
敦儒	-12.2558
无对证	-12.2558
踩	-12.2558
无恶不作	-12.2558
飞上半空	-12.2558
溺	-12.2558
在羊太傅庙中	-12.2558
不即不离的	-12.2558
模仿	-12.2558
开开眼界	-12.2558
得越远越好	-12.2558
拧	-12.2558
见所未见	-12.2558
尹赵二道	-12.2559
张大了口合不拢来	-12.2559
手拉着手	-12.2559
胸腹之间	-12.2559
亲兵队长	-12.2559
仿	-12.2559
守宫砂	-12.2559
庚	-12.2559
把捏不定	-12.2559
柏	-12.2559
瑶琴	-12.2559
红衣少女	-12.2559
过了好一会	-12.2559
这首词	-12.2559
锡	-12.2559
这六个字	-12.2559
不知不觉间	-12.2559
吞入肚	-12.2559
堤	-12.2559
敷衍	-12.2559
沌	-12.2559
洲	-12.2559
非败不可	-12.2559
麦	-12.2559
匝	-12.2559
喂有剧毒	-12.2559
祝祷	-12.2559
阖	-12.2559
怒火上冲	-12.2559
恩将仇报	-12.2559
绷	-12.2559
装腔作势	-12.2559
那女魔头	-12.2559
里里外外	-12.2559
丝毫无损	-12.2559
悚	-12.2559
是难上加难	-12.2559
棚	-12.2559
荐	-12.2559
鹏	-12.2559
两头猎豹	-12.2559
疚	-12.2559
一口唾液	-12.2559
世世代代	-12.2559
东张西望	-12.2559
在这荒岛之上	-12.2559
奇门五行	-12.2559
楞楞的	-12.2559
潇湘子和尼摩星	-12.2559
胚	-12.2559
该是不该	-12.2559
难以自制	-12.2559
五脏六腑	-12.2559
你知不知道	-12.2559
含糊	-12.2559
完颜洪烈那奸贼	-12.2559
心念已决	-12.2559
随随便便的	-12.2559
这步田地	-12.2559
一叠连声的	-12.2559
不共戴天	-12.2559
哎哟	-12.2559
泳	-12.2559
玉皇大帝	-12.2559
祈	-12.2559
蛤	-12.2559
跛子曲三	-12.2559
那贱婢	-12.2559
几次三番	-12.2559
东征西	-12.2559
同病相怜	-12.2559
洋洋自得	-12.2559
赴汤蹈火	-12.2559
铁掌帮帮主裘千仞	-12.2559
吮	-12.2559
蒙古大汗的敕封	-12.2559
盟主之位	-12.2559
发异光	-12.2559
吴青烈	-12.2559
嘉兴王铁枪庙中	-12.2559
拚个同归于尽	-12.2559
无坚不摧	-12.2559
武林盟主之位	-12.2559
矍	-12.2559
背叛师门	-12.2559
荣宠	-12.2559
败中求胜	-12.2559
迅速异常的	-12.2559
锯齿金刀	-12.2559
青衫少女	-12.2559
冲锋陷阵	-12.2559
伤了和气	-12.2559
冷汗直冒	-12.2559
的奸谋	-12.2559
书生与农夫	-12.2559
只一盏茶	-12.2559
吃点苦头	-12.2559
噫	-12.2559
得稀烂	-12.2559
潮水涨时	-12.2559
讥讽	-12.2559
身材瘦削	-12.2559
雾瀰漫	-12.2559
非死即伤	-12.2559
口出大言	-12.2559
不相上下	-12.2559
不知不觉之间	-12.2559
大胜关英雄大会	-12.2559
指腹为婚	-12.2559
武功天下第一的名号	-12.2559
溯	-12.2559
鏖	-12.2559
闭目待死	-12.2559
大惊小怪	-12.2559
贮	-12.2559
髓	-12.2559
苔	-12.2559
浇	-12.2559
戚	-12.2559
璧	-12.2559
喙	-12.256
科	-12.256
曳	-12.256
衙	-12.256
裔	-12.256
瞄	-12.256
r	-12.256
沛	-12.256
饯	-12.256
淑	-12.256
猖	-12.256
臼	-12.256
猥	-12.256
遏	-12.256
播	-12.256
寓	-12.256
械	-12.256
翎	-12.256
鸿	-12.256
搧	-12.256
剁	-12.256
簪	-12.256
葱	-12.256
隽	-12.256
朋	-12.256
售	-12.256
鹅	-12.256
噪	-12.256
琐	-12.256
佯	-12.256
砚	-12.256
骡	-12.2561
孺	-12.2561
蓑	-12.2561
漂	-12.2561
蚊	-12.2561
迥	-12.2561
缀	-12.2561
膊	-12.2561
弊	-12.2562
渺	-12.3345
刷	-12.3703
姐	-12.4431
霍	-12.4528
嫂	-12.4528
聊	-12.455
棘	-12.4551
翰	-12.4553
唾	-12.4555
税	-12.4556
犀	-12.4556
咏	-12.4556
伶	-12.4557
档	-12.4557
骸	-12.4557
绢	-12.4557
卦	-12.4557
弧	-12.4557
申	-12.4557
培	-12.4557
糊	-12.4557
亨	-12.4557
嗜	-12.4558
c	-12.4558
俘	-12.4558
滥	-12.4558
揩	-12.4558
臊	-12.4558
庵	-12.4558
恣	-12.4558
峋	-12.4558
嶙	-12.4558
H	-12.4558
猝	-12.4558
殃	-12.4558
卯	-12.4558
闾	-12.4558
盐	-12.4558
梗	-12.4559
疫	-12.4559
昧	-12.4559
隧	-12.4559
亵	-12.4559
兹	-12.4559
疮	-12.4559
谬	-12.4559
魏	-12.4559
慧	-12.4559
亟	-12.4559
卉	-12.4559
憨	-12.4559
爿	-12.4559
巳	-12.4559
贻	-12.4559
旬	-12.4559
淤	-12.4559
莞	-12.4559
蟾	-12.4559
赋	-12.4559
辖	-12.4559
澈	-12.4559
梭	-12.4559
删	-12.4559
啃	-12.4559
嫉	-12.4559
w	-12.4559
协	-12.4559
嫔	-12.4559
韬	-12.4559
翌	-12.4559
绍	-12.456
耶	-12.456
蹻	-12.456
谜	-12.456
2	-12.456
○	-12.456
凯	-12.456
嘤	-12.456
奠	-12.456
赘	-12.456
矢	-12.456
辕	-12.456
媒	-12.456
扔	-12.456
簇	-12.456
峙	-12.456
焕	-12.456
札	-12.456
侃	-12.456
扛	-12.456
玷	-12.456
膏	-12.456
岗	-12.456
甸	-12.456
鹤	-12.456
馨	-12.456
妆	-12.456
币	-12.456
栖	-12.456
航	-12.456
瀰	-12.456
燥	-12.456
辟	-12.456
蔬	-12.456
冶	-12.4561
贰	-12.4561
眯	-12.4561
弘	-12.4561
佐	-12.4561
捻	-12.4561
仲	-12.4561
惕	-12.4561
篓	-12.4561
烙	-12.4561
爵	-12.4561
躺	-12.5478
姊	-12.702
嘻	-12.7038
礁	-12.7039
忖	-12.705
辜	-12.7051
丫	-12.7051
壑	-12.7052
鸩	-12.7052
擞	-12.7054
牲	-12.7054
仄	-12.7055
植	-12.7055
缔	-12.7055
湾	-12.7055
浴	-12.7055
介	-12.7055
昭	-12.7056
阕	-12.7056
萃	-12.7056
顽	-12.7056
厘	-12.7057
链	-12.7057
癸	-12.7057
旌	-12.7057
颦	-12.7057
宦	-12.7057
瞟	-12.7057
区	-12.7057
嗑	-12.7057
谕	-12.7057
栈	-12.7058
俚	-12.7058
戆	-12.7058
衾	-12.7058
牒	-12.7058
彦	-12.7058
镣	-12.7058
贿	-12.7058
·	-12.7058
脯	-12.7058
昌	-12.7059
楷	-12.7059
瘀	-12.7059
祷	-12.7059
鸾	-12.7059
皎	-12.7059
纽	-12.7059
踞	-12.7059
狸	-12.7059
稠	-12.7059
菊	-12.7059
滋	-12.7059
懵	-12.7059
捐	-12.7059
灼	-12.7059
瞠	-12.7059
鸥	-12.7059
婢	-12.7059
峦	-12.7059
肾	-12.7059
奖	-12.7059
俺	-12.7059
嘀	-12.7059
噢	-12.7059
馔	-12.7059
谣	-12.7059
寐	-12.7059
箍	-12.7059
璃	-12.706
罄	-12.706
蚓	-12.706
搐	-12.706
啜	-12.706
彬	-12.706
膳	-12.706
蝎	-12.706
鞠	-12.706
袒	-12.706
颐	-12.706
勋	-12.706
栋	-12.706
榆	-12.706
沽	-12.706
崽	-12.706
谄	-12.706
颔	-12.706
骢	-12.706
吭	-12.706
廉	-12.706
咯	-12.706
掮	-12.706
览	-12.706
奚	-12.706
瘾	-12.706
蟹	-12.706
舅	-12.706
剜	-12.706
绦	-12.706
酥	-12.706
骁	-12.706
猩	-12.7061
垮	-12.7061
晤	-12.7061
赚	-12.7061
枷	-12.7061
澜	-12.7061
蒋	-12.7061
犒	-12.7061
莱	-12.7061
飨	-12.7061
曼	-12.7062
f	-12.7063
睿	-12.7064
烁	-12.7156
嗤	-12.9129
稻	-13.0175
勃	-13.027
槐	-13.0273
凛	-13.0295
黯	-13.0374
盥	-13.0381
贷	-13.0381
缎	-13.0383
萼	-13.0384
廷	-13.0386
纲	-13.0387
藩	-13.0387
谛	-13.0387
哲	-13.0387
裱	-13.0388
虬	-13.0388
仕	-13.0388
粤	-13.0388
隘	-13.0389
琢	-13.0389
乾	-13.0389
绾	-13.0389
屹	-13.0389
胞	-13.0389
摹	-13.039
俨	-13.039
伽	-13.039
坠	-13.039
蹶	-13.039
拌	-13.039
绽	-13.039
谗	-13.039
坊	-13.0391
薪	-13.0391
噤	-13.0391
痣	-13.0391
怡	-13.0391
棹	-13.0391
弑	-13.0391
蹂	-13.0391
娈	-13.0391
汞	-13.0391
缤	-13.0391
迦	-13.0391
酱	-13.0391
锯	-13.0391
癖	-13.0392
刨	-13.0392
炬	-13.0392
衅	-13.0392
匕	-13.0392
筑	-13.0392
腑	-13.0392
汴	-13.0392
袂	-13.0392
彰	-13.0392
厝	-13.0392
挲	-13.0392
惫	-13.0392
戌	-13.0392
拷	-13.0392
纺	-13.0392
荼	-13.0392
驿	-13.0392
g	-13.0392
娱	-13.0392
箩	-13.0392
缟	-13.0393
蜀	-13.0393
豫	-13.0393
惚	-13.0393
衍	-13.0393
5	-13.0393
m	-13.0393
唬	-13.0393
琼	-13.0393
瞿	-13.0393
堡	-13.0393
眦	-13.0393
舀	-13.0393
踵	-13.0393
.	-13.0393
剔	-13.0393
卿	-13.0393
嗄	-13.0393
谀	-13.0393
遽	-13.0393
徵	-13.0393
獠	-13.0393
绡	-13.0393
4	-13.0393
T	-13.0393
券	-13.0393
唏	-13.0393
殒	-13.0393
珊	-13.0393
褚	-13.0393
酉	-13.0393
醇	-13.0393
镂	-13.0393
髭	-13.0393
麝	-13.0393
哎	-13.0393
8	-13.0393
9	-13.0393
壤	-13.0393
旱	-13.0393
禄	-13.0393
莺	-13.0393
6	-13.0393
7	-13.0393
3	-13.0393
彀	-13.0393
恬	-13.0393
憩	-13.0393
晖	-13.0393
浃	-13.0393
硝	-13.0393
谑	-13.0393
炖	-13.0394
禾	-13.0394
绅	-13.0394
陌	-13.0394
型	-13.0394
墟	-13.0394
弈	-13.0394
缭	-13.0394
芬	-13.0394
藕	-13.0394
煽	-13.0394
棱	-13.0394
踊	-13.0394
阐	-13.0394
鳌	-13.0394
靶	-13.0394
琤	-13.0394
剿	-13.0394
厥	-13.0395
啾	-13.0395
偈	-13.0395
垒	-13.0395
靦	-13.0395
觍	-13.0395
亩	-13.0395
奢	-13.0395
洽	-13.0396
魅	-13.0397
庶	-13.0397
迄	-13.0397
W	-13.04
芝	-13.5256
央	-13.5276
渗	-13.5287
呐	-13.5338
湛	-13.5358
宵	-13.5361
痊	-13.538
挠	-13.538
酋	-13.5381
刎	-13.5382
港	-13.5385
赫	-13.5385
湍	-13.5387
灿	-13.5387
瀑	-13.5388
侦	-13.5388
眶	-13.539
诧	-13.539
轧	-13.539
坤	-13.539
蒜	-13.539
讽	-13.539
隶	-13.5391
渍	-13.5391
k	-13.5391
锻	-13.5391
矩	-13.5391
巫	-13.5391
掬	-13.5392
菩	-13.5392
倪	-13.5392
剽	-13.5392
俐	-13.5392
p	-13.5392
饲	-13.5392
C	-13.5392
y	-13.5392
梨	-13.5392
沈	-13.5392
觏	-13.5392
樱	-13.5393
裸	-13.5393
/	-13.5393
聂	-13.5393
b	-13.5393
d	-13.5393
瘟	-13.5393
填	-13.5393
瑕	-13.5393
叽	-13.5393
荤	-13.5394
丙	-13.5394
佬	-13.5394
併	-13.5394
斡	-13.5394
蒂	-13.5395
玎	-13.5395
亘	-13.5395
勘	-13.5399
u	-13.5403
Y	-13.5405
估	-14.4976
伫	-14.4977
L	-14.4978
G	-14.4979
龌	-14.498
龊	-14.4981
麈	-14.4982
钺	-14.4983
鎩	-14.4984
逑	-14.4985
辙	-14.4986
轶	-14.4987
跂	-14.4988
诨	-14.4989
诌	-14.499
蚯	-14.4991
虔	-14.4992
臾	-14.4993
胛	-14.4994
耆	-14.4995
缥	-14.4996
缈	-14.4997
绯	-14.4998
绎	-14.4999
纭	-14.5
窬	-14.5001
砾	-14.5002
皿	-14.5003
痹	-14.5004
疴	-14.5005
琉	-14.5006
熹	-14.5007
潦	-14.5008
漾	-14.5009
淇	-14.501
泞	-14.5011
泓	-14.5012
毗	-14.5013
楣	-14.5014
杞	-14.5015
暹	-14.5016
挼	-14.5017
惰	-14.5018
怼	-14.5019
忏	-14.502
帜	-14.5021
帔	-14.5022
嵩	-14.5023
嵋	-14.5024
孀	-14.5025
嚓	-14.5026
嗥	-14.5027
啮	-14.5028
哮	-14.5029
咤	-14.503
咙	-14.5031
咆	-14.5032
吝	-14.5033
卤	-14.5034
卢	-14.5035
俞	-14.5036
伥	-14.5037
M	-14.5038
鹞	-14.5039
魈	-14.504
馥	-14.5041
饪	-14.5042
颧	-14.5043
钥	-14.5044
遒	-14.5045
遑	-14.5046
逦	-14.5047
迤	-14.5048
辫	-14.5049
辎	-14.505
轾	-14.5051
贲	-14.5052
谙	-14.5053
褥	-14.5054
蜮	-14.5055
蜍	-14.5056
茹	-14.5057
臃	-14.5058
胥	-14.5059
羲	-14.506
簿	-14.5061
砧	-14.5062
盎	-14.5063
甬	-14.5064
琶	-14.5065
琵	-14.5066
犷	-14.5067
烽	-14.5068
潺	-14.5069
渎	-14.507
淙	-14.5071
涔	-14.5072
泸	-14.5073
殖	-14.5074
榈	-14.5075
椽	-14.5076
棕	-14.5077
杳	-14.5078
扦	-14.5079
戛	-14.508
愫	-14.5081
愀	-14.5082
尉	-14.5083
姥	-14.5084
姘	-14.5085
妩	-14.5086
塑	-14.5087
嚏	-14.5088
嚅	-14.5089
嗫	-14.509
喳	-14.5091
喁	-14.5092
啥	-14.5093
啕	-14.5094
叟	-14.5095
卵	-14.5096
傥	-14.5097
倜	-14.5098
佼	-14.5099
佻	-14.51
—	-14.5101
鲤	-14.5102
髀	-14.5103
骛	-14.5104
骓	-14.5105
雍	-14.5106
陛	-14.5107
阎	-14.5108
辍	-14.5109
蜷	-14.511
藜	-14.5111
蒺	-14.5112
膜	-14.5113
绮	-14.5114
磺	-14.5115
硫	-14.5116
砒	-14.5117
皙	-14.5118
瘩	-14.5119
痪	-14.512
疙	-14.5121
澡	-14.5122
湮	-14.5123
渝	-14.5124
泫	-14.5125
旖	-14.5126
旎	-14.5127
撬	-14.5128
惆	-14.5129
怃	-14.513
徘	-14.5131
徊	-14.5132
岘	-14.5133
妞	-14.5134
埃	-14.5135
圹	-14.5136
喽	-14.5137
唿	-14.5138
咫	-14.5139
倨	-14.514
企	-14.5141
0	-14.5142
鹊	-14.5143
飓	-14.5144
蹋	-14.5145
裣	-14.5146
绉	-14.5147
稼	-14.5148
瞭	-14.5149
皑	-14.515
痞	-14.5151
炷	-14.5152
漉	-14.5153
溶	-14.5154
涤	-14.5155
杠	-14.5156
摒	-14.5157
惋	-14.5158
悻	-14.5159
娓	-14.516
姗	-14.5161
喟	-14.5162
哝	-14.5163
咿	-14.5164
匈	-14.5165
偌	-14.5166
仃	-14.5167
霭	-14.5168
芍	-14.5169
胳	-14.517
胭	-14.5171
粽	-14.5172
籁	-14.5173
瑙	-14.5174
漩	-14.5175
榜	-14.5176
柬	-14.5177
旄	-14.5178
怩	-14.5179
忸	-14.518
崎	-14.5181
岖	-14.5182
呱	-14.5183
〖	-14.5184
鳅	-14.5185
颖	-14.5186
逻	-14.5187
跶	-14.5188
跤	-14.5189
蟠	-14.519
蝴	-14.5191
蝗	-14.5192
笋	-14.5193
眈	-14.5194
涡	-14.5195
浣	-14.5196
怫	-14.5197
妮	-14.5198
妁	-14.5199
嗳	-14.52
吱	-14.5201
侂	-14.5202
伎	-14.5203
麾	-14.5204
陕	-14.5205
镔	-14.5206
襁	-14.5207
褓	-14.5208
裟	-14.5209
袈	-14.521
艾	-14.5211
腼	-14.5212
腆	-14.5213
氓	-14.5214
桁	-14.5215
敞	-14.5216
扈	-14.5217
悸	-14.5218
婀	-14.5219
仑	-14.522
l	-14.5221
邓	-14.5222
邂	-14.5223
逅	-14.5224
讷	-14.5225
袱	-14.5226
蠕	-14.5227
蜿	-14.5228
蜒	-14.5229
篾	-14.523
窦	-14.5231
犁	-14.5232
濂	-14.5233
潼	-14.5234
桓	-14.5235
斓	-14.5236
掣	-14.5237
怏	-14.5238
彷	-14.5239
彪	-14.524
冥	-14.5241
蜘	-14.5242
苹	-14.5243
臆	-14.5244
础	-14.5245
睫	-14.5246
皈	-14.5247
玛	-14.5248
槛	-14.5249
娜	-14.525
咀	-14.5251
谆	-14.5252
袅	-14.5253
翡	-14.5254
汩	-14.5255
杭	-14.5256
朔	-14.5257
徬	-14.5258
崔	-14.5259
咧	-14.526
兢	-14.5261
僮	-14.5262
骼	-14.5263
蚂	-14.5264
祜	-14.5265
炯	-14.5266
泗	-14.5267
恚	-14.5268
忾	-14.5269
孜	-14.527
哧	-14.5271
霹	-14.5272
雳	-14.5273
镗	-14.5274
讪	-14.5275
蝙	-14.5276
盯	-14.5277
煌	-14.5278
垓	-14.5279
锵	-14.528
窖	-14.5281
狯	-14.5282
梧	-14.5283
徽	-14.5284
蝠	-14.5285
脓	-14.5286
歧	-14.5287
慎	-14.5288
颏	-14.5289
膻	-14.529
磊	-14.5291
睦	-14.5292
抿	-14.5293
俄	-14.5294
豺	-14.5295
玫	-14.5296
狰	-14.5297
慷	-14.5298
阱	-14.5299
键	-14.53
蛾	-14.5301
芒	-14.5302
侥	-14.5303
褴	-14.5304
褛	-14.5305
膂	-14.5306
汹	-14.5307
桧	-14.5308
懊	-14.5309
铿	-14.531
暑	-14.5311
憔	-14.5312
徨	-14.5313
嗽	-14.5314
唧	-14.5315
乓	-14.5316
乒	-14.5317
丞	-14.5318
窿	-14.5319
旭	-14.532
唠	-14.5321
蝮	-14.5322
舨	-14.5323
舢	-14.5324
腋	-14.5325
肮	-14.5326
耿	-14.5327
噩	-14.5328
蹊	-14.5329
璇	-14.533
呻	-14.5331
睽	-14.5332
【	-14.5333
馒	-14.5334
蟋	-14.5335
奄	-14.5336
啰	-14.5337
俟	-14.5338
逍	-14.5339
筵	-14.534
诃	-14.5341
脖	-14.5342
滔	-14.5343
狞	-14.5344
傅	-14.5345
沼	-14.5345
寞	-14.5346
嗖	-14.5347
裳	-14.5348
蜈	-14.5349
蚣	-14.535
寥	-14.5351
哽	-14.5352
骆	-14.5353
牯	-14.5354
尴	-14.5355
尬	-14.5356
咚	-14.5357
鸯	-14.5358
吆	-14.5359
晶	-14.536
噜	-14.5361
葫	-14.5362
沅	-14.5363
衲	-14.5363
漓	-14.5364
飕	-14.5365
嗓	-14.5366
躇	-14.5367
踌	-14.5368
簌	-14.5369
骷	-14.537
踉	-14.5371
跄	-14.5372
惴	-14.5373
霆	-14.5373
仔	-14.5374
媳	-14.5375
黝	-14.5376
讶	-14.5377
睬	-14.5378
磋	-14.5378
蟆	-14.5379
狈	-14.538
钰	-14.5381
蛛	-14.5381
猬	-14.5382
匆	-14.5383
鞑	-14.5384
铮	-14.5384
嗡	-14.5385
猱	-14.5386
恙	-14.5386
唷	-14.5386
萨	-14.5386
啷	-14.5386
惺	-14.5387
桑	-14.5387
嫣	-14.5388
眺	-14.5388
拊	-14.5388
吩	-14.5388
笠	-14.5388
朦	-14.5389
奈	-14.5389
诲	-14.539
倔	-14.539
祁	-14.539
呜	-14.539
拇	-14.5391
蒲	-14.5391
贸	-14.5391
晰	-14.5391
膺	-14.5391
A	-14.5391
竺	-14.5391
柢	-14.5392
梵	-14.5392
糙	-14.5392
呛	-14.5392
抟	-14.5392
喃	-14.5392
宪	-14.5392
骋	-14.5393
瓮	-14.5393
诫	-14.5393
笈	-14.5393
惮	-14.5393
噎	-14.5393
愆	-14.5393
烘	-14.5393
皂	-14.5393
脍	-14.5393
鳖	-14.5393
怦	-14.5393
枭	-14.5393
瑛	-14.5394
猗	-14.5394
胧	-14.5394
柩	-14.5394
鬟	-14.5394
孰	-14.5394
簸	-14.5394
薛	-14.5394
迢	-14.5394
爸	-14.5394
啧	-14.5395
扉	-14.5395
胄	-14.5395
咐	-14.5395
牡	-14.5396
妃	-14.5396
鄂	-14.5397
朮	-14.5397
芥	-14.5398
-	-14.5398
驹	-14.5399
晌	-14.54
匿	-14.5401
芙	-14.5401
