<unk>	0
<s>	0
</s>	0
,	-2.03376
。	-3.5914
:“	-3.97486
道	-4.25807
的	-4.486
。”	-4.60696
他	-5.01429
我	-5.05047
杨过	-5.07523
了	-5.08399
你	-5.09625
?”	-5.17296
她	-5.44639
一	-5.66748
?	-5.66926
在	-5.68817
、	-5.74016
这	-5.76414
来	-5.85447
是	-5.86714
不	-5.87829
▁	-5.9532
!”	-5.98648
小龙女	-5.98804
但	-5.98824
说道	-6.01658
那	-6.02346
上	-6.04887
又	-6.06956
大	-6.07023
去	-6.10497
中	-6.15319
得	-6.16253
有	-6.17889
“	-6.22175
也	-6.23154
却	-6.23199
已	-6.2426
便	-6.24932
人	-6.32785
将	-6.3316
叫	-6.33622
郭靖	-6.35707
黄蓉	-6.3639
▁杨过	-6.41155
要	-6.41257
”	-6.43271
自己	-6.45802
见	-6.46571
好	-6.50031
与	-6.56872
下	-6.57666
到	-6.58147
说	-6.59017
之	-6.61224
心	-6.6275
出	-6.62867
自	-6.6328
过	-6.65345
么	-6.69172
向	-6.69786
和	-6.70827
李莫愁	-6.71212
心中	-6.7221
着	-6.73877
一个	-6.77782
心想	-6.79243
笑	-6.8127
为	-6.81706
郭芙	-6.82902
咱们	-6.84953
可	-6.85136
以	-6.85909
从	-6.87158
再	-6.87394
都	-6.8772
法王	-6.87996
只	-6.89411
问	-6.90883
而	-6.91079
时	-6.9439
只是	-6.95974
郭襄	-6.96153
武功	-6.98516
甚么	-7.00714
就	-7.00727
对	-7.01651
想	-7.02004
......	-7.02387
二人	-7.03414
当下	-7.03675
无	-7.04749
打	-7.06015
小	-7.06907
后	-7.08108
如此	-7.08783
啊	-7.08845
头	-7.11214
气	-7.12169
!	-7.12207
陆无双	-7.12593
如	-7.14573
两人	-7.16352
用	-7.17236
死	-7.1732
给	-7.17343
师父	-7.19182
于	-7.19219
生	-7.19686
子	-7.19882
不知	-7.19949
突然	-7.20431
连	-7.20526
喝	-7.21567
此时	-7.21914
还	-7.24386
快	-7.26388
多	-7.26947
今日	-7.27737
所	-7.28487
身	-7.29456
两	-7.29726
能	-7.30213
赵志敬	-7.31357
使	-7.31657
之中	-7.32108
虽然	-7.3264
他们	-7.33042
便是	-7.33731
起	-7.33876
于是	-7.34746
却是	-7.34774
罢	-7.35191
手	-7.35232
三	-7.3559
啦	-7.35879
回	-7.36146
虽	-7.36277
剑	-7.36789
没	-7.37215
周伯通	-7.37458
......”	-7.38323
当	-7.39564
也是	-7.40034
如何	-7.40528
天	-7.415
儿	-7.42007
处	-7.42305
知道	-7.42819
眼见	-7.43086
发	-7.43766
听	-7.44575
倒	-7.44948
前	-7.46225
只见	-7.46846
急	-7.47035
个	-7.47197
走	-7.47977
都是	-7.48235
响	-7.50183
长	-7.50738
说着	-7.51533
此	-7.51888
相	-7.52353
姑姑	-7.53442
正	-7.54141
成	-7.54248
竟	-7.5429
事	-7.55079
难	-7.55665
才	-7.5619
动	-7.5666
会	-7.56885
若是	-7.5726
这时	-7.57786
见他	-7.57806
左手	-7.58553
先	-7.58991
你们	-7.59032
脸上	-7.59906
忙	-7.59968
行	-7.60181
往	-7.60834
四	-7.61195
未	-7.61814
别	-7.62073
高	-7.62292
等	-7.62328
地	-7.62722
跟着	-7.62936
过儿	-7.63236
不是	-7.63238
又是	-7.63345
被	-7.63757
入	-7.63763
马	-7.63994
登时	-7.64293
当即	-7.64821
▁小龙女	-7.65025
金轮法王	-7.65116
力	-7.65192
不敢	-7.67195
更	-7.67561
身子	-7.67929
呢	-7.68259
我们	-7.68713
正是	-7.69196
一人	-7.69464
不能	-7.69955
门	-7.70229
之后	-7.7064
女儿	-7.71009
这般	-7.71068
不由得	-7.71258
开	-7.71273
众人	-7.71453
直	-7.72275
转	-7.73316
山	-7.73367
▁黄蓉	-7.73461
跟	-7.73585
身上	-7.73862
口	-7.73975
裘千尺	-7.74427
原来	-7.75338
老	-7.75487
意	-7.75721
弟子	-7.75916
右手	-7.76175
霍都	-7.76924
重	-7.76963
之下	-7.77172
然	-7.77227
对方	-7.77259
看	-7.77417
落	-7.77469
欧阳锋	-7.77595
把	-7.78141
声	-7.78791
长剑	-7.79141
非	-7.79479
极	-7.79609
作	-7.79946
伤	-7.80943
功夫	-7.81112
三人	-7.81129
击	-7.82456
更是	-7.82718
奇	-7.82853
情	-7.82955
若	-7.83207
比	-7.83208
不禁	-7.83297
到了	-7.83786
程英	-7.84505
▁郭靖	-7.84587
怎么	-7.85617
耶律齐	-7.85808
只有	-7.86641
之时	-7.87029
既	-7.87251
但见	-7.87406
仍是	-7.8741
说话	-7.87659
还是	-7.87728
曾	-7.88403
也不	-7.88719
怒	-7.88841
受	-7.88885
公孙止	-7.88893
出来	-7.88977
至	-7.89063
做	-7.89143
实	-7.89755
尽	-7.90087
刺	-7.9046
法	-7.90495
斗	-7.90752
敌人	-7.90968
不可	-7.91807
请	-7.92035
飞	-7.92078
双手	-7.9256
眼	-7.92672
外	-7.92699
自是	-7.93338
里	-7.93591
低声	-7.94411
二	-7.94445
出手	-7.94657
强	-7.94742
可是	-7.94765
兵刃	-7.94889
分	-7.95092
甚是	-7.95208
命	-7.95239
间	-7.95348
同时	-7.95811
吃	-7.95851
住	-7.95917
武修文	-7.95939
伸手	-7.96286
绿萼	-7.96416
待	-7.97129
一般	-7.9718
方	-7.97283
教	-7.97578
名	-7.97778
黄药师	-7.98209
只怕	-7.98249
瞧	-7.98399
杀	-7.9842
’	-7.98513
厉害	-7.98715
尹志平	-7.99607
当真	-7.99908
有人	-8.00361
似	-8.00433
手中	-8.00667
深	-8.00672
天下	-8.00812
风	-8.00853
之间	-8.00984
‘	-8.01301
水	-8.02101
不得	-8.02148
实是	-8.02211
其	-8.02604
路	-8.02682
全	-8.02688
当年	-8.03004
本来	-8.03209
轻	-8.03425
让	-8.03512
白	-8.03619
一时	-8.03884
近	-8.04385
真	-8.04526
进	-8.04763
两个	-8.04994
带	-8.05156
蒙古	-8.05435
甚	-8.05952
这个	-8.05987
一阵	-8.06191
点	-8.06469
掌	-8.06589
火	-8.06799
知	-8.06865
花	-8.06908
越	-8.07
放	-8.07004
攻	-8.0713
喜	-8.073
大声	-8.07337
招	-8.07851
竟是	-8.07887
冲	-8.08063
刀	-8.08321
定	-8.08342
胸口	-8.08856
一声	-8.0922
不住	-8.0936
▁郭襄	-8.09378
师	-8.09435
似乎	-8.09522
指	-8.09572
”,	-8.09576
几	-8.09692
尼摩星	-8.09707
武三通	-8.10171
学	-8.10282
足	-8.10282
退	-8.10989
起来	-8.11257
是谁	-8.11307
早	-8.11644
过去	-8.11815
破	-8.11935
他的	-8.12032
想起	-8.12297
推	-8.12311
难道	-8.12713
求	-8.13078
旁人	-8.13106
面	-8.13138
只得	-8.13288
取	-8.13662
倘若	-8.13781
早已	-8.13907
适才	-8.1479
听到	-8.14792
谁	-8.14826
见到	-8.14857
之事	-8.14957
听得	-8.15119
传	-8.15136
却也	-8.15834
终于	-8.16023
微	-8.16369
全身	-8.16488
五	-8.16497
立	-8.16498
不及	-8.16831
字	-8.17229
这才	-8.17367
脸	-8.17384
动手	-8.17936
出去	-8.18025
妈	-8.18039
之处	-8.18094
家	-8.18116
话	-8.18153
言	-8.18488
朱子柳	-8.18607
势	-8.18677
日	-8.18741
孙婆婆	-8.18815
潇湘子	-8.18886
各	-8.19054
洪七公	-8.19442
立时	-8.19514
变	-8.19524
乱	-8.1967
竟然	-8.19789
轻轻	-8.19929
果然	-8.20154
心下	-8.20171
死了	-8.20216
毒	-8.20267
望	-8.20343
不错	-8.20476
齐	-8.21137
性命	-8.21738
给他	-8.22845
最	-8.22888
空	-8.23048
同	-8.23824
尹克西	-8.23911
本	-8.23949
十	-8.23961
明	-8.24595
西	-8.2546
不过	-8.25544
年	-8.25779
救	-8.26341
通	-8.266
▁他	-8.26621
反	-8.26839
哪知	-8.27013
四人	-8.27185
▁郭芙	-8.27418
因此	-8.27425
自然	-8.27615
骂	-8.27716
敌	-8.28095
均	-8.28429
武氏兄弟	-8.28542
忽	-8.28582
父亲	-8.28651
不会	-8.28829
接	-8.29016
众	-8.29086
内力	-8.29225
边	-8.29261
或	-8.2928
那少女	-8.29451
一灯	-8.29988
断	-8.30051
必	-8.30243
想到	-8.30321
爱	-8.30772
一齐	-8.30925
那人	-8.31017
只要	-8.31018
爹爹	-8.31063
姑娘	-8.31128
手臂	-8.31611
即	-8.31803
就是	-8.31825
刚	-8.32036
只觉	-8.32065
离	-8.32188
达尔巴	-8.3221
神雕	-8.32339
之上	-8.32355
此人	-8.32489
数	-8.32722
拉	-8.32904
少	-8.32993
大叫	-8.33178
之人	-8.33579
练	-8.33678
母亲	-8.33714
难以	-8.33764
一招	-8.33789
远	-8.3389
真是	-8.33986
▁李莫愁	-8.34203
惊	-8.3421
这一	-8.34593
信	-8.34748
红	-8.35041
慈恩	-8.35068
血	-8.35317
怎地	-8.35467
完颜萍	-8.35863
解	-8.3587
找	-8.35979
全真教	-8.36324
恶	-8.36406
胜	-8.36545
失	-8.36973
夺	-8.37096
交	-8.37198
将他	-8.37467
之际	-8.37602
收	-8.37846
这些	-8.38238
这是	-8.3859
神	-8.38628
急忙	-8.39007
石	-8.39204
忽然	-8.39381
东	-8.39514
襄阳	-8.39626
感	-8.39679
干	-8.39848
送	-8.39852
穴	-8.40018
步	-8.40388
暗	-8.40468
已然	-8.40476
逃	-8.40584
过来	-8.40599
始终	-8.40899
之意	-8.40949
苦	-8.40979
此事	-8.41002
痛	-8.41039
睡	-8.41374
是以	-8.41531
酒	-8.41622
的武功	-8.41654
亲	-8.41656
左	-8.41848
拂尘	-8.42046
合	-8.42113
由	-8.42679
是个	-8.42861
见她	-8.43537
不到	-8.43715
这位	-8.43993
向杨过	-8.44073
此刻	-8.44454
黑	-8.44477
挥	-8.44585
手掌	-8.44756
须	-8.4478
怪	-8.44872
丘处机	-8.44994
流	-8.45459
只听得	-8.45606
清	-8.45891
洪凌波	-8.46023
神雕侠	-8.46305
绝	-8.46346
纵	-8.46675
没有	-8.46723
内	-8.47098
吗	-8.47118
冷笑	-8.47119
当真是	-8.47144
上前	-8.47409
念	-8.47441
的一声	-8.47461
摇头	-8.47564
柯镇恶	-8.47689
眼前	-8.47821
大喜	-8.47912
郭伯伯	-8.4795
伸	-8.48246
樊一翁	-8.48489
马光佐	-8.48534
其实	-8.48748
鬼	-8.48752
守	-8.48826
立即	-8.48856
应	-8.48871
理	-8.49337
总是	-8.49898
半	-8.49944
声音	-8.50317
随即	-8.50343
婴儿	-8.50406
叹	-8.50427
一笑	-8.50467
布	-8.5048
并不	-8.50734
万	-8.50977
金	-8.512
走到	-8.51285
转身	-8.51635
女	-8.51735
活	-8.51894
武敦儒	-8.51959
它	-8.52215
一掌	-8.5231
拿	-8.52324
百	-8.52327
坐	-8.52329
听他	-8.52394
些	-8.52463
内功	-8.52523
右	-8.52763
斜	-8.52789
兄弟	-8.52903
旁	-8.52958
你的	-8.53128
两位	-8.53155
脚	-8.53349
傻蛋	-8.53676
向他	-8.54118
却又	-8.54319
书	-8.54353
横	-8.54358
奔	-8.54507
服	-8.54528
一怔	-8.54736
猛	-8.55075
招数	-8.55137
追	-8.5524
满	-8.55515
忽必烈	-8.55521
是不是	-8.55536
姊姊	-8.5578
你说	-8.55802
定是	-8.55807
老顽童	-8.56377
缓缓	-8.56446
太	-8.56452
孩子	-8.56662
觉	-8.56664
翻	-8.56785
回头	-8.56952
反而	-8.5705
铁	-8.57123
目	-8.57141
过了	-8.57391
高手	-8.57761
但觉	-8.57933
不肯	-8.57978
之前	-8.58012
正要	-8.58175
疾	-8.58396
无法	-8.58422
十分	-8.58586
怕	-8.58839
色	-8.5894
上了	-8.58962
站在	-8.59176
何以	-8.59221
细	-8.59584
七	-8.5984
一直	-8.60093
及	-8.60131
兵	-8.60165
给我	-8.60283
年纪	-8.60381
因	-8.6076
谷主	-8.61113
一条	-8.61425
慢慢	-8.62007
一灯大师	-8.62076
劲	-8.62083
衣	-8.6217
纵然	-8.62378
举	-8.62417
只道	-8.62438
令	-8.62459
扑	-8.62507
▁法王	-8.62522
见杨过	-8.63108
各人	-8.63194
坐在	-8.63251
解药	-8.63298
不再	-8.6334
身后	-8.63486
这等	-8.63554
随	-8.63568
觉得	-8.63825
那是	-8.63992
后来	-8.64054
棒	-8.64179
将她	-8.64996
精	-8.65092
半点	-8.65158
口中	-8.65174
这么	-8.65174
跳	-8.65225
肩头	-8.65246
否则	-8.65268
一只	-8.65373
杨大哥	-8.65401
杀了	-8.65423
居然	-8.65609
般	-8.6561
说了	-8.65789
不用	-8.65869
义	-8.66139
提	-8.66159
拳	-8.66201
也已	-8.66426
渐	-8.66717
久	-8.67005
更加	-8.67015
身旁	-8.67024
在这	-8.67219
哪里	-8.67472
给你	-8.67576
抓	-8.6788
拍	-8.67912
美	-8.67991
物	-8.68113
片刻	-8.68232
拜	-8.68783
一片	-8.68895
且	-8.69185
双	-8.69206
怎能	-8.69223
但他	-8.69242
说得	-8.69278
师叔	-8.6933
左掌	-8.69386
▁周伯通	-8.69447
渐渐	-8.69645
经	-8.69933
认	-8.69975
挺	-8.7004
哼	-8.70328
是啊	-8.70545
每	-8.70684
明白	-8.70743
箭	-8.7101
回来	-8.71115
逼	-8.71171
中了	-8.71398
位	-8.71493
受伤	-8.71584
不见	-8.71587
再也	-8.71618
光	-8.71806
称	-8.72161
总	-8.72178
一面	-8.72228
丐帮	-8.72228
根	-8.72291
只听	-8.7247
极是	-8.72486
喂	-8.72487
归	-8.72489
不好	-8.7266
报	-8.72878
张	-8.72992
撞	-8.73069
便要	-8.73112
寻	-8.73266
依	-8.73385
在地下	-8.7344
之声	-8.73483
:‘	-8.73587
一步	-8.73764
南	-8.73837
战	-8.73872
沉	-8.73949
城	-8.74193
之外	-8.74203
愈	-8.7429
低	-8.74309
者	-8.74412
角	-8.74414
这一招	-8.74453
忍不住	-8.74659
礼	-8.74665
龙姑娘	-8.74671
进来	-8.75046
阵	-8.75099
双掌	-8.75252
突	-8.75287
仍	-8.75556
虚	-8.75679
硬	-8.75718
掌力	-8.75875
五人	-8.76069
接着	-8.76088
关	-8.7611
无人	-8.76159
抢	-8.76655
闪	-8.76689
去了	-8.76707
微微	-8.76784
站起身来	-8.7681
何况	-8.76859
嗯	-8.76862
抓住	-8.76965
欲	-8.7697
不免	-8.76995
尚未	-8.77003
生怕	-8.77116
身前	-8.77249
一股	-8.77411
大怒	-8.77421
英雄	-8.77615
给她	-8.77622
郝大通	-8.7771
公孙谷主	-8.77724
哭	-8.78084
原	-8.78244
少年	-8.78344
世	-8.78445
算	-8.78702
听了	-8.78982
国	-8.79036
郭伯母	-8.79119
尽数	-8.79183
则	-8.79185
正自	-8.79225
脱	-8.79298
恨	-8.79308
异常	-8.79419
与他	-8.79648
望着	-8.79662
与杨过	-8.79663
穴道	-8.79713
却已	-8.79745
倒也	-8.79774
思	-8.79778
杨过笑	-8.79899
很	-8.79984
:	-8.80039
骨	-8.80097
金轮	-8.80233
闻	-8.80409
背	-8.80598
踏	-8.80705
跟你	-8.80727
看来	-8.80784
微微一笑	-8.80794
除了	-8.80871
▁这	-8.81052
青	-8.81362
;	-8.81434
向前	-8.81465
忽听得	-8.81586
下去	-8.81718
之极	-8.81752
呼	-8.81769
何	-8.81795
功力	-8.8193
结	-8.81934
武	-8.82016
现下	-8.82221
那么	-8.82291
伸出	-8.82414
木	-8.82468
欢喜	-8.82567
闪避	-8.82587
砍	-8.82606
生平	-8.82676
亦	-8.82681
定然	-8.82696
在他	-8.8278
这么一	-8.82818
无比	-8.8283
八	-8.82867
穿	-8.8301
已是	-8.83103
其中	-8.83332
跃	-8.83477
古怪	-8.83488
决	-8.83522
劈	-8.8354
取出	-8.83613
加	-8.83936
了他	-8.83956
指着	-8.84095
按	-8.84294
在此	-8.84433
妙	-8.84488
稍	-8.84592
不成	-8.84746
妹子	-8.84932
我的	-8.85004
岂知	-8.8505
不了	-8.8507
不动	-8.85704
居	-8.85727
哪	-8.85748
就算	-8.85821
答应	-8.85934
突然间	-8.86131
哈哈大笑	-8.86224
啊哟	-8.86235
药	-8.86689
的话	-8.87012
折	-8.87079
微笑	-8.87269
便即	-8.87336
皮	-8.87394
玉女心经	-8.87431
半晌	-8.8745
傻姑	-8.87456
吃了一惊	-8.87464
背后	-8.8771
不论	-8.87741
的功夫	-8.87901
牛	-8.88263
又道	-8.88292
一点	-8.88371
不如	-8.88382
▁她	-8.88417
世上	-8.88435
形	-8.88481
嘴	-8.88533
乃是	-8.88557
我便	-8.8858
功	-8.88649
暗器	-8.88651
射	-8.88888
月	-8.89127
避	-8.89169
若非	-8.89227
并无	-8.89395
▁金轮法王	-8.89597
提起	-8.89652
▁这时	-8.89663
定要	-8.89715
相斗	-8.90121
第一	-8.90276
平	-8.90314
一生	-8.90341
手指	-8.90412
伤心	-8.90469
三个	-8.90633
一起	-8.90634
待要	-8.90684
我师父	-8.9089
腰	-8.91134
施	-8.91153
头顶	-8.91279
却不	-8.91367
这一下	-8.9155
之心	-8.91829
抱	-8.91935
几个	-8.91946
了几	-8.92102
草	-8.92385
争	-8.92465
略	-8.92638
有何	-8.92731
前辈	-8.92741
再说	-8.92795
她的	-8.92859
踢	-8.92902
也没	-8.92941
身边	-8.92956
群雄	-8.93593
妈妈	-8.93635
了出来	-8.9364
无不	-8.93642
错	-8.9377
除	-8.93828
手腕	-8.93856
地下	-8.93898
军	-8.93913
派	-8.93917
这小子	-8.94196
不愿	-8.94344
养	-8.94458
助	-8.94505
蒙古兵	-8.94547
来到	-8.94554
异	-8.94621
情花	-8.94759
王重阳	-8.94808
探	-8.94877
初	-8.94903
摔	-8.94922
弹	-8.95041
肉	-8.95153
首	-8.95212
的是	-8.95407
夜	-8.96016
一块	-8.96047
只因	-8.96145
掷	-8.96145
咬	-8.96152
和他	-8.9641
照	-8.96456
雪	-8.96476
涌	-8.96553
上来	-8.96777
一张	-8.96808
制	-8.96866
挡	-8.96926
语	-8.96928
常	-8.97296
知他	-8.97535
劲力	-8.97576
瞧瞧	-8.97629
和我	-8.97658
对他	-8.97695
持	-8.97711
敬	-8.9785
襄儿	-8.97929
武学	-8.97931
尚	-8.9794
比武	-8.97972
完	-8.98108
刻	-8.98195
须得	-8.98241
管	-8.98433
容	-8.98457
之力	-8.98496
▁那	-8.98557
新	-8.98586
代	-8.98698
扬	-8.98702
确是	-8.98732
留	-8.98806
▁裘千尺	-8.98819
高台	-8.98905
缠	-8.98936
剑法	-8.98947
师妹	-8.99201
帮主	-8.99244
北	-8.99288
人人	-8.99346
你这	-8.99383
玉蜂	-8.99416
腿	-8.99424
乃	-8.99447
相救	-8.99542
中的	-8.99579
跃起	-8.99755
纵身	-8.99814
实在	-8.99887
寒	-8.99934
引	-8.99981
封	-9.00033
了一会	-9.00127
瞧着	-9.00185
善	-9.00346
是我	-9.00349
一根	-9.00441
发出	-9.00515
唉	-9.00723
最后	-9.00909
重阳宫	-9.00943
场	-9.00978
指点	-9.01
▁陆无双	-9.01006
包	-9.0123
座	-9.01286
背上	-9.01301
下来	-9.01421
答	-9.01498
到底	-9.01523
耳	-9.01897
差	-9.0209
不对	-9.02131
伤了	-9.02525
出了	-9.02534
一惊	-9.02657
大家	-9.02682
日后	-9.02694
显是	-9.02755
好好	-9.02805
为甚么	-9.02842
当时	-9.02894
怎样	-9.03181
瑛姑	-9.032
想不到	-9.0324
赶	-9.03279
客	-9.03292
走了	-9.03311
晚	-9.03423
视	-9.0343
姓	-9.03493
狂	-9.03512
也不知	-9.03591
我也	-9.03602
鲁有脚	-9.03604
郭夫人	-9.03607
寻思	-9.0362
腰间	-9.03641
围	-9.03721
面前	-9.03797
模样	-9.03804
败	-9.03921
洞	-9.03935
大师	-9.04038
手上	-9.04358
安	-9.0436
捉	-9.04373
料想	-9.0441
相见	-9.0442
丝毫	-9.04751
短	-9.05043
调	-9.05062
郭大侠	-9.05062
纷纷	-9.05065
回到	-9.05067
衣衫	-9.0508
固然	-9.05089
暗想	-9.05159
忽地	-9.05178
人家	-9.05217
并非	-9.05221
见了	-9.05467
杨过心想	-9.05469
满脸	-9.05528
头上	-9.05562
写	-9.05619
第二	-9.05626
我是	-9.05638
丈夫	-9.05708
左右	-9.05752
不出	-9.05859
震	-9.05878
一件	-9.05966
尖	-9.06058
这几句话	-9.06171
报仇	-9.06269
软	-9.06367
你是	-9.06374
该	-9.06398
针	-9.06422
土	-9.0646
▁赵志敬	-9.06559
《	-9.06564
》	-9.06564
竹棒	-9.06572
练功	-9.06588
相助	-9.06623
喜欢	-9.0666
当日	-9.06848
钢杖	-9.07155
待得	-9.07331
初时	-9.07444
主	-9.07504
运	-9.07523
道士	-9.07569
跟我	-9.07587
干么	-9.07666
住了	-9.07696
言语	-9.07755
徒	-9.07788
了一阵	-9.07823
虽是	-9.07823
官	-9.07855
杖	-9.07864
均是	-9.07878
巨	-9.07915
热	-9.07942
那时	-9.0796
疼痛	-9.08019
网	-9.08079
向她	-9.08183
轮	-9.08221
这人	-9.08229
窜	-9.08419
毕	-9.08699
在旁	-9.08848
第三	-9.08932
一下	-9.09042
心头	-9.09086
良久	-9.09089
师兄	-9.09093
在她	-9.09226
而去	-9.09274
女子	-9.09331
划	-9.09382
▁两人	-9.09449
滚	-9.09616
向来	-9.09617
怀	-9.09624
铁杖	-9.09633
冷冷的	-9.09694
低头	-9.09725
神情	-9.0976
终	-9.09868
轻功	-9.09974
先前	-9.10059
改	-9.10163
这样	-9.1029
转头	-9.10347
这番	-9.10524
复	-9.10672
就此	-9.10715
互	-9.10755
树	-9.10893
凭	-9.10926
若不	-9.10972
体	-9.10983
了得	-9.10996
宝	-9.11023
有些	-9.1111
粗	-9.11115
王	-9.11161
化	-9.11168
盛	-9.11176
盖	-9.11177
杨兄弟	-9.11196
柔声	-9.11209
威力	-9.11241
之色	-9.11399
一番	-9.11408
条	-9.11409
一路	-9.11461
声响	-9.11541
一呆	-9.11602
侧	-9.11831
▁众人	-9.11879
逃走	-9.12008
劝	-9.12061
龙	-9.1209
群道	-9.12235
黄	-9.12281
我就	-9.12411
跌	-9.12418
灵	-9.1242
藏	-9.12615
一见	-9.1263
屋	-9.12725
叹了口气	-9.12732
扫	-9.12751
游	-9.12751
何师我	-9.12762
武艺	-9.12766
打狗棒法	-9.12839
六	-9.12874
臂	-9.12897
正在	-9.13218
之情	-9.13253
夫妇	-9.13272
抢上	-9.13281
点头	-9.13333
全真派	-9.135
真的	-9.13504
的弟子	-9.13638
了一声	-9.13836
抱着	-9.13945
偏	-9.14132
千	-9.14211
果	-9.14224
遇	-9.14241
笔	-9.1432
莫	-9.14326
点了点头	-9.14383
记	-9.14468
底	-9.14943
得紧	-9.15005
乐	-9.15012
大为	-9.15115
绝情丹	-9.1523
你要	-9.15366
不懂	-9.15433
脸色	-9.15551
好了	-9.15677
胡子	-9.15707
孩儿	-9.15729
公孙绿萼	-9.15765
谢	-9.15921
的大	-9.15964
沉吟	-9.16012
是你	-9.16031
双雕	-9.16037
像	-9.16071
跟他	-9.16136
摆	-9.16187
心神	-9.16356
只见他	-9.16436
各位	-9.16715
丈	-9.17022
下手	-9.17081
领	-9.17169
师姊	-9.17215
一句	-9.17295
抛	-9.17299
吹	-9.17429
砸	-9.1745
端	-9.17548
云	-9.17638
大吃一惊	-9.17684
弯	-9.17699
妻子	-9.17704
双目	-9.17717
担心	-9.17729
传授	-9.17752
右臂	-9.17753
回答	-9.17757
玩	-9.17771
一把	-9.17959
从未	-9.17963
在下	-9.1808
缓	-9.18183
烧	-9.1835
乘	-9.185
谷中	-9.18566
蒙古军	-9.18586
齐声	-9.18801
你也	-9.18944
是甚么	-9.18983
远远	-9.19057
祖师婆婆	-9.19118
杨	-9.19159
正好	-9.19207
登	-9.19267
奉	-9.19374
孙不二	-9.1938
十余	-9.19545
在这里	-9.19556
双剑	-9.19646
曲	-9.19706
与小龙女	-9.19789
绕	-9.19947
削	-9.20122
道人	-9.20152
均想	-9.20193
用力	-9.20536
吃了	-9.20587
听她	-9.2062
叫他	-9.20673
这里	-9.20703
站	-9.20755
为了	-9.20776
原是	-9.20804
慢	-9.21065
鼓	-9.21074
隐隐	-9.21292
行事	-9.21366
既然	-9.21472
另	-9.21915
护	-9.21958
脚步	-9.22086
神色	-9.22236
躲	-9.22296
松	-9.2236
聪明	-9.22379
绝情谷	-9.22386
投	-9.22417
朝	-9.22464
丑	-9.22506
越来越	-9.22541
夫	-9.22565
忽听	-9.22566
群	-9.22595
害怕	-9.22825
向后	-9.22861
压	-9.22983
紧	-9.22999
记得	-9.23
身形	-9.23055
打得	-9.23119
愿	-9.23281
暗暗	-9.23367
们	-9.23442
出言	-9.23501
性	-9.23781
别说	-9.23843
胸	-9.23853
海	-9.23857
斩	-9.23952
力气	-9.23998
越是	-9.24027
负	-9.2414
约	-9.24197
不便	-9.24199
观	-9.24241
不易	-9.2425
被他	-9.24317
在这儿	-9.24432
眉	-9.24433
冷	-9.24444
文	-9.24551
但见他	-9.24572
猛地	-9.24614
望了一眼	-9.2463
天竺僧	-9.24639
这许多	-9.24846
▁公孙谷主	-9.25059
留下	-9.25092
生死	-9.25258
心念一动	-9.25541
说到	-9.25563
去罢	-9.25597
缩	-9.25617
对我	-9.25685
了出去	-9.25753
避开	-9.25786
止	-9.25814
床	-9.25892
奇怪	-9.26119
我爹爹	-9.26128
消	-9.26158
惨	-9.26227
修	-9.26283
西山一窟鬼	-9.26333
抖	-9.2635
放在	-9.26357
弱	-9.26396
蒙	-9.2645
龙儿	-9.26523
世间	-9.26578
小心	-9.26798
无礼	-9.26935
垂	-9.26988
识得	-9.27099
我要	-9.27192
露出	-9.27209
奔到	-9.27744
计	-9.27834
治	-9.27879
江湖上	-9.27937
一场	-9.27998
次	-9.28036
武林	-9.28047
险	-9.28093
忽见	-9.28155
站起	-9.28195
抵挡	-9.28264
靠	-9.2828
倒是	-9.28352
借	-9.28397
伏	-9.28448
明知	-9.2845
而已	-9.28537
”。	-9.28795
古墓	-9.28843
到此处	-9.2887
此处	-9.28924
而来	-9.29003
还有	-9.29058
自幼	-9.29102
具	-9.29333
一名	-9.29419
顶	-9.29618
飞出	-9.29723
隔	-9.29743
托	-9.29798
诸	-9.2999
蛇	-9.2999
卷	-9.29997
又有	-9.30045
临	-9.30054
挨	-9.30112
却不知	-9.30117
何必	-9.30121
狗	-9.3019
四下里	-9.30227
大哥哥	-9.30259
掌法	-9.30276
有甚么	-9.30311
林	-9.30337
举起	-9.30372
要紧	-9.30488
使出	-9.30535
放下	-9.30544
枝	-9.30577
他老人家	-9.30599
带着	-9.30659
散	-9.30695
自行	-9.30818
朋友	-9.30914
你瞧	-9.30984
眼中	-9.31137
拂	-9.31141
遇到	-9.31176
渔网	-9.31256
的事	-9.31264
确	-9.31366
背心	-9.31485
损	-9.31507
他二人	-9.31526
房	-9.3163
回去	-9.31642
架	-9.31787
害死	-9.31824
装	-9.31826
臭	-9.32074
坚	-9.32075
大惊	-9.32078
羞	-9.32103
九阴真经	-9.32126
娶	-9.32132
岂能	-9.32155
透	-9.32265
走近	-9.32345
一日	-9.32426
任	-9.3245
怎	-9.32727
手足	-9.32895
我不	-9.33017
小人	-9.33048
碰	-9.33111
已经	-9.33127
一口	-9.33137
第	-9.3316
待我	-9.33198
厚	-9.33273
挥出	-9.33316
悄悄	-9.33379
鲜血	-9.33399
和尚	-9.33409
在一起	-9.335
目光	-9.3368
九	-9.33693
便在	-9.33716
偷	-9.33925
较	-9.33982
露	-9.33984
创	-9.34008
阴	-9.34017
可惜	-9.34028
图	-9.34032
施展	-9.34033
哼了一声	-9.34109
左臂	-9.34135
朗声	-9.34214
然而	-9.34234
干甚么	-9.34241
肯	-9.34317
衣服	-9.34394
怀中	-9.34423
向外	-9.34457
逼得	-9.3447
这次	-9.34522
房中	-9.34573
瞧得	-9.34758
生气	-9.34764
但想	-9.34838
为人	-9.34865
而死	-9.3496
你别	-9.34984
嫁	-9.34988
父母	-9.3504
要害	-9.35263
全无	-9.35275
激	-9.35292
恩	-9.35296
假	-9.35394
种	-9.35524
驰	-9.35653
舞	-9.35724
阳	-9.35727
鹿清笃	-9.35805
大头鬼	-9.35806
陆立鼎	-9.35811
换	-9.35812
张君宝	-9.35822
不料	-9.3589
不答	-9.35906
站着	-9.35937
中原	-9.35962
凌厉	-9.36087
呼吸	-9.36093
变化	-9.36115
尚有	-9.36132
但她	-9.36338
竟会	-9.36349
上去	-9.36452
各自	-9.36512
双眼	-9.36564
要是	-9.36645
好生	-9.36658
四个	-9.36662
前面	-9.36682
病	-9.36709
听说	-9.36747
多半	-9.36756
别人	-9.36832
极为	-9.37117
剑尖	-9.37133
▁绿萼	-9.37142
不许	-9.3723
拔	-9.37247
已将	-9.37366
盘	-9.37455
闯	-9.37522
佩服	-9.3755
成了	-9.37676
茶	-9.37816
已被	-9.37845
全是	-9.37875
威	-9.37898
若不是	-9.37899
遭	-9.37933
不少	-9.3796
一枚	-9.37995
悔	-9.38037
夹	-9.3805
一剑	-9.38053
顺手	-9.38055
谈	-9.38095
旗	-9.38106
挑	-9.3811
相距	-9.38116
林朝英	-9.38122
绳索	-9.38125
彭长老	-9.38134
磕头	-9.38152
诸般	-9.38152
大汗	-9.38155
大有	-9.38195
全然	-9.38285
另一个	-9.38438
而出	-9.38443
阵法	-9.38468
小小	-9.38495
便如	-9.38549
赞	-9.38586
了她	-9.38617
十年	-9.38651
本事	-9.38804
独	-9.38915
说过	-9.38972
怎会	-9.39001
几下	-9.39055
来的	-9.3922
终南山	-9.39292
又想	-9.39325
不起	-9.39392
▁霍都	-9.3942
切	-9.39614
中毒	-9.39645
心知	-9.39659
六人	-9.3969
遍	-9.39777
顾	-9.39805
江湖	-9.39857
境	-9.3986
闹	-9.39885
人影	-9.39888
己	-9.3989
走进	-9.39952
狠	-9.39984
良	-9.40041
迎	-9.40063
旧	-9.40106
困	-9.40145
星	-9.40164
师弟	-9.40197
耶律燕	-9.40206
银针	-9.40207
抬起头来	-9.40207
设法	-9.40222
输	-9.40227
颤声	-9.40234
双臂	-9.40261
一个人	-9.40373
先师	-9.40395
扯	-9.40485
不自禁的	-9.40522
说甚么	-9.40554
帮	-9.40606
脚下	-9.40797
罢了	-9.40812
阻	-9.40819
救了	-9.40866
跃出	-9.40914
显	-9.41001
小姑娘	-9.41014
必有	-9.41052
对付	-9.41209
无力	-9.413
大厅	-9.41406
郭靖夫妇	-9.41408
替	-9.41581
▁原来	-9.41627
的一响	-9.41919
雕	-9.41923
婆婆	-9.42045
是否	-9.42083
食	-9.42084
一眼	-9.42134
友	-9.42178
傻	-9.42197
香	-9.42273
甚么事	-9.42281
似是	-9.42315
迅捷	-9.42322
狼狈	-9.42338
咱俩	-9.42339
今晚	-9.42343
郭姑娘	-9.42355
相互	-9.42376
右掌	-9.42377
原来是	-9.42382
说到这里	-9.42458
说不定	-9.42518
分别	-9.42629
易	-9.42632
一柄	-9.4279
怨	-9.42792
也不能	-9.42922
只须	-9.42946
仇	-9.43106
自知	-9.43117
心意	-9.43298
到来	-9.43433
是他	-9.43445
明明	-9.43455
的声音	-9.43593
节	-9.4361
岂不	-9.43656
大是	-9.43731
许多	-9.4377
逆	-9.43809
剑招	-9.43822
得意	-9.44035
不信	-9.44049
翻身	-9.44215
敢	-9.44376
巧	-9.44448
险些	-9.44462
枪	-9.44464
系	-9.44481
回过头来	-9.44512
你师父	-9.44524
衣袖	-9.44531
相貌	-9.44532
面目	-9.44551
轮子	-9.4462
掠过	-9.44683
影	-9.4476
大和尚	-9.44772
到处	-9.44786
室	-9.44815
三招	-9.44817
黑剑	-9.44878
见过	-9.4497
互相	-9.44991
忘了	-9.4503
敌手	-9.45082
那日	-9.45086
暗中	-9.45095
室中	-9.45129
力道	-9.45249
对杨过	-9.4534
尘	-9.45391
帐	-9.45448
摸	-9.45461
犹如	-9.45527
难过	-9.45589
好啊	-9.45641
▁公孙止	-9.45753
对手	-9.45787
害	-9.45857
也就	-9.45893
决不能	-9.45918
接过	-9.45933
小弟	-9.46112
不着	-9.46122
与她	-9.46146
多谢	-9.46183
谷	-9.46207
宽	-9.46358
浅	-9.46369
稳	-9.46409
武三娘	-9.46461
鞭	-9.4657
料	-9.46602
格	-9.46642
薄	-9.46701
哈哈	-9.46704
招架	-9.4672
亡	-9.46736
绸带	-9.46738
黄帮主	-9.46754
重伤	-9.46775
铁轮	-9.46804
摔倒	-9.4681
以致	-9.46832
推开	-9.46883
那少年	-9.46942
毫不	-9.46952
夫人	-9.46953
化子	-9.46983
想来	-9.47047
向小龙女	-9.47086
重重	-9.471
武林中	-9.47203
躲在	-9.47234
骑	-9.47253
鸣	-9.47363
可以	-9.47387
士	-9.47422
早就	-9.47598
而行	-9.47617
你若	-9.47624
了下来	-9.47666
现	-9.47677
这话	-9.4776
跃上	-9.47936
。’	-9.47987
受了	-9.48232
一会	-9.48269
头发	-9.48415
林中	-9.48428
▁尹志平	-9.48485
手下	-9.48493
故	-9.48547
的性命	-9.48575
机	-9.48601
祸	-9.48621
插	-9.48664
恼	-9.48738
尊	-9.48814
再无	-9.48889
贵	-9.48936
外人	-9.4898
闲	-9.48996
金杵	-9.49007
丹药	-9.49012
感激	-9.49021
拾起	-9.49039
不必	-9.49073
个个	-9.49082
吓得	-9.49083
当世	-9.49131
暗自	-9.49205
周伯通道	-9.49321
一口气	-9.49543
兄	-9.49581
剧毒	-9.49589
准	-9.49618
拉着	-9.49766
颇有	-9.49894
说起	-9.50079
断了	-9.50089
致	-9.50118
识	-9.5014
墙	-9.50202
罪	-9.50377
运气	-9.50462
爬	-9.50552
夫妻	-9.50638
并	-9.50661
共	-9.50683
眼光	-9.50729
钟	-9.5076
抬	-9.50776
停	-9.50799
厉声	-9.51028
增	-9.51037
一对	-9.51104
不理	-9.51144
凝神	-9.51157
惹	-9.51221
续	-9.51248
嘿嘿	-9.51316
擦	-9.51317
志	-9.51318
达	-9.5132
唱	-9.51323
泥	-9.51324
王处一	-9.5133
整	-9.5133
察看	-9.51338
也要	-9.51359
那就	-9.51581
心里	-9.51588
不明	-9.51649
让他	-9.51665
好不好	-9.51718
你不	-9.51777
了过去	-9.51853
抱起	-9.5186
走罢	-9.51906
比之	-9.52062
这孩子	-9.52145
到后来	-9.52195
决不	-9.52249
运劲	-9.52253
岁	-9.52412
的好	-9.52431
平时	-9.52562
静	-9.52637
好罢	-9.52735
发作	-9.52872
欺	-9.53035
的手	-9.53198
蜜	-9.53307
利	-9.53341
觉远	-9.53452
一次	-9.53475
钉	-9.53543
贼	-9.53633
愁	-9.53667
办	-9.53671
吟	-9.53682
脉	-9.53686
英	-9.5369
转头向	-9.53709
大伙儿	-9.5371
晚辈	-9.53722
终究	-9.5374
并未	-9.53765
闭	-9.5377
这句话	-9.53772
掌教	-9.53811
才是	-9.539
顿	-9.53907
刀剑	-9.53983
落地	-9.53997
义父	-9.54
占	-9.54021
离开	-9.54037
从前	-9.54072
相会	-9.54103
一句话	-9.54162
砰的一声	-9.54192
落下	-9.5426
此后	-9.54345
了个	-9.54373
那个	-9.54383
几步	-9.54389
有的	-9.54505
了过来	-9.54771
颇	-9.54904
奔出	-9.54929
不说	-9.55013
汉	-9.55023
欢	-9.55042
错了	-9.55056
她是	-9.55064
有个	-9.55097
▁武三通	-9.55121
▁只听	-9.55127
一座	-9.55144
尽是	-9.55187
灵狐	-9.55256
素	-9.554
一位	-9.55406
袖	-9.55484
饭	-9.55495
味	-9.55635
出口	-9.55789
含	-9.55847
又问	-9.55895
母	-9.55918
虎	-9.5602
还不	-9.56075
亏	-9.56077
勇	-9.56119
剧痛	-9.56122
丹田	-9.56139
德	-9.56146
咦	-9.56156
奋力	-9.56169
拚命	-9.56173
故意	-9.56198
敌军	-9.5621
剑柄	-9.56221
徒儿	-9.56252
音	-9.56299
成亲	-9.56315
双足	-9.5635
显得	-9.56361
快快	-9.56419
几年	-9.56484
得了	-9.56493
之旁	-9.56527
凝	-9.56605
突见	-9.56697
山洞	-9.56761
睁	-9.56956
纵跃	-9.57014
防	-9.5707
并肩	-9.57167
数日	-9.57181
几句	-9.57186
自来	-9.57202
不该	-9.57356
再来	-9.57514
向左	-9.57534
风声	-9.57567
数十	-9.57714
寻常	-9.57735
桃花岛	-9.57741
情势	-9.57748
两只	-9.5775
丝	-9.5791
了下去	-9.58006
叫我	-9.58119
单	-9.58132
另有	-9.58192
柔	-9.58203
不同	-9.58274
玉	-9.5832
竟不	-9.58329
板	-9.58379
娘	-9.58511
决计	-9.58546
寸	-9.58581
对她	-9.58587
李志常	-9.58601
杵	-9.58609
掩	-9.58615
画	-9.58637
碎	-9.58643
滑	-9.58646
匕首	-9.5865
戳	-9.58655
蓦地里	-9.58666
男子	-9.58674
晃动	-9.58703
相交	-9.58743
大声叫	-9.58947
大事	-9.58965
方能	-9.58991
襄阳城	-9.59043
舍	-9.59323
之法	-9.59374
手里	-9.59498
你再	-9.59733
怎生	-9.59897
件	-9.60003
两名	-9.6001
深谷	-9.60026
了起来	-9.60051
胆	-9.60125
柄	-9.60217
那便	-9.60287
前来	-9.60308
集	-9.60372
急奔	-9.60443
让我	-9.60455
醒	-9.60467
握	-9.60621
这一掌	-9.60802
已有	-9.60815
熟	-9.60845
冯默风	-9.60936
两声	-9.60942
矮	-9.60957
幸	-9.60991
讨	-9.61012
危	-9.61047
容易	-9.61146
悲	-9.61147
灰	-9.61147
饮	-9.61206
咽	-9.61213
一阳指	-9.61215
百姓	-9.61217
媳妇儿	-9.61225
王爷	-9.61225
”、“	-9.6123
联手	-9.61245
尽皆	-9.61251
相抗	-9.61256
过不多时	-9.61275
但若	-9.61286
决意	-9.61313
不怕	-9.61327
此言	-9.61343
修为	-9.61376
扇	-9.614
不在	-9.61412
其时	-9.61417
有了	-9.61501
和小龙女	-9.61556
之物	-9.61557
你就	-9.61592
城头	-9.6161
一顿	-9.61677
她们	-9.61771
令人	-9.61799
服了	-9.61813
往他	-9.619
右足	-9.61979
存	-9.61992
晃	-9.62211
来啦	-9.62265
脱手	-9.62382
以后	-9.6249
剑上	-9.62496
悟	-9.6252
块	-9.62626
吓	-9.62637
辈	-9.62704
淡	-9.6271
叫声	-9.62772
为难	-9.62818
教你	-9.62823
不但	-9.62921
来去	-9.62931
就要	-9.62947
得罪	-9.63151
来了	-9.6317
他是	-9.63172
掌心	-9.63183
左足	-9.63195
试	-9.63203
扶	-9.63286
其余	-9.63418
聚	-9.63552
也好	-9.63566
顺	-9.63587
周	-9.63617
古墓派	-9.63635
教我	-9.63658
朗声说	-9.63683
移	-9.63723
均已	-9.63796
印	-9.63807
捏	-9.63829
属	-9.6384
列	-9.63842
私	-9.63842
老衲	-9.63847
船	-9.63852
竟尔	-9.6386
胡闹	-9.63871
俯身	-9.63876
不服	-9.63901
阁下	-9.63912
下了	-9.63951
得很	-9.63983
割	-9.64014
圈	-9.64128
有时	-9.64236
然后	-9.64286
样	-9.64362
之势	-9.64432
终身	-9.64441
东西	-9.64491
皆	-9.64608
重剑	-9.64665
直到	-9.64778
剑刃	-9.64899
退开	-9.64922
一听	-9.65152
少女	-9.65195
叫作	-9.65201
师徒	-9.65205
▁丘处机	-9.65377
在哪里	-9.654
累	-9.6554
了几下	-9.65564
我这	-9.65584
盗	-9.6563
身法	-9.65648
吐	-9.65666
知她	-9.6572
时候	-9.65755
碗	-9.65818
余	-9.66031
桌	-9.66056
年轻	-9.66067
抽	-9.66097
屋顶	-9.66193
爷	-9.66265
正中	-9.66271
父	-9.66304
也无	-9.66329
清楚	-9.66331
我姑姑	-9.66339
美貌	-9.66393
人人都	-9.66447
明日	-9.66454
凶	-9.6646
邪	-9.66468
圆	-9.6648
▁“	-9.66496
民	-9.66526
歇	-9.66534
数次	-9.66545
补	-9.66549
口诀	-9.66551
呛啷	-9.66553
耶律晋	-9.66556
英雄好汉	-9.66558
你快	-9.66559
江南	-9.6656
师母	-9.66582
呆	-9.66645
猜	-9.66649
恶斗	-9.66686
众弟子	-9.6672
挥动	-9.66725
两步	-9.66753
取胜	-9.66765
不死	-9.66815
先行	-9.66947
在古墓中	-9.66961
腿上	-9.67006
之言	-9.67139
有异	-9.67235
后心	-9.67243
输了	-9.67252
上台	-9.67299
有余	-9.67306
好啦	-9.67372
▁樊一翁	-9.67397
缘	-9.6744
如何能	-9.67587
台	-9.67654
四下	-9.67671
门下	-9.67728
无数	-9.6773
拜见	-9.67737
若要	-9.67756
满了	-9.6799
庙	-9.68103
经过	-9.68182
刃	-9.68252
▁此时	-9.68253
几声	-9.6836
▁杨过见	-9.68392
不断	-9.68647
排	-9.68698
便算	-9.68734
径	-9.6874
一看	-9.68834
数十年	-9.68875
杀人	-9.6889
本领	-9.68926
减	-9.69001
剪刀	-9.6901
表姊	-9.69056
窗	-9.69063
又不是	-9.69065
古	-9.6909
公	-9.6911
忧	-9.69119
告	-9.69121
▁只见	-9.69128
但听	-9.69203
树干	-9.69226
闷	-9.69231
烟	-9.69235
误	-9.69241
配	-9.69251
原来他	-9.69256
也未必	-9.69306
鸟	-9.6931
寂	-9.6932
挤	-9.69326
烦恼	-9.69329
男女	-9.69329
小腹	-9.6933
甩	-9.69333
雕兄	-9.69333
愕然	-9.69333
温柔	-9.69338
热闹	-9.69342
玄铁剑	-9.69369
绝无	-9.69377
数百	-9.69438
走出	-9.69684
将来	-9.69687
不语	-9.69799
不妙	-9.69984
一挥	-9.70049
下的	-9.701
数丈	-9.70147
便似	-9.70281
这一次	-9.70286
早知	-9.70419
也都	-9.70434
那些	-9.7055
听着	-9.70556
飞身	-9.70557
递	-9.70617
出招	-9.70676
忍	-9.70716
▁黄药师	-9.70782
也不会	-9.70806
一红	-9.70848
费	-9.70955
隐	-9.71068
才知	-9.71112
洞口	-9.71279
这少年	-9.71309
灭	-9.71356
本已	-9.71546
牵	-9.716
上一	-9.71626
练到	-9.71718
却见	-9.71771
向上	-9.7179
自己的	-9.71802
快步	-9.71814
侠	-9.71833
抹	-9.71944
句	-9.71948
度	-9.72028
走向	-9.72055
辱	-9.72095
波	-9.72122
绿	-9.72154
纯	-9.72159
甜	-9.72172
史叔刚	-9.72181
史氏兄弟	-9.72183
局	-9.72184
裘千仞	-9.72184
靖哥哥	-9.72184
休息	-9.72184
邀	-9.72186
芙妹	-9.7219
蓉儿	-9.7219
乘机	-9.7219
凶险	-9.72192
哈哈一笑	-9.72215
长袍	-9.72227
棒法	-9.72298
脱身	-9.72363
人物	-9.72422
门口	-9.72438
有此	-9.72474
将下来	-9.72548
从此	-9.72557
队	-9.72622
饶	-9.72643
坐下	-9.72649
怒气	-9.72689
抵	-9.72698
你可	-9.72742
必是	-9.7278
后面	-9.72937
这两个	-9.72947
▁杨过心想	-9.72951
跟随	-9.73057
一扬	-9.73094
▁二人	-9.73127
蒙古人	-9.73143
皱眉	-9.73214
入了	-9.73335
有如	-9.7338
戴	-9.73466
墓	-9.73615
一拂	-9.73632
传来	-9.73744
衫	-9.73793
啸声	-9.73923
亮	-9.7396
尺	-9.74
不知如何	-9.74022
堆	-9.74128
堕	-9.74146
的兵刃	-9.74313
胡	-9.74498
杨过见	-9.74501
论	-9.74548
颈	-9.74683
席	-9.7473
兴	-9.7485
等人	-9.75029
便可	-9.75042
远处	-9.75045
华	-9.75076
赴	-9.75113
瞒	-9.75122
岸	-9.75126
又惊又喜	-9.75129
黑衣僧	-9.7514
在一旁	-9.75146
提防	-9.75174
四周	-9.75185
当的一声	-9.75188
望去	-9.75197
点了	-9.75206
了不起	-9.75212
性子	-9.75246
颇为	-9.75267
强敌	-9.75284
挥剑	-9.7536
半截	-9.75466
素来	-9.75478
有所	-9.7551
护住	-9.75657
刺去	-9.75665
眼泪	-9.75721
汉子	-9.75725
处处	-9.7575
石室	-9.75798
你先	-9.75909
张开	-9.75911
还手	-9.75924
火把	-9.75941
一家	-9.75961
来势	-9.76073
但听得	-9.76106
伤势	-9.76159
给人	-9.76171
之地	-9.76263
赶到	-9.76358
交给	-9.76403
固	-9.76554
练成	-9.76577
息	-9.76647
严	-9.76766
今	-9.76777
树林	-9.76812
疑	-9.76845
转过	-9.76863
拍手	-9.76901
落在	-9.77088
掉	-9.77138
认得	-9.77143
一拍	-9.77179
墓中	-9.77442
携	-9.77534
雄	-9.77569
我去	-9.7762
仰	-9.77626
诧异	-9.77676
弄	-9.77771
迫	-9.77824
二道	-9.7783
怜	-9.77874
府	-9.7791
跑	-9.77951
那女郎	-9.77963
号	-9.77997
肩	-9.78026
瞧他	-9.78041
孙	-9.78051
瞎	-9.78064
克	-9.781
一些	-9.78119
裂	-9.78147
尾	-9.78154
胡说八道	-9.78156
黯然	-9.78156
忌惮	-9.78158
忍耐不住	-9.78161
在半空	-9.78176
神雕大侠	-9.78178
岂非	-9.78189
眼下	-9.78222
老前辈	-9.78249
沉重	-9.78272
之内	-9.78299
反手	-9.7832
一一	-9.78322
但见她	-9.7838
四字	-9.78408
答允	-9.78411
理会	-9.78438
不忍	-9.78473
两字	-9.78498
三分	-9.78549
丘处机等	-9.78691
丝毫不	-9.78711
未必	-9.7876
不来	-9.78877
打狗棒	-9.78948
一切	-9.78958
不幸	-9.79164
拿起	-9.79221
不久	-9.7923
盼	-9.79295
有趣	-9.79297
便将	-9.79317
遗	-9.79369
半分	-9.79644
上山	-9.79676
那也	-9.79763
有意	-9.79905
已知	-9.80001
都已	-9.80053
台下	-9.80063
脑袋	-9.80108
一定	-9.80128
你怎么	-9.80322
长大	-9.80419
便已	-9.80429
又已	-9.80483
忘	-9.80513
剪	-9.80519
上的	-9.80525
▁耶律齐	-9.80686
与李莫愁	-9.80782
腹	-9.80844
找到	-9.80914
鼻	-9.80943
做了	-9.80955
随着	-9.80977
骗	-9.80999
潜	-9.81031
只好	-9.81044
打他	-9.81118
麻	-9.81175
式	-9.81189
梦	-9.81216
也必	-9.81225
咱	-9.81237
疯	-9.81266
降	-9.81268
鸡	-9.81271
得多	-9.81271
钱	-9.81279
倚	-9.8128
兜	-9.81281
胡涂	-9.81281
转过身来	-9.81282
勾	-9.81282
抵御	-9.81284
大石	-9.81286
迟疑	-9.81294
假装	-9.81295
号令	-9.81303
宋军	-9.81304
外公	-9.81325
体内	-9.81328
依言	-9.8136
已自	-9.81391
张口	-9.81408
纵马	-9.81475
声势	-9.81496
胜了	-9.81506
疑心	-9.81545
一言	-9.81559
的人	-9.81582
震得	-9.81628
冰魄银针	-9.81688
陪	-9.81842
手脚	-9.81949
最好	-9.81984
曾听	-9.82087
拚	-9.82092
至于	-9.82162
该当	-9.82207
我瞧	-9.8229
这小	-9.82379
打死	-9.8241
将出来	-9.82461
便了	-9.82518
五个	-9.82623
抢到	-9.82787
壁	-9.82833
未曾	-9.83264
快走	-9.83305
一指	-9.83324
豪杰	-9.83388
胜过	-9.83476
得住	-9.83613
擒	-9.83735
锋	-9.83754
跟她	-9.83765
儿子	-9.83821
小子	-9.84078
迹	-9.84138
奥妙	-9.84179
量	-9.84237
郭	-9.84267
二武	-9.84321
容貌	-9.84334
手持	-9.84335
象	-9.84361
速	-9.84363
解开	-9.84383
▁程英	-9.84398
君	-9.84415
庄	-9.84418
方位	-9.84422
福	-9.84424
看得	-9.84429
习	-9.84438
驱	-9.84467
语气	-9.84469
乖	-9.84492
陆家庄	-9.84506
史孟捷	-9.84506
讲	-9.84507
诚	-9.84509
鳄鱼	-9.84517
王旗	-9.84521
蒙古大军	-9.84527
岩石	-9.84537
身受重伤	-9.84537
怪异	-9.84566
幼时	-9.84568
猛地里	-9.84568
便宜	-9.84572
数招	-9.846
双轮	-9.84605
不知他	-9.84628
丐帮弟子	-9.84634
仍然	-9.84638
合力	-9.8471
呼叫	-9.8472
许	-9.84737
在空中	-9.84745
可怜	-9.8475
大侠	-9.84765
而且	-9.84828
一拳	-9.84838
救人	-9.84862
倒转	-9.84947
▁公孙绿萼	-9.85026
打了	-9.85136
已久	-9.85145
不明白	-9.85173
荡	-9.8518
只不过	-9.85198
▁便在此	-9.85319
奔去	-9.854
盼望	-9.85471
使用	-9.8549
片	-9.85601
一闪	-9.85603
连连	-9.85652
名字	-9.8566
▁一灯	-9.85728
所在	-9.85742
于他	-9.85765
不能再	-9.85918
毕竟	-9.85918
山谷	-9.85939
不足	-9.8614
驴子	-9.86202
竟有	-9.8624
玉蜂针	-9.86278
每一	-9.86299
无异	-9.86369
呼喝	-9.86399
不敢再	-9.86464
难得	-9.86492
七人	-9.86585
以为	-9.86624
七八	-9.86703
他在	-9.86818
不去	-9.86931
桌上	-9.86944
二十	-9.86999
以来	-9.8715
这些人	-9.87313
我教	-9.87335
的模样	-9.87374
向郭靖	-9.87404
多年	-9.87404
陷	-9.8748
抗	-9.87537
危急	-9.87676
劳	-9.87696
一动	-9.8775
束	-9.8776
翅	-9.87773
务	-9.87797
承	-9.87798
读	-9.87812
钩	-9.87821
苍	-9.87823
情花之毒	-9.87825
朱	-9.8783
饿	-9.8783
诗	-9.87831
全真五子	-9.87835
饱	-9.87839
杨龙二人	-9.8784
缝	-9.8784
躬身	-9.87849
空隙	-9.87853
且慢	-9.87873
只盼	-9.8788
恼怒	-9.8788
单刀	-9.87883
克制	-9.87903
一晃	-9.87915
寒玉床	-9.87945
大大的	-9.8796
倏地	-9.87985
额头	-9.87994
危急中	-9.88061
永远	-9.88077
面门	-9.881
主人	-9.88115
右腿	-9.8821
伤口	-9.88217
使得	-9.88256
所学	-9.88257
又要	-9.88323
如此说	-9.88396
毒针	-9.88409
左腿	-9.88608
这和尚	-9.88641
拔出	-9.8866
便能	-9.88783
黄蓉笑	-9.8896
所传	-9.89052
▁那少女	-9.89142
跃下	-9.89268
全力	-9.89343
气息	-9.8938
死在	-9.89427
拨	-9.89488
▁这一	-9.89535
杨过和小龙女	-9.89569
就在	-9.89576
真正	-9.89623
袍	-9.89659
杀他	-9.8966
毁	-9.89754
了些	-9.89922
犹似	-9.90272
了罢	-9.90299
我说	-9.90317
见面	-9.90356
伤人	-9.90393
王志坦	-9.90596
伏在	-9.90619
了回来	-9.90671
撕	-9.90863
怪人	-9.90898
峰	-9.90908
只道他	-9.90956
双腿	-9.90957
奸	-9.91032
说要	-9.91045
教他	-9.91055
倾	-9.91086
期	-9.91094
坟	-9.91107
数年	-9.91111
拉住	-9.91118
牛肉	-9.91147
经书	-9.91169
誓	-9.91209
非同小可	-9.9121
野	-9.91231
痴	-9.91233
店	-9.91234
迷	-9.91242
恭	-9.91253
广	-9.91259
诱	-9.91261
扰	-9.91263
积	-9.91266
黄岛主	-9.91273
凉	-9.91277
洪老帮主	-9.91279
童	-9.91279
大踏步	-9.9128
修习	-9.9128
沙	-9.91282
暴	-9.91284
逾	-9.91289
心中一凛	-9.91289
俱	-9.91289
兵器	-9.9129
臭道士	-9.91308
内息	-9.91315
机关	-9.91315
绝技	-9.91317
方始	-9.91318
追赶	-9.91335
精妙	-9.91341
呼的一声	-9.91355
豹子	-9.91356
相识	-9.9137
大师兄	-9.91379
莫非	-9.91381
发觉	-9.91513
随手	-9.91523
头颈	-9.9154
刚才	-9.91548
掷出	-9.9157
师门	-9.9157
反正	-9.916
正面	-9.91608
空手	-9.91636
见二人	-9.9173
握住	-9.91845
素知	-9.9193
下山	-9.92029
不识	-9.92054
走开	-9.92087
对自己	-9.9209
欲待	-9.92134
毙	-9.92161
相对	-9.92194
咬住	-9.92233
抱住	-9.92382
杨过叫	-9.92423
瞧去	-9.92489
▁完颜萍	-9.9253
表妹	-9.92614
执	-9.92623
笑声	-9.92688
想是	-9.92694
另一	-9.92817
我妈	-9.92862
他身上	-9.92973
厅	-9.93
大敌	-9.93037
不要	-9.93101
这番话	-9.93118
打开	-9.93118
而至	-9.93133
好看	-9.93179
向北	-9.93235
站立	-9.9325
坏	-9.93282
马背	-9.93334
为他	-9.93338
效	-9.93365
采	-9.93376
一头	-9.93436
杨过与小龙女	-9.93518
见小龙女	-9.93583
无已	-9.93638
我没	-9.93684
当作	-9.93791
歌声	-9.93835
抬头	-9.93991
也不敢	-9.93992
十余年	-9.93999
缚	-9.94042
犯	-9.94201
大宋	-9.94261
眼见他	-9.94262
卧	-9.94275
不小	-9.9444
挺剑	-9.94446
打我	-9.94483
中间	-9.94497
毒性	-9.94501
历	-9.94529
和杨过	-9.94571
瓶	-9.94682
那少妇	-9.94689
冒	-9.94699
备	-9.9472
展	-9.94733
便有	-9.9475
索	-9.94755
柱	-9.94761
拖	-9.94772
午	-9.94775
环	-9.94776
瘦	-9.94791
羊	-9.94821
展开	-9.94824
秘	-9.94824
那道姑	-9.94849
旨	-9.94853
畅	-9.94856
浪	-9.94857
南海神尼	-9.94859
开眼来	-9.94859
怜惜	-9.94862
溅	-9.94863
挣扎	-9.94865
枣核钉	-9.94867
昔日	-9.9487
厅上	-9.94882
金针	-9.949
教训	-9.94906
呼呼	-9.9491
迎面	-9.94917
飞舞	-9.94932
精神	-9.94944
招呼	-9.94951
红马	-9.95001
势必	-9.95003
领教	-9.95005
行礼	-9.95006
打架	-9.95028
得到	-9.95044
茅屋	-9.9505
接口	-9.95091
一时之间	-9.95091
已极	-9.95133
碰到	-9.95141
两兄弟	-9.95143
掌风	-9.95147
高兴	-9.95177
只能	-9.95224
他武功	-9.9525
这事	-9.95251
请你	-9.95278
拿着	-9.95365
斩断	-9.95377
突然之间	-9.95383
不绝	-9.95389
隐居	-9.95405
小道士	-9.95412
那可	-9.95419
这一剑	-9.95443
我和	-9.95473
几天	-9.95534
心中却	-9.95572
按住	-9.9558
而起	-9.95635
听见	-9.9566
过招	-9.957
一身	-9.95766
进了	-9.95918
钻	-9.95923
也得	-9.95925
破了	-9.95939
紧紧	-9.96009
问起	-9.96082
名叫	-9.96093
出力	-9.96185
饶了	-9.96256
大胆	-9.96268
可说	-9.96332
不致	-9.96377
凄然	-9.96611
又将	-9.96639
的所在	-9.96753
只待	-9.96779
明明是	-9.96819
的名字	-9.96857
一手	-9.9687
不想	-9.96888
起了	-9.96905
叫你	-9.96929
好手	-9.96982
堂	-9.97035
放开	-9.97059
多了	-9.97102
密	-9.97118
一门	-9.97334
妹妹	-9.97338
那女子	-9.97343
北方	-9.97424
感到	-9.97446
般的	-9.97481
送了	-9.97676
但此时	-9.97736
相隔	-9.97753
休	-9.97837
眼望	-9.97838
将杨过	-9.97899
得知	-9.97948
全真	-9.97952
恐	-9.97967
潭	-9.98083
啸	-9.98088
始终不	-9.98104
在此时	-9.98138
授	-9.98205
掠	-9.98217
东邪	-9.98229
宛似	-9.98266
长矛	-9.98288
也只	-9.9834
又何必	-9.98377
常人	-9.98397
之辈	-9.9841
悬	-9.98435
万万	-9.98472
岩	-9.98496
搬	-9.98511
傲	-9.98512
哀	-9.9853
破绽	-9.98531
详	-9.98534
吸	-9.98544
抱了	-9.98547
小妹	-9.98551
屈	-9.98552
词	-9.98557
刘处玄	-9.98558
油	-9.98561
绑	-9.98561
元	-9.98562
史	-9.98565
笑嘻嘻的	-9.98565
昨晚	-9.98568
袍袖	-9.98572
危险	-9.98579
丈余	-9.98582
二丐	-9.98584
思索	-9.98596
之功	-9.98597
不弱	-9.98615
不堪	-9.98619
长索	-9.98622
攻城	-9.98683
奔跑	-9.98687
双方	-9.98689
拳法	-9.98698
成功	-9.9872
停步	-9.98739
老和尚	-9.98741
木剑	-9.98765
客气	-9.98775
本门	-9.98783
不管	-9.9894
老僧	-9.98993
是要	-9.99025
接连	-9.99032
本就	-9.99085
往往	-9.99103
越来越是	-9.99172
在自己	-9.99174
的招数	-9.99216
自然是	-9.99221
言道	-9.99383
取过	-9.99388
少了	-9.99405
岂不是	-9.99456
高举	-9.99587
▁忽必烈	-9.99665
决不会	-9.99717
不迟	-9.99718
出声	-9.99765
的人物	-9.99791
要待	-9.99808
好心	-9.99849
▁武氏兄弟	-10.0001
规矩	-10.0005
一路上	-10.0024
只见她	-10.0026
大笑	-10.0027
树枝	-10.0045
成为	-10.0053
杀我	-10.0063
点点头	-10.0065
举手	-10.0071
楼	-10.0072
师祖	-10.0077
又说	-10.0081
二来	-10.0081
提气	-10.0086
山上	-10.0089
嘉兴	-10.0098
道路	-10.0108
情意	-10.0108
十余招	-10.0108
候	-10.0113
你还	-10.0118
天下英雄	-10.0122
着地	-10.0123
我若	-10.0124
抓起	-10.0126
找寻	-10.0132
走去	-10.0135
团	-10.014
跟你说	-10.0176
再去	-10.0197
跃开	-10.0202
术	-10.0202
埋	-10.0209
烈	-10.0211
梁长老	-10.0214
了上来	-10.0214
才好	-10.0215
喷	-10.0219
叫她	-10.0222
愤	-10.0224
颤	-10.0224
衣襟	-10.0226
勉强	-10.0227
佛	-10.0232
倏	-10.0232
撒	-10.0234
一转	-10.0235
爹	-10.0236
孔	-10.0236
泪	-10.0239
残	-10.0239
卫	-10.0239
豪	-10.0239
蛋	-10.024
菜	-10.024
呸	-10.024
盟主	-10.024
蒙古武士	-10.024
哪里还	-10.024
侵	-10.0241
尹赵二人	-10.0241
赢	-10.0241
疏	-10.0241
动弹不得	-10.0241
倦	-10.0241
映	-10.0241
霎时之间	-10.0241
试试	-10.0241
蟋蟀	-10.0242
率领	-10.0242
约莫	-10.0243
折扇	-10.0244
巧妙	-10.0244
焉能	-10.0245
黑暗中	-10.0245
醒转	-10.0247
木棒	-10.0247
抵挡不住	-10.0248
神功	-10.0249
剑锋	-10.0249
此番	-10.0251
主意	-10.0252
领会	-10.0253
胸前	-10.0254
片刻之间	-10.0254
跌倒	-10.0256
劲风	-10.0256
耳听得	-10.0256
手帕	-10.0257
山峰	-10.0268
幸好	-10.0271
挡开	-10.0272
不放	-10.0273
舍命	-10.0276
三字	-10.0282
点穴	-10.0286
拳脚	-10.0286
转动	-10.0293
打不过	-10.0294
退后	-10.0297
斗然	-10.0297
这两句话	-10.0298
浑	-10.0298
心中一动	-10.0303
晕	-10.0311
微一	-10.0317
饶是	-10.0321
不下	-10.0329
一臂	-10.0334
惊人	-10.0336
十六年	-10.0337
层	-10.0343
出来的	-10.0349
忙问	-10.0356
叫做	-10.0362
▁柯镇恶	-10.0365
外面	-10.0369
天色	-10.0382
出城	-10.0387
屋中	-10.0389
生性	-10.0401
过了良久	-10.0403
懂	-10.0409
保	-10.0413
门外	-10.0415
枚	-10.0423
小孩儿	-10.0429
将过去	-10.043
化解	-10.0431
腾	-10.0438
不大	-10.0475
昏	-10.0483
我也不	-10.0492
看了	-10.0498
千万	-10.0514
不像	-10.0514
?’	-10.0516
石子	-10.0533
又有甚么	-10.0534
一派	-10.0538
没半点	-10.0539
决无	-10.0545
同去	-10.0552
僧	-10.0562
还能	-10.0564
挡住	-10.0567
带了	-10.0567
两下	-10.0587
瞧你	-10.0592
很好	-10.0593
上下	-10.0599
蜜蜂	-10.0602
允	-10.0607
地方	-10.0615
生了	-10.0616
抚	-10.0616
还没	-10.0617
十二	-10.0619
去瞧瞧	-10.0622
前后	-10.0622
参	-10.0627
查	-10.0628
穷	-10.0631
陆	-10.0632
毛	-10.0632
杨过见她	-10.0634
那老者	-10.0635
春	-10.0636
娇	-10.0637
安慰	-10.0638
充	-10.0639
杨康	-10.0639
捧	-10.064
彼	-10.064
贤	-10.064
陆展元	-10.064
史季强	-10.064
谨	-10.064
拥	-10.064
湿	-10.0641
姬清虚	-10.0641
出其不意	-10.0641
蹙	-10.0641
吓了一跳	-10.0641
诡计	-10.0641
卖	-10.0641
浮	-10.0641
耳朵	-10.0641
嗔	-10.0641
酸麻	-10.0641
玉女素心剑法	-10.0641
疗伤	-10.0641
佳	-10.0641
狠辣	-10.0642
群兽	-10.0642
折磨	-10.0642
公孙姑娘	-10.0642
语音	-10.0643
询问	-10.0643
银轮	-10.0643
门户	-10.0644
恰好	-10.0644
数尺	-10.0644
平安	-10.0645
举止	-10.0645
一颗心	-10.0646
吃饭	-10.0646
斤	-10.0647
激斗	-10.0648
小僧	-10.065
这件事	-10.065
相遇	-10.0653
金刀	-10.0655
心肠	-10.0656
防备	-10.0656
知觉	-10.0657
一跃	-10.066
抓住了	-10.0661
剑术	-10.0663
恩师	-10.0664
夹着	-10.0665
独自	-10.0667
要你	-10.0675
死活	-10.0678
再过	-10.0678
击落	-10.0682
自负	-10.0686
淡淡的	-10.0689
甚多	-10.0694
蒙古兵将	-10.0696
细细	-10.0709
所说	-10.0709
是了	-10.0709
也有	-10.0713
道长	-10.0719
女人	-10.0724
自会	-10.0728
瞧见	-10.0735
暗叫	-10.0737
杯	-10.0738
一大	-10.0743
殊	-10.076
柄剑	-10.0771
心情	-10.0775
几日	-10.0779
墙头	-10.0785
去势	-10.0791
也不用	-10.0796
何等	-10.0807
▁只听得	-10.0809
便请	-10.0817
必定	-10.0823
▁杨过见她	-10.0829
▁尼摩星	-10.083
亲自	-10.0837
混	-10.0837
这场	-10.085
没想到	-10.0851
若再	-10.0853
壮	-10.0883
可不能	-10.0883
道理	-10.0894
瞧来	-10.0895
一团	-10.0896
丛	-10.09
一击	-10.0911
太过	-10.0914
便走	-10.0921
蛮	-10.0921
有甚	-10.0922
一来	-10.0923
和她	-10.0925
纵横	-10.0933
心事	-10.0937
和你	-10.0939
始	-10.0939
想要	-10.0942
迟	-10.0961
追上	-10.0967
城门	-10.0968
要我	-10.097
摇	-10.0994
飘	-10.0994
对准	-10.0997
起身	-10.1002
袭	-10.1003
与郭靖	-10.1014
石棺	-10.1019
待他	-10.1024
济	-10.1029
冯铁匠	-10.103
宫	-10.1034
一拉	-10.1035
乡	-10.1043
不上	-10.1043
法王等	-10.1043
落入	-10.1043
逢	-10.1046
豹	-10.1047
特	-10.1047
筷	-10.1047
紫	-10.1049
艺	-10.1051
泪水	-10.1051
扭	-10.1053
俗	-10.1053
事先	-10.1053
纸	-10.1054
烂	-10.1055
冤	-10.1055
爪	-10.1056
辩	-10.1056
满腔	-10.1057
说是	-10.1057
逝世	-10.1057
赔	-10.1057
废	-10.1057
弃	-10.1057
吞	-10.1057
擅	-10.1057
扣	-10.1057
汗血宝马	-10.1057
不动声色	-10.1058
笨	-10.1058
背脊	-10.1058
满脸通红	-10.1058
蛤蟆功	-10.1058
盒	-10.1058
索性	-10.1058
棺盖	-10.1059
微一沉吟	-10.1059
长须鬼	-10.1059
铁掌帮	-10.1059
桃花岛主	-10.1059
全真剑法	-10.1059
铜轮	-10.106
平素	-10.106
身材	-10.106
凝目	-10.1061
巨钟	-10.1061
君子	-10.1061
狂奔	-10.1063
平平	-10.1063
轻易	-10.1064
华山	-10.1065
不由自主的	-10.1066
再行	-10.1066
数月	-10.1066
突觉	-10.1066
怎知	-10.1066
暗算	-10.1067
打伤	-10.1068
周身	-10.1069
的言语	-10.1069
阵势	-10.107
你便	-10.107
帮手	-10.1071
东边	-10.1071
殿	-10.1073
扶起	-10.1074
救我	-10.1074
两条	-10.1076
虽在	-10.1079
出洞	-10.1079
认输	-10.108
小王	-10.1081
神力	-10.1084
说来	-10.1087
这女子	-10.1088
杨过却	-10.1091
身手	-10.1092
丹房	-10.1092
夺回	-10.1094
跟我说	-10.1094
见识	-10.1099
之士	-10.1103
得手	-10.1104
十倍	-10.1105
十招	-10.1111
飘飘	-10.1111
任何	-10.1115
胜于	-10.1115
赶来	-10.1115
你爹爹	-10.1118
其后	-10.1127
将过来	-10.1159
几次	-10.1177
在后	-10.1177
很是	-10.1178
知晓	-10.1181
责	-10.1186
自己也	-10.12
倒退	-10.1209
岂	-10.121
▁尹克西	-10.1229
再不	-10.1235
脚步声	-10.1252
他虽	-10.1258
飞去	-10.1259
放心	-10.1275
惧	-10.1284
犹	-10.1288
藏在	-10.1288
无可	-10.1289
大奇	-10.1293
七道	-10.1295
要来	-10.1299
潇湘子等	-10.13
撞在	-10.1304
不定	-10.1308
发足	-10.1321
行走	-10.1327
既已	-10.134
而下	-10.1342
杨过大喜	-10.1342
下面	-10.1343
尸	-10.1344
是我的	-10.1345
也能	-10.1348
放了	-10.1352
更不	-10.1352
缓步	-10.1352
她手	-10.1357
让她	-10.1365
竟似	-10.1365
要杀	-10.1366
四名	-10.1378
一提	-10.1378
要他	-10.1379
胸中	-10.1399
他知	-10.1416
扑上	-10.1417
冰	-10.1418
是为	-10.1421
忌	-10.1426
闻到	-10.1433
幽	-10.144
洞中	-10.1449
你自己	-10.1449
项	-10.1452
难道你	-10.1454
唯	-10.1455
竖	-10.1456
肚	-10.1467
雨	-10.1468
牢牢	-10.1469
听来	-10.1476
除非	-10.1476
练得	-10.1478
叫嚷	-10.1481
孤	-10.1482
魔	-10.1483
喘	-10.1483
舌	-10.1484
老头儿	-10.1484
彩	-10.1484
颜	-10.1485
宿	-10.1487
新娘	-10.1487
设	-10.1488
钢	-10.1488
北斗阵	-10.1488
辞	-10.1489
杂	-10.1489
跨	-10.149
雕儿	-10.149
宴	-10.1491
乞丐	-10.1491
已无	-10.1491
英雄大宴	-10.1491
淑女剑	-10.1492
杨大嫂	-10.1492
遵	-10.1492
双颊	-10.1492
浸	-10.1493
拐杖	-10.1493
老太婆	-10.1493
耗	-10.1493
拣	-10.1493
武林盟主	-10.1493
寡	-10.1493
烤	-10.1493
恩公	-10.1494
安排	-10.1494
经历	-10.1494
横扫	-10.1495
遇上	-10.1495
焦急	-10.1497
在此处	-10.15
显然	-10.1502
铁掌	-10.1502
激动	-10.1504
口气	-10.1504
打扮	-10.1505
算是	-10.1505
妙极	-10.1508
巨响	-10.1508
侧身	-10.1508
旁边	-10.1512
大叫一声	-10.1513
侧头	-10.1515
可没	-10.1515
本教	-10.1517
喷出	-10.1517
扶着	-10.1519
身份	-10.1519
是她	-10.152
反击	-10.1522
汉人	-10.1526
心愿	-10.1527
绕着	-10.1529
径自	-10.1531
小兄弟	-10.1536
念头	-10.1537
相似	-10.1539
万分	-10.1542
我不知道	-10.1543
飞起	-10.1545
救命	-10.155
分手	-10.155
花丛	-10.1551
从中	-10.1559
山后	-10.1566
他说	-10.1569
一挡	-10.1574
不安	-10.1577
以此	-10.158
拦在	-10.1582
竟能	-10.1587
说完	-10.1606
自尽	-10.162
击出	-10.1621
救你	-10.163
银	-10.1637
一天	-10.1643
嚼	-10.1647
多半是	-10.165
真心	-10.1666
实在太	-10.1669
窜出	-10.1672
挡在	-10.1673
筷子	-10.1675
竟自	-10.1676
这一来	-10.1693
你说甚么	-10.1695
没甚么	-10.1701
喝了	-10.1707
运功	-10.1714
左首	-10.1718
在意	-10.172
向下	-10.1725
瞧她	-10.1729
从怀中取出	-10.173
的少年	-10.1732
心思	-10.1751
若无	-10.1757
待你	-10.1758
而过	-10.1771
愧	-10.1775
到哪里	-10.1778
杨过心中	-10.178
后跃	-10.1797
塞	-10.181
全真教的	-10.181
七日	-10.1819
只感	-10.1823
的本事	-10.1833
听他说	-10.1841
竟将	-10.1845
智	-10.1847
升	-10.1855
截	-10.1862
一揖	-10.1862
折断	-10.1863
好在	-10.1868
丘处机道	-10.1873
丧	-10.1874
已在	-10.1877
好玩	-10.1881
示	-10.1882
城下	-10.1883
绊	-10.1888
十余年来	-10.1889
顺着	-10.1894
谅	-10.1897
小畜生	-10.1901
途	-10.1902
又见	-10.191
宋	-10.1912
镇	-10.1913
好汉	-10.1918
祖	-10.1918
仗	-10.1922
歌	-10.1923
酸	-10.1924
颈中	-10.1926
挟	-10.1928
▁这一下	-10.1929
戏	-10.193
不顾	-10.1932
招招	-10.1934
丘	-10.1935
催	-10.1936
牙齿	-10.1939
披	-10.194
弓	-10.1942
疼	-10.1942
姿	-10.1943
净	-10.1945
半个时辰	-10.1945
无论如何	-10.1945
雾	-10.1945
逊	-10.1946
胎	-10.1946
手忙脚乱	-10.1946
演	-10.1946
成吉思汗	-10.1947
脸颊	-10.1947
赶去	-10.1947
益	-10.1947
黑龙潭	-10.1947
野兽	-10.1947
延	-10.1947
狼	-10.1947
宋德方	-10.1947
陆二娘	-10.1947
迅速	-10.1948
展开轻功	-10.1948
赵师兄	-10.1948
程英和陆无双	-10.1948
丈许	-10.1948
铁锤	-10.1948
身躯	-10.1949
又怎	-10.1949
常言道	-10.1949
拱手	-10.1949
支持不住	-10.1949
叫了声	-10.1949
从未见过	-10.195
闭目	-10.195
或许	-10.1951
挡架	-10.1951
齿	-10.1951
山洪	-10.1951
铁蛇	-10.1951
斗然间	-10.1952
关怀	-10.1952
伸臂	-10.1953
无限	-10.1953
加劲	-10.1954
宁可	-10.1955
乘势	-10.1955
足底	-10.1956
大喝一声	-10.1956
移动	-10.1957
双脚	-10.1957
十四	-10.1967
西边	-10.1967
一株	-10.1967
擒住	-10.1967
众道	-10.1968
马鞭	-10.1968
伸指	-10.1969
用功	-10.197
只可惜	-10.1971
照料	-10.1971
毒蛇	-10.1971
之余	-10.1971
一把抓住	-10.1971
早有	-10.1972
原本	-10.1972
只消	-10.1973
到底是	-10.1974
快活	-10.1985
那是甚么	-10.1988
又在	-10.1991
诸人	-10.1992
喝酒	-10.1992
出掌	-10.1998
深厚	-10.2001
武功了得	-10.2001
伸手在	-10.2002
坐着	-10.2011
兄弟俩	-10.2012
热气	-10.2013
为师	-10.2013
要将	-10.2021
掷去	-10.2025
一震	-10.203
又是一	-10.2031
全真派武功	-10.204
之毒	-10.2046
手法	-10.2047
一推	-10.2048
些甚么	-10.205
但这	-10.205
骂我	-10.2057
我跟	-10.2061
追去	-10.2065
空中	-10.2065
这二人	-10.2067
之命	-10.2075
的对手	-10.208
难道我	-10.2087
那老妇	-10.2093
他胸口	-10.2097
伤害	-10.2102
大弟子	-10.2103
何处	-10.2114
▁当下	-10.2115
的么	-10.2138
火光	-10.214
好笑	-10.2143
打在	-10.2147
买	-10.2148
与自己	-10.2161
可不是	-10.217
答应了	-10.218
之手	-10.2183
高人	-10.2183
推出	-10.2188
一件事	-10.2196
▁武修文	-10.2196
猛听得	-10.2197
学得	-10.22
所能	-10.2201
到得	-10.2209
守城	-10.222
极深	-10.2221
刺出	-10.2229
▁三人	-10.2238
猜到	-10.2242
之气	-10.2243
墓门	-10.2244
有事	-10.2244
的小	-10.2255
城中	-10.2264
挂	-10.2269
也真	-10.2274
中有	-10.2274
也不肯	-10.2275
门人	-10.2284
总算	-10.2287
向李莫愁	-10.2293
声中	-10.2293
回转	-10.2295
未免	-10.2314
而前	-10.2316
他既	-10.2325
去找	-10.2326
溜	-10.2328
枉	-10.2333
得罪了	-10.2333
时日	-10.2348
妹	-10.2351
知道了	-10.2356
一碗	-10.2359
凡	-10.236
▁忽听得	-10.2365
虽强	-10.2372
部	-10.2383
营	-10.2384
雷	-10.2384
摘	-10.2389
你既	-10.2398
发掌	-10.24
纵身跃	-10.2402
客店	-10.2403
出家	-10.2406
丐	-10.2408
际	-10.2409
担	-10.2409
那大汉	-10.2412
造	-10.2413
烛	-10.2413
拾	-10.2414
甫	-10.2416
柴	-10.2416
河	-10.2416
器	-10.2416
话声	-10.2417
慌	-10.2418
秀	-10.2419
恋	-10.2419
谋	-10.242
锤	-10.2421
健	-10.2421
尹	-10.2422
鱼	-10.2422
叫甚么名字	-10.2422
牙	-10.2422
叶	-10.2422
注	-10.2422
铺	-10.2422
率	-10.2423
说不出话来	-10.2423
泼	-10.2423
吕文德	-10.2423
玉女剑法	-10.2423
畏惧	-10.2423
商议	-10.2423
祖师爷	-10.2423
赏	-10.2423
简	-10.2423
疯疯癫癫	-10.2423
仅	-10.2423
兔	-10.2423
瓷瓶	-10.2424
跟随在后	-10.2424
降龙十八掌	-10.2424
禀报	-10.2424
擒拿	-10.2424
公公	-10.2425
哪敢	-10.2425
新郎	-10.2425
爹娘	-10.2425
神态	-10.2425
半尺	-10.2426
那女孩	-10.2426
临安	-10.2427
双眉	-10.2427
经脉	-10.2427
学艺	-10.2427
主持	-10.2427
小小年纪	-10.2428
窗外	-10.2428
一辈子	-10.2429
霍都王子	-10.243
身畔	-10.243
声息	-10.243
对小龙女	-10.243
奔驰	-10.2431
大不相同	-10.2432
弯刀	-10.2432
拍的一声	-10.2435
也不过	-10.2435
兼之	-10.2436
寻找	-10.2437
抖动	-10.2437
语声	-10.2438
溪水	-10.2439
西毒	-10.2439
向着	-10.2441
之术	-10.2441
恶毒	-10.2441
就只	-10.2442
当场	-10.2443
追击	-10.2445
陪着	-10.2447
毒手	-10.2448
打败	-10.2453
高声叫	-10.2457
累得	-10.2461
便往	-10.2468
而上	-10.2468
待会	-10.2468
乘着	-10.247
了不少	-10.2473
因而	-10.2475
抢着	-10.2476
撕下	-10.2483
他自	-10.249
活着	-10.2491
你知道	-10.2496
床上	-10.2498
绝顶	-10.2501
抽出	-10.2504
手中长剑	-10.2515
终是	-10.2535
斜眼	-10.2535
大声喝	-10.2536
武功虽	-10.2536
惊叫	-10.2542
哪有	-10.2545
在外	-10.2558
进去	-10.2569
地底	-10.2573
学到	-10.258
果然是	-10.2581
那怪人	-10.2586
日久	-10.2587
我只	-10.259
抱住了	-10.259
但杨过	-10.2601
▁朱子柳	-10.2631
避过	-10.2633
当下将	-10.2641
呼声	-10.2654
用以	-10.2657
上马	-10.2664
明白了	-10.2667
请问	-10.267
虽只	-10.2676
道爷	-10.2681
跟着又	-10.2685
的用意	-10.2686
那你	-10.2686
了半天	-10.2688
均有	-10.2705
深深	-10.2706
从小	-10.2711
不得不	-10.2714
又怎能	-10.2715
既是	-10.272
是非	-10.2726
笑吟吟的	-10.2734
聚会	-10.2735
搭	-10.2748
可有	-10.2751
石阵	-10.2765
大树	-10.2766
一处	-10.2767
却无	-10.2771
传出	-10.2784
了一顿	-10.2786
将自己	-10.2786
吃过	-10.2787
店伴	-10.2793
真有	-10.2793
瞧出	-10.2795
只想	-10.28
这就	-10.2808
道姑	-10.281
轰	-10.2821
丐帮帮主	-10.283
守在	-10.2835
纵声	-10.2841
一队	-10.2845
姊妹	-10.2847
椅	-10.285
拍出	-10.2854
妇	-10.2869
裹	-10.2875
禁	-10.2878
斥	-10.2883
一出	-10.2884
活死人墓	-10.2886
见到杨过	-10.2887
畜生	-10.2888
石壁	-10.2889
宗	-10.2889
史伯威	-10.2896
师兄弟	-10.2897
为敌	-10.2903
劲急	-10.291
赖	-10.2913
训	-10.2916
距	-10.2917
当晚	-10.2917
嘶	-10.2917
魂	-10.2918
只见杨过	-10.2919
这日	-10.2919
雅	-10.2919
潮	-10.2919
获	-10.292
态	-10.292
仁	-10.2921
使个眼色	-10.2921
影踪	-10.2922
污	-10.2922
扎	-10.2922
嘿	-10.2922
枯	-10.2922
竹	-10.2922
几乎	-10.2922
笑脸鬼	-10.2922
素不相识	-10.2923
业	-10.2923
工	-10.2923
漠	-10.2923
暖	-10.2923
钦佩	-10.2923
丫鬟	-10.2923
小娃儿	-10.2923
某	-10.2923
喧	-10.2924
全真七子	-10.2924
琢磨	-10.2924
鲁帮主	-10.2924
师徒俩	-10.2924
担忧	-10.2924
怔怔的	-10.2924
眼眶	-10.2924
杆棒	-10.2924
肥	-10.2924
布置	-10.2924
三尺	-10.2924
长叹一声	-10.2925
偷袭	-10.2925
又惊又怒	-10.2925
毙命	-10.2925
丑雕	-10.2925
狠狠	-10.2925
小侄	-10.2927
本帮	-10.2927
每次	-10.2927
以防	-10.2927
数寸	-10.2931
西藏	-10.2932
反复	-10.2932
抚摸	-10.2932
传了	-10.2932
舞动	-10.2932
大营	-10.2932
仰天	-10.2932
念及	-10.2934
袖子	-10.2935
故事	-10.2935
危难	-10.2935
那魔头	-10.2935
惊觉	-10.2937
携手	-10.2937
借力	-10.2937
字诀	-10.2939
这位姑娘	-10.294
白衣	-10.2941
气恼	-10.2942
远胜于	-10.2942
两次	-10.2942
的女儿	-10.2944
望望	-10.2946
一酸	-10.2946
料知	-10.2947
数里	-10.2948
重阳祖师	-10.2958
定会	-10.2961
抢出	-10.2962
交手	-10.2965
难当	-10.2971
▁就在	-10.2972
变招	-10.2975
尽力	-10.2976
听杨过	-10.2983
一撞	-10.2989
厉声喝	-10.2989
挂念	-10.3001
▁正	-10.3001
老者	-10.3005
之念	-10.3008
几时	-10.3011
天地	-10.3012
右边	-10.3016
的名头	-10.3017
每日	-10.3018
心中大喜	-10.3022
失手	-10.303
多说	-10.3034
我自然	-10.3039
给杨过	-10.3045
大军	-10.3046
说些甚么	-10.3046
与你	-10.3047
连声	-10.3054
十八	-10.3054
身穿	-10.3055
绕过	-10.3061
淡淡一	-10.3065
颗	-10.3066
倒在地	-10.3068
西首	-10.3069
她一	-10.3077
有谁	-10.308
近身	-10.308
不待	-10.308
丐帮中	-10.3082
▁马光佐	-10.3085
一样	-10.309
当先	-10.3091
我跟你说	-10.3095
微微一	-10.31
嗡嗡	-10.3104
了一层	-10.3115
大穴	-10.3117
立时便	-10.3128
自身	-10.3135
杨过已	-10.3136
有这等	-10.3139
▁孙婆婆	-10.3143
他背心	-10.3152
转了	-10.3176
助你	-10.3198
襄阳城中	-10.3198
岂有	-10.3201
可是他	-10.3204
时时	-10.3207
一会儿	-10.3209
冲出	-10.3217
但不知	-10.3224
说他	-10.3232
多少	-10.3237
非但	-10.3238
的伤势	-10.3238
脑中	-10.324
手执	-10.3241
左脚	-10.3244
于我	-10.3252
念着	-10.3258
便道	-10.326
都说	-10.326
开来	-10.3279
不意	-10.3279
没了	-10.328
为她	-10.3282
在地	-10.3286
这样的	-10.33
可知	-10.3304
段	-10.3323
弟	-10.3327
和郭芙	-10.3328
不敌	-10.3329
六七	-10.3339
跃入	-10.334
绳	-10.3343
实非	-10.3347
轻轻的	-10.3351
缚在	-10.3351
所授的	-10.3354
可就	-10.336
从不	-10.3374
无事	-10.3379
一边	-10.338
于是将	-10.338
矛	-10.3384
他对	-10.3387
更有	-10.3387
苦头	-10.3389
了一下	-10.3389
腹中	-10.339
有毒	-10.3393
俩	-10.3395
了许多	-10.3397
的道人	-10.3401
幼	-10.3403
惜	-10.3407
拆	-10.3408
胡说	-10.3411
便不	-10.3411
而坐	-10.3415
梁	-10.3417
触	-10.3417
一枝	-10.3418
支	-10.3418
▁过了	-10.3423
策	-10.3423
他身子	-10.3424
古墓中	-10.343
肠	-10.3431
专	-10.3434
赐	-10.3435
貌	-10.3436
岔	-10.3436
膝	-10.3436
揭	-10.3438
俯	-10.3439
妄	-10.3439
梯	-10.344
患	-10.3441
畔	-10.3441
焦	-10.3441
痒	-10.3445
叛	-10.3445
丁大全	-10.3446
锦帕	-10.3447
脏	-10.3447
搜	-10.3447
迈	-10.3448
遣	-10.3448
陈	-10.3448
棍	-10.3448
支持	-10.3448
轻身功夫	-10.3448
违	-10.3448
斯	-10.3448
赵	-10.3448
耶律楚材	-10.3449
潇洒	-10.3449
大校场	-10.3449
肿	-10.3449
申志凡	-10.3449
谦	-10.3449
祁志诚	-10.3449
嫌	-10.3449
汁	-10.3449
九尾灵狐	-10.3449
绣	-10.3449
银子	-10.3449
脸色大变	-10.3449
摇了摇头	-10.3449
祝寿	-10.3449
戟	-10.345
祝	-10.345
顷刻之间	-10.345
半枚丹药	-10.345
不知去向	-10.345
歪	-10.345
窄	-10.345
弦	-10.345
窝	-10.345
粒	-10.345
皮清玄	-10.3451
酒杯	-10.3451
北丐	-10.3451
隐约	-10.3451
姿式	-10.3451
家伙	-10.3451
好奇心起	-10.3451
纵身而	-10.3452
左肩	-10.3453
停留	-10.3453
可怖	-10.3454
太阳	-10.3455
石块	-10.3455
走上	-10.3456
君子剑	-10.3458
不多时	-10.3458
怎么办	-10.3459
大骇	-10.3459
亲兵	-10.346
下杀手	-10.3461
使将出来	-10.3461
眼珠	-10.3461
四顾	-10.3462
一惊之下	-10.3465
敬重	-10.3466
决非	-10.3467
性儿	-10.347
怪不得	-10.347
时分	-10.3471
日前	-10.3471
击中	-10.3472
不觉	-10.3473
绝情谷中	-10.3473
这女孩儿	-10.3473
柔和	-10.3474
就没	-10.3474
细看	-10.3474
了上去	-10.3476
家传	-10.3476
物事	-10.3477
攻势	-10.3477
恨恨的	-10.3484
时刻	-10.3486
惯了	-10.3488
不休	-10.349
笑容	-10.3494
闪身	-10.3494
少年时	-10.3497
有点	-10.3497
奔向	-10.3506
即是	-10.3507
送到	-10.351
打去	-10.351
记起	-10.3511
生日	-10.3515
依着	-10.3515
关心	-10.3515
不须	-10.3516
苦笑	-10.3527
因之	-10.3528
一副	-10.3528
那妇人	-10.353
瞧我	-10.3542
每人	-10.3544
正当	-10.3554
的情景	-10.3557
的踪迹	-10.3563
大厅上	-10.357
骗我	-10.3571
来此	-10.3574
不通	-10.3575
难看	-10.3576
两根	-10.3589
也会	-10.3592
拿了	-10.3603
你身上	-10.3603
哪知他	-10.3621
今天	-10.3621
小心了	-10.3639
偷听	-10.3643
撑	-10.3643
▁慈恩	-10.3646
为之	-10.3657
一生之中	-10.3666
▁潇湘子	-10.3672
够	-10.3676
去路	-10.3682
的说话	-10.3683
个圈子	-10.3694
打死了	-10.3697
出墓	-10.3708
直至	-10.3717
是为了	-10.3717
三下	-10.3725
尹志平道	-10.373
李莫愁师徒	-10.3731
逐	-10.3733
击去	-10.3735
竟已	-10.3736
打个	-10.3751
好事	-10.3752
顶上	-10.3757
生下	-10.376
套	-10.3776
解毒	-10.3781
去啦	-10.3781
晕了过去	-10.3789
斗得	-10.3792
击在	-10.3793
料得	-10.3795
一个是	-10.38
几句话	-10.38
这么说	-10.3803
年老	-10.3808
兄长	-10.3811
的女子	-10.3824
一晚	-10.3827
的心事	-10.3827
甘	-10.3832
你不用	-10.3838
便不能	-10.3847
▁当	-10.3851
他却	-10.3853
欺侮	-10.3855
三年	-10.3858
别再	-10.3862
作甚	-10.3886
一交	-10.3889
究	-10.3894
眼前一	-10.3898
她心中	-10.39
也不是	-10.3901
快去	-10.3903
男	-10.3919
退出	-10.3933
指向	-10.3933
你这般	-10.3934
从来	-10.3936
上身	-10.3937
皱	-10.3947
军士	-10.395
状	-10.3952
一半	-10.3954
脑	-10.3955
使劲	-10.3962
振	-10.3966
大路	-10.3967
线	-10.3968
灯	-10.3968
凝视	-10.3973
这剑	-10.398
慰	-10.398
妻	-10.3982
说笑	-10.3984
半边	-10.3985
大雪	-10.3987
胁	-10.3988
几位	-10.3989
兼	-10.3991
父子	-10.3991
访	-10.3992
皇	-10.3996
僵尸	-10.3996
程	-10.3996
抢攻	-10.3997
逞	-10.3998
筋	-10.3998
唇	-10.3998
僵	-10.3999
联	-10.3999
那怪客	-10.4
摇晃	-10.4001
向西	-10.4002
圣	-10.4003
狐	-10.4003
宾	-10.4004
婆	-10.4004
冠	-10.4004
拙	-10.4004
喊	-10.4004
狡	-10.4004
召	-10.4004
枣核	-10.4005
猪	-10.4005
姊夫	-10.4005
鬓	-10.4005
武氏父子	-10.4005
刘	-10.4005
黄老邪	-10.4005
笃	-10.4005
李师伯	-10.4005
渊源	-10.4005
嘱	-10.4005
段皇爷	-10.4005
占上风	-10.4005
阿弥陀佛	-10.4005
藏边五丑	-10.4005
流下泪来	-10.4005
依稀	-10.4005
丘真人	-10.4005
拦阻	-10.4005
残废	-10.4005
点苍渔隐	-10.4006
自刎	-10.4006
痛楚	-10.4006
利器	-10.4006
形貌	-10.4006
狮	-10.4006
继续	-10.4006
隐瞒	-10.4006
那也罢了	-10.4006
抄	-10.4006
霎时间	-10.4006
惊喜交集	-10.4006
桌椅	-10.4006
察觉	-10.4006
谈论	-10.4006
茫然	-10.4006
良机	-10.4007
艰难	-10.4007
干净	-10.4008
贵客	-10.4009
喝彩	-10.4009
弯腰	-10.4009
铁钉	-10.4009
右肩	-10.4009
算帐	-10.401
威猛	-10.4011
奇特	-10.4011
撞击	-10.4013
狠毒	-10.4013
尊师	-10.4013
发颤	-10.4014
五轮	-10.4016
山石	-10.4016
更增	-10.4017
变色	-10.4017
腰带	-10.4018
竟敢	-10.4019
张望	-10.4019
猛恶	-10.402
拦住	-10.4021
飞扬	-10.4021
苦练	-10.4021
自小	-10.4022
这魔头	-10.4022
我先	-10.4024
参与	-10.4025
远不及	-10.4026
自然而然的	-10.4029
百倍	-10.4032
扑去	-10.4035
极少	-10.4038
长须	-10.404
握着	-10.4042
贫道	-10.4043
告知	-10.4045
免得	-10.4045
向黄蓉	-10.4047
隔了	-10.4047
变故	-10.4053
在桃花岛上	-10.4056
明儿	-10.4058
在半空中	-10.406
大感	-10.4064
一百	-10.4064
叫化	-10.4066
不要脸	-10.4068
大剪刀	-10.4076
算得	-10.4076
入门	-10.4078
重会	-10.4079
▁张君宝	-10.4081
向旁	-10.4086
极大	-10.4089
真气	-10.4092
可爱	-10.4093
遇上了	-10.4093
大丈夫	-10.4095
美人	-10.4099
!’	-10.4099
房门	-10.4102
之一	-10.4123
兄妹	-10.4124
毫	-10.4127
十多年	-10.4132
来得	-10.4135
武士	-10.4142
只求	-10.4142
但小龙女	-10.4143
提到	-10.4143
急转	-10.4143
两剑	-10.4149
那店伴	-10.4154
难道这	-10.4168
随口	-10.4171
见郭靖	-10.4172
当头	-10.4175
还未	-10.418
连叫	-10.4182
不胜	-10.4187
左边	-10.4191
不算	-10.4209
再问	-10.4212
一层	-10.4216
茫茫	-10.4216
在江湖上	-10.4216
▁达尔巴	-10.4218
大呼	-10.4219
响亮	-10.422
昏晕	-10.4222
死后	-10.4223
也不必	-10.4225
全都	-10.4233
胜得	-10.4234
就如	-10.4239
的长剑	-10.425
半枚	-10.4258
全不	-10.4258
可真	-10.4258
解救	-10.4258
不让	-10.4264
几招	-10.427
原来这	-10.4271
将这	-10.4275
一带	-10.4279
以前	-10.4283
未必便	-10.4289
磕	-10.4295
一字	-10.4295
撒手	-10.4301
袍子	-10.4317
让开	-10.4331
你又	-10.4334
了一遍	-10.435
进攻	-10.4359
练过	-10.4363
便此	-10.4369
叱	-10.4374
开口	-10.4376
▁欧阳锋	-10.4377
数千	-10.438
用意	-10.4381
都要	-10.4383
的手掌	-10.4384
一年	-10.4385
的神色	-10.4386
那马	-10.4386
杨过一怔	-10.4393
眉头	-10.4407
和郭襄	-10.4409
大半	-10.4412
向右	-10.4421
你老人家	-10.4424
既不	-10.4431
过于	-10.4438
当此	-10.4442
顷刻间	-10.4471
本想	-10.4471
我家	-10.448
溪	-10.4484
杨过心	-10.4489
一群	-10.4498
那道人	-10.4502
一杯	-10.4502
开了	-10.4508
永	-10.4508
他手臂	-10.4511
一摆	-10.4512
三弟	-10.4513
不出来	-10.4513
倘	-10.4516
田	-10.4517
二十年	-10.4526
与郭芙	-10.453
半天	-10.4531
三步	-10.4542
内伤	-10.4542
碑	-10.4545
驾	-10.4555
粘	-10.4557
安好	-10.4558
贼秃	-10.4561
箱	-10.4561
胜败	-10.4566
弹指神通	-10.4568
伴	-10.4568
却也是	-10.4572
相比	-10.4578
!”“	-10.4579
我再	-10.458
陡	-10.4581
咱们便	-10.4581
援	-10.4581
烦	-10.4583
仙	-10.4584
兽	-10.4584
叉	-10.4586
井	-10.4587
染	-10.4587
讯	-10.4589
甲	-10.4589
僻	-10.4589
俊	-10.4589
向法王	-10.459
趋	-10.459
跛	-10.459
幻	-10.459
建	-10.459
吵	-10.4591
湖	-10.4591
继	-10.4591
砖	-10.4591
胖	-10.4592
漫	-10.4592
饰	-10.4592
搁	-10.4592
无可奈何	-10.4592
呆呆出神	-10.4592
赠	-10.4593
阿沅	-10.4593
不怀好意	-10.4593
罗	-10.4593
挖	-10.4593
俟机	-10.4593
耽	-10.4593
蠢	-10.4593
独孤前辈	-10.4593
惊诧	-10.4593
洗	-10.4593
仙姑	-10.4593
乳	-10.4593
鬼鬼祟祟	-10.4593
寺	-10.4593
柳妹	-10.4593
郭破虏	-10.4593
瞧了一眼	-10.4593
耶律大爷	-10.4593
不耐烦	-10.4593
顽皮	-10.4593
断肠草	-10.4593
白眉僧	-10.4593
耽搁	-10.4593
藏经阁	-10.4593
载	-10.4593
秋	-10.4594
双剑合璧	-10.4594
拢	-10.4594
同归于尽	-10.4594
人皮面具	-10.4594
珍	-10.4594
池	-10.4594
商量	-10.4594
钻研	-10.4594
软猬甲	-10.4594
嘴唇	-10.4594
咽喉	-10.4594
数十丈	-10.4595
凌空	-10.4595
向后跃开	-10.4595
双膝	-10.4595
猛兽	-10.4595
逐步	-10.4595
吐露	-10.4595
无伦	-10.4596
紧迫	-10.4596
种种	-10.4596
画像	-10.4597
城外	-10.4597
加害	-10.4597
不中	-10.4598
欢呼	-10.4599
守护	-10.4601
强忍	-10.4601
之类	-10.4601
抱拳	-10.4601
思念	-10.4602
五丑	-10.4602
威风	-10.4603
肚子	-10.4603
蒙古大汗	-10.4604
若有	-10.4604
武功高强	-10.4605
相聚	-10.4605
答话	-10.4606
蓦地	-10.4606
抢先	-10.4607
黯然销魂掌	-10.4608
定了	-10.4608
一筹	-10.4608
柔儿	-10.4609
书信	-10.4609
所谓	-10.461
苦苦	-10.4611
扇子	-10.4612
疾风	-10.4614
失望	-10.4615
虽不	-10.4616
第二个	-10.4617
破解	-10.4619
只剩下	-10.4621
室门	-10.4621
咱们走罢	-10.4621
应声	-10.4623
墙壁	-10.4623
偏生	-10.4624
寒气	-10.4628
每当	-10.463
何不	-10.463
动静	-10.463
之仇	-10.463
对答	-10.4632
逃命	-10.4632
山西	-10.4634
怒火	-10.4636
石梁	-10.4639
跟前	-10.4644
后院	-10.4646
不解	-10.4657
毒物	-10.4657
激得	-10.4659
行刺	-10.466
的法门	-10.466
也没甚么	-10.4664
刺向	-10.4668
毫无	-10.4673
的安危	-10.4674
小腿	-10.4676
日子	-10.4677
瞧不见	-10.4678
究竟	-10.4679
在桃花岛	-10.4679
损伤	-10.4681
忽而	-10.4684
在襄阳	-10.4684
行动	-10.4685
对面	-10.4687
之所	-10.4687
从来不	-10.469
将下去	-10.469
之理	-10.4692
顾念	-10.4692
谷底	-10.4692
内心	-10.4692
心念	-10.4693
刺中	-10.4707
亲热	-10.4709
古墓派的	-10.471
我在	-10.4717
递给	-10.4721
放着	-10.4726
决不肯	-10.4729
见他如此	-10.473
作了	-10.4732
伤他	-10.4736
送给	-10.474
大举	-10.4742
只是他	-10.4745
方向	-10.4747
等三人	-10.4749
作为	-10.4754
痛得	-10.476
大理	-10.476
奔来	-10.4767
想起自己	-10.4771
看到	-10.4773
便想	-10.4779
远去	-10.4782
不听	-10.4786
似有	-10.4788
都在	-10.4788
离去	-10.4789
竟无	-10.4795
剑鞘	-10.4797
仇人	-10.4798
幼女	-10.48
那化子	-10.4803
那位	-10.4804
抢过	-10.4808
缩回	-10.4811
三只	-10.4812
柄长剑	-10.4819
追来	-10.4822
左侧	-10.4826
这样一个	-10.4828
嗤的一声	-10.4831
道袍	-10.4831
潭中	-10.4831
能够	-10.4846
好人	-10.4846
打中了	-10.4849
这柄	-10.4851
余下	-10.4853
刺死	-10.4857
却仍是	-10.4865
自当	-10.4883
自己性命	-10.4885
一同	-10.4918
将小龙女	-10.4928
想想	-10.4928
站定	-10.4932
一出手	-10.4937
竟被	-10.4944
生出	-10.4948
一撑	-10.4949
幼小	-10.495
又叫	-10.4957
倒有	-10.4958
夺得	-10.496
这姑娘	-10.4962
限	-10.4965
杀死	-10.4975
加上	-10.4976
底下	-10.4981
却哪里	-10.4981
过后	-10.4982
白雪	-10.4983
说的是	-10.4988
可别	-10.4991
正想	-10.4991
你呢	-10.4992
原来她	-10.4995
的心思	-10.4996
逃出	-10.5009
我知道	-10.501
只是她	-10.5017
颤动	-10.5028
她身上	-10.5028
的心意	-10.5031
从来没	-10.5033
另外	-10.5035
不似	-10.5037
只见那	-10.5039
不是我	-10.5055
两柄长剑	-10.5065
姓名	-10.507
崖	-10.5071
跟在	-10.5078
为何	-10.5082
一命	-10.509
两个人	-10.5092
赤练仙子	-10.5099
凑	-10.51
就这么	-10.5101
几分	-10.5106
罩	-10.5107
练剑	-10.5115
委	-10.5121
的劲力	-10.5143
丹	-10.5163
有甚么好	-10.5168
那才	-10.5172
驴	-10.5174
怕他	-10.5174
怪客	-10.5175
所发	-10.5179
瞥	-10.5183
舟	-10.5186
猎	-10.5186
杨过等	-10.5188
又没	-10.5191
转念一想	-10.5192
的神情	-10.5192
置	-10.5193
室顶	-10.5195
也觉	-10.5197
扮	-10.5198
也曾	-10.5198
蜂	-10.5199
阁	-10.5203
婚	-10.5205
难解	-10.5206
赌	-10.521
莲	-10.521
纷	-10.5211
不难	-10.5211
十余丈	-10.5211
变幻	-10.5211
我给你	-10.5212
琴	-10.5213
再看	-10.5214
忠	-10.5214
渊	-10.5214
也均	-10.5216
里许	-10.5216
舒	-10.5216
虑	-10.5216
商	-10.5216
嘻嘻	-10.5216
滴	-10.5217
磨	-10.5217
议	-10.5217
逗	-10.5217
繁	-10.5218
全神贯注	-10.5218
州	-10.5218
肆	-10.5218
漏	-10.5218
渡	-10.5218
哄	-10.5218
囊	-10.5218
意料之外	-10.5218
希罕	-10.5218
轻飘飘的	-10.5218
金刚杵	-10.5218
米	-10.5218
惭愧	-10.5218
沾	-10.5218
矣	-10.5218
饭菜	-10.5218
缠绵	-10.5219
窥	-10.5219
吉	-10.5219
五毒神掌	-10.5219
一模一样	-10.5219
脸色惨白	-10.5219
将信将疑	-10.5219
张志光	-10.5219
南帝	-10.5219
剥	-10.5219
尊驾	-10.5219
野蜂	-10.5219
哭丧棒	-10.5219
惊心动魄	-10.5219
万料不到	-10.5219
郁郁	-10.5219
丑陋	-10.5219
小觑	-10.5219
童大海	-10.5219
惶急	-10.5219
愤怒	-10.5219
群豪	-10.522
饭铺	-10.522
具石棺	-10.522
注视	-10.522
乱成一团	-10.522
神仙	-10.5221
毒质	-10.5221
竭力	-10.5221
收拾	-10.5221
浓	-10.5222
横卧	-10.5222
半句	-10.5223
个不停	-10.5223
荒山	-10.5223
爹妈	-10.5223
偏偏	-10.5223
二妹	-10.5223
热血	-10.5224
稍有	-10.5224
不打紧	-10.5224
帮众	-10.5224
招式	-10.5225
苦楚	-10.5225
箱子	-10.5225
顺势	-10.5226
进境	-10.5227
吃亏	-10.5227
怨毒	-10.5227
绳子	-10.5227
山坡	-10.5228
再加上	-10.5228
柔情	-10.5228
花香	-10.5229
一倍	-10.5229
铁棒	-10.5229
微微冷笑	-10.5231
两句	-10.5231
不知她	-10.5231
胁下	-10.5231
胸间	-10.5232
先将	-10.5232
右脚	-10.5233
断折	-10.5233
两尺	-10.5234
隐身	-10.5234
雪白	-10.5234
话未说	-10.5234
身周	-10.5235
跌落	-10.5235
噗的一声	-10.5237
现身	-10.5238
拔剑	-10.5238
只震得	-10.5239
疾冲	-10.5239
失了	-10.524
前胸	-10.524
杨过见他	-10.5242
相差	-10.5243
活命	-10.5245
怒目	-10.5247
扑击	-10.5247
下毒手	-10.5249
猛力	-10.5253
俏	-10.5254
正色	-10.5255
倾听	-10.5256
睡着了	-10.5257
立足	-10.5258
三位	-10.5258
里面	-10.5259
提剑	-10.5261
离地	-10.5263
真情	-10.5266
合十	-10.5267
不已	-10.5268
深情	-10.5268
记着	-10.5268
高强	-10.5272
练武	-10.5276
之徒	-10.5277
表	-10.5277
小妹子	-10.5278
会意	-10.5279
使一招	-10.5279
寻到	-10.528
让你	-10.5283
那瘦丐	-10.5284
白发	-10.5284
这套	-10.529
引见	-10.5292
客人	-10.5296
抓着	-10.5296
灵便	-10.5298
不知如何是好	-10.5299
一辈	-10.53
平常	-10.53
已到了	-10.53
面子	-10.5302
爱女	-10.5303
料来	-10.5303
的孩子	-10.531
一味	-10.5312
三声	-10.5317
当然	-10.5318
往事	-10.5318
在石上	-10.5318
那矮子	-10.5322
哪一个	-10.5323
所伤	-10.5324
向东	-10.5327
好些	-10.5332
出神	-10.5333
城墙	-10.5336
对准了	-10.5337
全凭	-10.5337
上升	-10.5337
心惊	-10.5337
人多	-10.5338
这两人	-10.5339
如飞	-10.534
老子	-10.5341
衰	-10.5347
撞去	-10.5356
肘	-10.5361
抓去	-10.5363
洞穴	-10.5366
但随即	-10.537
外边	-10.5375
一套	-10.5376
这一路	-10.5381
回身	-10.5383
上有	-10.5384
结成	-10.5384
真人	-10.5389
缓缓的	-10.5389
▁如此	-10.5393
得起	-10.5395
柳	-10.5395
心法	-10.5404
▁黄蓉见	-10.5404
打听	-10.5408
又来	-10.541
传人	-10.5412
重阳宫中	-10.5415
过人	-10.5416
逐一	-10.5416
前去	-10.542
上面	-10.5422
掌上	-10.5425
所知	-10.5426
但此刻	-10.5427
小孩子	-10.543
说不出的	-10.5431
怀里	-10.5434
后殿	-10.544
爹爹妈妈	-10.5449
别过	-10.546
被杨过	-10.5462
压在	-10.5465
高出	-10.5467
不远	-10.5471
任他	-10.5476
在墓中	-10.5483
自此	-10.5483
更无	-10.5487
极大的	-10.5488
所以	-10.5488
偷了	-10.5496
来救	-10.5497
杨过摇头	-10.55
书房	-10.5506
拆解	-10.5515
宁	-10.5522
说甚么也	-10.5523
这中间	-10.5523
来攻	-10.5525
▁杨过见他	-10.5529
了进去	-10.5539
了大半	-10.554
接了	-10.5541
张渔网	-10.5545
道兄	-10.5553
▁哪知	-10.5557
大功	-10.556
虽非	-10.5565
难为	-10.5565
但自	-10.5566
传你	-10.557
万里	-10.5571
的遗	-10.5573
拳头	-10.5577
出门	-10.558
若能	-10.5581
十多	-10.5582
无所	-10.5584
着他	-10.5587
放手	-10.5593
神色间	-10.5594
去捉	-10.5598
自如	-10.5598
倒似	-10.5606
你要我	-10.5611
开城	-10.5612
却没	-10.5613
但那	-10.5617
两件	-10.5619
去救	-10.5637
喝骂	-10.5638
黄蓉等	-10.5642
作声	-10.5649
如是	-10.5653
又怕	-10.5654
还要	-10.5654
是天下	-10.5658
番	-10.5658
的穴道	-10.5682
剧	-10.5694
我还	-10.5703
匹	-10.5704
齐上	-10.5707
一瞥	-10.5713
手段	-10.5716
十来	-10.5718
斗了	-10.5721
抵敌	-10.5723
情景	-10.5753
掉下	-10.5758
呆呆	-10.5763
留着	-10.5769
入内	-10.5769
得甚	-10.5775
跃到	-10.5783
只见小龙女	-10.5789
还在	-10.5792
昂	-10.5796
虽有	-10.5805
我义父	-10.5806
的厉害	-10.5813
攀	-10.5816
怯	-10.5819
南下	-10.5819
半夜	-10.5825
将那	-10.5827
吼	-10.5829
挽	-10.5831
见到了	-10.5844
遮	-10.5847
忽觉	-10.585
株	-10.5851
容情	-10.5857
爬上	-10.5861
鳄	-10.5861
玉箫剑法	-10.5863
抢在	-10.5863
救他	-10.5865
一记	-10.5867
诈	-10.5872
下马	-10.5876
耻	-10.5876
葬	-10.5877
蹄	-10.5877
旋	-10.5877
糟	-10.5878
浓烟	-10.5878
伙	-10.588
绿衣弟子	-10.588
耶律	-10.588
绿衫	-10.588
征	-10.588
暗暗心惊	-10.5881
酣	-10.5881
被人	-10.5881
屏	-10.5881
丢	-10.5882
斟	-10.5882
孽	-10.5883
暂	-10.5883
徒弟	-10.5883
拗	-10.5883
博	-10.5883
特异	-10.5883
畏	-10.5884
牢	-10.5884
锐	-10.5884
鹿	-10.5884
氏	-10.5884
瓜	-10.5884
死里逃生	-10.5884
炸	-10.5884
出神入化	-10.5884
证	-10.5884
蒙古鞑子	-10.5884
爬起身来	-10.5884
锁	-10.5884
爆	-10.5884
默不作声	-10.5885
阔	-10.5885
淫贼	-10.5885
贪	-10.5885
骤	-10.5885
有什么	-10.5885
及得上	-10.5885
面面相觑	-10.5885
劣	-10.5885
踏上一步	-10.5885
啄	-10.5885
置之度外	-10.5885
丁	-10.5885
盆	-10.5885
役	-10.5885
萼儿	-10.5885
棘藤	-10.5885
偶尔	-10.5885
炉	-10.5885
敝帮	-10.5885
赤	-10.5885
芳	-10.5885
老天爷	-10.5885
旺	-10.5886
杨公子	-10.5886
江南七怪	-10.5886
冷汗	-10.5886
莽撞	-10.5886
惊骇	-10.5886
意中人	-10.5886
宏	-10.5886
丘师伯	-10.5886
邻	-10.5886
医治	-10.5886
两响	-10.5886
绝伦	-10.5887
顾忌	-10.5887
烛台	-10.5887
昔年	-10.5887
孤苦	-10.5888
叹息	-10.5888
花驴	-10.5888
惊惧	-10.5889
刷的一声	-10.5889
一生一世	-10.5889
年幼	-10.5889
只要他	-10.589
脸上变色	-10.589
提醒	-10.589
扰乱	-10.5891
躲避	-10.5891
树皮	-10.5891
竟也	-10.5891
猛虎	-10.5893
郭家	-10.5893
虎口	-10.5894
神像	-10.5895
脸现	-10.5895
楼梯	-10.5896
断臂	-10.5897
新娘子	-10.5897
嚷	-10.5898
误会	-10.5898
赤练仙子李莫愁	-10.5898
十余里	-10.5899
脸有	-10.59
断骨	-10.59
冷然	-10.5901
兵刃相交	-10.5904
刚猛	-10.5904
今后	-10.5905
不约而同的	-10.5905
处境	-10.5905
紧急	-10.5907
而论	-10.5908
奇妙	-10.5908
气闷	-10.5908
三次	-10.5908
射去	-10.5909
灵动	-10.5909
伤痛	-10.5909
两个孩子	-10.591
闯进	-10.591
▁这一日	-10.5911
松手	-10.5911
疾刺	-10.5912
这门	-10.5913
宝剑	-10.5914
一块大石	-10.5915
高声	-10.5915
攻击	-10.5916
定须	-10.5917
轻视	-10.5917
送命	-10.5917
世事	-10.5918
相思	-10.5918
猛击	-10.592
五指	-10.5921
两军	-10.5921
各路	-10.5921
那边	-10.5922
坟墓	-10.5922
交情	-10.5923
哪能	-10.5924
携着	-10.5925
不够	-10.5926
遥遥	-10.5928
教中	-10.5929
古人	-10.5929
来袭	-10.593
听话	-10.593
你跟	-10.5931
还礼	-10.5931
之境	-10.5932
与黄蓉	-10.5933
上乘	-10.5934
活死人墓中	-10.5935
躺在	-10.5936
下盘	-10.5937
关头	-10.5937
之计	-10.5937
斥责	-10.5937
甚么地方	-10.5939
相通	-10.5942
四个人	-10.5947
共有	-10.5948
淡淡	-10.595
为甚么要	-10.5951
老顽童周伯通	-10.5952
大惊之下	-10.5952
横梁	-10.5953
近前	-10.5954
柔软	-10.596
▁觉远	-10.5962
多日	-10.5963
向内	-10.5965
提着	-10.5968
连日	-10.5969
圈子	-10.597
面具	-10.5973
之位	-10.5974
没料到	-10.5976
内劲	-10.5977
攻襄阳	-10.598
你放心	-10.5984
路子	-10.5984
相信	-10.5991
发怒	-10.5993
▁杨过笑	-10.6001
倒地	-10.6002
竟没	-10.6002
尽头	-10.6008
之感	-10.6009
▁瑛姑	-10.6012
得出	-10.6013
一双	-10.6015
不闻	-10.6015
放入	-10.6019
以便	-10.602
自有	-10.6022
无情	-10.6027
恍然	-10.6039
使个	-10.6042
事情	-10.6042
不等	-10.6043
未免太	-10.6046
奔得	-10.6047
举剑	-10.6047
所见	-10.6051
钻出	-10.6052
山崖	-10.6053
阻住	-10.6055
饶你	-10.6058
天生	-10.607
下场	-10.607
围住	-10.6072
你好好	-10.6079
戴上	-10.6081
路上	-10.6083
趣	-10.609
转世	-10.6093
吐出	-10.6096
在那边	-10.6097
都好	-10.61
全没	-10.6102
大殿	-10.6103
看出	-10.6109
向我	-10.6117
这傻蛋	-10.612
击下	-10.6127
多时	-10.6133
暂且	-10.6134
砰的一	-10.6138
围攻	-10.6147
一举	-10.6148
这声音	-10.6154
一过	-10.6154
我才	-10.6158
在桌上	-10.6164
挥手	-10.6164
眼见杨过	-10.6167
百余	-10.6174
掌中	-10.6178
▁洪七公	-10.6182
说罢	-10.6185
用心	-10.6187
丐帮的	-10.62
一般的	-10.6207
阻挡	-10.6208
向郭襄	-10.6212
不相干	-10.6222
毒药	-10.6224
却听得	-10.6225
杀得	-10.6227
军马	-10.6232
望着杨过	-10.6232
他想	-10.6236
做甚么	-10.6242
望见	-10.6243
此时已	-10.6246
高深	-10.6253
你干么	-10.626
却将	-10.626
信了	-10.6263
却给	-10.6267
谁说	-10.6267
但郭靖	-10.6269
回房	-10.6269
拆了	-10.6271
睡了	-10.6282
清清楚楚	-10.6287
可是我	-10.6289
不行	-10.6294
便知	-10.6296
因为	-10.6297
你武功	-10.6306
出谷	-10.6306
想到了	-10.6309
一刀	-10.6313
的姑娘	-10.6317
无用	-10.6321
取了	-10.6328
在何处	-10.6328
学会	-10.6329
可见	-10.633
千人	-10.6335
散了	-10.6338
马上	-10.634
腕	-10.6345
贯	-10.6349
我可不	-10.6376
伤处	-10.638
谁都	-10.6384
矮子	-10.6385
可要	-10.6388
各处	-10.6395
四十	-10.6398
无光	-10.6399
再打	-10.6401
打中	-10.6402
知道自己	-10.6406
第一次	-10.641
打了个	-10.6412
了几次	-10.6413
大小	-10.6415
向南	-10.6422
只说	-10.6422
大人	-10.6423
了开去	-10.6426
一死	-10.6432
这招	-10.6435
没事	-10.6439
住口	-10.6446
和李莫愁	-10.6448
八九	-10.6449
筋斗	-10.6452
剑刺	-10.6454
这四人	-10.6471
第四	-10.6471
理睬	-10.6472
不自禁	-10.6475
急攻	-10.6478
比我	-10.6478
不肯说	-10.6489
那贵官	-10.6494
的掌力	-10.65
留在	-10.6502
剑光	-10.651
以及	-10.652
这功夫	-10.6521
件大事	-10.6524
何苦	-10.6525
日后再	-10.6528
纵上	-10.6529
没听见	-10.6537
她身子	-10.6538
蹄声	-10.6539
转眼	-10.654
即令	-10.6542
遥	-10.655
辨	-10.6551
数人	-10.6554
了良久	-10.6554
却要	-10.6557
实不知	-10.6566
拒	-10.6567
汗	-10.657
珠	-10.657
瞪	-10.657
尤	-10.6583
沿	-10.6583
蹲	-10.6586
斧	-10.6591
慨	-10.6591
鞋	-10.6591
立足不	-10.6592
焉	-10.6592
一行人	-10.6592
奋	-10.6593
昔	-10.6593
李	-10.6594
杆	-10.6594
我虽	-10.6594
默	-10.6595
郎	-10.6595
搏	-10.6595
丽	-10.6595
涉	-10.6596
巡	-10.6597
吻	-10.6597
枕	-10.6597
藏语	-10.6597
贺	-10.6597
哨	-10.6598
搅	-10.6598
悍	-10.6598
恭恭敬敬的	-10.6598
万人队	-10.6598
叙	-10.6599
牛鼻子	-10.6599
夕	-10.6599
青灵子	-10.6599
华山论剑	-10.6599
放声大哭	-10.6599
转过头来	-10.6599
雌雕	-10.6599
蜡烛	-10.6599
叔叔	-10.6599
慈悲	-10.6599
享	-10.6599
予	-10.6599
森森	-10.6599
掳	-10.6599
郭二姑娘	-10.6599
熏	-10.6599
何沅君	-10.6599
滞	-10.6599
裘老前辈	-10.6599
村	-10.66
韩	-10.66
返	-10.66
嘛	-10.66
鲁长老	-10.66
违抗	-10.66
肌肤	-10.66
舒畅	-10.66
讯息	-10.66
境界	-10.66
淋	-10.66
得干干净净	-10.66
瞬息之间	-10.66
镶	-10.66
悲愤	-10.66
不住口的	-10.66
世界	-10.66
咳	-10.66
断为两截	-10.66
纠缠	-10.66
解释	-10.66
到头来	-10.66
五毒秘传	-10.6601
朴	-10.6601
宾客	-10.6601
四肢	-10.6601
较量	-10.6601
忠义	-10.6601
站在一旁	-10.6601
绿衫弟子	-10.6601
原委	-10.6602
彩雪蛛	-10.6602
内脏	-10.6602
不测	-10.6602
投降	-10.6602
附近	-10.6602
转念又想	-10.6602
杨兄	-10.6603
计较	-10.6603
偷偷	-10.6603
颜色	-10.6603
爱惜	-10.6603
不碍事	-10.6603
务须	-10.6604
亲手	-10.6604
宛如	-10.6604
单凭	-10.6605
这门功夫	-10.6605
插口	-10.6605
瞧得明白	-10.6605
脑门	-10.6605
哀求	-10.6605
曲折	-10.6606
摇摇头	-10.6606
了他一眼	-10.6607
处置	-10.6607
万万不能	-10.6608
四尺	-10.6608
以免	-10.6608
尚且	-10.6609
瘦马	-10.6609
临敌	-10.661
子弟	-10.661
窗口	-10.6611
袭击	-10.6612
留神	-10.6612
神妙	-10.6614
老贼	-10.6614
越想越是	-10.6614
二次	-10.6614
此间	-10.6614
哪里还能	-10.6615
存心	-10.6615
十六年后	-10.6616
千里	-10.6616
亦不	-10.6617
打量	-10.6618
军中	-10.662
均觉	-10.662
放箭	-10.6621
满面	-10.6623
殿上	-10.6624
男人	-10.6624
精深	-10.6624
震动	-10.6625
长胡子	-10.6625
暗暗吃惊	-10.6626
蒙古军中	-10.663
后悔	-10.663
牵着	-10.6631
山坡上	-10.6631
回入	-10.6632
在终南山	-10.6633
架开	-10.6633
一咬牙	-10.6635
动武	-10.6635
途中	-10.6636
起初	-10.6637
奸人	-10.6638
花毒	-10.6638
镇上	-10.6639
待她	-10.664
怎敢	-10.664
惊奇	-10.6641
杖头	-10.6641
骗人	-10.6643
出现	-10.6643
情由	-10.6645
别来	-10.6646
石门	-10.6647
敌意	-10.6647
一振	-10.6648
喉头	-10.6656
轻声	-10.6658
地势	-10.6661
抛下	-10.6662
急跃	-10.6663
收回	-10.6664
轻重	-10.6664
有一位	-10.6664
传到	-10.6667
只用	-10.6668
桃花岛上	-10.6669
迫得	-10.6673
这时见	-10.6673
陷入	-10.6675
问他	-10.6676
说了出来	-10.6679
当面	-10.6679
相待	-10.6681
最多	-10.6681
令他	-10.6682
直击	-10.6683
醒来	-10.6684
制住	-10.6685
暗暗好笑	-10.6687
五六	-10.669
毒气	-10.6696
山洞中	-10.6696
在身上	-10.6697
刀子	-10.6702
永远不	-10.6706
以上	-10.6708
但愿	-10.6708
大王	-10.6712
若是我	-10.6712
那便是	-10.6714
好教	-10.6715
也决不能	-10.6716
好好的	-10.6716
毕生	-10.6722
我妹妹	-10.6723
周伯通笑	-10.6728
高处	-10.6728
为此	-10.674
还击	-10.674
相处	-10.6741
不轻	-10.6749
▁群雄	-10.675
水中	-10.6751
大哭	-10.6755
不妨	-10.6757
千斤	-10.6762
却有	-10.6764
这小姑娘	-10.6768
学过	-10.677
走啦	-10.6772
痛快	-10.6781
一分	-10.6783
攻到	-10.679
三剑	-10.6791
爱我	-10.6795
都有	-10.6798
日夜	-10.6802
有一股	-10.6806
累了	-10.681
之至	-10.6817
过得	-10.6818
一脚	-10.6818
极高	-10.6819
如此了得	-10.6822
害了	-10.6826
给他们	-10.6834
你干甚么	-10.6838
将起来	-10.6838
但要	-10.6842
不清	-10.6848
喝问	-10.6852
这谷主	-10.6854
水潭	-10.6854
但想到	-10.6856
麻雀	-10.6861
箫	-10.687
当胸	-10.6874
那晚	-10.6878
好意	-10.688
一碰	-10.6884
出了一	-10.6885
石上	-10.6889
下台	-10.689
武功虽然	-10.689
甚有	-10.6891
笑话	-10.6906
谁也不	-10.6906
你到底	-10.691
铁剑	-10.6914
数声	-10.6914
或是	-10.6916
你叫我	-10.6923
受人	-10.6924
劝他	-10.6927
哪一	-10.6929
余人	-10.6932
头脑	-10.6933
她既	-10.6941
助我	-10.6942
眼前这	-10.6946
枚玉蜂针	-10.6955
大乱	-10.6965
恶人	-10.6967
处穴道	-10.6974
却始终	-10.6977
回过	-10.698
日间	-10.698
固是	-10.6984
女孩儿	-10.6993
听了他	-10.6999
杀你	-10.6999
武林中的	-10.7
一是	-10.7011
我才不	-10.7015
这么大	-10.7021
正与	-10.7022
咱们再	-10.7029
脚底	-10.703
重又	-10.7034
害人	-10.7037
说着将	-10.7038
心生	-10.7038
甚为	-10.7041
却非	-10.7041
拿住	-10.7044
听到他	-10.7048
分心	-10.7069
我表妹	-10.7073
在蒙古	-10.7073
转念	-10.7087
再斗	-10.7089
奔上	-10.7091
打到	-10.7106
裙	-10.7113
提了	-10.7124
跟他们	-10.7128
渐感	-10.7135
晓	-10.7137
四位	-10.7141
十七	-10.7141
在手	-10.7143
眼见她	-10.7145
相同	-10.7148
大门	-10.7154
她知	-10.7157
四五	-10.716
坐骑	-10.7164
小龙女微笑	-10.7167
入口	-10.7173
全真教中	-10.7176
甚么人	-10.7182
一朵	-10.7187
挥掌	-10.7188
恍	-10.7191
大汉	-10.7196
藏僧	-10.7202
情状	-10.7203
开门	-10.7205
来回	-10.7208
不提	-10.7211
勒	-10.7212
怎么会	-10.7214
杨过喜	-10.722
石屋	-10.7224
冲天	-10.7228
一点也不	-10.7234
怎么又	-10.7236
实无	-10.7246
这一晚	-10.7248
随后	-10.7261
的剑法	-10.7265
的眼光	-10.727
一送	-10.7273
高明	-10.728
炕	-10.728
不甚	-10.7284
惊呼	-10.7291
院	-10.7299
都不	-10.7302
胆敢	-10.7305
台上	-10.7311
老妇	-10.7313
懂得	-10.7314
舒服	-10.7317
开心	-10.7318
不容	-10.7318
耳中	-10.7319
起落	-10.732
壁上	-10.7326
哪一位	-10.7326
已成	-10.7333
教人	-10.7337
省悟	-10.7338
已给	-10.7339
忙伸手	-10.7342
又听	-10.7343
技	-10.7343
卸	-10.7344
我大哥哥	-10.7345
已到	-10.7349
天罡北斗阵	-10.7353
请教	-10.7354
暗藏	-10.7355
瞧不出	-10.7356
刀法	-10.7357
景	-10.7359
搔	-10.7359
我怎	-10.736
王将军	-10.7361
在他身上	-10.7361
规	-10.7361
题	-10.7363
睡在	-10.7363
铜	-10.7363
拟	-10.7365
附	-10.7366
啼	-10.7366
暮	-10.7366
铁枪庙	-10.7366
级	-10.7367
万兽山庄	-10.7367
桩	-10.7367
锦	-10.7367
帖	-10.7367
愈来愈	-10.7368
沙通天	-10.7368
厌	-10.7368
咕	-10.7368
公孙先生	-10.7368
款	-10.7368
据	-10.7368
蕴	-10.7368
桥	-10.7368
精神大振	-10.7368
屑	-10.7368
泗水渔隐	-10.7368
醉	-10.7368
寿	-10.7368
憾	-10.7368
唔	-10.7368
盛怒之下	-10.7368
纳	-10.7368
乌	-10.7368
劫	-10.7368
小武哥哥	-10.7368
掘	-10.7368
莫名其妙	-10.7368
乞	-10.7368
屠	-10.7368
末	-10.7368
盈盈	-10.7368
柳叶刀	-10.7368
蒙古官兵	-10.7368
自言自语	-10.7368
破空之声	-10.7368
穆念慈	-10.7369
灵芝	-10.7369
一言不发	-10.7369
大胜关	-10.7369
价	-10.7369
粉	-10.7369
加快脚步	-10.7369
奏	-10.7369
呵	-10.7369
远胜	-10.7369
杨居士	-10.7369
飘逸	-10.7369
得远了	-10.7369
章	-10.7369
一时三刻	-10.7369
搓	-10.7369
严厉	-10.7369
悄声	-10.7369
我姑母	-10.7369
长须道人	-10.7369
韵	-10.7369
自忖	-10.7369
幅	-10.7369
咬牙切齿	-10.7369
碌	-10.7369
守御	-10.7369
荡荡	-10.7369
头下脚上	-10.7369
玄铁重剑	-10.7369
飒	-10.7369
秘诀	-10.7369
北极星位	-10.7369
呆了半晌	-10.737
戏弄	-10.737
圆球	-10.737
丐帮帮众	-10.737
木箱	-10.737
侣	-10.737
委屈	-10.737
昂首	-10.737
躺在地下	-10.737
轰轰	-10.737
夫妻俩	-10.737
充满了	-10.737
乘隙	-10.737
骇然	-10.737
差遣	-10.737
尺许	-10.737
秀眉微	-10.737
遭逢	-10.737
玉蜂蜜浆	-10.737
严密	-10.737
忽尔	-10.737
格格	-10.7371
斯文	-10.7371
容颜	-10.7371
柴草	-10.7371
女婿	-10.7371
巨岩	-10.7371
姓郭	-10.7372
毒辣	-10.7372
领悟	-10.7372
双翅	-10.7373
转眼间	-10.7373
慌乱	-10.7373
神智	-10.7373
不知怎的	-10.7373
禁不住	-10.7373
内力深厚	-10.7373
照顾	-10.7373
软鞭	-10.7373
号称	-10.7373
猜想	-10.7374
言辞	-10.7374
挡格	-10.7374
全仗	-10.7374
哭了出来	-10.7374
老弟	-10.7374
爱怜	-10.7374
老叫化	-10.7376
火堆	-10.7377
定有	-10.7377
不住的	-10.7378
拚斗	-10.7378
无耻	-10.7379
吃惊	-10.738
不知不觉	-10.738
三妹	-10.738
上乘武功	-10.738
修练	-10.738
按理	-10.7382
今儿	-10.7384
惊异	-10.7384
是何用意	-10.7384
乱石阵	-10.7386
治伤	-10.7386
一动也不动	-10.7387
听到这里	-10.7388
惨然	-10.7388
之状	-10.7388
令爱	-10.7388
午后	-10.7388
放松	-10.7388
岛上	-10.7389
小红马	-10.7389
团团	-10.7389
胜得过	-10.7389
何人	-10.7389
相迎	-10.739
这副	-10.739
敌兵	-10.7391
再也不敢	-10.7392
捣乱	-10.7392
亲口	-10.7392
叮叮	-10.7392
刷的一	-10.7392
白须	-10.7393
李莫愁冷笑	-10.7393
伸手接住	-10.7395
杨过微笑	-10.7396
法儿	-10.7397
起伏	-10.7398
哭声	-10.7399
拚着	-10.7399
绝招	-10.74
抚着	-10.74
指挥	-10.74
都是一惊	-10.7402
自恃	-10.7402
书法	-10.7403
红花	-10.7403
潜心	-10.7404
笑了笑	-10.7404
那官员	-10.7404
只吓得	-10.7405
不敢怠	-10.7407
才智	-10.7408
正欲	-10.7408
火势	-10.741
营帐	-10.7411
想像	-10.7414
一愕	-10.7415
不凡	-10.7415
水面	-10.7415
二字	-10.7416
巨石	-10.7416
负着	-10.7422
在道上	-10.7422
▁梁长老	-10.7423
草丛中	-10.7423
怎么啦	-10.7424
你当真	-10.7424
鼻中	-10.7425
二女	-10.7425
射出	-10.7427
大殿上	-10.7428
树林中	-10.743
相接	-10.7432
那弟子	-10.7436
向自己	-10.7437
何时	-10.7437
一堆	-10.7439
自创	-10.7439
服食	-10.744
三日	-10.7444
下马来	-10.7447
之恩	-10.7447
也不怕	-10.7448
你是谁	-10.7448
你怎么啦	-10.7449
的背影	-10.7449
所料	-10.7449
两边	-10.745
四方	-10.745
直刺	-10.7451
等情	-10.7452
众多	-10.7452
称为	-10.7453
无怪	-10.7458
近处	-10.746
拉住了	-10.746
钻入	-10.7462
放你	-10.7462
弟弟	-10.7469
容让	-10.747
上当	-10.7471
心经	-10.7473
抬起	-10.7473
大丑	-10.7476
郭靖等	-10.7479
坐起	-10.748
自觉	-10.7481
于此	-10.7485
他父亲	-10.7486
小女	-10.749
犯了	-10.749
名道人	-10.7491
晚间	-10.7494
死命	-10.7497
武三通等	-10.7505
极快	-10.7506
料到	-10.7508
却似	-10.751
回家	-10.7516
出去罢	-10.7516
解开了	-10.7517
李莫愁见	-10.7517
大英雄	-10.7525
所授	-10.753
一紧	-10.7532
让路	-10.7539
挡住了	-10.7543
不平	-10.7549
回手	-10.7554
尽可	-10.7555
好兄弟	-10.7556
极重	-10.7556
回剑	-10.7561
她老人家	-10.7563
足下	-10.757
剑身	-10.7573
自己却	-10.7576
金丝	-10.7583
说不得	-10.7588
中年	-10.759
只叫	-10.7591
打落	-10.7592
不久便	-10.7597
所使的	-10.7598
手腕上	-10.7601
上天	-10.7602
小事	-10.7602
也即	-10.7604
稍一	-10.7605
一阵阵	-10.7605
的日子	-10.7608
爬起	-10.761
强劲	-10.7611
信中	-10.7611
老是	-10.7613
长老	-10.7613
已不过	-10.7616
除去	-10.7618
的父亲	-10.7624
了半日	-10.7628
微有	-10.7631
瞧在	-10.7637
出外	-10.7639
郭芙与武氏兄弟	-10.764
击向	-10.7651
大火	-10.7652
与法王	-10.7655
小龙女见他	-10.7658
手指上	-10.7662
这般说	-10.7663
也非	-10.7667
教她	-10.7667
那倒	-10.768
便会	-10.7681
点中	-10.7682
哪里有	-10.7683
现下我	-10.7685
疾驰	-10.7693
使力	-10.7693
一回	-10.7697
得这般	-10.7704
虽不能	-10.7706
大海	-10.7712
哪知杨过	-10.7713
人品	-10.7713
花树	-10.7722
要找	-10.7728
奇了	-10.7736
不识得	-10.7746
应付	-10.7747
的脸色	-10.7749
两枚	-10.7761
终南山上	-10.7761
助他	-10.7762
向赵志敬	-10.7767
攻上	-10.7768
定神	-10.7772
杨过奇	-10.7774
小龙女与杨过	-10.7774
不喜	-10.7774
你怎地	-10.7775
半点也	-10.7776
你这么	-10.7783
也只有	-10.7784
掉了	-10.7785
你在这里	-10.7786
均感	-10.7787
我和你	-10.7789
一沉	-10.779
写了	-10.779
要知	-10.7797
与周伯通	-10.7799
住手	-10.781
份	-10.7811
命他	-10.7827
难分	-10.7839
一遍	-10.784
品	-10.784
睁眼	-10.7842
不受	-10.7854
难道还	-10.7861
大力	-10.7865
身受	-10.7868
批	-10.787
真要	-10.7874
的打狗棒法	-10.788
说出来	-10.7882
火烧	-10.7897
而为	-10.7905
呆了	-10.7926
一二	-10.7939
果见	-10.794
命在	-10.7945
响声	-10.7948
大难	-10.7949
本是	-10.7951
有字	-10.7967
就似	-10.7973
怒喝	-10.7977
仍不	-10.798
同来	-10.7986
虽见	-10.7993
想着	-10.7999
微感	-10.8004
南方	-10.8008
不离	-10.8014
飞来	-10.8016
拿来	-10.8022
一曲	-10.8029
百年	-10.8031
与潇湘子	-10.8037
马缰	-10.804
有气	-10.8061
所有	-10.8061
话中	-10.8063
果是	-10.8063
两人都	-10.8064
去寻	-10.8065
没见到	-10.8068
罪过	-10.8069
墙上	-10.8088
甚么话	-10.8091
稳稳	-10.8094
与金轮法王	-10.8108
跟他说	-10.8111
失声	-10.8119
向陆无双	-10.8131
这不是	-10.8133
花轿	-10.8138
了多少	-10.8138
这少女	-10.8151
心爱	-10.8152
太多	-10.8158
大异	-10.8158
红晕	-10.8161
人心	-10.8164
叮	-10.8169
鞍	-10.817
未及	-10.8177
谓	-10.8177
敝	-10.8178
荒谷	-10.818
少妇	-10.818
歹	-10.8181
窍	-10.8183
侍	-10.8186
床边	-10.8186
凝视着	-10.8187
质	-10.8188
▁眼见	-10.8189
踪	-10.8192
玄	-10.8192
贴	-10.8193
爽	-10.8194
荒	-10.8194
适	-10.8194
凄	-10.8194
江	-10.8195
宣	-10.8196
疲	-10.8196
鲜	-10.8196
桨	-10.8197
佩	-10.8197
挫	-10.8197
扳	-10.8197
悦	-10.8197
勿	-10.8197
巅	-10.8197
辣	-10.8198
酸软	-10.8199
轿	-10.8199
这女魔头	-10.82
臂膀	-10.8201
戒	-10.8201
龙象般若功	-10.8201
仆	-10.8201
挣	-10.8201
哑	-10.8201
促	-10.8201
唐	-10.8201
沸	-10.8201
译	-10.8201
御敌	-10.8201
武老伯	-10.8201
-------------	-10.8201
荣	-10.8201
的一声叫了出来	-10.8201
移魂大法	-10.8201
陆氏夫妇	-10.8201
夸	-10.8201
选	-10.8201
四面八方	-10.8202
灵机一动	-10.8202
墨	-10.8202
千军万马	-10.8202
杰	-10.8202
恕	-10.8202
挚	-10.8202
玉箫	-10.8202
熟悉	-10.8202
肃	-10.8202
九阳真经	-10.8202
诡计多端	-10.8202
手下留情	-10.8202
机括	-10.8202
樊	-10.8202
庞	-10.8202
金铃索	-10.8202
碧	-10.8202
讲究	-10.8202
庆	-10.8202
阻拦	-10.8202
盘旋	-10.8202
冈	-10.8202
端倪	-10.8202
纵声长啸	-10.8202
▁说话之间	-10.8202
屎	-10.8202
涛	-10.8202
卓绝	-10.8202
玎玎	-10.8202
腻	-10.8202
典	-10.8203
娇艳	-10.8203
翼	-10.8203
肌肉	-10.8203
性命难保	-10.8203
单打独斗	-10.8203
诀窍	-10.8203
诛	-10.8203
献	-10.8203
嫣然一笑	-10.8203
萨多	-10.8203
拙夫	-10.8203
姊妹俩	-10.8203
衣钵	-10.8203
荒僻	-10.8203
昨日	-10.8203
赛	-10.8203
供	-10.8203
厮守	-10.8203
两枚银针	-10.8203
激烈	-10.8203
凄苦	-10.8204
两位居士	-10.8204
接任掌教	-10.8204
冒险	-10.8204
清脆	-10.8204
二姊	-10.8204
呼哨	-10.8204
喜悦	-10.8204
挂怀	-10.8204
武学之士	-10.8204
激荡	-10.8205
觅路	-10.8205
奸计	-10.8205
灰影	-10.8205
金球	-10.8205
歹毒	-10.8205
保护	-10.8205
天下无双	-10.8205
杨爷	-10.8205
峭壁	-10.8205
救援	-10.8206
害羞	-10.8206
性格	-10.8206
猛烈	-10.8206
小孩	-10.8206
麻木	-10.8207
独臂	-10.8207
死去	-10.8207
折辱	-10.8207
娇美	-10.8207
毒砂	-10.8207
侠义	-10.8207
转身便走	-10.8207
深陷	-10.8207
甘愿	-10.8207
颜面	-10.8207
抗拒	-10.8208
木屋	-10.8209
贴身	-10.8209
母女	-10.8209
到了何处	-10.8209
今年	-10.8209
令尊	-10.821
千万不可	-10.821
字迹	-10.821
两个儿子	-10.821
成婚	-10.821
鞋子	-10.8211
催动	-10.8211
小姐	-10.8211
愁苦	-10.8211
咱两个	-10.8211
一般无异	-10.8212
又是好笑	-10.8212
名号	-10.8212
望一眼	-10.8213
男儿	-10.8213
相逢	-10.8213
称呼	-10.8213
莫怪	-10.8214
侍从	-10.8214
胜负	-10.8214
温言	-10.8215
负在背	-10.8215
揭开	-10.8215
阴毒	-10.8215
毒计	-10.8216
精兵	-10.8216
守军	-10.8216
震断	-10.8216
这位前辈	-10.8217
哼哼	-10.8217
口音	-10.8218
好歹	-10.8218
殊无	-10.8218
为妻	-10.822
尖刀	-10.822
无穷	-10.822
逃脱	-10.822
两片	-10.8221
轻灵	-10.8221
长辈	-10.8221
石窟中	-10.8221
隐没	-10.8222
鼻子	-10.8222
左拳	-10.8222
性情	-10.8222
怔怔的望着	-10.8223
挂着	-10.8223
国家	-10.8224
说一句	-10.8224
甘心	-10.8224
扑通	-10.8225
棺中	-10.8226
不妥	-10.8226
尽管	-10.8226
老大	-10.8226
舍身	-10.8226
马蹄声	-10.8226
好端端的	-10.8227
恶念	-10.8227
发抖	-10.8228
逼近	-10.8228
传令	-10.8228
流血	-10.8228
接应	-10.8229
找不到	-10.823
小辈	-10.8231
年纪轻轻	-10.8231
鳄潭	-10.8232
虚实	-10.8232
远离	-10.8232
长臂	-10.8234
对敌	-10.8235
推拿	-10.8235
行到	-10.8235
观斗	-10.8237
护身	-10.8237
我问你	-10.8237
流露出	-10.8238
不见了	-10.8238
怒色	-10.8239
家数	-10.8239
全神	-10.8239
对己	-10.8241
在他肩头	-10.8243
力大	-10.8243
放在心上	-10.8244
女的	-10.8245
猎人	-10.8245
窗下	-10.8246
坏人	-10.8247
未得	-10.8249
异状	-10.825
块牛肉	-10.825
每个	-10.8251
探子	-10.8253
用手指	-10.8255
之故	-10.8255
小贱人	-10.8257
当今	-10.8257
变成了	-10.8259
挥舞	-10.826
换了	-10.826
心存	-10.8261
那贵公子	-10.8262
后辈	-10.8263
求情	-10.8264
在床上	-10.8266
报答	-10.8266
不停	-10.8268
弹出	-10.8268
同行	-10.8269
裹住	-10.8274
牵了	-10.8274
在绝情谷中	-10.8275
姑	-10.8277
击刺	-10.8278
极强	-10.8278
▁那女郎	-10.8279
未定	-10.828
窑洞	-10.8282
夹击	-10.8282
乱走	-10.8283
时光	-10.8284
斗口	-10.8284
好像	-10.8285
相求	-10.8285
身体	-10.8286
我跟你	-10.8294
有点儿	-10.8296
安稳	-10.8299
这一脚	-10.8301
两人一齐	-10.8302
数步	-10.8303
何用	-10.8308
也不禁	-10.8308
定能	-10.831
重行	-10.8311
两招	-10.8311
使的是	-10.8312
后退	-10.8318
屋顶上	-10.8319
十个	-10.832
将军	-10.8321
抛去	-10.8322
居住	-10.8329
言语中	-10.8329
但说	-10.833
观看	-10.8332
场中	-10.8337
如风	-10.8338
不假	-10.8339
百出	-10.8339
二子	-10.8339
不止	-10.834
追到	-10.834
凭你	-10.8341
之女	-10.8341
一试	-10.8342
吃得	-10.8342
顺着他	-10.8343
这矮子	-10.8344
连刺	-10.8345
只要你	-10.8346
冰冷	-10.8347
第二人	-10.835
大祸	-10.8351
除下	-10.8355
放眼	-10.8355
嗤	-10.8357
▁杨过与小龙女	-10.8358
动怒	-10.8359
陪你	-10.8359
说出	-10.8363
的本领	-10.8363
有甚么用	-10.8364
成一团	-10.8365
回想	-10.8366
未能	-10.8373
勒马	-10.8374
去世	-10.8375
撞得	-10.8377
岂是	-10.838
不善	-10.838
他小腹	-10.8384
跟我来	-10.8384
无意	-10.8386
实则	-10.8389
不放在心上	-10.839
必须	-10.8404
缠住	-10.8408
知是	-10.841
被她	-10.841
杀着	-10.8411
▁郝大通	-10.8411
两个道人	-10.8411
生得	-10.842
处所	-10.842
可比	-10.842
运内力	-10.8433
不开	-10.8435
杨过怒	-10.8437
骂人	-10.8437
先后	-10.844
这种	-10.844
一变	-10.8441
一千	-10.8442
坏了	-10.8444
多谢你	-10.8445
料定	-10.8445
没人	-10.845
骑了	-10.8451
家里	-10.8454
哪里还有	-10.846
见她神色	-10.8462
惊得	-10.8463
她一生	-10.8463
甚高	-10.8464
夺下	-10.8464
话来	-10.8467
都给	-10.8468
千万别	-10.8469
夺去	-10.8471
一丈	-10.8486
叫人	-10.8489
十三	-10.849
名家	-10.8498
果真	-10.8499
号角	-10.8504
不认	-10.8505
要请	-10.8509
不理会	-10.8517
反正我	-10.8521
就能	-10.8522
一直在	-10.8528
中指	-10.8542
做得	-10.8543
万一	-10.8543
去见	-10.8544
未到	-10.8545
厅中	-10.8548
穿上	-10.8548
我把	-10.8555
现出	-10.8556
若在	-10.8561
此生	-10.8572
嗤的一	-10.8587
的孩儿	-10.8604
就会	-10.8608
最是	-10.8609
避开了	-10.8611
骂了	-10.8618
刚好	-10.8619
远在	-10.8622
焦躁	-10.8623
的手法	-10.8627
和赵志敬	-10.8635
要将他	-10.8637
郭芙叫	-10.8639
又过	-10.864
将养	-10.8647
山顶	-10.8652
杀了他	-10.8655
不舍	-10.8655
这时候	-10.8656
也未	-10.8657
▁那人	-10.8664
石窟	-10.8667
他怕	-10.8668
存了	-10.8675
爷爷	-10.8677
难道是	-10.868
她父母	-10.8689
树丛	-10.8689
又如何	-10.869
大意	-10.8694
在石	-10.8698
所说的	-10.8699
不加	-10.8703
急步	-10.8714
垂下	-10.8717
你为甚么	-10.8719
并没	-10.8719
白纸	-10.872
恨我	-10.8724
总有	-10.8729
的那个	-10.8733
入城	-10.8733
甚重	-10.8737
也不致	-10.8742
借了	-10.8743
又觉	-10.8743
了十	-10.875
居然还	-10.8756
一刻	-10.8759
丛中	-10.8759
不乐	-10.8761
你说我	-10.8765
嗡嗡之声	-10.8766
鞘	-10.8772
弄得	-10.8772
后着	-10.8777
猛攻	-10.8778
须得先	-10.878
光明	-10.8781
杯酒	-10.8781
都想	-10.8788
免	-10.8789
心想自己	-10.879
又行	-10.8795
骗你	-10.8798
竟要	-10.8807
二位	-10.8812
撞到	-10.8812
就请	-10.8814
我怕	-10.8827
瞧那	-10.8834
晕倒	-10.8838
恶狠狠的	-10.8841
在侧	-10.8849
三十六	-10.8856
瞪着	-10.8868
谷口	-10.8876
冲到	-10.888
蜂群	-10.8882
洞外	-10.8883
的轻功	-10.8885
自然也	-10.8893
与公孙止	-10.8893
大急	-10.8896
刺伤	-10.8897
名道士	-10.8897
左眼	-10.8899
中剑	-10.8904
向公孙止	-10.8907
你们要	-10.8913
大起	-10.8917
怎不	-10.8923
插在	-10.8924
倘若我	-10.8931
步步	-10.8931
跟她说	-10.8938
只知	-10.8949
一封	-10.8951
一想到	-10.8954
不透	-10.8955
已瞧出	-10.8966
迟了	-10.8981
点儿	-10.8987
虽说	-10.8989
占了	-10.899
隐隐有	-10.899
与武氏兄弟	-10.8993
勇士	-10.8994
光闪烁	-10.8994
石墓	-10.9012
伸手到	-10.9019
股	-10.9021
羽	-10.9022
向周伯通	-10.9031
凭着	-10.9035
无仇	-10.9038
人才	-10.9042
竟是如此	-10.9045
遥望	-10.9056
睡罢	-10.9058
年纪虽	-10.9062
一只大	-10.9063
双足一	-10.9063
电	-10.9064
贸然	-10.9064
恃	-10.9067
去找他	-10.9067
剩	-10.9071
长草	-10.9071
喀喇	-10.9072
寒玉	-10.9075
纵有	-10.9081
岛	-10.9082
榻	-10.9086
妖	-10.9088
贱	-10.909
市	-10.9093
不走	-10.9094
慈	-10.9094
当众	-10.9098
球	-10.9099
之伤	-10.91
耳边	-10.91
记挂	-10.91
你怎知	-10.9102
称赞	-10.9102
殴	-10.9102
概	-10.9103
十九	-10.9103
权	-10.9103
想念	-10.9104
循	-10.9105
出厅	-10.9105
户	-10.9105
歉	-10.9106
熄	-10.9106
盈	-10.9107
旁观	-10.9107
奶	-10.9108
迁	-10.9108
躁	-10.9108
恰到好处	-10.9108
统	-10.9109
兄嫂	-10.9109
纠	-10.9109
医	-10.9109
泉	-10.9109
站直身子	-10.9109
班	-10.911
奈	-10.911
暴躁	-10.911
秃	-10.911
魄	-10.911
晨	-10.911
老婆子	-10.911
相视一笑	-10.911
玄功	-10.911
冬	-10.911
那老丐	-10.911
活在世上	-10.911
崔志方	-10.911
煞神鬼	-10.911
情是何物	-10.911
帝	-10.911
低下头来	-10.911
跃起身来	-10.911
车	-10.911
蜂巢	-10.911
身不由主的	-10.911
狂怒之下	-10.911
痕	-10.911
庭	-10.911
绵绵	-10.911
无恙	-10.9111
眸	-10.9111
伸了伸舌头	-10.9111
余暇	-10.9111
厌憎	-10.9111
昏昏沉沉	-10.9111
栽	-10.9111
绘	-10.9111
洒	-10.9111
糖	-10.9111
屁	-10.9111
砰嘭	-10.9111
梳	-10.9111
狐狸	-10.9111
掌柜的	-10.9111
鲜血淋漓	-10.9111
得心应手	-10.9111
迷惘	-10.9111
捡	-10.9111
寂静无声	-10.9111
荆	-10.9111
暗暗称奇	-10.9111
澄	-10.9111
呐喊	-10.9111
泪珠	-10.9111
颠三倒四	-10.9111
想法子	-10.9111
面颊	-10.9111
少林寺	-10.9111
蓝	-10.9111
汤	-10.9111
潇湘子和尹克西	-10.9111
胡言乱语	-10.9111
鲁老伯	-10.9111
不守信约	-10.9111
禀告	-10.9111
痴痴的	-10.9111
凿	-10.9111
堪堪	-10.9111
怒气勃发	-10.9111
钦服	-10.9111
亢	-10.9111
得胜	-10.9111
赤手空拳	-10.9111
郭大爷	-10.9111
弥	-10.9111
见识见识	-10.9111
达尔巴和霍都	-10.9111
脸如死灰	-10.9111
调匀	-10.9111
零	-10.9111
哎唷	-10.9111
站立不稳	-10.9111
跳起身来	-10.9111
产	-10.9111
孝	-10.9111
全心全意	-10.9111
占了便宜	-10.9111
骇异	-10.9112
我姑丈	-10.9112
臻	-10.9112
冻	-10.9112
遥遥望见	-10.9112
憎恨	-10.9112
肋骨	-10.9112
铁掌水上飘	-10.9112
匹马	-10.9112
支撑	-10.9112
又有何用	-10.9112
二十八宿大阵	-10.9112
奴	-10.9112
伸手去接	-10.9112
店小二	-10.9112
情急之下	-10.9112
为国为民	-10.9112
易如反掌	-10.9112
一步步的	-10.9112
廿	-10.9112
霜	-10.9112
作恶多端	-10.9112
妙策	-10.9112
奈何不了	-10.9112
脸上微微一红	-10.9112
智计	-10.9112
一跃而起	-10.9112
祖宗	-10.9112
思潮起伏	-10.9112
海潮	-10.9112
冤枉	-10.9112
旗杆	-10.9112
污泥	-10.9112
鼻息	-10.9113
躬身行礼	-10.9113
巡视	-10.9113
心念一转	-10.9113
服侍	-10.9113
事到临头	-10.9113
尹师弟	-10.9113
争吵	-10.9113
厮杀	-10.9113
辛苦	-10.9113
吸一口气	-10.9113
心神不定	-10.9113
寸许	-10.9113
并列	-10.9113
皮帽	-10.9113
装束	-10.9114
齐声惊呼	-10.9114
寻觅	-10.9114
利刃	-10.9114
勉力	-10.9114
神技	-10.9114
醒悟	-10.9114
英雄帖	-10.9114
英雄宴	-10.9114
烛光	-10.9114
缘故	-10.9114
影踪不见	-10.9114
爱妻	-10.9115
讥刺	-10.9115
师叔祖	-10.9115
一动不动	-10.9115
啪的一声	-10.9115
徒孙	-10.9115
掉在地下	-10.9115
公平	-10.9115
快捷	-10.9116
好生奇怪	-10.9116
瞪视	-10.9116
红烛	-10.9116
恶女人	-10.9116
臂上	-10.9117
默然	-10.9117
稍减	-10.9117
上乘功夫	-10.9117
陆姑娘	-10.9117
了几遍	-10.9117
搏击	-10.9117
激射	-10.9118
恼恨	-10.9118
马匹	-10.9118
凶恶	-10.9119
三个化子	-10.9119
屋角	-10.9119
满心	-10.9119
碰撞	-10.9119
高僧	-10.9119
呆呆的望着	-10.9119
蒙古军官	-10.9119
黑烟	-10.9119
一株大树	-10.9119
最厉害的	-10.912
背负	-10.912
大姊	-10.912
铁钟	-10.912
悲苦	-10.912
众百姓	-10.912
大声呼喝	-10.9121
干系	-10.9121
常常	-10.9121
极厉害的	-10.9121
一十六年	-10.9121
形容	-10.9121
耳光	-10.9122
正宗	-10.9122
在左近	-10.9123
拔出长剑	-10.9123
南北	-10.9123
不在乎	-10.9123
师尊	-10.9124
了个空	-10.9124
两银子	-10.9124
中神通	-10.9124
沉沉	-10.9124
耳目	-10.9124
沉思	-10.9124
伤得	-10.9125
身披	-10.9126
听得清清楚楚	-10.9126
礼物	-10.9126
淡然	-10.9126
我和姑姑	-10.9127
左颊	-10.9127
板门	-10.9128
一缩	-10.9128
为伴	-10.9128
白眉	-10.9128
鼓掌	-10.9129
而入	-10.9129
市镇	-10.9129
老兄	-10.9129
行径	-10.9129
惟有	-10.913
束手	-10.913
钟声	-10.913
相抵	-10.913
眉间	-10.913
格开	-10.913
受了伤	-10.913
深入	-10.9131
偷学	-10.9131
风吹	-10.9131
忧急	-10.9131
立刻	-10.9131
瓶子	-10.9132
假意	-10.9132
大师父	-10.9132
怪物	-10.9132
痛哭	-10.9132
接骨	-10.9132
那男孩	-10.9132
举步	-10.9133
观战	-10.9133
负伤	-10.9133
雪花	-10.9134
接战	-10.9134
仗着	-10.9135
回桃花岛	-10.9136
半步	-10.9136
如何是好	-10.9136
低微	-10.9137
劲敌	-10.9137
行止	-10.9138
几欲	-10.9138
国师	-10.9138
挥拂尘	-10.9138
腰里	-10.9138
桌子	-10.9139
痛苦	-10.9139
娘子	-10.9139
恶鬼	-10.9139
运转	-10.9139
这份	-10.9139
恨不得	-10.914
军情	-10.9141
相护	-10.9141
运力	-10.9141
养伤	-10.9141
喜色	-10.9142
真经	-10.9142
搂住	-10.9143
当前	-10.9143
在城头	-10.9144
垂手	-10.9145
然则	-10.9147
就死	-10.9147
眼色	-10.9149
名满	-10.9149
暗喜	-10.9151
清水	-10.9151
时机	-10.9152
年纪比	-10.9152
喜爱	-10.9155
蜂子	-10.9156
一匹	-10.9156
不再说话	-10.9157
二十余年	-10.9157
扬起	-10.9158
会神	-10.9159
宫中	-10.916
守得	-10.9161
外敌	-10.9162
不尽	-10.9163
▁当晚	-10.9163
长箭	-10.9163
胡乱	-10.9164
回思	-10.9165
▁猛听得	-10.9165
这几位	-10.9165
径向	-10.9167
救治	-10.9167
郭靖与黄蓉	-10.9167
凡是	-10.9168
讨好	-10.917
瞧清楚	-10.9171
如雷	-10.9172
山边	-10.9173
堂上	-10.9174
听了这几句话	-10.9176
宛	-10.9177
随身	-10.9178
受重伤	-10.918
直立	-10.9182
三掌	-10.9183
尹克西等	-10.9184
松开	-10.9186
斜身	-10.9186
舍却	-10.9188
往日	-10.919
两半	-10.919
无双	-10.9191
围着	-10.9191
他的手臂	-10.9192
声名	-10.9193
也不以为意	-10.9194
和瑛姑	-10.9194
深山	-10.9195
越高	-10.9196
下得	-10.9198
睁大	-10.9202
平和	-10.9206
莫说	-10.9206
席上	-10.9206
苦于	-10.9207
真相	-10.9209
让他们	-10.9209
莫要	-10.9211
斗地	-10.9213
乱石	-10.9217
黄蓉夫妇	-10.9218
直冲	-10.922
追问	-10.9222
深处	-10.9225
出世	-10.9226
▁武三娘	-10.9226
今日之事	-10.9226
不利	-10.9227
领着	-10.9233
李莫愁拂尘	-10.9237
闪烁	-10.9238
▁陆立鼎	-10.9239
喀的一	-10.9246
忽听身后	-10.9246
一个多时辰	-10.9249
将上来	-10.925
盼他	-10.9252
委实	-10.9252
一共	-10.9257
剪断	-10.9257
伤感	-10.9259
安睡	-10.926
多言	-10.9261
千百	-10.9261
钟底	-10.9262
你怎知道	-10.9264
中夜	-10.9268
原也	-10.9268
的来历	-10.9269
近身来	-10.927
又怎样	-10.9271
▁群道	-10.9276
雄雕	-10.9281
便欲	-10.9283
枉自	-10.929
下山去	-10.929
便是要	-10.9291
桨柄	-10.9296
哭得	-10.9298
▁李莫愁见	-10.9299
听听	-10.9305
如山	-10.9305
虫	-10.9306
交好	-10.9308
北上	-10.9316
天空	-10.9317
天色渐	-10.9319
跟我们	-10.9329
庙中	-10.9329
在古墓	-10.9331
意欲	-10.9333
快些	-10.9341
见物	-10.9346
千余	-10.9348
此次	-10.9349
了几句	-10.9349
在前	-10.935
乘马	-10.9352
那老顽童	-10.9353
人数	-10.9358
小龙女微微一笑	-10.9358
有伤	-10.9359
算来	-10.9359
的身份	-10.9368
一丛	-10.9373
战阵	-10.9376
灭了	-10.9379
却听	-10.9383
转为	-10.9387
甚是得意	-10.9397
了结	-10.9399
说得是	-10.94
四只	-10.94
再要	-10.94
一世	-10.9402
片刻间已	-10.9404
回进	-10.9406
剑头	-10.9407
这几句	-10.9409
▁武敦儒	-10.9411
向耶律齐	-10.9418
所指	-10.9418
横蛮	-10.9424
黄蓉微微一笑	-10.943
死战	-10.9431
无疑	-10.9434
嫩	-10.9445
有丝毫	-10.945
替他	-10.9452
纵是	-10.9453
在嘉兴	-10.9464
一事	-10.9465
说些	-10.9467
好极	-10.9468
人间	-10.947
令兄	-10.9474
惊吓	-10.9477
重大	-10.9481
有限	-10.9481
一翻	-10.9486
小女儿	-10.9486
赶上	-10.949
见见	-10.9492
你不肯	-10.9493
去找寻	-10.9495
着急	-10.9502
登时将	-10.9509
我干么	-10.9518
点去	-10.9519
削去	-10.9521
严守	-10.9533
毁了	-10.9536
变得	-10.9541
有人叫	-10.9556
叫了起来	-10.9576
一按	-10.9579
的念头	-10.9583
刺入	-10.9584
那是谁	-10.9584
无怨	-10.9589
追出	-10.9592
却是个	-10.9592
黄药师等	-10.9596
救她	-10.9597
的儿子	-10.9603
飞到	-10.9603
报了	-10.9611
人身	-10.9612
一个个	-10.9628
脸上神色	-10.9633
数万	-10.9633
三枚	-10.9638
用力一	-10.9639
略有	-10.9641
殿中	-10.9645
潜运	-10.9654
大袖	-10.9655
陪我	-10.9657
到哪里去了	-10.9659
你还是	-10.9659
我在这里	-10.9667
耳边低声	-10.9671
望着他	-10.9679
再练	-10.9691
出房	-10.9692
出于	-10.9706
拍拍	-10.9706
都没	-10.9709
你自然	-10.9722
片刻间	-10.9727
缩身	-10.9727
了七八	-10.9728
有难	-10.9729
三件	-10.9732
气运	-10.9733
一想	-10.9743
捕	-10.9749
花枝	-10.975
递出	-10.9762
怀抱	-10.9764
说说	-10.978
有病	-10.9784
十余丈外	-10.9789
没能	-10.9805
你和我	-10.9808
摔下	-10.9811
一颗	-10.9811
胆子	-10.9817
一连	-10.9818
甚感	-10.9823
退让	-10.9832
夹攻	-10.9848
交在	-10.985
不治	-10.9852
忽然想起	-10.9858
这谷中	-10.9863
拦	-10.9868
儿女	-10.9869
向郭芙	-10.9871
拉扯	-10.9877
唤	-10.9879
枯柴	-10.9881
手肘	-10.9884
你若不	-10.989
踪迹	-10.9894
对着	-10.9897
一个少年	-10.9899
用兵刃	-10.9901
飞步	-10.9902
加强	-10.9903
送出	-10.9904
郭襄笑	-10.9904
主将	-10.992
下风	-10.9937
及时	-10.9938
耶律齐等	-10.994
手背	-10.9942
门边	-10.9957
做过	-10.9962
一扯	-10.9962
再好也没有了	-10.9962
可说是	-10.9962
不敢再说	-10.9965
只听他	-10.997
你杨大哥	-10.9972
这么好	-10.9972
枚冰魄银针	-10.9977
永不	-10.9978
九个	-10.9978
不救	-10.9985
步而行	-10.9985
一剑刺	-10.9987
一间石室	-10.9987
这边	-10.999
骑在	-10.9994
解衣	-10.9995
否	-11.0001
伸出左手	-11.0017
妇人	-11.002
别让	-11.0029
的少女	-11.003
声不绝	-11.0031
惯	-11.0036
额	-11.0038
纵起	-11.0041
卷住	-11.0043
大仇	-11.0045
怦怦乱跳	-11.0048
飘忽	-11.0053
那谷主	-11.0055
付	-11.0059
句话	-11.006
说不出	-11.0062
椅上	-11.007
乎	-11.0071
赶快	-11.0073
魔头	-11.0073
月光下	-11.0079
碑上	-11.0079
妥	-11.008
述	-11.0084
臣	-11.0084
旁观众人	-11.0087
顽童	-11.0087
惟	-11.0089
内堂	-11.0091
流露	-11.0091
每一招	-11.0092
侄	-11.0092
起疑	-11.0093
柳枝	-11.0094
类	-11.0096
接住	-11.0097
哪肯	-11.0098
争夺	-11.0098
法门	-11.0099
混乱	-11.0103
颠	-11.0104
瞬	-11.0105
此人武功	-11.0105
腕上	-11.0105
断肠崖	-11.0106
虽知	-11.0107
朗	-11.0107
逝	-11.0107
抑	-11.0107
生满	-11.0108
驳	-11.0108
楞伽经	-11.0108
窟	-11.0109
耀	-11.0109
雀	-11.0109
婿	-11.0109
冰窖	-11.0109
忿	-11.0109
大头矮子	-11.0109
陋	-11.011
尝	-11.011
断龙石	-11.011
陈大方	-11.011
希	-11.011
拘	-11.011
纤	-11.011
罚	-11.011
造诣	-11.011
弧	-11.011
四头骆驼	-11.011
跷	-11.011
街	-11.011
吊	-11.011
涂	-11.011
著	-11.011
垫	-11.011
横了一眼	-11.011
天翻地覆	-11.011
脑海中	-11.011
蜇	-11.011
默默	-11.011
凳	-11.011
刘贵妃	-11.011
烦躁	-11.011
钝	-11.011
低低的	-11.011
倔强	-11.011
教诲	-11.011
按捺	-11.011
东南西北	-11.011
百花谷	-11.011
滩	-11.011
摩	-11.0111
杨陆二人	-11.0111
绞	-11.0111
自相残杀	-11.0111
近年来	-11.0111
回过身来	-11.0111
宇	-11.0111
拭	-11.0111
黑黝黝的	-11.0111
五袋弟子	-11.0111
迷糊	-11.0111
北斗大阵	-11.0111
韧	-11.0111
安抚使吕文德	-11.0111
脸色苍白	-11.0111
鄂尔多	-11.0111
禽	-11.0111
兴高采烈	-11.0111
惊疑不定	-11.0111
赎	-11.0111
挪	-11.0111
恁地	-11.0111
懒	-11.0111
灾	-11.0111
腥	-11.0111
缰绳	-11.0111
斑	-11.0111
岭	-11.0111
这些年来	-11.0111
金龙鞭	-11.0111
一盏茶	-11.0111
叫了几声	-11.0111
癫	-11.0111
启	-11.0111
郁闷	-11.0111
死啦	-11.0111
呼呼风响	-11.0111
轻轻巧巧的	-11.0111
蟀	-11.0111
肝	-11.0111
慕	-11.0111
拚个你死我活	-11.0111
几个时辰	-11.0111
嬉	-11.0111
残暴	-11.0111
求恳	-11.0111
翘	-11.0111
嫂子	-11.0111
刮	-11.0111
亲生女儿	-11.0111
孩童	-11.0111
瞪了一眼	-11.0111
麻烦	-11.0111
斫	-11.0111
一拥而上	-11.0111
独个儿	-11.0111
戒备	-11.0111
乌鸦	-11.0112
值	-11.0112
百草仙	-11.0112
诚恳	-11.0112
呕血	-11.0112
尾巴	-11.0112
犬	-11.0112
悄立	-11.0112
王十三	-11.0112
蚁	-11.0112
躯体	-11.0112
李道长	-11.0112
弩	-11.0112
蔽	-11.0112
咒骂	-11.0112
洁	-11.0112
百忙中	-11.0112
贵帮	-11.0112
漆黑	-11.0112
讥嘲	-11.0112
人厨子	-11.0112
有恃无恐	-11.0112
一等一的	-11.0112
昏迷	-11.0112
捣鬼	-11.0112
锋锐	-11.0112
鼎	-11.0112
奸臣	-11.0112
泄漏	-11.0112
滋味	-11.0112
由得你	-11.0112
诡异	-11.0112
哇的一声	-11.0112
振翅	-11.0112
英雄大会	-11.0113
颤抖	-11.0113
轻捷	-11.0113
灵丹	-11.0113
这老儿	-11.0113
责备	-11.0113
子聪	-11.0113
繁复	-11.0113
剧震	-11.0113
浑厚	-11.0113
并肩而行	-11.0114
转瞬间	-11.0114
铅轮	-11.0114
陡然间	-11.0114
周老前辈	-11.0114
隐隐传来	-11.0114
滑溜	-11.0114
形状	-11.0114
大理国	-11.0114
瞧出破绽	-11.0114
全然不同	-11.0114
奉承	-11.0114
减弱	-11.0115
尸骨	-11.0115
包裹	-11.0115
右手食指	-11.0115
尤其	-11.0115
转述	-11.0115
全真道人	-11.0115
早料到	-11.0115
端严	-11.0115
佛经	-11.0116
同伴	-11.0116
惊慌	-11.0116
宋兵	-11.0116
烛火	-11.0116
谢罪	-11.0116
也就是了	-11.0116
山巅	-11.0116
使妖法	-11.0117
修习内功	-11.0117
无碍	-11.0117
颠倒	-11.0117
难免	-11.0117
天权	-11.0117
行踪	-11.0118
绿色	-11.0118
凝思	-11.0118
丧命	-11.0119
她总是	-11.0119
脸孔	-11.0119
老毒物	-11.0119
脱险	-11.0119
天下无敌	-11.0119
对付不了	-11.0119
狞笑	-11.012
料不到	-11.012
非凡	-11.012
身子摇晃	-11.012
烈火	-11.012
婚事	-11.012
手中拿着	-11.012
触动	-11.012
故人	-11.0121
诸位	-11.0121
黑夜	-11.0121
服输	-11.0121
交集	-11.0121
灵药	-11.0121
撇下	-11.0122
忒也	-11.0123
长啸	-11.0123
棒端	-11.0123
神驰	-11.0123
谁也不敢	-11.0124
中央	-11.0124
厅口	-11.0124
万想不到	-11.0124
全是为了	-11.0124
刀锋	-11.0125
一阵剧痛	-11.0125
组成	-11.0126
骑马	-11.0126
述说	-11.0126
▁第二十	-11.0126
两丐	-11.0126
小路	-11.0127
仗剑	-11.0127
打赌	-11.0128
比试	-11.0128
伸手接过	-11.0128
瞧不起	-11.0128
奔近	-11.0128
后患	-11.0128
顺口	-11.0129
金国	-11.0129
东首	-11.0129
径往	-11.0131
提及	-11.0131
玉女	-11.0131
逆转	-11.0132
写字	-11.0133
小女孩	-11.0133
水底	-11.0134
抢夺	-11.0134
哪想到	-11.0135
装作	-11.0135
金兵	-11.0136
睡觉	-11.0136
女流	-11.0137
管教	-11.0137
闯入	-11.0138
深夜	-11.0138
相顾	-11.0138
一个念头	-11.0138
究是	-11.0138
无意中	-11.0138
火药	-11.0139
笔直	-11.014
等到	-11.014
利剑	-11.014
罢休	-11.0141
急驰	-11.0142
在风陵渡	-11.0142
推举	-11.0143
落败	-11.0143
到这里来	-11.0143
提刀	-11.0144
奇功	-11.0145
飞奔	-11.0145
举刀	-11.0146
连续	-11.0146
举掌	-11.0147
乡下	-11.0147
自保	-11.0147
这股	-11.0147
之期	-11.0147
天性	-11.0147
改口	-11.0148
五绝	-11.0148
横刀	-11.0149
陪笑	-11.0149
肚腹	-11.015
准头	-11.015
消失	-11.015
回护	-11.015
恨极	-11.0151
首先	-11.0152
伸掌	-11.0152
身负	-11.0153
盘子	-11.0154
亲传	-11.0155
郭靖和黄蓉	-11.0159
客店中	-11.016
明师	-11.016
就可惜	-11.0161
荡开	-11.0163
耐	-11.0163
将女儿	-11.0163
带同	-11.0164
猛然	-11.0164
家师	-11.0164
最近	-11.0166
杀敌	-11.0166
急欲	-11.0166
别怕	-11.0168
在杨过身上	-11.0168
着恼	-11.017
脚力	-11.017
分离	-11.0171
▁那大汉	-11.0172
不痛	-11.0173
分辨	-11.0173
好容易	-11.0174
决不致	-11.0174
平生	-11.0176
却未	-11.0176
扑上去	-11.0177
那千户	-11.0177
深知	-11.0177
万事	-11.0178
掌教真人	-11.0179
狠心	-11.0181
良心	-11.0181
难怪	-11.0181
这几句话说得	-11.0182
落空	-11.0183
不济	-11.0183
和西山一窟鬼	-11.0184
还会	-11.0186
断剑	-11.019
右腕	-11.0191
为主	-11.0191
进击	-11.0192
心性	-11.0193
扶住	-11.0193
伸剑	-11.0194
满身	-11.0194
埋伏	-11.0195
推门	-11.0195
极轻	-11.0195
枝长矛	-11.0196
冲进	-11.0199
散开	-11.0199
难言	-11.0203
回夺	-11.0204
咱们一起	-11.0204
小师妹	-11.0205
会面	-11.0207
说起过	-11.0208
口里	-11.0209
停住	-11.0209
睡着	-11.0212
护着	-11.0213
那婆婆	-11.0213
如你这般	-11.0214
原可	-11.0214
害得	-11.0215
拉着她手	-11.0215
▁次日	-11.0217
带动	-11.0217
迷迷糊糊的	-11.0218
幽幽的	-11.0218
分开	-11.0221
矛头	-11.0222
留心	-11.0223
没有啊	-11.0224
没听	-11.0229
穿过	-11.023
目光中	-11.0231
够了	-11.0233
十余人	-11.0233
不许你	-11.0233
大吼	-11.0233
不防	-11.0234
加之	-11.0234
正是金轮法王	-11.0235
单是	-11.0235
石壁上	-11.0237
名儿	-11.024
从旁	-11.0241
情事	-11.0243
昂然	-11.0245
臀上	-11.025
命丧	-11.025
▁那少年	-11.025
心中一惊	-11.0251
明其意	-11.0253
这叫做	-11.0254
使剑	-11.0255
下地来	-11.0258
被擒	-11.0259
不会武功	-11.026
▁第三十	-11.0261
在台上	-11.0262
这块	-11.0264
招手	-11.0264
欺侮你	-11.0266
中土	-11.0267
这一击	-11.0268
等等	-11.0268
▁杨过和小龙女	-11.0269
火头	-11.0269
多想	-11.027
都被	-11.0272
师父是谁	-11.0273
为胜	-11.0273
抢上去	-11.0274
必能	-11.0277
数十年来	-11.0281
比拚	-11.0281
全真门下	-11.0285
和神雕	-11.0288
摔得	-11.0289
待我好	-11.0291
站起来	-11.0294
向一灯	-11.0296
猛往	-11.0297
始终没有	-11.0297
想得到	-11.03
发难	-11.0306
挫折	-11.031
我妈妈	-11.0311
送入	-11.0318
哭叫	-11.0322
斗到	-11.0324
已深	-11.0327
一段	-11.033
尚在	-11.0333
低声问	-11.0339
的苦头	-11.0345
要穴	-11.0346
之日	-11.0347
你跟我说	-11.0351
对郭靖	-11.0352
十人	-11.0355
愿意	-11.0363
根手指	-11.0364
即便	-11.0373
罢手	-11.0376
断肠崖前	-11.0377
的坐骑	-11.0382
的姓名	-11.0386
的手段	-11.0392
拍的一	-11.0396
愈是	-11.0399
难忍	-11.04
处于	-11.0401
不甘	-11.0406
阵中	-11.0408
即已	-11.0413
我心里	-11.0418
和程英	-11.042
右侧	-11.0422
你见过	-11.0423
伸手抓住	-11.0423
五尺	-11.0423
那婴儿	-11.0426
请进	-11.0428
不深	-11.0428
▁黄蓉心想	-11.0433
交给了	-11.0433
一个女子声音	-11.0434
大战	-11.0434
无一不	-11.0437
受到	-11.044
这孩儿	-11.0447
▁杨过听了	-11.0447
烧得	-11.045
满是	-11.045
送上	-11.0457
尸身	-11.0457
棵大树	-11.0459
踏在	-11.0463
▁洪凌波	-11.0465
创口	-11.047
一面说	-11.0477
八名	-11.048
一物	-11.0483
人声	-11.0483
这位是	-11.0489
自杀	-11.0502
出奇	-11.0503
树后	-11.0507
治好	-11.0514
即使	-11.0523
九成	-11.0532
还有甚么	-11.0548
冲去	-11.0548
既无	-11.0551
得清清楚楚	-11.0551
下楼	-11.0554
就可	-11.0554
一代	-11.0554
一托	-11.0555
抱过	-11.0562
见情势	-11.0562
到这里	-11.0564
奇人	-11.0565
知他是	-11.0565
大口	-11.0566
一望	-11.0567
守住	-11.0568
世人	-11.057
殿后	-11.0572
引他	-11.0587
败在	-11.0592
踢开	-11.0592
有多少	-11.0592
一拨	-11.0593
细想	-11.0597
出谷去	-11.0609
师祖爷	-11.0617
有关	-11.0624
知悉	-11.0624
是古墓派	-11.0627
一荡	-11.063
悟到	-11.0631
不传	-11.0636
非寻常	-11.0638
到此	-11.0657
杨过心念一动	-11.0657
男孩	-11.0658
在道旁	-11.0666
八个	-11.0671
实已	-11.0676
不分	-11.0681
摸到	-11.0688
周伯通大喜	-11.0699
在身前	-11.07
在重阳宫	-11.0714
一行	-11.0715
这张	-11.0727
二人性命	-11.073
这世上	-11.0731
喀喇一	-11.0734
怕甚么	-11.0736
皆是	-11.0737
大开	-11.0738
渔网阵	-11.0741
向前急	-11.0747
一战	-11.0754
小儿	-11.0763
堕入	-11.0773
疾驰而	-11.0774
毒发	-11.0774
▁第十	-11.0783
见了她	-11.0783
以内力	-11.0786
的朋友	-11.0794
茫	-11.0797
重手	-11.08
喝一声	-11.08
一个小小	-11.0803
几条	-11.0805
猛见	-11.0812
家中	-11.0815
身中	-11.0817
逼他	-11.0823
乐趣	-11.0826
也未必能	-11.0827
不准	-11.083
一腿	-11.0833
重责	-11.0859
找她	-11.0861
我叫你	-11.0863
紧闭	-11.0868
各以	-11.0875
红衣	-11.0879
大会	-11.0892
毙了	-11.0893
下落	-11.0897
臂弯	-11.0905
的打狗棒	-11.0906
也奇怪	-11.0908
燃	-11.0909
树木	-11.091
快逃	-11.0913
跟来	-11.093
我兄弟	-11.0936
甚么东西	-11.0939
到手	-11.0943
打发	-11.0945
怎地又	-11.0946
响起	-11.0946
行了一	-11.0946
冲上	-11.0952
见周伯通	-11.0955
闹得	-11.0955
害你	-11.0959
若神	-11.096
要想	-11.0969
其意	-11.0969
早便	-11.0972
妨	-11.0977
丝毫没	-11.0992
确也	-11.0996
身世	-11.1003
却不是	-11.1004
见他神色	-11.1008
三条	-11.1013
几枚	-11.1016
浑不	-11.1022
也说不	-11.1027
这路	-11.1029
耳听	-11.1037
攻敌	-11.1052
正待	-11.1053
一觉	-11.1053
乍	-11.1054
割了	-11.1069
是否能	-11.1072
凭他	-11.1074
食指	-11.1074
不禁暗暗	-11.1074
半日	-11.1074
人丛	-11.1075
却须	-11.1076
一只手	-11.1078
躬	-11.1078
三名	-11.1079
女孩	-11.1082
自称	-11.1086
幽幽	-11.1104
迷迷糊糊	-11.1105
瘦丐	-11.1106
西南	-11.1112
背影	-11.1113
亦无	-11.1117
天下第一	-11.1118
所为	-11.1122
谎	-11.1122
来历	-11.1126
回家去	-11.1128
之策	-11.113
关上	-11.1139
入古墓	-11.1142
厮	-11.1143
责骂	-11.1144
千户	-11.1151
岳母	-11.1151
这一番	-11.1154
诀	-11.1156
半空	-11.116
在门外	-11.1162
喊声	-11.1162
任谁	-11.1164
坐在地下	-11.1165
搂	-11.1167
棺	-11.1168
一摸	-11.1168
最大的	-11.1168
贱人	-11.1171
时辰	-11.1175
见他脸色	-11.1179
叔	-11.1187
不禁心中	-11.1188
眼角	-11.1188
咬牙	-11.119
齐向	-11.1192
觅	-11.1195
女郎	-11.1197
尽快	-11.1202
哇	-11.1203
辰	-11.1203
还怕	-11.1207
已奔到	-11.1212
哟	-11.1212
帽	-11.1213
察	-11.1214
泄	-11.1214
御	-11.1215
川	-11.1215
跃回	-11.1216
禀	-11.1216
塌	-11.1216
血手印	-11.1216
艰	-11.1217
偶	-11.1217
讥	-11.1218
勤	-11.1218
心狠手辣	-11.1219
焰	-11.1219
黄前帮主	-11.1219
刑	-11.1219
泣	-11.122
两块	-11.122
诡	-11.122
个绿衫人	-11.122
妒	-11.122
鲁	-11.122
涩	-11.122
丰	-11.122
蓝天和	-11.122
脆	-11.122
妖法	-11.122
泊	-11.122
再难	-11.1221
千人队	-11.1221
康	-11.1221
徐	-11.1221
明明白白	-11.1221
郑重	-11.1221
阿根	-11.1221
禅	-11.1221
第三代弟子	-11.1221
小杂种	-11.1221
荆棘	-11.1221
郭叔父	-11.1221
扁	-11.1221
厄	-11.1221
含泪	-11.1221
刹那间	-11.1221
艳	-11.1221
次日清晨	-11.1221
衔	-11.1221
五位师长	-11.1221
乏	-11.1221
隆	-11.1221
中所载	-11.1221
逸	-11.1221
屁股	-11.1221
再好不过	-11.1221
掉下泪来	-11.1221
保佑	-11.1221
胀	-11.1222
脂	-11.1222
那美貌少妇	-11.1222
柔情蜜意	-11.1222
武术	-11.1222
玩耍	-11.1222
悠然神往	-11.1222
婢女	-11.1222
有性命之忧	-11.1222
稽	-11.1222
放在眼里	-11.1222
拈	-11.1222
纵声长笑	-11.1222
超	-11.1222
罗唆	-11.1222
鉴	-11.1222
咬紧牙关	-11.1222
杀人不眨眼	-11.1222
仰天大笑	-11.1222
大呼小叫	-11.1222
虐	-11.1222
揽	-11.1222
壶	-11.1222
并肩而立	-11.1222
如土色	-11.1222
万念俱灰	-11.1222
狡猾	-11.1222
重重叠叠	-11.1222
仪	-11.1222
潇湘兄	-11.1222
傻里傻气	-11.1222
克敌制胜	-11.1222
枉自送了性命	-11.1222
半截断剑	-11.1222
口口声声	-11.1222
沉沉睡去	-11.1222
秀眉	-11.1222
织	-11.1222
那牯牛	-11.1222
铜杵	-11.1222
驷	-11.1222
命不久长	-11.1222
叽哩咕噜	-11.1222
蒙古第一国师	-11.1222
盾牌	-11.1222
辈份	-11.1222
笼罩	-11.1222
钳	-11.1222
了眼睛	-11.1222
果然名不虚传	-11.1222
柯老公公	-11.1222
皱起眉头	-11.1222
到了极处	-11.1222
大惊失色	-11.1222
心甘情愿	-11.1222
猫	-11.1222
轻描淡写	-11.1222
陪伴	-11.1222
无大碍	-11.1222
在华山绝顶	-11.1222
武功再高	-11.1222
瞧在眼里	-11.1222
轧轧	-11.1222
掌教之位	-11.1222
捣甚么鬼	-11.1222
玉镯	-11.1222
蔑	-11.1223
兰	-11.1223
咎	-11.1223
隐隐作痛	-11.1223
一流高手	-11.1223
择	-11.1223
花言巧语	-11.1223
饼	-11.1223
四肢百骸	-11.1223
尼摩星的铁蛇	-11.1223
雪地中	-11.1223
叹了一口气	-11.1223
筹思	-11.1223
欢悦	-11.1223
泽	-11.1223
伐	-11.1223
凄凉	-11.1223
润	-11.1223
神尼	-11.1223
躺着	-11.1223
血肉之躯	-11.1223
仓卒	-11.1223
放心不下	-11.1223
炮	-11.1223
申师叔	-11.1223
岳父	-11.1223
完颜	-11.1223
仰慕	-11.1223
呵呵	-11.1223
性命不保	-11.1223
冒充	-11.1223
掠而过	-11.1223
吊死鬼	-11.1223
趁	-11.1223
猿	-11.1223
庄丁	-11.1223
诺	-11.1223
冲天而起	-11.1223
丘道长	-11.1223
假扮	-11.1223
文武全才	-11.1223
无不骇然	-11.1223
母鹿	-11.1223
痕迹	-11.1223
精奥	-11.1223
那僧人	-11.1224
欣喜	-11.1224
新婚	-11.1224
珠宝	-11.1224
齐声喝彩	-11.1224
一男一女	-11.1224
花园	-11.1224
侧身避过	-11.1224
心中一喜	-11.1224
长长的	-11.1224
带刀渔网	-11.1224
块石头	-11.1224
月光	-11.1224
宰相	-11.1224
何尝	-11.1224
俯耳	-11.1224
哪料到	-11.1224
端丽	-11.1224
纵横江湖	-11.1224
居士	-11.1224
前后左右	-11.1224
牵挂	-11.1224
光景	-11.1224
别无他	-11.1224
哭泣	-11.1224
一声长叹	-11.1225
尹师兄	-11.1225
撑持	-11.1225
夫妇俩	-11.1225
花瓣	-11.1225
黑驴	-11.1225
抚养	-11.1225
遭际	-11.1225
银光	-11.1225
火焰	-11.1225
尸体	-11.1225
包扎	-11.1225
帕子	-11.1225
锋利	-11.1225
云梯	-11.1225
灵台	-11.1225
甜甜	-11.1225
黑沉沉	-11.1225
现今	-11.1225
禀明	-11.1225
一股热气	-11.1226
怀疑	-11.1226
孤身一人	-11.1226
疯狗	-11.1226
二小姐	-11.1226
蛇胆	-11.1226
越说越	-11.1226
静静	-11.1226
站了起来	-11.1226
坐倒在地	-11.1226
恩怨	-11.1226
并不答话	-11.1226
侧身避开	-11.1226
凶狠	-11.1226
掀开	-11.1227
男子汉	-11.1227
低头不语	-11.1227
牢牢抓住	-11.1227
部位	-11.1228
铸成	-11.1228
奔腾	-11.1228
一个老	-11.1228
好生佩服	-11.1228
王帐	-11.1228
掌教师兄	-11.1228
光亮	-11.1229
胸口热血	-11.1229
任性	-11.1229
破烂	-11.1229
但随即想起	-11.1229
试探	-11.1229
杀手	-11.1229
潭边	-11.1229
助威	-11.1229
半夜里	-11.1229
站稳	-11.123
口唇	-11.123
居室	-11.123
一干人	-11.123
招术	-11.123
宋五	-11.1231
哭了起来	-11.1231
武功再强	-11.1231
垂首	-11.1231
抗敌	-11.1231
救我性命	-11.1231
反抗	-11.1231
在古墓之中	-11.1231
跟你在一起	-11.1231
关切	-11.1231
直入	-11.1231
凶猛	-11.1231
波的一声	-11.1232
花豹	-11.1232
缓缓而行	-11.1232
操心	-11.1232
治愈	-11.1233
石板	-11.1233
此地步	-11.1233
点头答应	-11.1233
挑战	-11.1233
恭喜	-11.1233
也是无用	-11.1233
结果	-11.1233
罕见	-11.1233
天井	-11.1233
数招之间	-11.1233
台边	-11.1234
携带	-11.1234
美人儿	-11.1234
流星	-11.1234
厅外	-11.1235
四名弟子	-11.1235
伸左臂	-11.1235
不及细想	-11.1235
河南	-11.1235
嘴角	-11.1235
援手	-11.1235
亲切	-11.1236
千万不能	-11.1236
任由	-11.1236
足印	-11.1236
别扭	-11.1237
席间	-11.1237
千金	-11.1237
重量	-11.1238
作弄	-11.1238
等候	-11.1238
相距不过	-11.1238
慈和	-11.1238
一个筋斗	-11.1239
相候	-11.124
脱不了	-11.124
借势	-11.124
合围	-11.124
银两	-11.1241
微微一惊	-11.1241
低沉	-11.1241
看清楚	-11.1241
双双	-11.1241
本性	-11.1241
显露	-11.1242
▁次晨	-11.1242
所杀	-11.1242
数十招	-11.1242
舍不得	-11.1243
均知	-11.1243
己方	-11.1243
打造	-11.1243
喘气	-11.1244
小丘	-11.1244
急速	-11.1244
苦思	-11.1245
众道士	-11.1245
十余年前	-11.1246
坚实	-11.1246
连环	-11.1247
数十年前	-11.1247
摔交	-11.1247
请各位	-11.1247
第二招	-11.1247
远远不及	-11.1248
齐施	-11.1248
羊太傅庙	-11.1248
寻访	-11.1248
错乱	-11.1248
所擒	-11.1249
重任	-11.125
柯老头	-11.125
从何处	-11.125
额上	-11.125
真乃	-11.125
第三招	-11.1251
北风	-11.1251
脸皮	-11.1251
顶门	-11.1251
快出来	-11.1252
地图	-11.1252
尊长	-11.1252
小龙女和杨过	-11.1252
越加	-11.1252
旧事	-11.1252
血色	-11.1253
府中	-11.1253
公子	-11.1253
欺骗	-11.1253
避让	-11.1254
出鞘	-11.1255
五位	-11.1255
转弯	-11.1256
拒却	-11.1256
料得到	-11.1256
相碰	-11.1256
这姓杨的	-11.1256
险些儿	-11.1256
又是害怕	-11.1257
份上	-11.1258
不禁一惊	-11.1258
气度	-11.1258
后颈	-11.1258
寒意	-11.1259
叫喊	-11.126
情形	-11.1261
成一片	-11.1261
拔起	-11.1262
无幸	-11.1262
那恶人	-11.1262
心下大喜	-11.1263
悬崖	-11.1264
厅心	-11.1265
通红	-11.1265
有多大	-11.1265
连败	-11.1265
情欲	-11.1265
箱中	-11.1266
跃落	-11.1266
▁杨过听她	-11.1267
也是有的	-11.1267
到襄阳来	-11.1268
却见他	-11.1268
受苦	-11.1268
草地	-11.1268
怪招	-11.1269
功劳	-11.1272
架子	-11.1272
身侧	-11.1272
见慈恩	-11.1273
风流	-11.1275
总不能	-11.1275
行功	-11.1276
赶回	-11.1276
五日	-11.1278
轻忽	-11.1279
槐树	-11.128
牢牢抱住	-11.128
无计	-11.128
难愈	-11.128
终生	-11.1282
满山	-11.1282
敌招	-11.1282
接待	-11.1284
▁史伯威	-11.1285
满门	-11.1285
不支	-11.1286
算得甚么	-11.1286
分明	-11.1288
的容貌	-11.1288
声不响	-11.1289
进退	-11.129
外功	-11.1291
拨开	-11.1291
横行	-11.1291
▁那老妇	-11.1292
拜倒	-11.1292
心中怦怦乱跳	-11.1294
休得	-11.1294
过节	-11.1295
指教	-11.1296
没见过	-11.1296
一线	-11.1296
▁冯铁匠	-11.1297
在中间	-11.1297
探头	-11.1299
若说	-11.1299
无所不	-11.1304
之约	-11.1305
心中大是	-11.1306
由此	-11.1307
一声呼喝	-11.1307
抢去	-11.1307
冲击	-11.1309
跃后	-11.131
死不了	-11.1311
骨头	-11.1311
绝难	-11.1311
万岁	-11.1311
还说甚么	-11.1312
看招	-11.1315
一柄长剑	-11.1316
南阳	-11.1317
卷起	-11.1317
抹去	-11.1318
帮着	-11.1318
直指	-11.1319
极其	-11.132
义气	-11.1321
更甚	-11.1326
引着	-11.1326
曾说	-11.1326
卷住了	-11.1329
心怀	-11.133
数剑	-11.1331
项颈	-11.1331
那样	-11.1332
在蒙古军中	-11.1332
进入	-11.1332
的消息	-11.1333
羽箭	-11.1333
携了	-11.1336
到底是谁	-11.1339
截住	-11.1339
常自	-11.134
前行	-11.1343
传入	-11.1343
回首	-11.1343
大增	-11.1344
走过去	-11.1344
双腿一	-11.1344
探出	-11.1344
身随	-11.1345
▁冯默风	-11.1346
帮中	-11.1347
高飞	-11.1348
两年	-11.1348
头痛	-11.1348
我爹爹妈妈	-11.1351
忽听得远处	-11.1353
闭穴	-11.1354
神气	-11.1354
炕上	-11.1354
▁杨过大惊	-11.1356
轮上	-11.1356
装得	-11.1357
盘膝坐在	-11.1359
两家	-11.1359
幽谷	-11.1361
欺侮我	-11.1362
见怪	-11.1362
翻转	-11.1363
▁法王等	-11.1363
自不免	-11.1369
压得	-11.1369
这一拳	-11.1373
逃开	-11.1374
之礼	-11.1374
▁这几句话	-11.1375
间石室	-11.1376
晕去	-11.1377
感诧异	-11.138
好武	-11.1381
直奔	-11.1381
竟把	-11.1381
▁大头鬼	-11.1381
挂在	-11.1382
使不得	-11.1382
▁鹿清笃	-11.1383
长声	-11.1384
异人	-11.1387
已至	-11.1392
两眼	-11.1395
心中奇怪	-11.1395
插入	-11.1395
划破	-11.1396
真好	-11.1396
门派	-11.1397
横过	-11.14
惶恐	-11.1401
只要再	-11.1407
略一	-11.1407
姓杨的	-11.1413
的首级	-11.1418
一宽	-11.1419
事事	-11.1419
落入了	-11.1421
呆呆的	-11.1423
那藏僧	-11.1424
动身	-11.1427
马儿	-11.1427
法王与尼摩星	-11.1429
受用	-11.143
脚上	-11.143
这棒法	-11.1437
居中	-11.1438
藏身	-11.1441
对待	-11.1444
其实是	-11.1444
缰	-11.1444
这一日	-11.1447
解说	-11.1451
过了头	-11.1455
一回头	-11.1457
堆在	-11.146
就只怕	-11.146
数下	-11.1464
三成	-11.1466
得多了	-11.1469
一排	-11.1478
口中却	-11.148
不见得	-11.148
剑尖刺	-11.1483
原来如此	-11.1483
两手	-11.1483
射来	-11.1484
守将	-11.1485
而斗	-11.1486
叫唤	-11.1487
尖刺	-11.1487
▁突然间	-11.1488
几岁	-11.1489
是好人	-11.149
先生	-11.1494
不过来	-11.1496
之面	-11.1505
与朱子柳	-11.1506
点中了	-11.1506
竟连	-11.1508
内室	-11.1508
的小子	-11.151
见不到	-11.1512
杨过大惊	-11.1512
管得	-11.1517
夺过	-11.1517
学着	-11.1519
深意	-11.152
摔出	-11.1522
那般	-11.1527
那条	-11.1535
没做	-11.1536
偷看	-11.154
那时我	-11.1544
做到	-11.1551
不是好人	-11.1551
一个白衣少女	-11.1553
之名	-11.1554
收留	-11.1555
打倒	-11.156
瞧瞧去	-11.1561
指尖	-11.1561
▁一灯大师	-11.1564
任你	-11.1574
总算他	-11.1575
一加	-11.1575
心地	-11.1581
因此上	-11.1592
情花丛	-11.1592
去绝情谷	-11.1595
生长	-11.1602
电闪	-11.161
脱出	-11.1617
认定	-11.1618
击到	-11.162
他的心意	-11.1622
快走罢	-11.1622
慢慢走	-11.1622
又即	-11.1628
英雄豪杰	-11.1632
牛背	-11.1636
到地	-11.1639
你识得	-11.1641
在世	-11.1641
捕捉	-11.1642
与欧阳锋	-11.1648
她见杨过	-11.1656
股大力	-11.1658
好功夫	-11.1662
呼叱	-11.1663
遇见	-11.1668
雪人	-11.1678
使不出	-11.1678
是真是假	-11.1679
如意	-11.1682
来跟我	-11.1698
不惧	-11.1701
两个孩儿	-11.1701
一合	-11.171
对师父	-11.1711
想起一事	-11.1712
西北	-11.1718
出室	-11.1719
你说是	-11.1742
方得	-11.1744
这一刀	-11.175
冲入	-11.1752
急忙缩	-11.176
有许多	-11.1771
石窟之	-11.1774
想不出	-11.178
挺身	-11.1797
指引	-11.1804
干么不	-11.1804
已非	-11.1805
变成	-11.1809
那就是	-11.1811
几名	-11.1819
一个化子	-11.1831
我师姊	-11.1832
不是说	-11.1842
将绝情丹	-11.1845
始终没	-11.1861
毫没	-11.1873
有一件	-11.1875
好让	-11.1884
嫁了	-11.1886
挡得住	-11.1888
刺杀	-11.1888
甚好	-11.1893
已失	-11.1895
帮你	-11.1895
也不过是	-11.1903
男的	-11.1904
咱们须得	-11.1904
情深	-11.1918
重阳真人	-11.1925
睡去	-11.1925
灰尘	-11.1933
两人并肩	-11.1937
出阵	-11.194
不改	-11.1944
引为	-11.1949
不露	-11.1952
三人都	-11.1954
敌不过	-11.1959
卒	-11.1963
掌缘	-11.1971
七星	-11.1977
两只手	-11.1978
难敌	-11.1986
是全真教的	-11.1986
袖中	-11.1987
洞里	-11.1997
一包	-11.2002
深重	-11.2015
不出去	-11.2027
豁	-11.2028
猛觉	-11.2036
运内功	-11.204
疾奔	-11.2042
托在	-11.2047
则是	-11.2058
已将他	-11.2061
一棵	-11.2062
数丈之外	-11.2066
老妇人	-11.2067
搂在怀里	-11.2071
说下去	-11.2082
十余名	-11.2084
与全真教	-11.209
送来	-11.2096
堕下	-11.2106
如电	-11.2112
在内	-11.2118
刷刷	-11.2122
制得	-11.2123
第二件	-11.2137
放脱	-11.2145
足尖	-11.2161
找些	-11.2165
在谷中	-11.2172
你服了	-11.2173
下令	-11.2178
我父	-11.2197
只余	-11.2204
毒虫	-11.2207
是大出意料之外	-11.2209
跟你说了	-11.2214
受惊	-11.2226
绝非	-11.225
平日	-11.2254
将近	-11.226
安安静静的	-11.2262
叹了一口长气	-11.2268
动手罢	-11.2272
惊惶	-11.2272
门下弟子	-11.2278
鼾声	-11.228
万难	-11.2294
安危	-11.2302
一计	-11.2305
怎地如此	-11.2313
上城头	-11.2315
但想他	-11.2317
按在	-11.2331
拚了	-11.2334
取下	-11.234
藏着	-11.2343
接得	-11.2347
朵	-11.2352
极难	-11.2353
消息	-11.2354
不愿再	-11.2354
喉	-11.2371
精光	-11.238
一张脸	-11.2387
斩落	-11.2389
由得他	-11.239
俏脸	-11.2396
崖上	-11.2401
跃高	-11.2402
丫头	-11.2403
飘然	-11.2411
一插	-11.2433
风陵渡	-11.2433
骇	-11.244
连连点头	-11.2443
史仲猛	-11.2444
碍	-11.2445
铁匠	-11.2452
恶妇	-11.2452
名头	-11.2453
外号	-11.2454
洪	-11.2454
隙	-11.2457
半空中	-11.2458
撇	-11.2458
再也不	-11.2459
捷	-11.2462
敲	-11.2463
尔	-11.2464
玉虚洞	-11.2465
拱	-11.2465
竭	-11.2466
公孙	-11.2466
掀	-11.2467
憎	-11.2468
裘	-11.2469
辛	-11.2469
液	-11.2469
迅	-11.2469
督	-11.2469
两个老丐	-11.2469
哇哇	-11.247
牌	-11.247
充满着	-11.247
界	-11.247
溢	-11.247
添	-11.247
秃头老者	-11.247
院子中	-11.247
需	-11.247
哉	-11.2471
婉	-11.2471
彭连虎	-11.2471
灌	-11.2471
霸	-11.2471
逆行经脉	-11.2471
目瞪	-11.2471
西山十鬼	-11.2471
莹	-11.2471
的克星	-11.2471
直教生死相许	-11.2471
一转念间	-11.2471
镜	-11.2471
绸	-11.2471
☆	-11.2471
心下暗惊	-11.2471
姬	-11.2471
鹰	-11.2471
寂然无声	-11.2471
独孤求败	-11.2471
不想活了	-11.2471
不可思议	-11.2471
摇摇晃晃	-11.2471
一败涂地	-11.2471
律	-11.2471
肩膀	-11.2472
诉	-11.2472
廊	-11.2472
案	-11.2472
穴道被点	-11.2472
诞	-11.2472
陵	-11.2472
东北角	-11.2472
绝口不提	-11.2472
七日七夜	-11.2472
高姓大名	-11.2472
卑鄙	-11.2472
孤零零的	-11.2472
翠	-11.2472
溃	-11.2472
溜溜	-11.2472
矫捷	-11.2472
翅膀	-11.2472
森	-11.2472
不讲理	-11.2472
结为夫妇	-11.2472
藤	-11.2472
驼	-11.2472
霞	-11.2472
呆在当地	-11.2472
呈	-11.2472
坛	-11.2472
旁门左道	-11.2472
滔滔不绝	-11.2472
邪魔外道	-11.2472
金丝手套	-11.2472
魁	-11.2472
心惊肉跳	-11.2472
障	-11.2472
偎	-11.2472
傍晚	-11.2472
大武哥哥	-11.2472
无声无息	-11.2472
随后跟去	-11.2472
朽	-11.2472
闭上眼睛	-11.2472
饥	-11.2472
叠	-11.2472
密密层层	-11.2472
脏腑	-11.2472
冷冰冰	-11.2472
坑	-11.2472
大仁大义	-11.2472
眷	-11.2472
胡思乱想	-11.2472
蝶	-11.2472
掏	-11.2472
轩	-11.2472
丧门鬼	-11.2472
十月廿四	-11.2472
尘土飞扬	-11.2472
栏	-11.2472
行侠仗义	-11.2472
光秃秃的	-11.2472
抡	-11.2472
明其理	-11.2472
京	-11.2472
先声夺人	-11.2472
拜我为师	-11.2472
豺狼谷	-11.2472
那姓孙的	-11.2472
订	-11.2472
大着胆子	-11.2472
饥饿	-11.2472
双掌齐出	-11.2472
只守不攻	-11.2472
大得异乎寻常	-11.2472
荫	-11.2472
帮规	-11.2472
树梢	-11.2472
沮丧	-11.2472
除此之外	-11.2472
火浣室	-11.2472
热辣辣的	-11.2472
瞧不清楚	-11.2472
听而不闻	-11.2472
大叫大嚷	-11.2472
源	-11.2472
说什么	-11.2472
身子不适	-11.2472
飕飕	-11.2472
也是枉然	-11.2473
拜你为师	-11.2473
胸膛	-11.2473
全无血色	-11.2473
难测	-11.2473
毒蟒	-11.2473
评	-11.2473
仰起头	-11.2473
匪夷所思	-11.2473
得粉碎	-11.2473
悠悠醒转	-11.2473
胜之不武	-11.2473
斑斑	-11.2473
秀丽	-11.2473
小妖女	-11.2473
五百两银子	-11.2473
毫不理睬	-11.2473
治疗	-11.2473
周旋	-11.2473
戾	-11.2473
斜刺里	-11.2473
翻翻滚滚	-11.2473
两大高手	-11.2473
凶多吉少	-11.2473
歇宿	-11.2473
沿途	-11.2473
押	-11.2473
啼哭	-11.2473
啐	-11.2473
洪老前辈	-11.2473
为了何事	-11.2473
计策	-11.2473
何足道哉	-11.2473
凑巧	-11.2473
美女拳法	-11.2473
丑八怪	-11.2473
干预	-11.2473
音讯	-11.2473
怨愤	-11.2474
浓眉	-11.2474
眺望	-11.2474
紧急关头	-11.2474
又惊又	-11.2474
雷鸣	-11.2474
丐帮大会	-11.2474
乱石堆	-11.2474
银丝	-11.2474
赔罪	-11.2474
越走越	-11.2474
拖雷	-11.2474
显示	-11.2474
殷勤	-11.2474
烟雾	-11.2474
纵声大笑	-11.2474
唯恐	-11.2474
迅疾	-11.2474
无情无义	-11.2474
了这么久	-11.2474
英俊	-11.2474
额角	-11.2474
杨郎	-11.2474
无歹意	-11.2474
领头的	-11.2474
擒获	-11.2474
伸舌头	-11.2474
天资	-11.2474
图谋	-11.2474
点中了穴道	-11.2474
殷红	-11.2474
听我的话	-11.2475
耳畔	-11.2475
召集	-11.2475
拿捏不住	-11.2475
锐利	-11.2475
看得清楚	-11.2475
傻瓜	-11.2475
越听越	-11.2475
泥沙	-11.2475
嘴角边	-11.2475
花朵	-11.2475
枯枝	-11.2475
君宝	-11.2475
一个筋斗翻	-11.2475
冰凉	-11.2475
相询	-11.2475
玉瓶	-11.2475
陆爷	-11.2475
转瞬	-11.2475
轻贱	-11.2476
美貌少女	-11.2476
铁甲	-11.2476
美丽	-11.2476
难熬	-11.2476
又羞又	-11.2476
丝丝	-11.2476
周围	-11.2476
大纛	-11.2476
无辜	-11.2476
万状	-11.2476
挟制	-11.2477
武家兄弟	-11.2477
并排	-11.2477
棘手	-11.2477
交叉	-11.2477
宁定	-11.2477
积雪	-11.2477
弓箭	-11.2477
装傻	-11.2477
冰雪	-11.2477
阴阳	-11.2477
谈谈	-11.2477
饮食	-11.2477
柳姑娘	-11.2477
熄灭	-11.2478
只要稍有	-11.2478
驱赶	-11.2478
剩下	-11.2478
阻止	-11.2478
深渊	-11.2478
获胜	-11.2478
陡然	-11.2478
严加	-11.2479
拿捏	-11.2479
遍体	-11.2479
在寒玉床上	-11.2479
王师弟	-11.2479
侄儿	-11.2479
月余	-11.2479
瞪眼	-11.2479
蜂毒	-11.2479
江山	-11.2479
敢硬接	-11.2479
危急之际	-11.2479
黄影	-11.2479
施展轻功	-11.248
硬拚	-11.248
拜堂	-11.248
中了情花之毒	-11.248
晕红	-11.248
众蒙古武士	-11.248
面貌	-11.248
有心要	-11.2481
精纯	-11.2481
难题	-11.2481
第二次	-11.2481
左翅	-11.2481
佛家	-11.2482
分毫	-11.2482
隙可	-11.2483
又是愤怒	-11.2483
立誓	-11.2483
马真人	-11.2483
进袭	-11.2483
火候	-11.2483
右袖	-11.2483
盘算	-11.2483
数度	-11.2484
猛汉	-11.2484
气概	-11.2484
短短	-11.2484
碍着	-11.2484
示意	-11.2484
激战	-11.2484
倏忽	-11.2484
西毒欧阳锋	-11.2484
嘿嘿冷笑	-11.2485
惊醒	-11.2485
拂尘柄	-11.2485
不肖	-11.2485
抛在地下	-11.2486
的法子	-11.2486
口齿	-11.2486
入墓	-11.2486
原该	-11.2487
六位	-11.2487
甫动	-11.2487
那老人	-11.2487
皇后	-11.2488
有这等事	-11.2488
两名道士	-11.2488
烟火	-11.2488
青草	-11.2488
小王将军	-11.2488
迎接	-11.2489
师娘	-11.2489
眼波	-11.2489
书写	-11.2489
数十里	-11.249
险恶	-11.249
难以抵挡	-11.249
方圆	-11.249
大椎	-11.249
倒竖	-11.249
也不以为	-11.249
单掌	-11.2491
容色	-11.2491
闪跃	-11.2491
大宗师	-11.2491
邪门	-11.2491
终须	-11.2491
四个字	-11.2491
交互	-11.2492
罕有	-11.2492
升起	-11.2492
已经死了	-11.2492
右首	-11.2492
脑后	-11.2492
粗布	-11.2492
十六年前	-11.2493
轻薄	-11.2493
身子一晃	-11.2493
跳跃	-11.2493
太平	-11.2493
服药	-11.2494
的对头	-11.2494
实是非同小可	-11.2494
沿着	-11.2494
老铁匠	-11.2494
到绝情谷去	-11.2495
退缩	-11.2495
相互间	-11.2495
铁青	-11.2496
墙外	-11.2496
这八个字	-11.2497
深仇	-11.2497
牵动	-11.2497
心中伤痛	-11.2497
老道姑	-11.2497
虽不及	-11.2497
不宜	-11.2497
失常	-11.2498
水性	-11.2498
这一掷	-11.2498
报应	-11.2499
一楞	-11.2499
胜算	-11.25
远不如	-11.25
这奸贼	-11.2501
恶战	-11.2501
几个字	-11.2502
小嘴一	-11.2502
玩意	-11.2502
转过了头不	-11.2503
奇险	-11.2503
长袖	-11.2503
交战	-11.2503
来找你	-11.2504
哪里来的	-11.2504
被困	-11.2505
狂风	-11.2505
全真武功	-11.2505
庄子	-11.2505
横挥	-11.2506
从洞中	-11.2506
老夫	-11.2506
榻上	-11.2508
小道姑	-11.2508
触到	-11.2508
路径	-11.2509
精通	-11.251
一条手臂	-11.251
缠斗	-11.251
击毙	-11.2511
闻名	-11.2511
行险	-11.2512
四丑	-11.2512
片时	-11.2513
厉害之极	-11.2514
扑面	-11.2515
尺来长	-11.2515
相传	-11.2515
无缘	-11.2515
应敌	-11.2515
语意	-11.2515
拳掌	-11.2515
跑得	-11.2516
无暇	-11.2517
退兵	-11.2517
小爷	-11.2517
断绝	-11.2518
白色	-11.2518
流出	-11.2519
矮小	-11.2519
身遭	-11.2519
暗骂	-11.252
也不理会	-11.252
回古墓	-11.252
一人之力	-11.252
所创	-11.2521
也决计	-11.2522
伤重	-11.2523
名目	-11.2524
手套	-11.2525
抓到	-11.2526
回襄阳	-11.2526
杨过怕她	-11.2526
齐断	-11.2527
须知	-11.2528
这藏僧	-11.2528
但转念一想	-11.2528
喝止	-11.2528
那句话	-11.2529
横飞	-11.2529
啪的一	-11.253
美女	-11.2531
之象	-11.2531
上轻轻一	-11.2531
来见我	-11.2532
这样罢	-11.2532
大腿	-11.2533
对不起	-11.2534
施展出来	-11.2534
牵过	-11.2534
挨打	-11.2536
扬手	-11.2537
好小子	-11.2537
直扑	-11.2538
▁那怪客	-11.2539
在树上	-11.2539
扑地	-11.2541
之父	-11.2542
傻笑	-11.2544
听了此言	-11.2544
骑着	-11.2545
该死	-11.2545
脸带	-11.2545
我岳母	-11.2548
高高	-11.255
此举	-11.2551
火花	-11.2551
进招	-11.2552
双手齐	-11.2552
是哪一位	-11.2553
大驾	-11.2553
发劲	-11.2554
之机	-11.2554
胡人	-11.2555
长叹	-11.2555
退路	-11.2555
爬到	-11.2555
七个	-11.2556
冲杀	-11.2556
急退	-11.2556
▁到得	-11.2556
伸左手	-11.2558
隔着	-11.256
借着	-11.2561
妙用	-11.2562
抱头	-11.2562
割断	-11.2563
感动	-11.2565
居然能	-11.2568
强得多	-11.2569
回去罢	-11.2569
含着	-11.2569
化为	-11.2571
谁也没	-11.2571
连称	-11.2571
是全真派的	-11.2572
急挥	-11.2572
均未	-11.2572
尚可	-11.2573
的遗体	-11.2574
在重阳宫中	-11.2574
一个女子	-11.2575
没听见过	-11.2575
他身边	-11.2576
得无影无踪	-11.2576
乖乖的	-11.2578
另一人	-11.2579
是大英雄	-11.258
走远	-11.258
下垂	-11.258
▁这日	-11.2581
三清	-11.2582
使上了	-11.2582
说谎	-11.2583
写着	-11.2585
相反	-11.2585
约定	-11.2585
在山石	-11.2586
用劲	-11.2586
但盼	-11.2587
偏心	-11.2589
数年来	-11.2589
五行	-11.2589
看待	-11.2591
▁但听得	-11.2595
我猜	-11.2596
满头	-11.2597
连挥	-11.2599
朱子柳等	-11.2599
个大字	-11.26
乱打	-11.2601
明天	-11.2601
那块	-11.2602
略略	-11.2602
叫化子	-11.2602
的一声大叫	-11.2604
倒在地下	-11.2605
欲以	-11.2607
转出	-11.2608
或能	-11.2609
身处	-11.261
我可要	-11.2612
穿着	-11.2613
黑气	-11.2614
▁其时	-11.2616
不减	-11.2616
闭住	-11.262
出全力	-11.262
所言	-11.2628
骗得	-11.2629
官人	-11.2637
卧室	-11.2637
仇怨	-11.2638
却从未	-11.2638
总觉	-11.264
无能之	-11.264
托大	-11.2642
难受	-11.2644
急刺	-11.2644
相若	-11.2646
打断	-11.2646
到杨过身前	-11.2649
吹得	-11.2649
求生	-11.2653
是大师兄	-11.2653
在黑暗之中	-11.2654
松树	-11.2654
不醒	-11.2655
异样	-11.2656
此剑	-11.2658
头脸	-11.2659
自称是	-11.266
这名字	-11.2661
九人	-11.2663
驰来	-11.2664
十六岁	-11.2666
▁那日	-11.2669
▁这一来	-11.2671
是我师父	-11.2674
扑到	-11.2674
这三招	-11.2678
打退	-11.2683
复又	-11.2683
一并	-11.2684
引得	-11.2684
远为	-11.2686
咱们一齐	-11.2692
大胡子	-11.2694
大败	-11.2694
用强	-11.2696
难事	-11.2697
不等他	-11.2701
这小畜生	-11.2704
分头	-11.2706
你又何必	-11.2706
你骂我	-11.2707
好孩子	-11.2707
深自	-11.2711
此节	-11.2712
既说	-11.2713
揖	-11.2717
多看	-11.2717
变为	-11.272
庙门	-11.2726
踏进	-11.2735
取笑	-11.2736
口子	-11.2737
了个筋斗	-11.2737
在谷底	-11.2738
有礼	-11.2739
劈去	-11.274
轰然	-11.274
众军	-11.2742
快马	-11.2748
仰头	-11.2748
折断了	-11.2753
女孩儿家	-11.2757
的情状	-11.2761
这件	-11.2762
在洞中	-11.2763
再强	-11.2765
却何以	-11.2774
大恩	-11.2786
气力	-11.2788
也是个	-11.2789
自管	-11.279
投入	-11.2793
戴在	-11.2793
你猜	-11.2795
▁杨过一怔	-11.2801
我可没	-11.2804
▁第	-11.2807
的身世	-11.2812
这阵法	-11.2812
有理	-11.2819
三杯	-11.282
进厅	-11.2821
一语	-11.2829
出林	-11.2831
全真派的武功	-11.2834
出去时	-11.2841
求见	-11.2847
杀害	-11.2848
一乐	-11.2849
还剑	-11.285
搭上	-11.285
与其	-11.2851
但怕	-11.2853
自幼便	-11.2854
一月	-11.2855
左足踏	-11.2858
练到了	-11.2859
你敢	-11.2859
到哪里去啦	-11.286
已断	-11.2864
你到哪里去	-11.2867
要救	-11.287
上跃	-11.2872
上前动手	-11.2872
进屋	-11.288
第六	-11.2882
既不肯	-11.2883
一瞥眼	-11.2885
如常	-11.2887
指望	-11.2888
箫声	-11.2888
另外两	-11.2891
还来得及	-11.2893
扑来	-11.2895
抬头向	-11.2898
这一下出手	-11.2905
便奔	-11.2913
奔出数丈	-11.2913
行为	-11.2921
抱住她	-11.2925
退下	-11.2927
无言	-11.2929
幸得	-11.2929
看守	-11.293
光闪闪	-11.2935
跟你们	-11.2942
七名道人	-11.2944
这打狗棒法	-11.2947
居古墓	-11.2948
入潭中	-11.2954
翻身下	-11.2957
静室	-11.2961
小刺	-11.2965
至此	-11.297
那灵狐	-11.2973
密林	-11.2974
已抓住了	-11.2974
不合	-11.2974
这么一个	-11.2983
这一生	-11.2992
是这样	-11.2997
抱去	-11.3001
一批	-11.3004
之声不绝	-11.3004
星聚会	-11.3006
目不	-11.3022
无效	-11.3032
壮汉	-11.3039
多费	-11.3046
我又不	-11.3055
甚远	-11.3057
可胜	-11.3087
混在	-11.3094
学会了	-11.3106
小龙女点点头	-11.3124
光头	-11.3131
磕了	-11.3141
说着伸手	-11.3145
只觉得	-11.3146
转眼便	-11.315
非常	-11.3155
不禁暗自	-11.3159
小擒拿手	-11.3163
呼啸	-11.318
决不是	-11.3181
要害死	-11.3181
所练	-11.3191
撞见	-11.3212
晃身	-11.3236
为乐	-11.3237
去买	-11.3259
一个少女	-11.326
如火	-11.3262
毒水	-11.3262
奔进	-11.3275
不去理	-11.3309
也看不	-11.3311
攻向	-11.3316
这两下	-11.332
▁程英见	-11.3328
隔十六年	-11.3337
刷刷刷	-11.3354
他生性	-11.3355
一轮	-11.3357
急冲	-11.3357
封住	-11.339
也想不	-11.3405
越过	-11.3412
拿到	-11.3414
那雕	-11.3453
祖师	-11.3464
长剑脱手	-11.3465
出数丈	-11.3468
放回	-11.3476
不满	-11.3479
手劲	-11.3496
发热	-11.3502
猛向	-11.3524
致命	-11.3531
黄金	-11.3532
在断肠崖前	-11.3534
也决不	-11.3546
暗赞	-11.355
莫大	-11.3556
穿出	-11.3559
武林中人	-11.3559
两日	-11.3576
凝望	-11.358
派人	-11.3581
情谷底	-11.3605
有几分	-11.3612
个圆圈	-11.3612
铁桨	-11.3614
一只小	-11.3619
回头向	-11.363
房里	-11.3635
所制	-11.3635
副	-11.3641
这一指	-11.3652
首级	-11.3653
了一半	-11.3658
瞧过	-11.3667
须发	-11.3672
亲亲	-11.3681
台前	-11.3712
感奇怪	-11.3725
不怕死	-11.3725
盘膝	-11.3726
守着	-11.3735
花刺	-11.374
硬生生	-11.3747
发见	-11.3756
急奔而	-11.3761
一搭	-11.3762
这才是	-11.3767
茅	-11.3768
忽施	-11.3774
缺	-11.3776
蜂蜜	-11.3777
无影无踪	-11.3781
十斤	-11.3782
乖乖	-11.3784
吼声	-11.3785
两股	-11.3785
盗去	-11.3797
愕	-11.3806
半个	-11.3808
一仰	-11.3808
坡	-11.381
小舟	-11.3818
忍耐	-11.3821
旷	-11.3823
他兄弟俩	-11.3834
相爱	-11.3836
宜	-11.384
两句话	-11.3842
样子	-11.3845
枚绝情丹	-11.3849
智取	-11.385
瞧是谁	-11.3852
来捣乱	-11.3857
命苦	-11.3861
罕	-11.3861
动也不动	-11.3865
为父	-11.3868
越想越	-11.3871
奸贼	-11.3871
次晨	-11.3874
温	-11.3876
叩	-11.3881
以报	-11.3881
温暖	-11.3882
组	-11.3883
草丛	-11.3884
感应	-11.3884
一瞬之间	-11.3886
操	-11.3887
空空	-11.3888
第七	-11.3889
怖	-11.389
霎	-11.389
霍地站起	-11.3891
狞	-11.3891
伦	-11.3891
裤	-11.3891
破洞	-11.3892
躯	-11.3893
铸	-11.3894
媳妇	-11.3894
养育	-11.3894
誉	-11.3894
释	-11.3894
靖	-11.3895
千夫长	-11.3895
宰	-11.3896
枢	-11.3896
无常鬼	-11.3896
朱大叔	-11.3896
晶	-11.3896
睬	-11.3896
皇帝	-11.3897
十六名	-11.3897
谊	-11.3897
莽	-11.3897
眶	-11.3897
万夫长	-11.3897
次日	-11.3897
桃	-11.3897
愚	-11.3897
咒	-11.3898
纹	-11.3898
政	-11.3898
岳	-11.3898
凌	-11.3898
况	-11.3898
百夫长	-11.3898
滚来滚去	-11.3898
尿	-11.3898
鸦	-11.3898
呀	-11.3899
措	-11.3899
栗	-11.3899
元帅	-11.3899
陀	-11.3899
债	-11.3899
凤冠	-11.3899
监	-11.3899
那中年妇人	-11.3899
似笑非笑	-11.3899
籍	-11.3899
邦	-11.3899
梅超风	-11.3899
这贼谷主	-11.3899
匠	-11.3899
盲	-11.3899
燕	-11.39
耸	-11.39
晋	-11.39
欠	-11.39
窃	-11.39
嗒	-11.39
视而不见	-11.39
世代相传	-11.39
在伯仲之间	-11.39
踏上两步	-11.39
嘉	-11.39
炭	-11.39
省	-11.39
撅	-11.39
缚手缚脚	-11.39
拜了几拜	-11.39
记诵	-11.39
验	-11.39
围在垓心	-11.39
身子微	-11.39
媚	-11.39
那姓龙的女子	-11.39
涧	-11.39
猜测	-11.39
阻挠	-11.39
堵	-11.39
妒忌	-11.39
程陆二人	-11.39
丸	-11.39
八袋弟子	-11.39
嫌隙	-11.39
愠	-11.39
融	-11.39
剑魔独孤求败	-11.39
城上城下	-11.39
嘘	-11.39
平平无奇	-11.39
耶律兄妹	-11.39
膻中穴	-11.39
你哥儿俩	-11.39
内心深处	-11.39
刁钻	-11.39
切磋	-11.39
背诵	-11.39
覆	-11.39
瓦	-11.39
鲜血长流	-11.39
老翁	-11.39
心灰意懒	-11.39
钦仰	-11.39
隐隐约约	-11.39
也算得	-11.39
帘	-11.39
手足无措	-11.39
腮	-11.39
责罚	-11.39
赤练魔头	-11.39
一片寂静	-11.39
囚	-11.39
泡	-11.39
难以自已	-11.39
从怀里取出	-11.39
唾	-11.39
巷	-11.39
足智多谋	-11.39
姓杨名过	-11.39
厨	-11.39
祭	-11.39
祷	-11.39
不输于	-11.39
东吴	-11.39
各挺长剑	-11.39
周遭情势	-11.39
疗毒	-11.39
贞	-11.39
猴	-11.39
髯	-11.39
刀枪不入	-11.39
嘻	-11.39
过意不去	-11.39
酷	-11.39
统率	-11.39
屡	-11.3901
晋南	-11.3901
深仇大怨	-11.3901
小棒头	-11.3901
滴溜溜	-11.3901
一瞬间	-11.3901
分从左右	-11.3901
煮	-11.3901
喜出望外	-11.3901
严峻	-11.3901
扒	-11.3901
泛	-11.3901
温雅	-11.3901
玲	-11.3901
程陆二女	-11.3901
达摩祖师	-11.3901
雪地里	-11.3901
柜	-11.3901
中气充沛	-11.3901
模糊	-11.3901
症	-11.3901
简略说了	-11.3901
涨	-11.3901
怦怦而跳	-11.3901
杀父仇人	-11.3901
步履	-11.3901
越奔越	-11.3901
悠悠	-11.3901
十之八九	-11.3901
天真烂漫	-11.3901
拖泥带水	-11.3901
撒谎	-11.3901
祷祝	-11.3901
袖手旁观	-11.3901
这贼杀才	-11.3901
骄	-11.3901
女婴	-11.3901
一顿饭时分	-11.3901
尼姑	-11.3901
气喘吁吁	-11.3901
鼠	-11.3901
只作不见	-11.3901
居高临下	-11.3901
惨厉	-11.3901
毛骨悚然	-11.3901
秦	-11.3901
议论	-11.3901
神不守舍	-11.3901
脸露微笑	-11.3901
从头至尾	-11.3901
俊雅	-11.3901
偿	-11.3901
武家哥哥	-11.3901
陆冠英	-11.3901
一招一式	-11.3901
亲眼见到	-11.3901
侧耳倾听	-11.3901
菩萨	-11.3901
酌	-11.3901
以毒攻毒	-11.3901
例	-11.3901
十五六岁	-11.3901
一饮而尽	-11.3901
倍增	-11.3901
噩	-11.3901
摸不着头脑	-11.3901
糟糕	-11.3901
踏上半步	-11.3901
的影子	-11.3901
碟	-11.3901
咕咕	-11.3901
呼的一掌	-11.3901
麻痒难当	-11.3901
旗鼓相当	-11.3901
暗暗叫苦	-11.3901
茅舍	-11.3901
落英神剑掌	-11.3901
阴阳双刃	-11.3901
两把剑	-11.3901
天罗地网势	-11.3901
讨厌	-11.3901
钗	-11.3901
大蒙古国	-11.3901
走上前去	-11.3901
迟钝	-11.3901
无耻之徒	-11.3901
黎明	-11.3901
以一敌	-11.3901
郭二小姐	-11.3901
渔隐	-11.3902
秘奥	-11.3902
馆	-11.3902
愕然相顾	-11.3902
幕	-11.3902
侍候	-11.3902
分心二用	-11.3902
警	-11.3902
母女俩	-11.3902
资质	-11.3902
赐予	-11.3902
牲口	-11.3902
一心一意	-11.3902
不加理睬	-11.3902
光耀眼	-11.3902
岳父岳母	-11.3902
烫	-11.3902
嘴巴	-11.3902
塘	-11.3902
痴恋	-11.3902
越斗越	-11.3902
低头沉思	-11.3902
临死之际	-11.3902
奶奶	-11.3902
陈设	-11.3902
殆	-11.3902
违拗	-11.3902
得更快	-11.3902
蒙古第一勇士	-11.3902
周师叔祖	-11.3902
猜不透	-11.3902
踪影	-11.3902
刹时之间	-11.3902
越打越	-11.3902
犹豫	-11.3902
娇嫩	-11.3902
粮草	-11.3902
聪明伶俐	-11.3902
完颜姑娘	-11.3902
武功最强	-11.3902
兴奋	-11.3902
念念不忘	-11.3902
沟	-11.3902
身中剧毒	-11.3902
这当儿	-11.3902
心情激动	-11.3902
秘密	-11.3902
发射暗器	-11.3902
转过头去	-11.3902
喘息	-11.3902
膝弯	-11.3902
目眩	-11.3902
恕罪	-11.3902
数倍	-11.3902
饭店	-11.3902
令牌	-11.3903
君臣	-11.3903
奋勇	-11.3903
乱七八糟	-11.3903
作伪	-11.3903
没来由的	-11.3903
奈何	-11.3903
七个道人	-11.3903
满脸喜色	-11.3903
体贴	-11.3903
勤练	-11.3903
展翅	-11.3903
栗树	-11.3903
一口鲜血喷	-11.3903
大有进境	-11.3903
尹兄	-11.3903
祖父	-11.3903
缎子	-11.3903
空明拳	-11.3903
木桩	-11.3903
周密	-11.3903
婆娘	-11.3903
残忍	-11.3903
羞愧	-11.3903
花纹	-11.3903
云雾	-11.3903
瓶塞	-11.3903
青砖	-11.3904
二十岁	-11.3904
桃花	-11.3904
一条臂膀	-11.3904
退了一步	-11.3904
谎言	-11.3904
一言甫	-11.3904
即逝	-11.3904
晃了几下	-11.3904
毒液	-11.3904
永世	-11.3904
程英与陆无双	-11.3904
三十来岁	-11.3904
为伍	-11.3904
动起手来	-11.3904
摸索	-11.3904
僵持	-11.3904
挣脱	-11.3904
罪孽	-11.3904
转马头	-11.3904
庄严	-11.3904
愤激	-11.3904
卫护	-11.3904
哇哇大叫	-11.3904
娇羞	-11.3904
给人害死	-11.3904
公鸡	-11.3905
听你的话	-11.3905
再斗下去	-11.3905
这小贼	-11.3905
郭芙和武氏兄弟	-11.3905
止歇	-11.3905
上乘内功	-11.3905
时刻稍	-11.3905
疾趋	-11.3905
枝叶	-11.3905
递了过去	-11.3905
隔了半晌	-11.3905
退开两步	-11.3905
敌营	-11.3905
反驳	-11.3906
杨大侠	-11.3906
跃上屋顶	-11.3906
幸亏	-11.3906
臭小子	-11.3906
野果	-11.3906
一股疾风	-11.3906
忘记	-11.3906
恩德	-11.3906
功力深厚	-11.3906
趋避	-11.3906
调息	-11.3906
仁义	-11.3906
听你话	-11.3906
震荡	-11.3906
师侄	-11.3906
放火烧	-11.3907
机缘	-11.3907
茶碗	-11.3907
拒敌	-11.3907
一枚金针	-11.3907
急忙后跃	-11.3907
靖儿	-11.3907
鬼魂	-11.3907
左胁	-11.3907
秀美	-11.3907
平野	-11.3907
突袭	-11.3907
愤恨	-11.3907
溪边	-11.3907
迈步	-11.3907
闹了个	-11.3907
好生感激	-11.3907
应援	-11.3907
中含意	-11.3907
月亮	-11.3907
玉虚洞前	-11.3907
羊皮	-11.3907
你敢不敢	-11.3907
玩闹	-11.3907
杨过与绿萼	-11.3908
摔将下来	-11.3908
厅角	-11.3908
所能及	-11.3908
配制	-11.3908
武功之高	-11.3908
小妾	-11.3908
不到半个时辰	-11.3908
尘土	-11.3908
举杯	-11.3908
缓步上前	-11.3908
一翁	-11.3909
斥骂	-11.3909
火叉	-11.3909
思量	-11.3909
遇险	-11.3909
逼迫	-11.3909
喜慰	-11.3909
黄金杵	-11.3909
两匹马	-11.3909
晚饭	-11.3909
亲密	-11.3909
纷飞	-11.3909
主母	-11.3909
发泄	-11.3909
怪责	-11.391
武兄	-11.391
一声喊	-11.391
跛足	-11.391
并骑	-11.391
奸恶	-11.391
五弟	-11.391
凶光	-11.391
结识	-11.391
暗暗奇怪	-11.391
▁忽听	-11.391
掌套	-11.391
玩玩	-11.3911
寒冷	-11.3911
疲累	-11.3911
酣斗	-11.3911
父女	-11.3911
帽子	-11.3911
任帮主	-11.3911
四个女子	-11.3911
个法儿	-11.3911
能否	-11.3912
厮打	-11.3912
陆家	-11.3912
武功天下第一	-11.3912
霍地	-11.3912
寻仇	-11.3912
俗家	-11.3912
读书	-11.3912
郭大侠夫妇	-11.3912
姓龙	-11.3912
横扫过去	-11.3913
习练	-11.3913
放在桌上	-11.3913
精熟	-11.3913
缘由	-11.3913
练习	-11.3913
击在他的	-11.3913
仰望	-11.3913
温和	-11.3913
巧劲	-11.3913
在人世	-11.3914
携同	-11.3914
酒饭	-11.3914
相烦	-11.3914
右手袖子	-11.3914
阳光	-11.3914
当先一人	-11.3915
半寸	-11.3915
观礼	-11.3915
手上劲力	-11.3915
招展	-11.3915
蒙古军营	-11.3915
阴世	-11.3915
说的都是	-11.3915
小球	-11.3915
睡梦中	-11.3916
殴打	-11.3916
低垂	-11.3916
书架	-11.3916
保全	-11.3916
悲痛	-11.3916
巧合	-11.3916
使诈	-11.3916
喀喇喇	-11.3916
佛法	-11.3916
哪容	-11.3916
新妈妈	-11.3917
且莫	-11.3917
决计不会	-11.3917
室内	-11.3917
相触	-11.3917
逐走	-11.3917
高弟	-11.3917
山谷间	-11.3917
墙边	-11.3918
用藏语	-11.3918
本门功夫	-11.3918
保重	-11.3918
特别	-11.3919
傲然	-11.3919
拔步	-11.3919
黄光	-11.3919
草木	-11.3919
妙药	-11.3919
横削	-11.3919
酒楼上	-11.3919
骨肉	-11.3919
座位	-11.3919
掩面	-11.392
的小命	-11.392
杀父	-11.392
做梦	-11.392
迎敌	-11.392
莲子	-11.3921
灰白	-11.3921
成了亲	-11.3921
摇动	-11.3921
掠地	-11.3922
乱闯	-11.3922
讨教	-11.3922
两名道人	-11.3922
散乱	-11.3924
丐帮的帮主	-11.3924
白影	-11.3924
海边	-11.3925
贵教	-11.3925
公然	-11.3925
手中接过	-11.3925
长期	-11.3926
四壁	-11.3926
坏事	-11.3926
敬酒	-11.3927
须眉	-11.3927
打岔	-11.3927
断腿	-11.3928
尤胜	-11.3928
惧怕	-11.3929
正式	-11.3929
一听之下	-11.3929
本该	-11.3929
轻轻叹了口气	-11.393
之惨	-11.393
给了我	-11.393
妖人	-11.393
余地	-11.393
房外	-11.393
活不成	-11.3931
练玉女心经	-11.3931
六招	-11.3931
我不爱	-11.3932
做和尚	-11.3932
旧情	-11.3932
斗了起来	-11.3932
气愤	-11.3932
发麻	-11.3933
侧过	-11.3933
分站	-11.3933
抢步	-11.3934
明月	-11.3934
大感诧异	-11.3934
左手一挥	-11.3934
瞎子	-11.3935
崩断	-11.3935
快速	-11.3935
头晕	-11.3935
高士	-11.3936
两人相对	-11.3936
挥拳	-11.3936
大叔	-11.3937
两名弟子	-11.3938
直透	-11.3938
举拂尘	-11.3938
红光	-11.3938
好大的	-11.3938
古墓派轻功	-11.3939
退避	-11.394
本欲	-11.394
杖法	-11.394
境地	-11.394
此仇	-11.3941
福气	-11.3941
查问	-11.3941
吃完	-11.3941
休想	-11.3941
拆到	-11.3941
专心	-11.3942
荒谷中	-11.3942
挟着	-11.3943
竟有如此	-11.3943
回音	-11.3943
决定	-11.3943
火折	-11.3943
北边	-11.3943
随即会意	-11.3943
心中一震	-11.3943
矮身	-11.3944
跃进	-11.3944
怒容	-11.3944
向来路	-11.3944
相激	-11.3945
相较	-11.3945
争斗	-11.3945
古墓派的武功	-11.3945
授以	-11.3946
到处都是	-11.3946
而卧	-11.3946
为僧	-11.3946
徒然	-11.3946
嘴里	-11.3947
芝房	-11.3947
另行	-11.3948
在南阳	-11.3949
堆乱石	-11.395
长约	-11.395
还有谁	-11.395
▁那婆婆	-11.395
所害	-11.395
回到古墓	-11.395
伸出双手	-11.3951
细微	-11.3951
钉子	-11.3951
床前	-11.3952
小时候	-11.3952
宝马	-11.3952
引开	-11.3952
未复	-11.3953
夹手	-11.3953
王子	-11.3953
求救	-11.3954
相像	-11.3954
未答	-11.3954
尼摩星等	-11.3954
龙姑姑	-11.3956
年轻时	-11.3959
无甚	-11.3959
这些话	-11.396
峰顶	-11.3962
外衣	-11.3962
椅中	-11.3967
大慰	-11.3967
回复	-11.3967
有重大	-11.3967
▁怪客	-11.3967
戴着	-11.3968
言明	-11.3968
亲近	-11.3968
约略	-11.3969
斜飞	-11.3969
两侧	-11.3969
多端	-11.3969
一份	-11.3969
挽住	-11.397
内外	-11.3971
落在地下	-11.3971
不禁一怔	-11.3972
相避	-11.3973
力战	-11.3973
含笑	-11.3975
战马	-11.3975
小嘴	-11.3975
一部	-11.3975
中途	-11.3977
如此无礼	-11.3977
粘住	-11.3977
眼神	-11.3978
发暗器	-11.3978
舞得	-11.3979
复生	-11.398
接住了	-11.398
精力	-11.3981
深信	-11.3981
如果	-11.3981
被逼	-11.3983
迟得	-11.3983
何事	-11.3983
相撞	-11.3983
这厮	-11.3984
听他说话	-11.3984
相逼	-11.3984
若干	-11.3984
明言	-11.3985
神通	-11.3985
撑住	-11.3986
白日	-11.3987
这贼秃	-11.3987
神奇	-11.3987
摸着	-11.3988
奔马	-11.3989
发射	-11.3989
当真动手	-11.399
长久	-11.399
奔行	-11.3993
众道人	-11.3993
师长	-11.3995
立时便要	-11.3995
只打得	-11.3997
又来了	-11.3997
那军官	-11.3998
为止	-11.3999
抢前	-11.4
透着	-11.4002
拉开	-11.4003
打完	-11.4003
数百人	-11.4003
伤敌	-11.4004
无语	-11.4005
竖起	-11.4005
除非是	-11.4006
聚集	-11.4007
本意	-11.4008
会合	-11.4008
了几口	-11.4008
花儿	-11.4008
远走	-11.4009
颇感	-11.401
▁那老者	-11.401
甚至	-11.4011
墓碑	-11.4012
拔下	-11.4013
▁潇湘子等	-11.4014
即行	-11.4014
两旁	-11.4015
无功	-11.4015
搭在	-11.4016
大剪	-11.4017
横剑	-11.4018
小武	-11.4018
数十人	-11.4021
在城下	-11.4021
▁那少妇	-11.4021
▁那道姑	-11.4021
半年	-11.4024
奔入	-11.4025
势力	-11.4027
缺口	-11.4027
唯一	-11.4028
你胆敢	-11.4028
你倒说	-11.4029
这地方	-11.403
转了几个	-11.403
▁二武	-11.4031
看似	-11.4033
没睡	-11.4033
用兵	-11.4035
不坏	-11.4038
手背上	-11.4043
收起	-11.4044
难道不是	-11.4044
意示	-11.4045
极尽	-11.4046
两穴	-11.4047
推动	-11.4048
要请教	-11.4048
怯了	-11.4049
当口	-11.405
化成	-11.405
一个月	-11.4051
却又如何	-11.4052
大是奇怪	-11.4054
打铁	-11.4055
攀上	-11.4055
即能	-11.4055
你们两个	-11.4055
事迹	-11.4057
忍住	-11.4057
忽起	-11.4057
自持	-11.4059
也来了	-11.406
再也不能	-11.4061
石棺中	-11.4063
片刻间便	-11.4063
看看	-11.4066
踢出	-11.4068
强行	-11.4069
八人	-11.4072
不好意思	-11.4073
使开	-11.4073
走路	-11.4075
定当	-11.4081
运起	-11.4083
一躬	-11.4084
此外	-11.4086
实难	-11.4086
开山	-11.4088
突听	-11.4088
回掌	-11.4089
不用怕	-11.4091
斩去	-11.4091
在田	-11.4096
奇事	-11.4098
树丛中	-11.4098
领军	-11.4099
轻轻一推	-11.41
一绊	-11.4103
在山下	-11.4104
不浅	-11.4107
总之	-11.4107
逼出	-11.4108
果有	-11.4109
上次	-11.411
气势	-11.4113
左手食指	-11.4114
跌得	-11.4118
在襄阳城	-11.4119
这匹	-11.4119
砸去	-11.4121
有胆子	-11.4121
生火	-11.4123
怎肯	-11.4125
无毒	-11.4128
三个人	-11.413
发声	-11.413
小字	-11.4131
大乐	-11.4132
直响	-11.4134
上山来	-11.4134
碗茶	-11.4134
见礼	-11.4135
怔	-11.4137
大忌	-11.4137
见丈夫	-11.414
受损伤	-11.4141
过世	-11.4142
小妹妹	-11.4143
有意要	-11.4144
四下一	-11.4144
逐出	-11.4152
此行	-11.4153
窜上	-11.4157
向西北方	-11.4162
墓室	-11.4165
不足以	-11.4165
不理睬	-11.4166
发力	-11.4167
不知是何	-11.4171
隐藏	-11.4179
头里	-11.4179
却也不能	-11.4181
之苦	-11.4185
盘中	-11.4195
在水中	-11.4198
听师父	-11.4199
圆圈	-11.4201
你不知道	-11.4208
心中极是	-11.4218
个弯	-11.4225
箭射	-11.4227
窜入	-11.4233
插手	-11.4234
别哭	-11.4234
闯出	-11.424
大计	-11.4244
正合	-11.4261
当他是	-11.4281
向后退	-11.4285
哪里找	-11.4285
我也不怕	-11.4296
起始	-11.4299
喀的一声	-11.43
射入	-11.4302
就是这样	-11.4309
重重打	-11.4309
退数步	-11.4322
交换	-11.4324
点燃了	-11.4325
后堂	-11.4339
是丐帮的	-11.435
心中微微一	-11.4356
是自己人	-11.436
小溪	-11.4361
神龙	-11.4363
真力	-11.4363
塞在	-11.4365
始终不肯	-11.4366
决不容	-11.4376
不小心	-11.4385
那也不用	-11.439
走入	-11.4395
直追	-11.4414
一大块	-11.4421
入耳	-11.4426
说了几句	-11.4432
不知是否	-11.4439
不相同	-11.4446
欢乐	-11.4452
山壁	-11.4475
是甚么人	-11.4478
觉奇怪	-11.4482
始终不见	-11.4483
古墓派武功	-11.4487
有愧	-11.4488
小脑袋	-11.4493
手一挥	-11.4586
入阵	-11.4587
鸣声	-11.4593
黄衫	-11.4602
一扇	-11.4628
初时还	-11.4639
喀喇一声	-11.4645
既知	-11.4646
潜入	-11.4655
腾的一	-11.4681
右眼	-11.4683
结结实实	-11.4684
自然知道	-11.4693
脱下	-11.47
换上	-11.4714
多了一个	-11.4714
悉	-11.4716
出帐	-11.4716
只这么一	-11.4717
进城	-11.4732
独居	-11.4733
小龙女凄然	-11.4744
刺杀郭靖	-11.4744
让开了	-11.4751
女孩子	-11.4772
你爹爹妈妈	-11.4809
就由	-11.4825
在下面	-11.4852
声惊呼	-11.4862
机变	-11.4866
也敢	-11.4875
个规矩	-11.4879
才不致	-11.4881
将钢杖	-11.489
引路	-11.4891
挺剑向	-11.4914
根树枝	-11.4914
每隔	-11.4919
捉麻雀	-11.4954
白嫩	-11.4961
记住	-11.4987
群山	-11.4998
有一件事	-11.5006
怎能跟	-11.5008
没瞧见	-11.503
轻拍	-11.5045
情深爱	-11.5052
七八十	-11.508
不必多	-11.5093
呼痛	-11.5095
没放在心上	-11.5102
大树上	-11.5111
若在平	-11.5116
一皱	-11.5118
谁都不	-11.5123
只觉一股大力	-11.5146
心下甚是	-11.5175
洞内	-11.5186
加紧	-11.52
挥棒	-11.5215
须用	-11.5226
未必能	-11.523
小女孩儿	-11.5231
踏上了	-11.5235
受挫	-11.5243
溪中	-11.5243
虽觉	-11.5253
不枉了	-11.5309
过多少	-11.5309
剑圈	-11.5312
溜走	-11.5316
老人家	-11.5318
黑暗之中	-11.5325
四弟	-11.5341
加快	-11.5344
那便如何	-11.5347
哪里去了	-11.5361
丝毫无	-11.5362
意思说	-11.5366
梁上	-11.5368
八字	-11.5394
奇痒	-11.5403
终南山重阳宫	-11.5405
似欲	-11.5406
众位	-11.5424
连声呼	-11.5424
论到	-11.5432
死在一起	-11.5445
后领	-11.5448
摇手	-11.5461
全真教掌教	-11.5472
生辰	-11.5473
恨恨	-11.5477
二丑	-11.548
加深	-11.5487
决难	-11.5511
筹	-11.5523
羊太傅	-11.5525
楞	-11.5528
崩	-11.5528
叮当	-11.553
串	-11.5531
之声大作	-11.5532
一声大叫	-11.5533
往地下一掷	-11.5533
烧死	-11.5533
堪	-11.5539
八个字	-11.554
椎	-11.5544
忒	-11.5545
央	-11.5545
询	-11.5549
只剩	-11.5552
材	-11.5554
乱子	-11.5555
宗师	-11.5555
昨	-11.5556
预	-11.5556
庸	-11.5559
军营	-11.556
儒	-11.556
襄	-11.556
研	-11.5561
熬	-11.5562
炼	-11.5562
呕	-11.5562
农	-11.5563
一笔勾销	-11.5563
獐	-11.5564
稀	-11.5564
了一口长气	-11.5564
侮	-11.5564
冯	-11.5564
迸	-11.5565
腔	-11.5565
尹赵二道	-11.5565
殷	-11.5565
乙	-11.5565
慑	-11.5565
判	-11.5565
怜悯之	-11.5565
绪	-11.5565
稚	-11.5565
屋外	-11.5565
心悦诚服	-11.5565
梅	-11.5565
郝师弟	-11.5566
帅	-11.5566
翔	-11.5566
叨	-11.5566
煎	-11.5566
的徒子徒孙	-11.5566
听在耳里	-11.5566
帚	-11.5566
巴	-11.5566
瞬息间	-11.5566
宠	-11.5566
洞房花烛	-11.5566
敦儒	-11.5566
惠	-11.5566
我在绝	-11.5566
临死之时	-11.5566
反唇相	-11.5566
踹	-11.5566
在羊太傅庙中	-11.5566
县	-11.5566
发脾气	-11.5566
族	-11.5566
忤	-11.5566
叮嘱	-11.5566
比划比划	-11.5566
骑在马上	-11.5566
蜡	-11.5566
县官	-11.5566
若游丝	-11.5566
富	-11.5566
分进合击	-11.5566
姨	-11.5566
往地下一	-11.5566
做声不得	-11.5567
咸	-11.5567
屹立	-11.5567
怒目而视	-11.5567
炽	-11.5567
相顾骇然	-11.5567
窦	-11.5567
大胜关英雄大会	-11.5567
羡慕	-11.5567
青衫少女	-11.5567
模	-11.5567
崇	-11.5567
幸灾乐祸	-11.5567
拿在手中	-11.5567
逆运经脉	-11.5567
锯齿金刀	-11.5567
三日三夜	-11.5567
全神戒备	-11.5567
瞧上一眼	-11.5567
格格作响	-11.5567
截然不同	-11.5567
相差太远	-11.5567
难以自制	-11.5567
预备	-11.5567
失魂落魄	-11.5567
有说有笑	-11.5567
死有余辜	-11.5567
蛙	-11.5567
逃得性命	-11.5567
那姓杨的小子	-11.5567
寒暑	-11.5567
更加响了	-11.5567
羁	-11.5567
竟有如斯	-11.5567
陈玄风	-11.5567
范	-11.5567
坐起身来	-11.5567
更加近了	-11.5567
竭尽全力	-11.5567
连连摇手	-11.5567
销	-11.5567
伶俐	-11.5567
介	-11.5567
低下了头	-11.5567
冲口而出	-11.5567
巴巴的	-11.5567
耍	-11.5567
亲眼目睹	-11.5567
四大长老	-11.5567
序	-11.5567
懈	-11.5567
星光下	-11.5567
盟	-11.5567
神通广大	-11.5567
虞	-11.5567
锅	-11.5567
猿猴	-11.5567
一窟鬼	-11.5567
主帅	-11.5567
乖僻	-11.5567
剐	-11.5567
格格娇笑	-11.5567
伟	-11.5567
腐	-11.5567
戮	-11.5567
您	-11.5567
一个打滚	-11.5567
一跷一拐	-11.5567
五脏六腑	-11.5567
告诉	-11.5567
喷出一口鲜血	-11.5567
回心转意	-11.5567
心痒难搔	-11.5567
束手待毙	-11.5567
玫瑰花	-11.5567
相顾失色	-11.5567
眼花缭乱	-11.5567
破涕为笑	-11.5567
飕的一声	-11.5567
取他性命	-11.5567
从窗中	-11.5567
靡	-11.5567
认错了人	-11.5567
啰唆	-11.5567
懦	-11.5567
灿烂	-11.5567
腾挪	-11.5567
九花玉露丸	-11.5567
又有何难	-11.5567
无坚不摧	-11.5567
的份儿	-11.5567
冒昧	-11.5567
力充沛	-11.5567
得更加紧了	-11.5567
武功之强	-11.5567
迈开大步	-11.5567
八十一只麻雀	-11.5567
十天半月	-11.5567
姊弟	-11.5567
怅	-11.5567
灵智上人	-11.5567
直上直下的	-11.5567
胡作非为	-11.5567
衷	-11.5567
长须鬼和大头鬼	-11.5567
疤	-11.5567
沮	-11.5567
晦	-11.5567
不知天高地厚	-11.5567
喃喃自语	-11.5567
推举帮主	-11.5567
牢牢记住	-11.5567
屠戮	-11.5567
安寝	-11.5568
所作所为	-11.5568
来赴英雄宴	-11.5568
毫不费力	-11.5568
理也不理	-11.5568
癞皮狗	-11.5568
篆	-11.5568
这会儿	-11.5568
醋	-11.5568
鲁莽	-11.5568
夭	-11.5568
提高声音	-11.5568
▁蒙哥	-11.5568
不听使唤	-11.5568
在哪儿	-11.5568
放慢脚步	-11.5568
翻来覆去	-11.5568
一无所知	-11.5568
多管闲事	-11.5568
姓赵的	-11.5568
梳妆	-11.5568
珠穆朗玛	-11.5568
笛	-11.5568
默默无言	-11.5568
如影随形	-11.5568
说个明白	-11.5568
酸楚	-11.5568
光明磊落	-11.5568
裘千丈	-11.5568
睹	-11.5568
五行生克	-11.5568
发异光	-11.5568
平白无端的	-11.5568
敛	-11.5568
无缘无故的	-11.5568
精微奥妙	-11.5568
融会贯通	-11.5568
退了几步	-11.5568
伸出手来	-11.5568
压根儿	-11.5568
眼睁睁望着	-11.5568
莽汉	-11.5568
诵读	-11.5568
赵真人	-11.5568
冒大险	-11.5568
凹	-11.5568
圣因师太	-11.5568
左右互搏之术	-11.5568
瑶琴	-11.5568
陆乘风	-11.5568
寸步不离	-11.5568
我带你去	-11.5568
篮	-11.5568
蒙古众武士	-11.5568
盟主之位	-11.5568
伸手入怀	-11.5568
棚	-11.5568
死于非命	-11.5568
浑若无事	-11.5568
看准了	-11.5568
筒	-11.5568
说不出的舒服	-11.5568
软软的	-11.5568
辅佐	-11.5568
适逢	-11.5568
金铃软索	-11.5568
不即不离的	-11.5568
在旷野	-11.5568
清净散人	-11.5568
焦虑	-11.5568
皓	-11.5568
维护	-11.5568
悠	-11.5568
头一低	-11.5568
渴	-11.5568
神力惊人	-11.5568
腥臭	-11.5568
不明所以	-11.5568
低沉着嗓子	-11.5568
欲呕	-11.5568
示警	-11.5568
玎玲	-11.5568
凹凹凸凸	-11.5568
厮拚	-11.5568
喻	-11.5568
拆了十余招	-11.5568
摇了几摇	-11.5568
连人带椅	-11.5568
千真万确	-11.5568
麻痒	-11.5568
远眺	-11.5568
抗御	-11.5568
无中生有	-11.5568
红红的	-11.5568
讳	-11.5568
豪爽	-11.5568
走近身去	-11.5568
温馨	-11.5568
赤裸	-11.5568
凌波	-11.5568
侯	-11.5568
啼鸣	-11.5568
心惊胆战	-11.5568
瞑目	-11.5568
许配于	-11.5568
那女魔头	-11.5568
同样	-11.5568
奋不顾身	-11.5568
平平安安的	-11.5568
异族	-11.5568
潇湘子和尼摩星	-11.5568
虎吼	-11.5568
迭	-11.5568
锄	-11.5568
腾腾	-11.5569
受敕封	-11.5569
粉身碎骨	-11.5569
心意已决	-11.5569
扫帚	-11.5569
瑰	-11.5569
谱	-11.5569
越看越	-11.5569
追赶不上	-11.5569
冤孽	-11.5569
变化精微	-11.5569
合十行礼	-11.5569
整日价	-11.5569
深情无限	-11.5569
七情六欲	-11.5569
剽悍	-11.5569
千斤坠	-11.5569
无路可	-11.5569
禽兽	-11.5569
站在当地	-11.5569
署	-11.5569
马钰等	-11.5569
四十岁	-11.5569
越瞧越	-11.5569
奥妙无穷	-11.5569
抢了去	-11.5569
蒙古大汗的敕封	-11.5569
迎亲人众	-11.5569
从来没见过	-11.5569
安安稳稳	-11.5569
密密	-11.5569
怀孕	-11.5569
蒙古皇帝	-11.5569
那贱婢	-11.5569
士卒	-11.5569
秉	-11.5569
龙家妹子	-11.5569
从他头顶	-11.5569
兜圈子	-11.5569
大宋江山	-11.5569
百来斤	-11.5569
的要旨	-11.5569
臀部	-11.5569
酬	-11.5569
防范	-11.5569
涯	-11.5569
公孙老儿	-11.5569
查察	-11.5569
神出鬼没	-11.5569
精研	-11.5569
胫	-11.5569
耶律兄	-11.5569
麦	-11.5569
嘻嘻哈哈	-11.5569
广博	-11.5569
条黑影	-11.5569
牛鼻子老道	-11.5569
并无恶意	-11.5569
行走江湖	-11.5569
厌烦	-11.5569
来得好快	-11.5569
足为奇	-11.5569
团聚	-11.5569
好生后悔	-11.5569
姓李	-11.5569
高高举起	-11.5569
纠缠不清	-11.5569
十多岁	-11.5569
叫了两声	-11.5569
手下容情	-11.5569
讨不了好去	-11.5569
这路掌法	-11.5569
一名百夫长	-11.557
攀援	-11.557
肚子饿	-11.557
剧痛难当	-11.557
两位武兄	-11.557
试一试	-11.557
恚怒	-11.557
九十八	-11.557
群丐	-11.557
铁拐	-11.557
守宫砂	-11.557
平庸	-11.557
捏造	-11.557
激昂	-11.557
要见神雕侠	-11.557
吞吐	-11.557
连绵	-11.557
严谨	-11.557
了一夜	-11.557
十八岁	-11.557
妥善	-11.557
跟在后面	-11.557
哪想得到	-11.557
愤愤的	-11.557
我偏要	-11.557
武学名家	-11.557
武林盟主之位	-11.557
父母之命	-11.557
具空棺	-11.557
郊外	-11.557
缓步而出	-11.557
迟迟不	-11.557
虎豹	-11.557
回头一望	-11.557
抢上前去	-11.557
来捉我	-11.5571
农家	-11.5571
堂堂	-11.5571
拦腰	-11.5571
心中也自	-11.5571
伏魔	-11.5571
伙计	-11.5571
释放	-11.5571
聪明才智	-11.5571
姓柳	-11.5571
已有计较	-11.5571
漫游	-11.5571
这套掌法	-11.5571
部属	-11.5571
气馁	-11.5571
催动掌力	-11.5571
任掌教	-11.5571
叛徒	-11.5571
好生失望	-11.5571
怎生是好	-11.5571
洞孔	-11.5571
毫不在意	-11.5571
逗留	-11.5571
角落里	-11.5571
筋骨	-11.5571
傲慢	-11.5572
欣然	-11.5572
剑冢	-11.5572
碎裂	-11.5572
倏忽之间	-11.5572
汉奸	-11.5572
护卫	-11.5572
揭穿	-11.5572
枣子	-11.5572
记载	-11.5572
另一端	-11.5572
受伤不轻	-11.5572
犯不着	-11.5572
渐渐远去	-11.5572
一切全是	-11.5572
岂敢	-11.5572
躺下	-11.5572
却不答话	-11.5572
彼端	-11.5572
隔壁	-11.5573
四王子	-11.5573
闲谈	-11.5573
帮务	-11.5573
放入口中	-11.5573
毫不理会	-11.5573
呸了一声	-11.5573
洪七公与欧阳锋	-11.5573
贤徒	-11.5573
周兄	-11.5573
偷盗	-11.5573
情谊	-11.5573
拉尿	-11.5573
这两掌	-11.5573
露出破绽	-11.5573
搜寻	-11.5573
个法子	-11.5574
烦恶	-11.5574
好生为难	-11.5574
尸首	-11.5574
远远传来	-11.5574
太湖	-11.5574
全身酸软	-11.5574
上终南山来	-11.5574
昨天	-11.5574
伸手扶住	-11.5574
带着三分	-11.5574
悲切	-11.5574
麻软	-11.5575
千古	-11.5575
吃奶	-11.5575
溪流	-11.5575
玩弄	-11.5575
天枢	-11.5575
投缘	-11.5575
李姑娘	-11.5575
台下群雄	-11.5575
四川	-11.5575
有趣得紧	-11.5575
新野	-11.5575
拦路	-11.5575
悟性	-11.5575
与人动手	-11.5575
追逐	-11.5575
一上来就	-11.5575
双剑相交	-11.5575
瞧得清清楚楚	-11.5575
沿路	-11.5575
任脉	-11.5575
歉然	-11.5575
这些日子	-11.5575
低啸	-11.5576
群英	-11.5576
也就罢了	-11.5576
双爪	-11.5576
脸上满是	-11.5576
一枚银针	-11.5576
粮	-11.5576
的问话	-11.5576
本拟	-11.5576
程姑娘	-11.5576
再拆数	-11.5576
躲了起来	-11.5576
能救得	-11.5576
瞎缠	-11.5576
循声	-11.5576
是当代	-11.5576
脸一沉	-11.5576
丢脸	-11.5576
一块岩石	-11.5576
攻拒	-11.5576
至少也	-11.5576
翻腾	-11.5577
屏风	-11.5577
虚晃	-11.5577
裤子	-11.5577
指甲	-11.5577
遭遇	-11.5577
传讯	-11.5577
腋下	-11.5577
觉远大师	-11.5577
朝阳	-11.5577
下颚	-11.5577
临死时	-11.5577
抵敌不住	-11.5577
外表	-11.5577
心眼儿	-11.5577
百余里	-11.5577
门规	-11.5577
坐在石上	-11.5577
广东	-11.5577
奸细	-11.5578
在这墓中	-11.5578
沉雄	-11.5578
志敬	-11.5578
玩意儿	-11.5578
神僧	-11.5578
上心来	-11.5578
每一招都是	-11.5578
绝俗	-11.5578
各执	-11.5578
天色大明	-11.5578
惧色	-11.5578
及不上	-11.5578
尹志平与赵志敬	-11.5579
威震	-11.5579
立时毙命	-11.5579
潇湘子阴恻恻的	-11.5579
救他性命	-11.5579
全身一震	-11.5579
剧斗	-11.5579
烧毁	-11.5579
让我瞧瞧	-11.5579
势挟	-11.5579
没有听见	-11.5579
上前行礼	-11.5579
迅捷无比	-11.5579
剧毒无比	-11.558
听我话	-11.558
大声喝彩	-11.558
共居	-11.558
云云	-11.558
所述	-11.558
弹指神通功夫	-11.558
雕背	-11.558
争闹	-11.558
琴声	-11.558
这番言语	-11.5581
半碗	-11.5581
敲打	-11.5581
笔划	-11.5581
静坐	-11.5581
向小龙女望了一眼	-11.5582
竟无一人	-11.5582
雷震	-11.5582
随意	-11.5582
清亮	-11.5582
提一口气	-11.5582
听见过	-11.5583
的小脸	-11.5583
食物	-11.5583
怜爱	-11.5583
沉厚	-11.5583
僵直	-11.5583
无意之中	-11.5583
从半空中	-11.5583
极是得意	-11.5584
裹伤	-11.5584
无把握	-11.5584
十六年之约	-11.5584
青松	-11.5584
齐声答应	-11.5584
新帮主	-11.5584
北斗阵法	-11.5584
脚步之声	-11.5584
把戏	-11.5584
窗边	-11.5585
师承	-11.5585
光临	-11.5585
坐了下来	-11.5585
抗蒙古	-11.5585
称谢	-11.5585
糟啦	-11.5586
边缘	-11.5586
下床来	-11.5586
回旋	-11.5586
挥鞭	-11.5586
张臂	-11.5586
抵受不	-11.5586
乘虚	-11.5586
连珠	-11.5586
突然插口	-11.5586
重逢	-11.5587
葬身	-11.5587
求饶	-11.5587
踢腿	-11.5587
很喜欢	-11.5587
几个月	-11.5588
清香	-11.5588
年岁	-11.5588
催马	-11.5588
难以招架	-11.5589
独步	-11.5589
一个时辰	-11.5589
痴情	-11.5589
▁那四川人	-11.5589
要诀	-11.5589
报复	-11.5589
群鬼	-11.5589
所以能	-11.559
低首	-11.559
料敌	-11.559
逞能	-11.559
仇家	-11.5591
难保	-11.5591
依照	-11.5591
登觉	-11.5591
远较	-11.5591
动摇	-11.5591
得悉	-11.5591
抵命	-11.5592
搬开	-11.5592
急智	-11.5592
微现	-11.5592
丝带	-11.5592
得正急	-11.5592
孤身	-11.5593
手挺	-11.5593
屋内	-11.5593
两段	-11.5593
受辱	-11.5594
曾数次	-11.5594
前几日	-11.5595
刀枪	-11.5595
乱舞	-11.5595
本来面目	-11.5595
硬逼	-11.5595
倒转身子	-11.5596
说话的正是	-11.5597
微弱	-11.5598
丧身	-11.5598
纵身上前	-11.5598
僵尸一般	-11.5598
小顽童	-11.5599
妄想	-11.5599
瞧一眼	-11.5599
慈恩大师	-11.5599
无赖	-11.5599
险招	-11.56
石刻	-11.56
称赞自己	-11.56
靠近	-11.56
威名	-11.56
钟情	-11.56
对策	-11.5601
之技	-11.5601
那恶妇	-11.5602
养神	-11.5602
舌头	-11.5602
不中用	-11.5602
改变	-11.5602
窍要	-11.5602
追寻	-11.5603
尊重	-11.5603
转身欲	-11.5603
到郭襄身前	-11.5604
▁史仲猛	-11.5604
发毛	-11.5604
止住	-11.5604
父仇	-11.5604
欲绝	-11.5605
带领	-11.5605
李志常等	-11.5605
右拳	-11.5605
制敌	-11.5605
大臣	-11.5605
一串	-11.5605
服色	-11.5606
原因	-11.5606
想起当日	-11.5606
先父	-11.5606
相配	-11.5606
相扶	-11.5607
并力	-11.5607
嘴边	-11.5607
日常	-11.5607
宝刀	-11.5607
敝人	-11.5607
柱子	-11.5608
来找我	-11.5608
飞了出去	-11.5608
向他头顶	-11.5609
美酒	-11.5609
进屋去	-11.5609
是常事	-11.5609
厚意	-11.5609
凑到	-11.561
奇丑	-11.561
溪心	-11.561
十月	-11.561
面容	-11.561
被害	-11.561
赶路	-11.5611
母子	-11.5611
又是难过	-11.5611
形势	-11.5611
给了她	-11.5612
竟致	-11.5612
遍地	-11.5613
隔开	-11.5613
何日	-11.5614
不成话	-11.5614
纵目	-11.5614
为戏	-11.5615
味儿	-11.5615
单剑	-11.5615
传闻	-11.5616
▁旁观众人	-11.5616
单手	-11.5617
拜师	-11.5617
子孙	-11.5617
怎想得到	-11.5617
刚劲	-11.5617
粗声	-11.5618
怒视	-11.5618
共处	-11.5619
守襄阳	-11.5619
不敢再行	-11.5619
急忙转身	-11.562
亲口答应	-11.562
三钉	-11.562
受制	-11.5621
乱跳	-11.5622
事隔	-11.5622
卸去	-11.5622
情愿	-11.5623
心智	-11.5623
只见前面	-11.5624
冲撞	-11.5624
存心要	-11.5624
到何处	-11.5625
示下	-11.5625
震开	-11.5625
黄马	-11.5626
抢白	-11.5626
绝少	-11.5626
奇异	-11.5626
份量	-11.5627
进逼	-11.5627
成群	-11.5627
三十年	-11.5628
拳招	-11.5628
临死	-11.5628
风光	-11.5629
摆动	-11.5629
名称	-11.563
精进	-11.563
文儿	-11.5632
▁郭靖与黄蓉	-11.5633
甚么时候	-11.5633
袭到	-11.5633
见谅	-11.5633
早些	-11.5633
礼法	-11.5634
马鞍	-11.5634
闭气	-11.5635
与抗	-11.5635
吼叫	-11.5635
无味	-11.5636
▁一行人	-11.5636
两根手指	-11.5637
玩儿	-11.5637
别派	-11.5638
加重	-11.5638
连遭	-11.5639
第一招	-11.564
出家人	-11.564
脸红	-11.5641
不敢再问	-11.5642
最爱	-11.5642
悄然	-11.5642
月光下只见	-11.5643
黄蓉的女儿	-11.5644
拆得	-11.5644
然后再	-11.5644
有好处	-11.5645
这老妇	-11.5645
飞掷	-11.5645
关门	-11.5646
乱骂	-11.5646
失足	-11.5647
所乘	-11.5647
飞脚	-11.5647
极美	-11.5648
一匹马	-11.5648
绿萼摇头	-11.5649
又是欢喜	-11.565
听杨过说	-11.565
逼开	-11.5651
以柔	-11.5651
受伤之后	-11.5652
上一弹	-11.5652
那一年	-11.5652
决不敢	-11.5652
蛇头	-11.5652
驴背	-11.5652
夺路	-11.5652
大宗	-11.5653
笑了起来	-11.5653
瞧不出来	-11.5653
接招	-11.5654
在马背上	-11.5654
一块儿	-11.5655
在这世上	-11.5655
说话声音	-11.5656
合眼	-11.5656
心中不服	-11.5657
樊一翁怒	-11.5657
存着	-11.5657
请安	-11.5658
不敢贸然	-11.5659
忧心	-11.5659
空旷	-11.566
合斗	-11.566
就只这么	-11.566
持剑	-11.5661
轻敌	-11.5661
法之快	-11.5662
便在此处	-11.5663
说着站起身来	-11.5664
这丫头	-11.5665
试出	-11.5665
猛地想起	-11.5665
永不再	-11.5666
不由得一怔	-11.5667
用言语	-11.5667
大嚼	-11.5667
说话之际	-11.5668
三月	-11.5668
遮住	-11.5669
大雨	-11.567
神伤	-11.5672
分胜败	-11.5673
满地	-11.5673
总是不能	-11.5674
善于	-11.5674
是也不是	-11.5674
与其余	-11.5674
长嘶	-11.5675
口边	-11.5675
到了这里	-11.5676
恶意	-11.5676
击敌	-11.5678
及早	-11.5678
情爱	-11.5679
闪开	-11.568
倒也不敢	-11.568
▁李莫愁拂尘	-11.5681
抢起	-11.5682
回城	-11.5683
学的是	-11.5688
谅来	-11.5689
不舒服	-11.5693
强攻	-11.5694
摘下	-11.5695
白眼	-11.5697
小友	-11.5697
入内堂	-11.5698
溜下	-11.5699
躲着	-11.5699
恶行	-11.57
着实不轻	-11.57
百岁	-11.5701
这一十六年	-11.5706
直言	-11.5707
右剑	-11.5707
击掌	-11.5708
凝视着她	-11.5709
早把	-11.571
无善策	-11.5712
这等厉害	-11.5721
经此一	-11.5723
你问我	-11.5725
这法儿	-11.5728
甚么都不	-11.5733
还道他	-11.5734
一点儿	-11.5736
高招	-11.5738
激起	-11.5738
救护	-11.5747
是丐帮中的	-11.575
小东邪	-11.5751
性命不要	-11.5752
硬生生将	-11.5753
舟中	-11.576
林外	-11.5764
一齐望着	-11.5777
有要事	-11.5782
位道兄	-11.5787
这一番话	-11.579
要不要	-11.5792
十八年	-11.5792
深恨	-11.5804
稳稳站	-11.5805
防守	-11.5808
削断	-11.5809
半月	-11.581
熟知	-11.5813
坐椅	-11.5814
几个圈子	-11.5827
也不枉了	-11.5833
微笑不答	-11.5834
鼾	-11.5834
乍见	-11.5835
机智	-11.5837
深奥	-11.5839
怨仇	-11.5845
襄阳城外	-11.5847
罩住	-11.5858
听他这么	-11.5858
那赤练仙子	-11.5864
一脚踢	-11.5885
绳上	-11.5903
事物	-11.5906
八千	-11.5906
见过不少	-11.5913
站立不	-11.5919
不知有多少	-11.592
气派	-11.5924
是丐帮帮主	-11.5929
向前扑	-11.5932
顷刻间已	-11.5943
进殿	-11.5972
当我是	-11.5973
要瞧瞧	-11.5983
随后赶	-11.5985
使的正是	-11.5988
若肯	-11.6005
不知该	-11.6009
借给	-11.6011
和他同	-11.6018
入深谷	-11.6022
到后来竟	-11.6022
收藏	-11.6022
便能将	-11.6026
集于	-11.6026
重阳	-11.6039
欺近	-11.6039
就在这儿	-11.605
没甚么了不起	-11.6053
黄蓉见丈夫	-11.6059
有甚么古怪	-11.607
这一抓	-11.6079
开房门	-11.609
是甚么东西	-11.6096
换过	-11.6106
法王与潇湘子	-11.6111
是第一次	-11.6127
天幸	-11.6152
十多名	-11.6153
曾见过	-11.6171
作主	-11.6179
刺破	-11.6183
一日一夜	-11.6203
钻进	-11.6219
黄蓉和李莫愁	-11.6225
疾奔而	-11.6236
刺了一	-11.6236
小石子	-11.6248
一把火	-11.6301
将她救	-11.6305
兵卒	-11.6305
喝采	-11.632
屋前	-11.634
捉住	-11.6352
石床	-11.6358
有一处	-11.637
砰	-11.6396
情意深	-11.6401
弄死	-11.6457
从怀中取出一个	-11.6463
捉到	-11.6463
还了一	-11.6474
急冲而	-11.6484
轻盈	-11.6499
发足便	-11.6503
保得	-11.6503
摔了一交	-11.6506
白光闪	-11.6512
十余年不见	-11.6525
寒光闪	-11.6557
四名道人	-11.6567
原由	-11.6576
并不甚	-11.6603
在他身后	-11.6625
淡黄	-11.6649
此日	-11.6654
无别物	-11.666
创教祖师	-11.6674
了他手	-11.6721
更无别	-11.6725
飞跃	-11.6726
渺茫	-11.6791
暂且不	-11.6813
出数步	-11.6815
递过	-11.6864
至性至情	-11.6867
输给	-11.6874
觉有趣	-11.6879
三十余年	-11.6884
使的都是	-11.6887
号角声	-11.6893
几千	-11.6898
来得及	-11.6911
不住倒退	-11.6984
名武士	-11.7056
闻到一阵	-11.7058
入树林	-11.7083
女子声音	-11.7086
说笑话	-11.7092
退三步	-11.7114
八年	-11.7126
力衰	-11.7142
抱婴儿	-11.7153
泪流	-11.7165
姓杨	-11.7171
倍	-11.7182
斤重	-11.7234
奥	-11.724
深不可测	-11.7263
翻了个	-11.7267
臀	-11.7282
脸色微	-11.7308
西北方	-11.7354
窑	-11.7365
石碑	-11.7369
金刀黑剑	-11.737
也顾不得	-11.7371
灰土	-11.7372
轻柔	-11.7373
不以为意	-11.7389
帷	-11.7397
善策	-11.74
将手一	-11.7406
认错	-11.7409
遗体	-11.7411
贫	-11.7419
七弟	-11.7423
寒光	-11.7428
了两口	-11.7448
怠	-11.746
官员	-11.7462
冷冷	-11.7467
截断	-11.7479
块大石	-11.7489
群蜂	-11.7494
倏地伸出	-11.75
蓦	-11.7506
谁教你	-11.7513
楚	-11.753
姊	-11.7532
黄蓉大奇	-11.7533
姐	-11.7534
一番话	-11.7537
那四川人	-11.7538
粮食	-11.7548
恰	-11.755
急跃而	-11.7551
酒楼	-11.7555
那黑衣	-11.7556
勉	-11.7558
欣	-11.7558
天竺神僧	-11.7559
嫂	-11.7559
阵阵	-11.756
笼	-11.756
棘	-11.756
骏	-11.7561
柯老	-11.7562
睡梦	-11.7562
肢	-11.7562
癞	-11.7562
捣	-11.7562
泰	-11.7563
从所未见	-11.7563
殉	-11.7564
纪	-11.7564
尼	-11.7564
拄	-11.7564
成两截	-11.7564
一显身手	-11.7564
那土豪	-11.7564
曲灵风	-11.7564
白衣美貌女子	-11.7564
见情势危急	-11.7564
曹	-11.7564
园	-11.7565
青衣少女	-11.7565
拐	-11.7565
凤	-11.7565
阿	-11.7565
跋	-11.7565
职	-11.7565
六个字	-11.7565
间不容发	-11.7565
两大奇功	-11.7565
狱	-11.7565
昧	-11.7565
审	-11.7565
敏	-11.7565
那半枚绝情丹	-11.7565
卑	-11.7565
掌教师伯	-11.7565
瓣	-11.7565
锤拐	-11.7565
青甲狮王	-11.7565
襟	-11.7566
侧耳静听	-11.7566
寝	-11.7566
寨	-11.7566
文武双全	-11.7566
眨	-11.7566
经脉逆行之法	-11.7566
疆	-11.7566
筋折骨断	-11.7566
为两截	-11.7566
同病相怜	-11.7566
如闪电般	-11.7566
积蓄	-11.7566
梢	-11.7566
玑	-11.7566
维	-11.7566
锣	-11.7566
构筑	-11.7566
编	-11.7566
茫然不解	-11.7566
闭上了眼	-11.7566
若是换作	-11.7566
菜肴	-11.7566
沛	-11.7566
窘	-11.7566
那姓韩乞丐	-11.7566
忽喜忽	-11.7566
匀	-11.7566
歼	-11.7566
全真诸道	-11.7566
那老道	-11.7566
璧	-11.7566
第三件礼物	-11.7566
智慧	-11.7566
丝毫怠忽	-11.7566
周老爷子	-11.7566
忽高忽低	-11.7566
提气急追	-11.7566
旁若无人	-11.7566
破口大骂	-11.7566
催促	-11.7566
潇湘子的哭丧棒	-11.7566
炫	-11.7566
磁	-11.7566
稍稍放心	-11.7566
鄙夷	-11.7566
非脱手不可	-11.7566
哩	-11.7566
亲眼得见	-11.7566
喜极而	-11.7566
天竺国	-11.7566
打定了主意	-11.7566
殃	-11.7566
淳	-11.7566
笑容可掬	-11.7566
聘	-11.7566
虬髯	-11.7566
飞云骓	-11.7566
齐声称是	-11.7566
遁	-11.7567
咕咕咕的叫了	-11.7567
柯瞎子	-11.7567
静悄悄的	-11.7567
史三哥	-11.7567
如痴如	-11.7567
巨蟒	-11.7567
扈	-11.7567
摒	-11.7567
杜甫	-11.7567
滔	-11.7567
着实了得	-11.7567
自寻短见	-11.7567
东闪西	-11.7567
无话可说	-11.7567
暗暗纳罕	-11.7567
武功大进	-11.7567
目不转瞬的	-11.7567
赵老爵爷	-11.7567
彻	-11.7567
大声吆喝	-11.7567
一人一雕	-11.7567
两个蒙古使臣	-11.7567
匝	-11.7567
唱喏	-11.7567
快捷无伦	-11.7567
无法可施	-11.7567
朋	-11.7567
朱大哥	-11.7567
缒	-11.7567
长春真人	-11.7567
驶	-11.7567
大有来头的人物	-11.7567
堕泪碑	-11.7567
天竺矮子	-11.7567
心下计议	-11.7567
悲从中来	-11.7567
打你屁股	-11.7567
推心置腹	-11.7567
面红耳赤	-11.7567
不知身在何处	-11.7567
仰天一交	-11.7567
做我妻子	-11.7567
兑	-11.7567
在情花丛中	-11.7567
得越远越好	-11.7567
成平手	-11.7567
熊熊	-11.7567
货	-11.7567
郭杨两家	-11.7567
几次三番	-11.7567
嘭	-11.7567
渔	-11.7567
伸手去抓	-11.7567
惊怒交集	-11.7567
杨家哥哥	-11.7567
歌诀	-11.7567
貂	-11.7567
那白衣女郎	-11.7567
闹着玩	-11.7567
心满意足	-11.7567
云帚	-11.7567
侠之大者	-11.7567
加油添酱	-11.7567
化敌为友	-11.7567
如刀割	-11.7567
广宁子郝大通	-11.7567
撮	-11.7567
正人君子	-11.7567
没法子	-11.7567
淮	-11.7567
绌	-11.7567
谁胜谁败	-11.7567
那姓陈的	-11.7567
两个少年男女	-11.7567
哑然失笑	-11.7567
独来独往	-11.7567
出重围	-11.7567
俐	-11.7567
▁又拆数	-11.7567
一块大岩石	-11.7567
保境安民	-11.7567
匙	-11.7567
只作不知	-11.7567
咱哥儿俩	-11.7567
噗哧一笑	-11.7567
山谷鸣响	-11.7567
心旷神怡	-11.7567
昼	-11.7567
有忧色	-11.7567
痛得死去活来	-11.7567
第三个心愿	-11.7567
胃	-11.7567
自惭形秽	-11.7567
辔	-11.7567
吮	-11.7567
有何话说	-11.7567
奄奄一息	-11.7567
伶	-11.7567
你肯不肯	-11.7567
兆	-11.7567
咄	-11.7567
喜怒哀乐	-11.7567
娇滴滴的	-11.7567
庇	-11.7567
欣慰	-11.7567
突如其来	-11.7567
肺	-11.7567
蚊	-11.7567
言中之意	-11.7567
险象环生	-11.7567
符号	-11.7567
长长叹了口气	-11.7567
一年半载	-11.7567
从所未有	-11.7567
各有所长	-11.7567
吾	-11.7567
哎哟	-11.7567
喀喀两	-11.7567
妙诣	-11.7567
巾	-11.7567
异想天开	-11.7567
攻打襄阳	-11.7567
敌忾同仇	-11.7567
武家哥儿俩	-11.7567
比武招亲	-11.7567
狭窄	-11.7567
着着进逼	-11.7567
落荒而逃	-11.7567
跌跌撞撞	-11.7567
遂	-11.7567
阙	-11.7567
黑漆一团	-11.7567
不知所措	-11.7567
十二个时辰	-11.7567
喙	-11.7567
夺眶而出	-11.7567
弓弩手	-11.7567
心乱如麻	-11.7567
拉着杨过的手	-11.7567
虏	-11.7567
走火入魔	-11.7567
连声称谢	-11.7567
唆	-11.7567
同声叫	-11.7567
后患无穷	-11.7567
壳	-11.7567
委顿在地	-11.7567
沓	-11.7567
没多久	-11.7567
瀰	-11.7567
白了一眼	-11.7567
缕	-11.7567
缩了回去	-11.7567
藉	-11.7567
赃官	-11.7567
转身便逃	-11.7567
不计其数	-11.7567
史氏五兄弟	-11.7567
多有得罪	-11.7567
恍惚	-11.7567
聋	-11.7567
镇帮之宝	-11.7567
青玉簪	-11.7567
莫测	-11.7568
东奔西	-11.7568
仰天长笑	-11.7568
去而复	-11.7568
吓出了一身冷汗	-11.7568
大将王坚	-11.7568
娇媚	-11.7568
寂无声息	-11.7568
恢	-11.7568
有何高见	-11.7568
槁	-11.7568
浩	-11.7568
清清白白	-11.7568
相形见绌	-11.7568
竿	-11.7568
箕	-11.7568
胖老丐	-11.7568
苏	-11.7568
行尸走肉	-11.7568
迄今	-11.7568
陆庄主	-11.7568
这蒙古王子	-11.7568
向东南方	-11.7568
戏耍	-11.7568
拿在手里	-11.7568
晒	-11.7568
晶莹	-11.7568
贵妃	-11.7568
从怀中掏出	-11.7568
来见你	-11.7568
东张西望	-11.7568
倒行逆施	-11.7568
倒马坪	-11.7568
心念已决	-11.7568
悄没声的	-11.7568
懊悔	-11.7568
戈	-11.7568
抽抽噎噎的	-11.7568
支颐	-11.7568
柯公公	-11.7568
炙	-11.7568
交出解药	-11.7568
凄厉	-11.7568
好得很啊	-11.7568
摧	-11.7568
斗智斗力	-11.7568
精神为之一振	-11.7568
蒙古营中	-11.7568
褪	-11.7568
赤练神掌	-11.7568
伤她不得	-11.7568
吓得魂不附体	-11.7568
启禀	-11.7568
哇的一声哭了出来	-11.7568
哦	-11.7568
圆圆的	-11.7568
大出意外	-11.7568
姓尹的	-11.7568
宁死不屈	-11.7568
嵌	-11.7568
怎说得上	-11.7568
悄悄议论	-11.7568
打一架	-11.7568
拍了拍	-11.7568
收他为徒	-11.7568
毫没来由的	-11.7568
玄门正宗	-11.7568
绝世武功	-11.7568
软瘫在地	-11.7568
恳切	-11.7568
杏	-11.7568
舒舒服服	-11.7568
言而有信	-11.7568
不到一尺	-11.7568
吵闹	-11.7568
孙婆婆的尸身	-11.7568
的勾当	-11.7568
袂	-11.7568
那瘦子	-11.7568
郭芙见母亲	-11.7568
喇	-11.7568
一老一少	-11.7568
俨然	-11.7568
口舌之争	-11.7568
打你不过	-11.7568
无言可对	-11.7568
这浑人	-11.7568
那少男	-11.7568
须得及早	-11.7568
龙女花	-11.7568
唾沫	-11.7568
大惑不解	-11.7568
妙龄	-11.7568
智谋	-11.7568
毒发而死	-11.7568
盘膝坐下	-11.7568
谁也不许	-11.7568
蹦	-11.7568
隐隐生疼	-11.7568
上下打量	-11.7568
躺在床上	-11.7568
羡	-11.7568
丧生于	-11.7568
卑鄙无耻	-11.7568
摄魂大法	-11.7568
管见子史仲猛	-11.7568
胸襟	-11.7568
追得上	-11.7568
撤	-11.7568
叹了口长气	-11.7568
破窑	-11.7568
兼而有之	-11.7568
册	-11.7568
呆立不动	-11.7568
嗤嗤声	-11.7568
小黑鬼	-11.7568
并无大碍	-11.7568
最上乘的	-11.7568
杂毛	-11.7568
九指神丐洪七公	-11.7568
偎倚	-11.7568
出丈许之外	-11.7568
甘拜下风	-11.7568
行若无事	-11.7568
连声催促	-11.7568
闻所未闻	-11.7568
黑漆漆的	-11.7568
一往情深	-11.7569
单名一个	-11.7569
吞入肚	-11.7569
我来助你	-11.7569
涌泉	-11.7569
炎	-11.7569
瘁	-11.7569
聪明智慧	-11.7569
闯进谷来	-11.7569
事已如此	-11.7569
体会到	-11.7569
吓得呆了	-11.7569
仙丹	-11.7569
俊秀	-11.7569
在其内	-11.7569
性子暴躁	-11.7569
猝不及防	-11.7569
穆	-11.7569
谦逊	-11.7569
镖	-11.7569
又是好气	-11.7569
追他不上	-11.7569
锦袍	-11.7569
不以为然	-11.7569
买卖	-11.7569
反出全真教	-11.7569
拔剑出鞘	-11.7569
郁积	-11.7569
长须老翁	-11.7569
鞭梢	-11.7569
交迸	-11.7569
的封号	-11.7569
你知不知道	-11.7569
千难万难	-11.7569
孟	-11.7569
棘藤圈	-11.7569
激射而出	-11.7569
的首徒	-11.7569
研习	-11.7569
艾	-11.7569
骸骨	-11.7569
抑制	-11.7569
宛然是	-11.7569
有甚么法子	-11.7569
满头大汗	-11.7569
见机得快	-11.7569
越练越	-11.7569
不识水性	-11.7569
加倍	-11.7569
砰砰两	-11.7569
诸葛亮	-11.7569
象鼻	-11.7569
蹑	-11.7569
这贱婢	-11.7569
隆隆	-11.7569
随随便便的	-11.7569
呼呼喘气	-11.7569
樊一翁的胡子	-11.7569
两株大榆树	-11.7569
你姓甚么	-11.7569
十七八岁	-11.7569
又喜又	-11.7569
向旁跃开	-11.7569
大力神史季强	-11.7569
娇艳欲滴	-11.7569
彻骨	-11.7569
拆了数十招	-11.7569
教他读书	-11.7569
旧部	-11.7569
板凳	-11.7569
自身安危	-11.7569
齐声发喊	-11.7569
愤慨	-11.7569
疑心大起	-11.7569
西北角	-11.7569
贼贱人	-11.7569
怎对得起	-11.7569
越行越	-11.7569
颖	-11.7569
矫	-11.7569
市集	-11.7569
泄露	-11.7569
农舍	-11.7569
督战	-11.7569
衣衫破烂	-11.7569
三枚银针	-11.7569
坎	-11.7569
李莫愁与洪凌波	-11.7569
贾	-11.7569
僻静	-11.757
我有话跟	-11.757
鳞	-11.757
勇悍	-11.757
的欢心	-11.757
啊唷	-11.757
在母亲怀里	-11.757
坐在椅上	-11.757
岛主	-11.757
斜坡	-11.757
皮肤	-11.757
衣裤	-11.757
要不然	-11.757
赤练蛇	-11.757
唇舌	-11.757
四王子忽必烈	-11.757
挫败	-11.757
断成两截	-11.757
蓄势	-11.757
凉州	-11.757
叩拜	-11.757
荣辱	-11.757
呀的一声	-11.757
姓裘	-11.757
这回事	-11.757
试演	-11.757
遮掩	-11.757
隐蔽	-11.757
脉搏	-11.757
他父亲杨康	-11.757
况且	-11.757
念咒	-11.757
母猪	-11.757
枣树	-11.757
见天日	-11.757
雄浑	-11.757
三枚枣核钉	-11.757
所受的	-11.757
里之遥	-11.757
干粮	-11.757
畏缩	-11.757
无一能	-11.757
狂妄	-11.757
告辞	-11.7571
惟恐	-11.7571
李莫愁的拂尘	-11.7571
玉堂	-11.7571
拉住她手	-11.7571
安排席	-11.7571
揪住	-11.7571
眼见情势危急	-11.7571
老大不愿	-11.7571
骏马	-11.7571
的名声	-11.7571
铜钟	-11.7571
一条小溪	-11.7571
贺客	-11.7571
雅致	-11.7571
忠厚	-11.7571
传令官	-11.7571
今日得见	-11.7571
领教领教	-11.7571
那天权道	-11.7571
劝慰	-11.7571
哪里还敢	-11.7571
屈辱	-11.7571
惊惶之色	-11.7571
迂回	-11.7571
所住的	-11.7571
正是求之不得	-11.7571
贼牛鼻子	-11.7571
赴英雄大宴	-11.7571
走到厅心	-11.7572
四个万人队	-11.7572
数十柄长剑	-11.7572
养蜂	-11.7572
兴致	-11.7572
婴儿啼哭	-11.7572
金光闪闪	-11.7572
隐秘	-11.7572
在当地	-11.7572
安置	-11.7572
免不了	-11.7572
结成夫妇	-11.7572
随侍	-11.7572
洪老	-11.7572
全真教的掌教	-11.7572
岂肯	-11.7572
杯盘	-11.7572
骑术	-11.7572
机密	-11.7572
蜂涌	-11.7572
驾临	-11.7572
八匹马	-11.7572
大宋百姓	-11.7572
眉毛	-11.7572
这路剑法	-11.7572
应手而	-11.7572
结伴	-11.7572
还了一招	-11.7572
座小山	-11.7572
弯弓	-11.7572
啊哈	-11.7573
丝毫不惧	-11.7573
待我很好	-11.7573
穿在身上	-11.7573
丘王	-11.7573
渐渐逼近	-11.7573
离岛	-11.7573
裘谷主	-11.7573
潭底	-11.7573
碎片	-11.7573
没留意	-11.7573
棺木	-11.7573
惊佩	-11.7573
第四代	-11.7573
迟缓	-11.7573
老瞎子	-11.7573
泰山	-11.7573
感慨	-11.7573
这套剑法	-11.7573
疯病	-11.7573
欲滴	-11.7573
情花之毒发作	-11.7574
挺矛	-11.7574
示弱	-11.7574
暮年	-11.7574
更无半点	-11.7574
没了力气	-11.7574
敝教	-11.7574
威严	-11.7574
安健	-11.7574
武林好手	-11.7574
苦涩	-11.7574
中原豪杰	-11.7574
危机	-11.7574
始终未能	-11.7574
左腕	-11.7575
傻小子	-11.7575
灯光	-11.7575
侧身闪避	-11.7575
瘦道人	-11.7575
舍己	-11.7575
迁怒	-11.7575
得不得了	-11.7575
查探	-11.7575
每一剑都	-11.7575
纵身扑上	-11.7575
龙妹妹	-11.7575
▁那广东客人	-11.7575
你可不许	-11.7575
你说得对	-11.7575
连声答应	-11.7575
义弟	-11.7575
儒儿	-11.7575
咱们后会有期	-11.7575
牵缠	-11.7575
阴柔	-11.7575
凑合	-11.7575
一声长啸	-11.7575
依恋	-11.7575
有名的	-11.7576
猛下毒手	-11.7576
截铁	-11.7576
争辩	-11.7576
难分胜败	-11.7576
高声大叫	-11.7576
笔锋	-11.7576
恃强	-11.7576
悔悟	-11.7576
仗义	-11.7576
防御	-11.7576
军务	-11.7576
静修	-11.7576
真是非同小可	-11.7576
机灵	-11.7576
脚程	-11.7576
钻了出来	-11.7576
南僧	-11.7576
浅浅	-11.7576
百余招	-11.7576
臭和尚	-11.7576
险些摔倒	-11.7576
争执	-11.7577
有甚么好玩	-11.7577
烧香	-11.7577
蒙古精兵	-11.7577
败坏	-11.7577
庸手	-11.7577
霎时	-11.7577
这样一来	-11.7577
采药	-11.7577
木柱	-11.7577
翩然	-11.7577
须怪不得	-11.7577
盗旗	-11.7577
精钢	-11.7577
断崖	-11.7577
请勿	-11.7577
摔倒在地	-11.7577
纷乱	-11.7577
了转来	-11.7577
与杨过相遇	-11.7577
坚厚	-11.7577
文士	-11.7577
北侠	-11.7577
特异之处	-11.7578
退后一步	-11.7578
几乎要哭	-11.7578
向他使个眼色	-11.7578
偶然	-11.7578
杨康兄弟	-11.7578
摇光	-11.7578
明珠	-11.7578
详加	-11.7578
颇具	-11.7578
鸟语	-11.7578
众亲兵	-11.7578
分晓	-11.7578
狗男女	-11.7578
恶兽	-11.7578
铁弓	-11.7578
阴狠	-11.7578
修文	-11.7578
功效	-11.7578
汗水	-11.7578
这两个道士	-11.7578
双手虎口	-11.7578
四个绿衫人	-11.7578
中的破绽	-11.7579
施舍	-11.7579
呼号	-11.7579
装假	-11.7579
军民	-11.7579
第四招	-11.7579
伤他性命	-11.7579
矮道人	-11.7579
跨步	-11.7579
房舍	-11.7579
厢房	-11.7579
羊肉	-11.7579
绝艺	-11.7579
扶持	-11.7579
为首的	-11.758
牵制	-11.758
眼前斗然	-11.758
建立	-11.758
扳开	-11.758
纵声大叫	-11.758
再也顾不得	-11.758
许久	-11.758
剑诀	-11.758
压境	-11.758
惨遭	-11.758
复仇	-11.758
挡在身前	-11.758
忍痛	-11.758
断截	-11.758
满厅	-11.758
到天明	-11.758
情花剧毒	-11.758
玄门	-11.7581
刚说完	-11.7581
大踏步走到	-11.7581
疼爱	-11.7581
昏暗	-11.7581
万万想不到	-11.7581
倒塌	-11.7581
扇骨	-11.7581
掷了过去	-11.7581
慨然	-11.7581
路程	-11.7581
叛师	-11.7581
出了甚么事	-11.7582
岔路	-11.7582
开口说话	-11.7582
房屋	-11.7582
两骑马	-11.7583
潮水	-11.7583
听他语气	-11.7583
杂乱	-11.7583
处下风	-11.7583
胸怀	-11.7583
中原群雄	-11.7583
柴火	-11.7583
潜流	-11.7583
不由得暗暗心惊	-11.7583
不好惹	-11.7583
右翅	-11.7583
赐教	-11.7583
赶紧	-11.7584
举碗	-11.7584
惊叫一声	-11.7584
受内伤	-11.7584
辱及	-11.7584
这等大事	-11.7584
初次	-11.7584
站在门口	-11.7584
威武	-11.7584
云游	-11.7584
神采	-11.7584
坐在一旁	-11.7584
多谢你啦	-11.7584
走到门口	-11.7584
第三次	-11.7584
黑夜之中	-11.7584
到口边	-11.7585
桌旁	-11.7585
挺剑刺出	-11.7585
名宿	-11.7585
追不上	-11.7585
假药	-11.7585
咬紧	-11.7585
似你这般	-11.7585
舞动兵刃	-11.7585
行诈	-11.7585
鼻血	-11.7585
半圆	-11.7585
虚假	-11.7585
勇猛	-11.7586
一一说了	-11.7586
诱敌	-11.7586
驱毒	-11.7586
爽快	-11.7586
风姿	-11.7586
微微一顿	-11.7586
每一句话	-11.7586
追了下去	-11.7586
社会	-11.7586
说了这句话	-11.7587
失误	-11.7587
费神	-11.7587
大声叫嚷	-11.7587
秘传	-11.7587
摔跌	-11.7587
软语	-11.7587
殿外	-11.7587
第二场	-11.7587
粘力	-11.7587
移步	-11.7588
登时晕了过去	-11.7588
理亏	-11.7588
拿下了	-11.7588
挥动拂尘	-11.7588
吐血	-11.7588
躲闪	-11.7588
到了一处	-11.7588
挥袖	-11.7588
向两旁	-11.7589
撑地	-11.7589
又转到	-11.7589
探视	-11.7589
了他的穴道	-11.7589
相伴	-11.7589
跟她动手	-11.7589
青龙	-11.7589
铁鞭	-11.759
正自沉吟	-11.759
十余丈处	-11.759
端的是	-11.759
迷路	-11.759
铁掌功夫	-11.759
怀恨	-11.759
点拨	-11.7591
呆立	-11.7591
杨英雄	-11.7591
搂着	-11.7591
搔头	-11.7591
发喊	-11.7591
叩见	-11.7592
天仙	-11.7592
十多年前	-11.7593
提了起来	-11.7593
斧头	-11.7593
草药	-11.7594
臭傻蛋	-11.7594
皮肉	-11.7594
退了两步	-11.7594
脑子	-11.7595
都是一样	-11.7595
总该	-11.7595
心中混乱	-11.7595
全真弟子	-11.7595
抬头看	-11.7595
触手	-11.7596
它们	-11.7596
陡生	-11.7596
烟花	-11.7596
恩爱	-11.7596
狠恶	-11.7596
举起拂尘	-11.7596
也是一样	-11.7596
稍稍	-11.7596
后来怎样	-11.7597
阳刚	-11.7597
不再言语	-11.7597
慈恩和尚	-11.7597
出乎	-11.7597
待会儿	-11.7597
赐还	-11.7598
法度	-11.7598
持久	-11.7598
为质	-11.7599
少林	-11.7599
好哇	-11.7599
灵活	-11.7599
重誓	-11.7599
也可算	-11.7599
两姊妹	-11.76
独立	-11.76
招架不住	-11.76
穿的是	-11.76
白玉	-11.76
内侧	-11.76
记挂着	-11.76
制服	-11.7601
横持	-11.7601
给我瞧瞧	-11.7601
其实并非	-11.7601
潇湘子等三人	-11.7602
挥杖	-11.7602
武学高手	-11.7602
马道长	-11.7603
左杖	-11.7603
闭眼	-11.7603
怎么样	-11.7603
显得甚是	-11.7603
齐声大叫	-11.7603
夺杖	-11.7604
膝头	-11.7604
藏边	-11.7604
睡在这里	-11.7605
台口	-11.7605
知己	-11.7605
不许旁人	-11.7606
失败	-11.7606
老父	-11.7606
全盘	-11.7606
实不在	-11.7606
蹲着	-11.7607
疑难	-11.7607
移开	-11.7607
隐隐听得	-11.7608
终究还是	-11.7608
席地	-11.7608
举在半空	-11.7608
龙家	-11.7608
交代	-11.7608
你的胡子	-11.7608
浑身	-11.7609
是个女子	-11.7609
老虎	-11.7609
久经	-11.7609
惨白	-11.761
精义	-11.761
越来越近	-11.7611
掌劈出	-11.7611
西狂	-11.7611
止水	-11.7611
何须	-11.7612
非浅	-11.7612
反激	-11.7612
抬头望着	-11.7613
情境	-11.7613
情不自禁的	-11.7613
紫气	-11.7614
稳重	-11.7615
墓前	-11.7615
取了个	-11.7616
横棒	-11.7616
置之	-11.7617
名字叫作	-11.7618
被他掌力	-11.7618
受损	-11.7618
脚色	-11.7619
还道是	-11.7619
尽消	-11.7619
礼数	-11.7621
拔开	-11.7622
金铁	-11.7622
机会	-11.7623
抢救	-11.7623
胜不了	-11.7623
生擒	-11.7624
小瓶	-11.7625
取药	-11.7626
若有所	-11.7626
▁杨过瞧了	-11.7629
在雪中	-11.7629
将他打得	-11.7629
在我面前	-11.7636
惹起	-11.7638
微笑不语	-11.7638
出手攻击	-11.7638
挽着	-11.7638
又斗数	-11.7638
一名弟子	-11.7642
拉拉	-11.7649
胸口衣襟	-11.765
才勉强	-11.765
七八丈	-11.7651
悄悄走到	-11.7658
天大的	-11.7664
何惧	-11.7666
郭府	-11.7672
这般美貌	-11.7696
遗书	-11.7704
混入	-11.7704
在这当口	-11.7712
摇摇	-11.7728
亲手所	-11.7741
板壁	-11.7743
搭住	-11.7753
凝神看	-11.7756
均盼	-11.7772
听了这话	-11.7784
痒难当	-11.7789
口长气	-11.7791
人人均	-11.7793
他妈的	-11.78
武三通父子	-11.7801
夹了一	-11.7804
初时只道	-11.7826
大是得意	-11.7832
其余三人	-11.7833
皆知	-11.7847
七八里	-11.7849
别胡说	-11.7854
是假的	-11.7869
武功深不可测	-11.7881
凑近	-11.792
已知其	-11.7936
这一节	-11.7955
没胆子	-11.7958
被他抓住	-11.7965
一剑斩	-11.7974
前锋	-11.8006
王志坦等	-11.8014
声大作	-11.8039
宋朝	-11.8057
终南	-11.8075
如此深厚	-11.8121
谁要你	-11.8156
有甚么了不起	-11.817
忽听得身后	-11.8176
你自己才	-11.8197
暗自佩服	-11.82
见纸上写	-11.8205
夫妻情深	-11.8243
逆冲	-11.8252
挺剑刺	-11.8263
奔出十余丈	-11.8298
绕圈	-11.83
衣裙	-11.8312
有深意	-11.8338
蜜蜂飞	-11.8357
肤色白	-11.8373
别闹	-11.8375
错杀	-11.8392
渺	-11.8411
十八日	-11.8467
被缚	-11.8517
声又起	-11.8538
压住	-11.8547
树丛后	-11.857
法王的金轮	-11.8576
神色极是	-11.8627
黄獐	-11.8655
▁此时天色	-11.8705
静了下来	-11.8719
撒手放	-11.8758
没说完	-11.8761
宁静	-11.8771
法轻盈	-11.8773
只淡淡	-11.8774
獐腿	-11.8831
运内劲	-11.8866
噗	-11.8912
口鲜血	-11.8936
这两个恶徒	-11.8993
中原武林	-11.9002
伸筷	-11.9034
力拚	-11.9048
银光闪	-11.9078
你有本事	-11.9087
入谷底	-11.9087
肤色	-11.9123
一夜之间	-11.9148
我不跟	-11.9171
柳树	-11.9301
白衣少女	-11.9316
随口答	-11.94
点鲜血	-11.9437
冷淡	-11.9624
合心意	-11.9633
惊魂	-11.9636
举火把	-11.9698
拍拍两	-11.974
是上上	-11.9798
贵公子	-11.9877
军官	-11.9917
声长嘶	-11.9931
帕	-11.9943
自然而然	-11.9951
暇	-11.9971
有救命之恩	-11.9985
万万料想不到	-11.9988
飞上半空	-11.9988
踢了一脚	-12.0012
连刺三剑	-12.0018
玄铁	-12.0032
肖	-12.0039
畜	-12.0045
日一早	-12.0048
砂	-12.005
颚	-12.0052
腋	-12.0054
后会有期	-12.0055
妾	-12.0055
枣	-12.0056
绵	-12.0057
的望着自己	-12.0057
辜	-12.0058
婴	-12.0058
厉	-12.0059
疗	-12.006
铅	-12.006
揪	-12.0061
两名万夫长	-12.0061
冢	-12.0061
含糊	-12.0061
猜想不透	-12.0061
蓄	-12.0062
肤	-12.0062
蓉	-12.0062
好奇心	-12.0062
蟒	-12.0062
郊	-12.0062
恚	-12.0063
毅	-12.0063
粪	-12.0063
满脸胀得通红	-12.0063
蒙古贵官	-12.0063
人欺辱	-12.0063
(	-12.0064
汹	-12.0064
驯兽	-12.0064
缸	-12.0064
不多久	-12.0064
终有一日	-12.0064
贤昆仲	-12.0064
)	-12.0065
眩	-12.0065
那湖北人	-12.0065
卓	-12.0065
大喜若狂	-12.0065
怦然而动	-12.0065
播	-12.0065
芍药亭	-12.0065
猫头鹰	-12.0065
郁	-12.0065
全真六子	-12.0065
凝立不动	-12.0065
二千两银子	-12.0065
郝	-12.0065
举刀反砍	-12.0065
乔呆	-12.0065
听了杨过之言	-12.0065
孤苦伶仃	-12.0065
惩	-12.0065
最后一章	-12.0065
相思之苦	-12.0065
踩	-12.0065
镇慑	-12.0065
睨	-12.0065
走一遭	-12.0065
七嘴八舌	-12.0065
各自为战	-12.0066
听得背后脚步声	-12.0066
大同小异	-12.0066
屈指算来	-12.0066
惑	-12.0066
生瘤子的	-12.0066
舐	-12.0066
抒	-12.0066
狂喷鲜血	-12.0066
透胸而入	-12.0066
山角后	-12.0066
瞻	-12.0066
经脉逆行	-12.0066
诵	-12.0066
中午时分	-12.0066
何年何月	-12.0066
库	-12.0066
形于色	-12.0066
言之成理	-12.0066
锋芒	-12.0066
当今之世	-12.0066
辗	-12.0066
控	-12.0066
号称天下武学正宗	-12.0066
吮吸	-12.0066
娇怯怯	-12.0066
小黑蟀	-12.0066
左右互调	-12.0066
强好胜	-12.0066
忽明忽暗	-12.0066
扮个鬼脸	-12.0066
的晦气	-12.0066
络	-12.0066
那姓陈乞丐	-12.0066
嫣然	-12.0066
描	-12.0066
贩	-12.0066
寄	-12.0066
优	-12.0066
儒雅	-12.0066
全真诸子	-12.0066
怒容满面	-12.0066
扩	-12.0066
拦截	-12.0066
搽	-12.0066
是迫不得已	-12.0066
模仿	-12.0066
迂腐	-12.0066
金刀驸马	-12.0066
雇	-12.0066
韩陈两位	-12.0066
断断续续	-12.0066
聆	-12.0066
一番美意	-12.0066
戕	-12.0066
身负绝艺	-12.0066
大祸临头	-12.0066
申	-12.0066
捺	-12.0066
捆	-12.0066
但终于迟了	-12.0066
包围之中	-12.0066
天不怕地不怕	-12.0066
打不定主意	-12.0066
癸	-12.0066
簪	-12.0066
蝇	-12.0066
绵密	-12.0066
盾	-12.0066
一声清啸	-12.0067
塔	-12.0067
心花怒放	-12.0067
拳打足踢	-12.0067
骑了一匹	-12.0067
在床沿	-12.0067
钦	-12.0067
众兵将	-12.0067
惭	-12.0067
口喷枣核	-12.0067
〗	-12.0067
一盆冷水	-12.0067
两头小豹	-12.0067
到墓外	-12.0067
千里传音	-12.0067
喜怒之色	-12.0067
在荒野中	-12.0067
恸	-12.0067
扫了一眼	-12.0067
攘	-12.0067
毡	-12.0067
澜	-12.0067
血海深仇	-12.0067
豆	-12.0067
跚	-12.0067
这十多年来	-12.0067
这首诗	-12.0067
那口钟	-12.0067
那广东人	-12.0067
长相厮守	-12.0067
陷溺	-12.0067
靖蓉夫妇	-12.0067
眉目清	-12.0067
个落花流水	-12.0067
微感惊讶	-12.0067
提心吊胆	-12.0067
皱起了眉头	-12.0067
篇	-12.0067
落得如此下场	-12.0067
蹒	-12.0067
不作一声	-12.0067
五只轮子	-12.0067
两名七袋弟子	-12.0067
人不如故	-12.0067
俯伏在地	-12.0067
倒撞下马	-12.0067
兰花拂穴手	-12.0067
刹时间	-12.0067
反来复去	-12.0067
听天由命	-12.0067
啧啧称奇	-12.0067
堵塞	-12.0067
处心积虑	-12.0067
守得严密异常	-12.0067
成千成万	-12.0067
淹	-12.0067
灵敏	-12.0067
珠光宝气	-12.0067
生死系于一线	-12.0067
疚	-12.0067
瘤	-12.0067
瞧个明白	-12.0067
矫夭	-12.0067
贼厮鸟	-12.0067
足挂齿	-12.0067
轻薄无赖	-12.0067
远远抛在	-12.0067
马上乘客	-12.0067
错杀了好人	-12.0067
安抚使	-12.0067
使上了十成	-12.0067
剌剌	-12.0067
史氏昆仲	-12.0067
各位英雄请	-12.0067
大开眼界	-12.0067
当下顾不得	-12.0067
房玄龄碑	-12.0067
拚个同归于尽	-12.0067
摇头晃脑	-12.0067
长身玉立	-12.0067
雄伟	-12.0067
懊	-12.0067
乔	-12.0067
刹	-12.0067
贻笑江湖	-12.0067
t	-12.0067
万丈深谷之中	-12.0067
不告而借	-12.0067
不能飞翔	-12.0067
修心养性	-12.0067
别来无恙	-12.0067
发疯般	-12.0067
右手空袖	-12.0067
团团乱转	-12.0067
奸臣丁大全	-12.0067
婴孩	-12.0067
媒妁之言	-12.0067
忿忿	-12.0067
撼	-12.0067
擂台	-12.0067
无法无天	-12.0067
晤	-12.0067
欢声雷动	-12.0067
秤	-12.0067
缀	-12.0067
耕	-12.0067
肆无忌惮	-12.0067
了两遍	-12.0067
雪地之中	-12.0067
▁那文秀少女	-12.0067
两行字	-12.0067
几欲晕去	-12.0067
唠唠叨叨	-12.0067
啾啾	-12.0067
四条腿	-12.0067
宋大叔	-12.0067
惋	-12.0067
晕眩	-12.0067
札	-12.0067
滚滚而下	-12.0067
萧	-12.0067
豁达大	-12.0067
不知如何应付才	-12.0067
嘶哑着嗓子	-12.0067
潇	-12.0067
一个中年妇人	-12.0067
三十岁	-12.0067
不暇细想	-12.0067
亮兵刃罢	-12.0067
修道之士	-12.0067
俺	-12.0067
光溜溜的	-12.0067
全真教的道士们	-12.0067
分自左右	-12.0067
双手同使	-12.0067
噫	-12.0067
四两拨千斤	-12.0067
在大庭广众之间	-12.0067
大智岛	-12.0067
天灵盖上	-12.0067
天竺僧和朱子柳	-12.0067
希奇古怪	-12.0067
开玩笑	-12.0067
心念微动	-12.0067
惘	-12.0067
故人之子	-12.0067
无上大力杵法	-12.0067
浊	-12.0067
犹带笑容	-12.0067
用起功来	-12.0067
百无聊赖	-12.0067
碗口粗细	-12.0067
考	-12.0067
艇	-12.0067
蒙古射手	-12.0067
许配给	-12.0067
身处险地	-12.0067
较量较量	-12.0067
达尔巴的金杵	-12.0067
顾盼生姿	-12.0067
驻	-12.0067
贪生怕死	-12.0067
从未受过	-12.0067
沫	-12.0067
娶我女儿	-12.0067
n	-12.0067
兜了个圈子	-12.0067
包围圈子	-12.0067
循声寻去	-12.0067
惊天动地	-12.0067
打通关脉	-12.0067
有过人之处	-12.0067
的死讯	-12.0067
瞪视着她	-12.0067
红颜知己	-12.0067
手足筋脉	-12.0067
构	-12.0067
辅	-12.0067
七十二路空明拳	-12.0067
从大门中	-12.0067
从背囊中取出	-12.0067
以礼相待	-12.0067
全身而退	-12.0067
冰清玉洁	-12.0067
到哪儿去	-12.0067
十八岁生辰	-12.0067
双剑齐出	-12.0067
天可怜见	-12.0067
奇门遁甲	-12.0067
庞大的身躯	-12.0067
心中一片混乱	-12.0067
杏黄道袍	-12.0067
灯笼	-12.0067
点微末	-12.0067
稍待片刻	-12.0067
聋哑头陀	-12.0067
赤条条	-12.0067
轻轻易易的	-12.0067
辉	-12.0067
远远传了出去	-12.0067
涨红了	-12.0067
伸手去摸	-12.0067
低声嘱咐	-12.0067
半死不活	-12.0067
大难临头	-12.0067
肿胀	-12.0067
转过身去	-12.0067
长大沉重的	-12.0067
陶	-12.0067
叽叽	-12.0067
隐隐生痛	-12.0067
伶牙	-12.0067
侮辱	-12.0067
俏丽	-12.0067
刚要碰到	-12.0067
双手各持	-12.0067
嘶哑	-12.0067
噪	-12.0067
奇耻大辱	-12.0067
好脓包的徒弟	-12.0067
是礼敬有加	-12.0067
未过门的妻子	-12.0067
每一招每一式都	-12.0067
沉不住气	-12.0067
玄冰	-12.0067
玉衡	-12.0067
百脉俱废	-12.0067
眠	-12.0067
称之为	-12.0067
空有一身	-12.0067
肃然起敬	-12.0067
踝	-12.0067
身子腾空	-12.0067
问长问短	-12.0067
鹤	-12.0067
在被窝中	-12.0068
仿	-12.0068
一小半	-12.0068
唐玄宗	-12.0068
尹居士	-12.0068
强身健体	-12.0068
愚兄	-12.0068
感歉仄	-12.0068
昆	-12.0068
满脸飞红	-12.0068
苗条	-12.0068
这条老命	-12.0068
锈	-12.0068
高高矮矮	-12.0068
肌	-12.0068
不知何时方	-12.0068
不跟你玩	-12.0068
中自有一股威严	-12.0068
云横秦岭	-12.0068
十成中	-12.0068
史三叔	-12.0068
围涎	-12.0068
如潮水般	-12.0068
指手划脚	-12.0068
数使然	-12.0068
渐行渐	-12.0068
理直气壮	-12.0068
盏	-12.0068
睫	-12.0068
瞎说八道	-12.0068
空空荡荡	-12.0068
笑眯眯的	-12.0068
脱口而出	-12.0068
若有若无	-12.0068
讨债鬼	-12.0068
越哭越	-12.0068
那本书	-12.0068
震耳欲聋	-12.0068
黑脸汉子	-12.0068
刁	-12.0068
配合得	-12.0068
潇尹二人	-12.0068
勒转马头	-12.0068
第一大帮	-12.0068
第三日上	-12.0068
粗浅功夫	-12.0068
郭芙与二武	-12.0068
阿姨	-12.0068
面无人色	-12.0068
核	-12.0068
说这几句话时	-12.0068
一本正经的	-12.0068
上绝情谷去	-12.0068
不伦不类	-12.0068
不相上下	-12.0068
中变化出来	-12.0068
事不关己	-12.0068
事到如今	-12.0068
位武林奇人	-12.0068
到绝情谷来	-12.0068
务求相聚	-12.0068
各点一指	-12.0068
名曰	-12.0068
吠	-12.0068
奇珍异宝	-12.0068
奈何他不得	-12.0068
欢愉	-12.0068
熔	-12.0068
相依为命	-12.0068
眼前金光	-12.0068
硬碰硬	-12.0068
给大哥报仇	-12.0068
草木不生	-12.0068
诏	-12.0068
谦抑	-12.0068
这两处穴道	-12.0068
一对白雕	-12.0068
下不了手	-12.0068
你赔不是啦	-12.0068
到这步田地	-12.0068
庐	-12.0068
往杨过头顶	-12.0068
或东或西	-12.0068
槛	-12.0068
相偕	-12.0068
这些日来	-12.0068
这算不算	-12.0068
那群玉蜂	-12.0068
重阳遗刻	-12.0068
从何说起	-12.0068
七个北斗阵	-12.0068
丘祖师	-12.0068
两株大树	-12.0068
俯下头	-12.0068
光照耀	-12.0068
勿失信约	-12.0068
孕	-12.0068
小畜生骂谁	-12.0068
张口大嚼	-12.0068
忤逆	-12.0068
情场失意	-12.0068
成这个样子	-12.0068
捋	-12.0068
炉火纯青	-12.0068
瓦盆	-12.0068
睡得正	-12.0068
祸国殃民	-12.0068
笑逐颜开	-12.0068
羽毛	-12.0068
芳辰	-12.0068
袅	-12.0068
财	-12.0068
连绵不断	-12.0068
逮	-12.0068
香扑鼻	-12.0068
愉乐	-12.0068
三只麻雀	-12.0068
五位师长开关	-12.0068
可要小心了	-12.0068
大个儿	-12.0068
扮新娘子	-12.0068
淤	-12.0068
生日那天	-12.0068
祟	-12.0068
英雄会上	-12.0068
不自胜	-12.0068
为本帮之主	-12.0068
九霄云外	-12.0068
侃侃而	-12.0068
侧过头来	-12.0068
变幻百端	-12.0068
吃点苦头	-12.0068
名扬天下	-12.0068
宣读	-12.0068
少说也有	-12.0068
快快活活	-12.0068
怪模怪样	-12.0068
扛	-12.0068
日思夜想	-12.0068
歪歪斜斜	-12.0068
玉阳真人	-12.0068
生死大险	-12.0068
的细针	-12.0068
立于不败之地	-12.0068
胜得两场	-12.0068
衬	-12.0068
规模	-12.0068
说出话来	-12.0068
辛劳	-12.0068
这小小孩童	-12.0068
郭大侠和郭夫人	-12.0068
隧	-12.0068
难以捉摸	-12.0068
韩无垢	-12.0068
两败俱伤	-12.0068
个蒲团	-12.0068
俱醉	-12.0068
在丹房中	-12.0068
手中之剑	-12.0068
无药可救	-12.0068
易宫换穴	-12.0068
两只大鹰	-12.0068
从何而来	-12.0068
你的恩情	-12.0068
千方百计	-12.0068
发号施令	-12.0068
取她性命	-12.0068
同胞	-12.0068
哪里还顾得	-12.0068
垫脚石	-12.0068
大名鼎鼎的	-12.0068
姬皮二	-12.0068
官职	-12.0068
成黑色	-12.0068
比武决胜	-12.0068
皈依	-12.0068
盐	-12.0068
瞠目	-12.0068
这条命	-12.0068
对你不起	-12.0068
泪痕	-12.0068
苍猿	-12.0068
非受重伤不可	-12.0068
入怀内	-12.0069
好不疼痛	-12.0069
姐姐	-12.0069
屋檐	-12.0069
怎生称呼	-12.0069
抗敌御侮	-12.0069
挣不脱	-12.0069
株大松树	-12.0069
武三爷	-12.0069
死无葬身之地	-12.0069
死而后已	-12.0069
汗珠	-12.0069
玎玲玲	-12.0069
疤痕	-12.0069
第一个心愿	-12.0069
约定日子	-12.0069
规规矩矩	-12.0069
走着瞧罢	-12.0069
践	-12.0069
陆抗	-12.0069
随风飘	-12.0069
鸡犬不留	-12.0069
出家做了	-12.0069
向后急退	-12.0069
在树干上	-12.0069
忧心如焚	-12.0069
铿	-12.0069
三生有幸	-12.0069
不能自已	-12.0069
以大欺小	-12.0069
呕了血	-12.0069
寄居	-12.0069
店伙	-12.0069
心中怦的一	-12.0069
心胆俱裂	-12.0069
成虎爪之	-12.0069
斯斯文文的	-12.0069
潇湘子的杆棒	-12.0069
熟铜棍	-12.0069
爽爽快快	-12.0069
玉阳子	-12.0069
祠	-12.0069
秘笈	-12.0069
筋络	-12.0069
啐了一口	-12.0069
快给我滚	-12.0069
慢吞吞的	-12.0069
打痛了	-12.0069
这几个月来	-12.0069
这小丫头	-12.0069
队伍	-12.0069
鞠	-12.0069
黄旗军	-12.0069
一动上手	-12.0069
一颗九花玉露丸	-12.0069
三十六日之	-12.0069
八名大汉	-12.0069
反复思量	-12.0069
嗓门	-12.0069
团团围住	-12.0069
声色俱厉	-12.0069
彬	-12.0069
板起脸	-12.0069
永感大德	-12.0069
淘	-12.0069
生日礼物	-12.0069
腰肢	-12.0069
足下加快	-12.0069
这恶贼	-12.0069
铁铲	-12.0069
问个明白	-12.0069
老头子	-12.0069
嘉兴王铁枪庙中	-12.0069
圣旨	-12.0069
宿一宵	-12.0069
棺材	-12.0069
一席话	-12.0069
外号叫作	-12.0069
姻	-12.0069
气渐盛	-12.0069
笑了一笑	-12.0069
经受不起	-12.0069
胸腹之间	-12.0069
讽	-12.0069
那两个道士	-12.0069
搂抱	-12.0069
不见日光	-12.0069
横冲直撞	-12.0069
监视	-12.0069
一点儿也不错	-12.0069
两人心灵	-12.0069
丰姿	-12.0069
偏袒	-12.0069
停住脚步	-12.0069
凸	-12.0069
富贵	-12.0069
崇敬	-12.0069
心慌意乱	-12.0069
急在一时	-12.0069
拘谨	-12.0069
数十匹马	-12.0069
是见所未见	-12.0069
鲜艳	-12.0069
符	-12.0069
一号人物	-12.0069
丹炉	-12.0069
不闻应声	-12.0069
丘师祖	-12.0069
你带我去	-12.0069
嗓子	-12.0069
孽障	-12.0069
打折了	-12.0069
有通天彻地之能	-12.0069
木材	-12.0069
此起彼	-12.0069
的死因	-12.0069
舱	-12.0069
当胸刺去	-12.0069
恩惠	-12.0069
提起剑来	-12.0069
满腔怒火	-12.0069
矮着身子	-12.0069
缓不出手来	-12.0069
困厄	-12.007
壮健	-12.007
大汗蒙哥	-12.007
对面山崖	-12.007
施展不开	-12.007
督脉	-12.007
全真教的第三代弟子	-12.007
抱在怀里	-12.007
有气无力	-12.007
清澈	-12.007
甚么也不懂	-12.007
秃驴	-12.007
迅雷	-12.007
疑团	-12.007
凝神观看	-12.007
吵些甚么	-12.007
圈套	-12.007
疆土	-12.007
的官儿	-12.007
稚弱	-12.007
身穿灰	-12.007
预拟	-12.007
扰攘	-12.007
斜睨	-12.007
暗暗骇异	-12.007
灭烛火	-12.007
高瘦藏僧	-12.007
竟是纹丝不动	-12.007
两枚铁钉	-12.007
尊卑	-12.007
已知其理	-12.007
推举一位	-12.007
程瑶迦	-12.007
竟自不轻	-12.007
锭	-12.007
险峻	-12.007
四卷楞伽	-12.007
到极处	-12.007
在大厅中	-12.007
夕阳	-12.007
奇功一件	-12.007
折了一根树枝	-12.007
生平从所未见	-12.007
专注	-12.007
两只鞋子	-12.007
侧头避过	-12.007
悄步	-12.007
歼灭	-12.007
统军	-12.007
再也追赶不上	-12.007
枪杆	-12.007
秀雅	-12.007
一场大战	-12.007
只山兔	-12.007
一双筷子	-12.007
不知去了哪里	-12.007
东躲西	-12.007
俊俏	-12.007
挡住去路	-12.007
满头满脸	-12.007
过了好一阵	-12.007
顾虑	-12.007
一步步退	-12.007
捧腹	-12.007
这算甚么	-12.007
丝线	-12.007
善哉	-12.007
意料之中	-12.007
言语相激	-12.007
抚琴	-12.0071
一名绿衫弟子	-12.0071
三个时辰	-12.0071
仰头望着	-12.0071
凝神细看	-12.0071
品貌	-12.0071
洪亮	-12.0071
预定	-12.0071
三枚金针	-12.0071
四下张望	-12.0071
报此仇	-12.0071
黄河	-12.0071
乌云	-12.0071
勤修	-12.0071
在桃花岛隐居	-12.0071
密宗真言	-12.0071
情花树下	-12.0071
无不恰到好处	-12.0071
用得着	-12.0071
究属	-12.0071
拥卫	-12.0071
你打死我	-12.0071
奸谋	-12.0071
宽慰	-12.0071
郎君	-12.0071
亏得你	-12.0071
做个手势	-12.0071
发足便奔	-12.0071
四个乞丐	-12.0071
孤寂	-12.0071
定神闲	-12.0071
平添	-12.0071
童心大	-12.0071
胁迫	-12.0071
蒙古官员	-12.0071
诗句	-12.0071
铁铸	-12.0071
奔出数十丈	-12.0071
指挥蜜蜂	-12.0071
败类	-12.0071
涉险	-12.0071
四名蒙古武士	-12.0071
声怒吼	-12.0071
是甚么意思	-12.0071
磁器	-12.0071
不足惜	-12.0071
伸手点了他	-12.0071
受了内伤	-12.0071
紧紧跟随	-12.0071
不认得我	-12.0071
喜悦之情	-12.0071
抵赖	-12.0071
途径	-12.0071
难以抑制	-12.0071
拖延	-12.0071
撒野	-12.0071
这路棒法	-12.0071
霸占	-12.0071
不是他的敌手	-12.0072
叫声甫	-12.0072
棉被	-12.0072
癞马	-12.0072
无头绪	-12.0072
不传外人	-12.0072
心中一痛	-12.0072
背心抓去	-12.0072
闯荡	-12.0072
坐在寒玉床上	-12.0072
贴肉	-12.0072
还了一掌	-12.0072
这群人	-12.0072
一番好意	-12.0072
两枚枣核钉	-12.0072
好歹也要	-12.0072
这么老了	-12.0072
远远望见	-12.0072
凶险万分	-12.0072
十六个字	-12.0072
父女之情	-12.0072
黄冠	-12.0072
言相劝	-12.0072
乖儿子	-12.0072
十五年	-12.0072
十来岁	-12.0072
垂泪	-12.0072
父母之仇	-12.0072
狡计	-12.0072
那位前辈	-12.0072
又要发作	-12.0072
殿顶	-12.0072
娇柔	-12.0072
残害	-12.0072
伸指点了	-12.0072
你不用担心	-12.0072
双手笼	-12.0072
毅然	-12.0072
毒性发作	-12.0072
伸手去拉	-12.0072
你好好去罢	-12.0072
四十来岁	-12.0072
一击成功	-12.0073
上乘轻功	-12.0073
久战不	-12.0073
兽群	-12.0073
妒恨	-12.0073
抑且	-12.0073
施展轻身功夫	-12.0073
软垂下	-12.0073
耀目	-12.0073
借宿	-12.0073
纤腰	-12.0073
闭塞	-12.0073
齐声欢呼	-12.0073
闪电	-12.0073
挑拨	-12.0073
柴枝	-12.0073
洪师姊	-12.0073
各执兵刃	-12.0073
你和过儿	-12.0073
奔出数里	-12.0073
憎恶	-12.0073
毫不停留	-12.0073
一刀砍	-12.0073
浑忘了	-12.0073
抓了个空	-12.0073
焦黄	-12.0073
率领一百头	-12.0073
纷纷跌落	-12.0073
解开了穴道	-12.0073
也不顾了	-12.0073
暗暗喝彩	-12.0073
走到床边	-12.0073
在空中打了	-12.0073
较艺	-12.0073
宣扬	-12.0074
灵台穴	-12.0074
站定脚步	-12.0074
胖道士	-12.0074
龙氏	-12.0074
昏了过去	-12.0074
一大碗	-12.0074
卧房	-12.0074
堆积	-12.0074
实无半点	-12.0074
宣布	-12.0074
心目中	-12.0074
皱眉不语	-12.0074
文秀	-12.0074
在他耳边低声	-12.0074
情花花树	-12.0074
挟持	-12.0074
有点像	-12.0074
遇明师	-12.0074
严整	-12.0074
向何方	-12.0074
各位道长	-12.0074
历代	-12.0074
岂料	-12.0074
迹象	-12.0074
朱师弟	-12.0074
俯首	-12.0074
固执	-12.0074
慈爱	-12.0074
走到厅中	-12.0074
微微叹息	-12.0075
瞪目	-12.0075
大擒拿手	-12.0075
一大片	-12.0075
与小龙女分手	-12.0075
俯视	-12.0075
涉及	-12.0075
生平所见	-12.0075
这位高僧	-12.0075
说不上来	-12.0075
客商	-12.0075
有甚么大不了	-12.0075
群邪	-12.0075
计谋	-12.0075
丹田之气	-12.0075
抵达	-12.0075
便可乘机	-12.0075
又快又	-12.0075
细辨	-12.0075
讨饶	-12.0075
说不出的欢喜	-12.0075
扶危	-12.0075
李姊姊	-12.0075
湿透	-12.0075
苦刑	-12.0075
怔怔的瞧着	-12.0075
黄昏	-12.0075
危境	-12.0075
双桨	-12.0075
追踪	-12.0075
野味	-12.0075
剧战	-12.0075
姓陆	-12.0075
熟习	-12.0075
一块锦帕	-12.0076
景色	-12.0076
五叔	-12.0076
全不理睬	-12.0076
十六名弟子	-12.0076
右扇左	-12.0076
摔一交	-12.0076
随伴	-12.0076
擦擦	-12.0076
窗格	-12.0076
险些脱手	-12.0076
掷了上去	-12.0076
两个千人队	-12.0076
再打下去	-12.0076
赐药	-12.0076
钢针	-12.0076
辨认	-12.0076
手臂酸软	-12.0077
五根手指	-12.0077
前辈高人	-12.0077
拂袖	-12.0077
比拚内力	-12.0077
渐浓	-12.0077
虎虎	-12.0077
埋怨	-12.0077
不闻不见	-12.0077
武器	-12.0077
周遭	-12.0077
以他此时	-12.0077
吻合	-12.0077
困顿	-12.0077
端详	-12.0077
饭碗	-12.0077
双掌推出	-12.0077
斜身侧	-12.0077
帮之主	-12.0077
看了一眼	-12.0077
黄袍	-12.0077
好好待你	-12.0078
环绕	-12.0078
石枕	-12.0078
成甚么样	-12.0078
赴绝情谷	-12.0078
斟酒	-12.0078
棍棒	-12.0078
爬不上	-12.0078
恋战	-12.0078
拜倒在地	-12.0078
咱们这便	-12.0078
微感奇怪	-12.0078
心上人	-12.0078
原谅	-12.0078
摸摸	-12.0078
见情势不对	-12.0079
难以抵敌	-12.0079
肚皮	-12.0079
上下左右	-12.0079
大为恼怒	-12.0079
向前急冲	-12.0079
抵挡得住	-12.0079
鲜花	-12.0079
跌入了	-12.0079
西征	-12.0079
王公	-12.008
土堆	-12.008
兄弟姊妹	-12.008
令妹	-12.008
我和龙儿	-12.008
官府	-12.008
记号	-12.008
微微一痛	-12.008
防护	-12.0081
怪僻	-12.0081
黑影一	-12.0081
教你三招	-12.0081
恩仇	-12.0081
愁眉	-12.0081
其中之一	-12.0082
铁器	-12.0082
恐怕	-12.0083
思念及	-12.0084
安静	-12.0084
分高下	-12.0084
清雅	-12.0084
溪底	-12.0085
在他胁下	-12.0085
两个贼道	-12.0085
一块块	-12.0085
已抓住他	-12.0086
加理会	-12.0086
却绝不	-12.0088
请众位	-12.0089
个青年	-12.0089
一步步走	-12.0091
古墓石室	-12.0093
以内力助	-12.0095
又哭又	-12.0096
药可治	-12.01
得自由	-12.01
罩在钟	-12.0105
匹坐骑	-12.0106
幻无方	-12.0109
定要逼我	-12.0116
当当两	-12.0117
不避不	-12.0119
了一个大洞	-12.0121
所教的	-12.0124
交了给	-12.014
边厢	-12.0143
部经书	-12.0146
南派丐帮	-12.0147
个大洞	-12.0147
冒犯	-12.0148
非易与	-12.016
有生路	-12.0165
伸出手去	-12.0167
的丑脸	-12.0174
我身上有	-12.0177
随即省悟	-12.0181
的方法	-12.0182
过头去	-12.0182
每一招均	-12.02
后转出一	-12.0214
在郭襄身前	-12.0215
认他为	-12.0222
死而无	-12.0222
强自忍	-12.0226
飞步奔	-12.0229
惨烈	-12.0242
听得蹄声	-12.0246
着着抢	-12.0268
于道显	-12.0271
几十个	-12.0274
不容他再	-12.0291
轿帷	-12.0292
到他身前	-12.0299
得快了	-12.0304
带我去见	-12.034
施杀手	-12.0372
你抱我	-12.0395
上的毒性	-12.0396
伤势怎样	-12.0404
第一勇士	-12.0427
脸涨得通红	-12.0433
块石碑	-12.0436
走到小龙女身	-12.044
贵官和潇湘子	-12.0482
个措手不及	-12.0504
那是再好也没有	-12.0529
魂不定	-12.0536
气蒸	-12.0691
根枯柴	-12.0716
碗饭	-12.0728
心中如何不	-12.076
年的功力	-12.0844
挥掌拍	-12.086
雕鸣	-12.0896
将头转	-12.0897
听母亲说	-12.092
翻身坐	-12.0964
暗自得意	-12.0979
已防到	-12.0997
剑尖颤	-12.0998
悄悄溜	-12.1007
朵花	-12.1008
未必肯	-12.1042
箫歌	-12.1057
豁然	-12.108
劲贯	-12.1087
在我身旁	-12.1126
急步抢	-12.1134
深深吸了	-12.1354
纸扇	-12.1361
尚幼	-12.1401
新袍	-12.1559
骑驴	-12.1598
擒拿手法	-12.16
结结实实的摔	-12.1628
感焦躁	-12.1682
身受千刀	-12.1849
吸了几口	-12.1849
睡在床	-12.1904
起手来	-12.1914
喀	-12.1918
嚼了几	-12.1931
话是真是假	-12.2003
纸上写	-12.2354
打火点	-12.2386
拉着他手	-12.2673
个多时辰	-12.285
非易事	-12.2895
涨得通红	-12.2911
快带我去	-12.3077
句话问得	-12.308
却着实不	-12.3118
悄	-12.3232
好端端	-12.3282
不约而同	-12.3284
怔怔	-12.3285
孩	-12.3306
真实本领	-12.3309
柯	-12.3319
再好也没有	-12.3336
棵	-12.3355
阴恻恻的	-12.3375
翩	-12.3379
霍	-12.3379
峭	-12.3382
糊	-12.3386
伍	-12.3389
聪	-12.339
哈	-12.339
惶	-12.3391
条鳄鱼	-12.3392
觑	-12.3392
馁	-12.3393
余大帅	-12.3393
极韧的	-12.3393
踏步上前	-12.3394
绰绰有余	-12.3394
啪啪	-12.3395
那位道友	-12.3395
资	-12.3395
到临头	-12.3395
恳	-12.3395
统率这十数万	-12.3395
是求之不得	-12.3395
白驼山	-12.3396
红花绿叶	-12.3396
伪	-12.3396
党	-12.3396
弊	-12.3396
死得不明不白	-12.3396
曰	-12.3397
荣宠	-12.3397
精明干练	-12.3397
闭着眼睛	-12.3397
岁那年	-12.3397
瞬息	-12.3397
苗	-12.3397
神不知鬼不觉的	-12.3397
纹丝不动	-12.3397
两三岁	-12.3397
洛	-12.3397
履	-12.3397
变幻莫测	-12.3398
萃	-12.3398
声若洪钟	-12.3398
届	-12.3398
拉了拉	-12.3398
自讨苦吃	-12.3398
育	-12.3398
实所难言	-12.3398
暗中来往	-12.3398
最是要紧不过	-12.3398
竟有如许	-12.3398
婢	-12.3398
涎	-12.3398
车轮战	-12.3398
膀	-12.3398
悲悯之	-12.3398
玷	-12.3398
道旁树木	-12.3398
骇人听闻	-12.3398
钵	-12.3398
出家人慈悲为	-12.3399
狭路相逢	-12.3399
的祖先	-12.3399
礼法习俗	-12.3399
积贮	-12.3399
置之死地	-12.3399
脐	-12.3399
魂牵梦萦	-12.3399
棉	-12.3399
好生之德	-12.3399
深信不疑	-12.3399
放在眼内	-12.3399
▁傍晚时分	-12.3399
哪一门子	-12.3399
巍	-12.3399
德才兼备	-12.3399
机伶伶打个冷战	-12.3399
相偎相倚	-12.3399
神骏非凡	-12.3399
赵尹二人	-12.3399
铲	-12.3399
连人带	-12.3399
暮色苍茫	-12.3399
这两只畜生	-12.3399
郭襄和郭破虏	-12.3399
感大德	-12.3399
十数万人	-12.3399
襄阳围城	-12.3399
不共戴天	-12.3399
假手于	-12.3399
八手仙猴史孟捷	-12.3399
口讲指划	-12.3399
只作没听见	-12.3399
威不可当	-12.3399
急向后跃	-12.3399
恣	-12.3399
患得患失	-12.3399
是何家数	-12.3399
是当世大侠	-12.3399
此路兵	-12.3399
说给我听了	-12.3399
那长身道士	-12.3399
阴阳倒乱刃法	-12.3399
领兵八千	-12.3399
骚扰	-12.3399
宵	-12.3399
左右互搏	-12.3399
其次是	-12.3399
吕大人	-12.3399
哭丧着脸	-12.3399
娈	-12.3399
既惊且	-12.3399
眼睁睁的瞧着	-12.3399
雌	-12.3399
欠缺	-12.3399
螺	-12.3399
今生今世	-12.3399
势若疯虎	-12.3399
化险为夷	-12.3399
实不逊于	-12.3399
有甚么不对了	-12.3399
深紫色的小草	-12.3399
爷儿俩	-12.3399
自言帖	-12.3399
蒙古王子忽必烈	-12.3399
西首第一间房	-12.3399
课	-12.3399
谋财害命	-12.3399
超逸绝伦	-12.3399
适于此时	-12.3399
钟架上	-12.3399
骆驼背上	-12.3399
滋	-12.3399
不明其中之理	-12.3399
嘲	-12.3399
也没甚么大不了	-12.3399
互不相	-12.3399
先入为主	-12.3399
壁缝中张望	-12.3399
找杨大哥去	-12.3399
恻	-12.3399
一句话也不说	-12.3399
三座丹炉	-12.3399
上前助战	-12.3399
久别重逢	-12.3399
你待我真好	-12.3399
其余七千人	-12.3399
冷言冷语	-12.3399
向东南行	-12.3399
天南地北	-12.3399
天经地义	-12.3399
夺路外闯	-12.3399
她性子向来	-12.3399
循序渐进	-12.3399
楚楚可怜	-12.3399
毒质侵入了	-12.3399
烈焰冲天	-12.3399
牛家村	-12.3399
瓦钵	-12.3399
程陆姊妹	-12.3399
筋疲力尽	-12.3399
继任掌教	-12.3399
越老越	-12.3399
踱	-12.3399
转了几转	-12.3399
铎	-12.3399
雷轰电	-12.3399
非同寻常	-12.3399
二更时分	-12.34
赃	-12.34
搂在怀	-12.34
明晃晃的	-12.34
穿胸而过	-12.34
w	-12.34
在牛臀上	-12.34
城内城外	-12.34
爬不起身	-12.34
走进殿来	-12.34
这怪老头儿	-12.34
针上有毒	-12.34
骨碌碌的	-12.34
尼摩	-12.34
都拿上来啊	-12.34
一老一小	-12.34
一面大旗	-12.34
三名百夫长	-12.34
三四丈	-12.34
不当一回事	-12.34
你仔细瞧	-12.34
你真聪明	-12.34
元气大伤	-12.34
出了一身冷汗	-12.34
勋	-12.34
叽哩咕噜的说了几句	-12.34
吁	-12.34
听声音正是	-12.34
在心头一闪	-12.34
在牛腹之下	-12.34
天没亮	-12.34
山前山后	-12.34
巧夺天工	-12.34
强词夺理	-12.34
怦然心动	-12.34
怪蛇的蛇胆	-12.34
我自然是你的妻子	-12.34
抚了抚	-12.34
报仇雪恨	-12.34
拱了拱手	-12.34
控纵自如	-12.34
昌	-12.34
是何来历	-12.34
杨铁心叔父	-12.34
模模糊糊的	-12.34
激斗正酣	-12.34
狼心狗肺	-12.34
王惟忠将军	-12.34
瑟	-12.34
的称号	-12.34
空空洞洞	-12.34
轻轻放在地下	-12.34
这黑矮子	-12.34
金银铜铁铅五轮	-12.34
霍霍	-12.34
桶	-12.34
孺	-12.34
牵着杨过的手	-12.34
身子微微一晃	-12.34
上山拜见丘真人	-12.34
人孰无过	-12.34
吊死鬼的长索	-12.34
坪	-12.34
外孙女儿	-12.34
实不下于	-12.34
忘恩负义	-12.34
憨	-12.34
携着杨过之手	-12.34
携着杨过的手	-12.34
矍然而惊	-12.34
离得远远的	-12.34
群情耸动	-12.34
菊	-12.34
观赏风景	-12.34
身败名裂	-12.34
青菜豆腐	-12.34
风月无情人暗换	-12.34
▁郭靖听妻子	-12.34
杞人忧天	-12.34
版	-12.34
日清晨	-12.34
▁不一日来到	-12.34
』	-12.34
一霎之间	-12.34
不三不四	-12.34
不问情由	-12.34
两行小字	-12.34
九大高手	-12.34
也有几分道理	-12.34
人的性格	-12.34
俏生生的站	-12.34
再作道理	-12.34
净桶	-12.34
刹那之间	-12.34
剁	-12.34
占了上风	-12.34
口喷鲜血	-12.34
各家各派的	-12.34
嗤嗤作响	-12.34
四头花豹	-12.34
大江南北	-12.34
如箭般	-12.34
姓郝的	-12.34
已逃得不知去向	-12.34
得你好苦	-12.34
我弟弟死了	-12.34
护住心脉	-12.34
拳经剑谱	-12.34
捉摸不定	-12.34
时时刻刻	-12.34
是狗熊	-12.34
是郭靖和黄蓉的女儿	-12.34
木笔花树	-12.34
江南人狡猾多诈	-12.34
汴	-12.34
点亮烛火	-12.34
白头偕老	-12.34
白额山君史伯威	-12.34
筝	-12.34
精灵古怪	-12.34
纷纷拔出兵刃	-12.34
耸然动容	-12.34
耽误了	-12.34
血行加速	-12.34
要放暗器了	-12.34
谒	-12.34
谭处端	-12.34
这两个奸徒	-12.34
镯	-12.34
闩	-12.34
阴森可怖	-12.34
功败垂成	-12.34
心头大震	-12.34
神定气闲	-12.34
笑掉了牙齿	-12.34
金铁交鸣	-12.34
窒	-12.34
大巧不工	-12.34
个身材高瘦的	-12.34
从脸颊上	-12.34
又瞎又跛	-12.34
变戏法	-12.34
只一瞬间之事	-12.34
可有多为难	-12.34
含有剧毒	-12.34
听在耳中	-12.34
善莫大焉	-12.34
大大有利	-12.34
大败亏输	-12.34
恋恋不舍	-12.34
愈练愈	-12.34
我也这么想	-12.34
揣	-12.34
疾言厉色	-12.34
盔	-12.34
连遇险招	-12.34
送了他的性命	-12.34
随机应变	-12.34
馨	-12.34
鸭	-12.34
猾	-12.34
掮	-12.34
一头雄狮	-12.34
七手八脚	-12.34
三大高手	-12.34
不合情理	-12.34
不留情	-12.34
丛青苔	-12.34
两头大雕	-12.34
两路大军	-12.34
乌鸦山聋哑头陀	-12.34
亏你想得出	-12.34
五大高人	-12.34
伸手去拿	-12.34
作势欲	-12.34
你听我说	-12.34
公孙伯母	-12.34
几行字	-12.34
剑下的石刻	-12.34
各门各派	-12.34
声若龙吟	-12.34
大恩大德	-12.34
如刺猬一般	-12.34
姓姬的道人	-12.34
客客气气	-12.34
小白脸	-12.34
少年英侠	-12.34
得津津有味	-12.34
得稀烂	-12.34
情致缠绵	-12.34
所使招数	-12.34
把心横了	-12.34
抵不住啦	-12.34
救苦救难	-12.34
无还手余地	-12.34
是一位了不起的	-12.34
是个浑人	-12.34
是这个意思	-12.34
曲泽穴	-12.34
杨过性命便有重大危险	-12.34
殒	-12.34
沉着脸	-12.34
沦	-12.34
独往独来	-12.34
生死存亡	-12.34
真实武功	-12.34
答不出话来	-12.34
给情花刺伤	-12.34
维艰	-12.34
自有一股凛凛之威	-12.34
萨华滋	-12.34
蛮夷	-12.34
蝗	-12.34
误入歧途	-12.34
贪生怕死之徒	-12.34
越逼越	-12.34
陆门何夫人	-12.34
难以索解	-12.34
顽劣	-12.34
马乳酒	-12.34
髓	-12.34
魏	-12.34
悲喜交集	-12.34
西山一窟鬼和史氏兄弟	-12.34
那位女前辈	-12.34
一厢情愿	-12.34
一滴滴	-12.34
个没完没了	-12.34
他体内毒性	-12.34
剧烈一震	-12.34
动人心魄	-12.34
嘴滑舌	-12.34
大阵大仗	-12.34
子午见骨	-12.34
幸何如之	-12.34
找遍了	-12.34
招了招手	-12.34
撑着铁拐	-12.34
是何等样人	-12.34
有独到之处	-12.34
泳	-12.34
清丽绝俗	-12.34
的银弧刀	-12.34
神智昏乱	-12.34
糟老头子	-12.34
翡翠小瓶	-12.34
膏	-12.34
言出必践	-12.34
谁是谁非	-12.34
谬	-12.34
蹈	-12.34
那美妇人	-12.34
颔	-12.34
吕	-12.34
敦	-12.34
傍	-12.34
无剑胜有剑之	-12.34
远远传送出去	-12.34
龄	-12.34
一首诗	-12.34
上床睡	-12.34
丛玫瑰	-12.34
两粒石子	-12.34
仆跌在地	-12.34
从孔中	-12.34
便是天塌下来	-12.34
做父母的	-12.34
凄恻	-12.34
出乎意料之外	-12.34
十者到其九	-12.34
半夜三更	-12.34
参详不透	-12.34
号啕大哭	-12.34
呜呜咽咽	-12.34
咭	-12.34
咯	-12.34
堤	-12.34
墟	-12.34
天旋地转	-12.34
如何联络	-12.34
季	-12.34
孺慕	-12.34
心中突的一	-12.34
心头火起	-12.34
恐惧之色	-12.34
恒	-12.34
揉	-12.34
揉了揉	-12.34
提在手中	-12.34
攒	-12.34
旬	-12.34
旷地上	-12.34
有气没力	-12.34
杨少侠	-12.34
欢欢喜喜的	-12.34
殉情而死	-12.34
气急败坏	-12.34
活得不耐烦	-12.34
深不见底	-12.34
灰扑扑的	-12.34
煤炭	-12.34
猛不可当	-12.34
猩	-12.34
瓶蜜浆	-12.34
生力军	-12.34
痛痛快快	-12.34
的人着实不少	-12.34
瞧不清她	-12.34
神妙莫测	-12.34
离别苦	-12.34
结义兄弟	-12.34
脉脉含情	-12.34
脑浆迸裂	-12.34
自由自在	-12.34
虎视眈眈	-12.34
褚	-12.34
见势头不	-12.34
见招拆招	-12.34
谜	-12.34
踞	-12.34
身上的情花剧毒	-12.34
转轮王张一氓	-12.34
还治其人之身	-12.34
这倒奇了	-12.34
那也算不了	-12.34
那火爆性子的化子	-12.34
铁桶相似	-12.34
铄	-12.34
阴声阴气的	-12.34
隔着板壁	-12.34
非败不可	-12.34
颓	-12.34
鲁有脚的鬼魂	-12.34
鲁老伯的鬼魂	-12.34
龙驹寨	-12.34
澈	-12.34
两个爱儿	-12.34
荷	-12.34
不能力敌	-12.3401
之心度人	-12.3401
守身如玉	-12.3401
快弄死这	-12.3401
所布的土阵	-12.3401
泪光莹	-12.3401
深仇大恨	-12.3401
牙齿咬得格格	-12.3401
运剑如风	-12.3401
在山野间	-12.3401
将刀柄	-12.3401
罡	-12.3401
一对情侣	-12.3401
一彪人马	-12.3401
一筹莫展	-12.3401
与众不同	-12.3401
于千钧一发之际	-12.3401
以其人之道	-12.3401
伤愈之后	-12.3401
全力施为	-12.3401
兵荒马乱	-12.3401
再也说不下去	-12.3401
剃	-12.3401
十年未晚	-12.3401
千千万万	-12.3401
叙契阔	-12.3401
口宣佛号	-12.3401
咬着牙齿	-12.3401
嗅	-12.3401
大逆不道	-12.3401
履中土	-12.3401
屯	-12.3401
张大胯子	-12.3401
我不伤你	-12.3401
我几时说过	-12.3401
扑地倒了	-12.3401
把持不住	-12.3401
撮唇作哨	-12.3401
无敌于天下	-12.3401
无敌大将军	-12.3401
是桃花岛弟子	-12.3401
暖气从	-12.3401
李道友	-12.3401
永生永世	-12.3401
污言秽语	-12.3401
渐落下风	-12.3401
激将之计	-12.3401
烧烤来吃	-12.3401
生平最得意的	-12.3401
目共睹	-12.3401
神威凛然	-12.3401
罪孽深重	-12.3401
虹	-12.3401
解开她的穴道	-12.3401
越战越	-12.3401
这枝千年雪参	-12.3401
这粒小石子	-12.3401
这老婆婆	-12.3401
那四个化子	-12.3401
鏖	-12.3401
除去鞋袜	-12.3401
除恶即是行善	-12.3401
风驰电	-12.3401
从长计议	-12.3401
公侯世爵	-12.3401
戒律	-12.3401
摇摇欲坠	-12.3401
是全真派门下	-12.3401
聆教益	-12.3401
一人一骑	-12.3401
一株树上	-12.3401
为五绝之	-12.3401
义结金兰	-12.3401
他二人双剑联手	-12.3401
会说汉语	-12.3401
你不肯做我	-12.3401
到南海去	-12.3401
向西北而行	-12.3401
咱们过去瞧瞧	-12.3401
在人丛中	-12.3401
天竺文字	-12.3401
如隔世	-12.3401
开杀戒	-12.3401
恰恰	-12.3401
您老人家	-12.3401
所显示的	-12.3401
摘了一朵	-12.3401
是个了不起的人物	-12.3401
是诧异不已	-12.3401
疯疯颠颠	-12.3401
见机行事	-12.3401
追得着	-12.3401
铁青着脸	-12.3401
鄙	-12.3401
口出大言	-12.3401
不与外人交往	-12.3401
两个大魔头	-12.3401
两位令郎	-12.3401
乌龟	-12.3401
从衣囊中取出	-12.3401
伸出大手	-12.3401
信口开河	-12.3401
刺他眉心	-12.3401
命在旦夕	-12.3401
圆转如意	-12.3401
垢	-12.3401
好俊功夫	-12.3401
实慰平生	-12.3401
寒阴箭	-12.3401
弯下腰来	-12.3401
彩雪蛛的毒性	-12.3401
忙不迭的	-12.3401
怎生想个法儿	-12.3401
憩	-12.3401
成竹在胸	-12.3401
揩	-12.3401
故作不知	-12.3401
是难上加难	-12.3401
有千般	-12.3401
有天大的胆子	-12.3401
有缘千里来相会	-12.3401
榻而眠	-12.3401
横腿扫	-12.3401
汝	-12.3401
淫戒	-12.3401
深藏不露	-12.3401
滥	-12.3401
爬不起来	-12.3401
狗毛剪	-12.3401
玉皇大帝	-12.3401
痴痴呆呆	-12.3401
眯	-12.3401
砰砰砰	-12.3401
祈	-12.3401
窒滞	-12.3401
立毙于	-12.3401
给你们瞧瞧	-12.3401
荷叶	-12.3401
袜	-12.3401
襄妹	-12.3401
西路军	-12.3401
说给你听	-12.3401
跌得粉身碎骨	-12.3401
那恶贼	-12.3401
铁掌擒拿手	-12.3401
长了眼睛一般	-12.3401
长短轻重	-12.3401
降了蒙古	-12.3401
马上乘者	-12.3401
齐声高呼	-12.3401
龙争虎斗	-12.3401
到申牌	-12.3401
各位远道	-12.3401
就心满意足了	-12.3401
一粒小石子	-12.3401
关上了门	-12.3401
又粗又长	-12.3401
啧啧	-12.3401
嘀	-12.3401
大汗淋漓	-12.3401
尔乃蛮夷	-12.3401
愈看愈	-12.3401
无德无能	-12.3401
是何道理	-12.3401
死样活气	-12.3401
流水价	-12.3401
清雅秀丽	-12.3401
绰	-12.3401
黑影闪	-12.3401
剖	-12.3401
荒郊	-12.3401
三头六臂	-12.3401
三行字	-12.3401
上点了一指	-12.3401
两名小军	-12.3401
也非受伤不可	-12.3401
了青苔	-12.3401
些根底	-12.3401
你爱不爱	-12.3401
倒有一大半	-12.3401
八大高手	-12.3401
到南方去	-12.3401
制得服服贴贴	-12.3401
十二个时辰之内不能	-12.3401
吊祭	-12.3401
吏	-12.3401
向第五人说	-12.3401
在众目睽睽之下	-12.3401
天涯海角	-12.3401
奴隶	-12.3401
妙得紧啊	-12.3401
娶她为妻	-12.3401
尼摩星双杖	-12.3401
师徒名分	-12.3401
忽喇喇	-12.3401
惚	-12.3401
意乱情迷	-12.3401
慷慨豪	-12.3401
我不认得你	-12.3401
掌力化解了	-12.3401
提高嗓子	-12.3401
朝中奸臣	-12.3401
枯藤缠树	-12.3401
欢天喜地的	-12.3401
武三通和耶律齐	-12.3401
没爹没娘	-12.3401
犀	-12.3401
用意不用劲	-12.3401
相距尚远	-12.3401
穷途末路	-12.3401
西藏圣僧	-12.3401
走得远远地	-12.3401
越女剑法	-12.3401
转角处	-12.3401
转过一个山	-12.3401
这四句话	-12.3401
金龙软鞭	-12.3401
闻到一股腥臭	-12.3401
阖	-12.3401
鬓如霜	-12.3401
鸳鸯连环	-12.3401
腑	-12.3401
拂尘后挥	-12.3401
送了他性命	-12.3401
服服贴贴	-12.3401
糕	-12.3401
喏喏	-12.3401
『	-12.3401
一条生路	-12.3401
东飘西	-12.3401
两团白影	-12.3401
六大高手	-12.3401
击了三下	-12.3401
卜	-12.3401
可不知有多	-12.3401
喜动颜色	-12.3401
在地下打滚	-12.3401
天差地远	-12.3401
戴了人皮面具	-12.3401
拿桩站	-12.3401
搧	-12.3401
是远而避之	-12.3401
死心塌地的	-12.3401
火刀火石	-12.3401
诬	-12.3401
连声称是	-12.3401
隆冬	-12.3401
鹅	-12.3401
彭	-12.3401
烬	-12.3401
杜	-12.3401
一灯大师的一阳指	-12.3401
三言两语	-12.3401
不可以道里计	-12.3401
不齿于人	-12.3401
两柄铁桨	-12.3401
为祸不小	-12.3401
人迹罕至	-12.3401
伏低身子	-12.3401
便有十条	-12.3401
倒像是	-12.3401
倒转了身子	-12.3401
做他妻子	-12.3401
动了真情	-12.3401
去无踪	-12.3401
史家兄弟	-12.3401
吃大亏	-12.3401
唳	-12.3401
在所不辞	-12.3401
处女之身	-12.3401
大胜关英雄宴上	-12.3401
嫉	-12.3401
往她头顶	-12.3401
意下如何	-12.3401
捞	-12.3401
接在手里	-12.3401
推选帮主	-12.3401
揍	-12.3401
收势不及	-12.3401
整理一下	-12.3401
无愧于	-12.3401
曲曲折折的	-12.3401
最恨别人	-12.3401
模拟	-12.3401
橱	-12.3401
洲	-12.3401
源源不绝	-12.3401
獒	-12.3401
疏疏落落	-12.3401
的伤不碍事	-12.3401
的私事	-12.3401
皇帝老儿	-12.3401
眼光却望着	-12.3401
睡正酣	-12.3401
精明强干	-12.3401
缭	-12.3401
老而弥	-12.3401
花容失色	-12.3401
蒙古铁蹄	-12.3401
这把大剪刀	-12.3401
遮拦多	-12.3401
那仆人	-12.3401
错怪了	-12.3401
锦缎	-12.3401
青衣女郎	-12.3401
峻	-12.3401
▁郭靖和黄蓉对	-12.3402
一个小孔	-12.3402
二三十招	-12.3402
凌厉无伦的	-12.3402
向空旷处	-12.3402
嗒嗒有声	-12.3402
尹克西的金鞭	-12.3402
怨不得旁人	-12.3402
扼	-12.3402
是谁教你的	-12.3402
油然而生	-12.3402
烹	-12.3402
疆界	-12.3402
瞿	-12.3402
砖瓦	-12.3402
职司	-12.3402
轰轰烈烈的	-12.3402
银铅双轮	-12.3402
雪地上	-12.3402
颂	-12.3402
气血上	-12.3402
哎	-12.3402
精通奇门	-12.3402
一个年轻女子	-12.3402
一十七路掌法	-12.3402
一头撞死	-12.3402
一股巨力	-12.3402
万无一失	-12.3402
不由得痴了	-12.3402
人所难测	-12.3402
再见你面	-12.3402
前前后后	-12.3402
励	-12.3402
势道极是威猛	-12.3402
嗤嗤嗤	-12.3402
屠牛刀	-12.3402
差不多	-12.3402
心要用在何处	-12.3402
打探消息	-12.3402
挥动长刀	-12.3402
放石棺的	-12.3402
敏捷	-12.3402
暴跳如雷	-12.3402
柯镇恶与武三娘	-12.3402
活生生	-12.3402
点到为止	-12.3402
登时半身	-12.3402
相对而立	-12.3402
胡子上剪	-12.3402
跃跃欲试	-12.3402
连使眼色	-12.3402
迟早会	-12.3402
避无可避	-12.3402
那头神雕	-12.3402
郭大侠和黄帮主	-12.3402
锅雪水	-12.3402
闻其名	-12.3402
阎罗王	-12.3402
难以下咽	-12.3402
飞向半空	-12.3402
朔	-12.3402
涵	-12.3402
鹿死谁手	-12.3402
丘处机与王处一	-12.3402
个水落石出	-12.3402
他内功深厚	-12.3402
命该如此	-12.3402
情深义重	-12.3402
掬	-12.3402
狭	-12.3402
管不住自己	-12.3402
铜墙铁壁	-12.3402
司	-12.3402
满腹疑	-12.3402
巢	-12.3402
不自量力	-12.3402
从壁上摘下	-12.3402
众妖邪	-12.3402
入了情花丛中	-12.3402
养些小鸡小鸭	-12.3402
养驯的玉蜂	-12.3402
冲了进来	-12.3402
前大大露脸	-12.3402
十六个大字	-12.3402
十恶不赦	-12.3402
吸铁石	-12.3402
咕的一声叫	-12.3402
大大小小	-12.3402
夹头夹脸	-12.3402
将来成为一个	-12.3402
尼潇二人	-12.3402
已全在他	-12.3402
年轻貌美	-12.3402
慌慌张张	-12.3402
料事如神	-12.3402
昏迷不醒	-12.3402
条银蛇	-12.3402
桂	-12.3402
灼	-12.3402
炬	-12.3402
珍重千万	-12.3402
矍	-12.3402
竟是丝毫不乱	-12.3402
花花世界	-12.3402
走了一圈	-12.3402
赴汤蹈火	-12.3402
跟他一般见识	-12.3402
郡	-12.3402
隐僻之	-12.3402
寓	-12.3402
杨康认贼作父	-12.3402
桃腮	-12.3402
浓郁	-12.3402
狭隘	-12.3402
自行了断	-12.3402
越变越	-12.3402
▁郭靖站在城头	-12.3402
万丈深渊	-12.3402
不辨东西	-12.3402
哭笑不得	-12.3402
啜	-12.3402
嘈	-12.3402
在树荫下	-12.3402
审察	-12.3402
徵	-12.3402
戴了面具	-12.3402
掌拍在我	-12.3402
撩	-12.3402
放过了他	-12.3402
气鼓鼓的	-12.3402
波涛汹涌	-12.3402
眼前金星乱冒	-12.3402
绕弯儿	-12.3402
腾身而起	-12.3402
芥	-12.3402
苔	-12.3402
蒂	-12.3402
败中求胜	-12.3402
跟你比试一	-12.3402
这五个家伙	-12.3402
鲜血迸流	-12.3402
以快打	-12.3402
撰	-12.3402
是大为感动	-12.3402
的约会	-12.3402
袄	-12.3402
喏	-12.3402
一动也不敢动	-12.3402
丈开外	-12.3402
两位武爷	-12.3402
你一言我一语	-12.3402
全军覆没	-12.3402
副铁铐	-12.3402
在他背心上	-12.3402
弑	-12.3402
杨过之父杨康	-12.3402
武敦儒与武修文	-12.3402
焉得不	-12.3402
狰狞可怖	-12.3402
相提并论	-12.3402
程英的琴	-12.3402
等她十六年	-12.3402
自左而右	-12.3402
越离越远	-12.3402
蹲伏在地	-12.3402
辛辛苦苦	-12.3402
这逆徒	-12.3402
连进数招	-12.3402
铁掌峰上	-12.3402
铁罗汉	-12.3402
革	-12.3402
筑	-12.3402
军心已	-12.3402
茹	-12.3402
这件礼物	-12.3402
阴魂不散	-12.3402
人耳鼓	-12.3403
一怒之下	-12.3403
一流好手	-12.3403
不得好死	-12.3403
从怀里摸出	-12.3403
偈	-12.3403
大气也不敢	-12.3403
是丐帮中四大长老之	-12.3403
是前所未	-12.3403
是西藏一派	-12.3403
曾经见过	-12.3403
朱聪	-12.3403
欺身直	-12.3403
眼光中充满	-12.3403
等马与齐王的	-12.3403
闻到蜜香	-12.3403
韩小莹	-12.3403
鹏	-12.3403
头大鸟	-12.3403
一本书	-12.3403
与之相斗	-12.3403
了平台	-12.3403
于天地之间	-12.3403
从怀中摸出	-12.3403
史仲猛的银管	-12.3403
嗡嗡发响	-12.3403
带我去啊	-12.3403
既快且	-12.3403
是决计不肯	-12.3403
筋断骨折	-12.3403
精进若斯	-12.3403
群起而攻	-12.3403
胚	-12.3403
荒山穷谷	-12.3403
返老还童	-12.3403
这样一位英雄	-12.3403
退无可退	-12.3403
三般兵刃	-12.3403
驯	-12.3403
一锭银子	-12.3403
两片破衣	-12.3403
亟	-12.3403
御外侮	-12.3403
心中所生	-12.3403
没上没下	-12.3403
用剑尖划	-12.3403
略加变化	-12.3403
能活到今日	-12.3403
铐	-12.3403
也斗不过	-12.3403
卿	-12.3403
我行我素	-12.3403
是无心之	-12.3403
暗中视物	-12.3403
树木茂密	-12.3403
死则死	-12.3403
登时语塞	-12.3403
那小兵	-12.3403
防到他	-12.3403
传我半点武艺	-12.3403
贻	-12.3404
一千零	-12.3404
另眼相看	-12.3404
怒从心	-12.3404
情义深重	-12.3404
手到擒来	-12.3404
折了锐气	-12.3404
是你们偷的	-12.3404
杨过知它	-12.3404
空地上	-12.3404
落了下风	-12.3404
降魔杵	-12.3404
所率领的	-12.3404
玉虚洞的洞门	-12.3404
命休矣	-12.3404
烙	-12.3404
鬼神莫测	-12.3404
魂不守舍	-12.3404
从空中飞	-12.3404
飞得虽	-12.3404
临终时	-12.3404
你如不听	-12.3404
宋五叔	-12.3404
枚飞锥	-12.3404
的牛筋	-12.3404
这狗贼	-12.3404
久攻不	-12.3404
交头接耳	-12.3404
刺驴剑术	-12.3404
副对联	-12.3404
已不如先前	-12.3404
箩	-12.3404
能做你师父	-12.3405
金钱豹	-12.3405
铁所铸	-12.3405
行出二	-12.3405
那绿衫人	-12.3405
有应得	-12.3405
有这么一位	-12.3405
呼呼呼连	-12.3405
不知所对	-12.3405
激飞而	-12.3405
个臭道人	-12.3405
迎亲的	-12.3405
兹	-12.3406
祖宗十八代	-12.3406
声音中充满	-12.3406
垂下了头	-12.3406
甚相干	-12.3406
倾心相	-12.3406
是万万不可	-12.3407
气血逆	-12.3407
也可算得是	-12.3407
河以北	-12.3407
气透骨	-12.3407
一十三招	-12.3407
说不尽的	-12.3407
慢慢再跟你	-12.3407
到敌营去	-12.3407
不是她对手	-12.3409
在里许之外	-12.3409
把话说	-12.3409
白白送	-12.3409
爱护之	-12.341
扬长而	-12.3411
你瞧是谁来	-12.3411
武林人士	-12.3412
到宫前	-12.3412
糊糊的	-12.3412
清修之	-12.3413
两人一雕	-12.3413
他进洞	-12.3413
没伤到	-12.3413
槐	-12.8091
芝	-12.8208
颊	-12.8284
烁	-12.8329
翁	-12.8364
测	-12.8364
胶	-12.8388
刎	-12.8389
缎	-12.8393
萼	-12.8393
棹	-12.8394
迂	-12.8394
佑	-12.8394
稠	-12.8395
坠	-12.8395
吴	-12.8396
恁	-12.8396
谕	-12.8396
俘	-12.8396
澡	-12.8397
诧	-12.8397
谐	-12.8397
漆	-12.8397
杠	-12.8397
幡	-12.8398
恂	-12.8398
曼	-12.8398
讷	-12.8398
悯	-12.8398
佯	-12.8398
仓	-12.8398
匪	-12.8398
咻	-12.8398
岌	-12.8398
纽	-12.8398
赚	-12.8399
檐	-12.8399
券	-12.8399
蚕	-12.8399
逻	-12.8399
诣	-12.8399
膜	-12.8399
瞑	-12.8399
豫	-12.8399
菩	-12.8399
姗	-12.8399
梭	-12.8399
绯	-12.8399
罄	-12.8399
迄	-12.8399
肋	-12.8399
擂	-12.8399
售	-12.8399
峙	-12.8399
犊	-12.8399
踵	-12.8399
/	-12.84
p	-12.84
剜	-12.84
呶	-12.84
垣	-12.84
夏	-12.84
徇	-12.84
恤	-12.84
恬	-12.84
搞	-12.84
旱	-12.84
津	-12.84
涣	-12.84
猝	-12.84
硕	-12.84
簸	-12.84
臾	-12.84
绽	-12.84
.	-12.84
咫	-12.84
奕	-12.84
彰	-12.84
怆	-12.84
癖	-12.84
绡	-12.84
荐	-12.84
蔬	-12.84
啰	-12.84
骸	-12.84
佐	-12.84
芒	-12.84
c	-12.84
卯	-12.84
嗫	-12.84
嚅	-12.84
契	-12.84
岗	-12.84
忱	-12.84
汪	-12.84
濛	-12.84
茕	-12.84
虾	-12.84
蜷	-12.84
贲	-12.84
蹬	-12.84
蹴	-12.84
钓	-12.84
铭	-12.84
戚	-12.84
缴	-12.84
谤	-12.84
耶	-12.84
脯	-12.84
伞	-12.84
冉	-12.84
型	-12.84
帛	-12.84
彦	-12.84
标	-12.84
沼	-12.84
洵	-12.84
炒	-12.84
秽	-12.84
稻	-12.84
芽	-12.84
莺	-12.84
蛾	-12.84
裔	-12.84
辟	-12.84
辫	-12.84
呐	-12.84
煤	-12.84
顽	-12.84
s	-12.8401
喳	-12.8401
垮	-12.8401
杳	-12.8401
夷	-12.8401
袒	-12.8401
—	-12.8401
卦	-12.8401
唣	-12.8401
填	-12.8401
娴	-12.8401
斋	-12.8401
浃	-12.8401
涤	-12.8401
淙	-12.8401
溶	-12.8401
疮	-12.8401
痰	-12.8401
膺	-12.8401
莞	-12.8401
赋	-12.8401
玎	-12.8401
琢	-12.8401
愣	-12.8401
籁	-12.8401
绦	-12.8401
锥	-12.8401
吱	-12.8401
幢	-12.8401
悖	-12.8401
捐	-12.8401
殂	-12.8401
汇	-12.8401
浙	-12.8401
瑕	-12.8401
疵	-12.8401
纣	-12.8401
缟	-12.8401
茎	-12.8401
录	-12.8401
i	-12.8402
亩	-12.8402
俚	-12.8402
剔	-12.8402
卉	-12.8402
厥	-12.8402
噼	-12.8402
嚣	-12.8402
墩	-12.8402
悛	-12.8402
摊	-12.8402
敷	-12.8402
昭	-12.8402
暧	-12.8402
橐	-12.8402
涔	-12.8402
燥	-12.8402
猖	-12.8402
痣	-12.8402
皎	-12.8402
绷	-12.8402
缤	-12.8402
羹	-12.8402
薯	-12.8402
蚝	-12.8402
蝎	-12.8402
颏	-12.8402
脊	-12.8402
圃	-12.8402
簇	-12.8402
丙	-12.8402
亚	-12.8402
嗣	-12.8402
峋	-12.8402
嶙	-12.8402
怙	-12.8402
拌	-12.8402
掣	-12.8402
棣	-12.8402
膊	-12.8402
喁	-12.8402
搠	-12.8402
栖	-12.8402
滨	-12.8402
轴	-12.8402
狸	-12.8402
矩	-12.8402
刊	-12.8403
崭	-12.8403
浇	-12.8403
秣	-12.8403
综	-12.8403
荼	-12.8403
亭	-12.8403
哒	-12.8403
喆	-12.8403
垒	-12.8403
漉	-12.8403
踽	-12.8403
酱	-12.8403
溯	-12.8403
鸳	-12.8403
衡	-12.8404
熊	-12.8404
峡	-12.8405
崽	-12.8405
懵	-12.8405
猥	-12.8405
嘟	-12.8405
刷	-13.3243
蒸	-13.5361
躺	-13.7183
啪	-13.7647
厢	-13.7884
逦	-13.7976
逍	-13.7977
迤	-13.7978
轾	-13.7979
谛	-13.798
谄	-13.7981
谀	-13.7982
褊	-13.7983
裟	-13.7984
袈	-13.7985
蜮	-13.7986
虔	-13.7987
蔼	-13.7988
芬	-13.7989
臃	-13.799
膑	-13.7991
胄	-13.7992
箍	-13.7993
笙	-13.7994
笋	-13.7995
科	-13.7996
磺	-13.7997
硫	-13.7998
矜	-13.7999
瞭	-13.8
皂	-13.8001
瘾	-13.8002
痹	-13.8003
痨	-13.8004
琶	-13.8005
琵	-13.8006
爿	-13.8007
焕	-13.8008
漂	-13.8009
滓	-13.801
渣	-13.8011
渎	-13.8012
泫	-13.8013
泞	-13.8014
泓	-13.8015
泅	-13.8016
檀	-13.8017
榜	-13.8018
榄	-13.8019
楷	-13.802
棋	-13.8021
梗	-13.8022
柩	-13.8023
曳	-13.8024
昙	-13.8025
斡	-13.8026
戌	-13.8027
戊	-13.8028
懑	-13.8029
愆	-13.803
愀	-13.8031
怼	-13.8032
忏	-13.8033
嵩	-13.8034
妪	-13.8035
奠	-13.8036
奎	-13.8037
壤	-13.8038
壕	-13.8039
垛	-13.804
嚏	-13.8041
噬	-13.8042
哲	-13.8043
哮	-13.8044
咤	-13.8045
咛	-13.8046
咙	-13.8047
咆	-13.8048
呓	-13.8049
厩	-13.805
儡	-13.8051
傥	-13.8052
傀	-13.8053
倜	-13.8054
侂	-13.8055
企	-13.8056
仑	-13.8057
亵	-13.8058
鸯	-13.8059
魅	-13.806
馥	-13.8061
飨	-13.8062
颧	-13.8063
靥	-13.8064
霭	-13.8065
霆	-13.8066
阎	-13.8067
钥	-13.8068
鎩	-13.8069
遑	-13.807
辽	-13.8071
辙	-13.8072
轶	-13.8073
趟	-13.8074
赦	-13.8075
谙	-13.8076
觏	-13.8077
褥	-13.8078
蝉	-13.8079
腊	-13.808
胳	-13.8081
耆	-13.8082
翌	-13.8083
纭	-13.8084
盎	-13.8085
瘩	-13.8086
痪	-13.8087
疴	-13.8088
疙	-13.8089
牡	-13.809
煌	-13.8091
烽	-13.8092
炊	-13.8093
潼	-13.8094
潦	-13.8095
湮	-13.8096
渝	-13.8097
淇	-13.8098
沌	-13.8099
樵	-13.81
桓	-13.8101
桑	-13.8102
杞	-13.8103
旭	-13.8104
搐	-13.8105
愫	-13.8106
惆	-13.8107
怫	-13.8108
嗡	-13.8108
怃	-13.8109
彷	-13.811
彪	-13.8111
帔	-13.8112
妩	-13.8113
奖	-13.8114
啕	-13.8115
唿	-13.8116
叟	-13.8117
卢	-13.8118
僮	-13.8119
佻	-13.812
丞	-13.8121
a	-13.8122
鸾	-13.8123
骛	-13.8124
驸	-13.8125
雍	-13.8126
阱	-13.8127
醺	-13.8128
遏	-13.8129
辎	-13.813
辍	-13.8131
蹋	-13.8132
赘	-13.8133
裕	-13.8134
蠕	-13.8135
蟾	-13.8136
蜍	-13.8137
藜	-13.8138
蒺	-13.8139
茂	-13.814
艘	-13.8141
簿	-13.8142
笠	-13.8143
础	-13.8144
砧	-13.8145
砒	-13.8146
皙	-13.8147
痞	-13.8148
甬	-13.8149
猗	-13.815
烘	-13.8151
炷	-13.8152
椽	-13.8153
旖	-13.8154
旎	-13.8155
旄	-13.8156
拓	-13.8157
扦	-13.8158
怏	-13.8159
宪	-13.816
姘	-13.8161
妮	-13.8162
妁	-13.8163
噤	-13.8164
喟	-13.8165
协	-13.8166
勘	-13.8167
倨	-13.8168
伎	-13.8169
仃	-13.817
〖	-13.8171
骓	-13.8172
隅	-13.8173
陛	-13.8174
镔	-13.8175
键	-13.8176
裣	-13.8177
衽	-13.8178
蝴	-13.8179
蝙	-13.818
荤	-13.8181
翡	-13.8182
竞	-13.8183
窿	-13.8184
稼	-13.8185
猱	-13.8186
梧	-13.8187
晰	-13.8188
敞	-13.8189
怡	-13.819
徘	-13.8191
徊	-13.8192
崎	-13.8193
岘	-13.8194
岖	-13.8195
哧	-13.8196
咧	-13.8197
呱	-13.8198
努	-13.8199
冥	-13.82
霹	-13.8201
雳	-13.8202
邂	-13.8203
逅	-13.8204
襁	-13.8205
褓	-13.8206
袱	-13.8207
衙	-13.8208
茸	-13.8209
腼	-13.821
腆	-13.8211
胭	-13.8212
磊	-13.8213
眈	-13.8214
玛	-13.8215
渗	-13.8216
渍	-13.8217
扉	-13.8218
悻	-13.8219
悸	-13.822
徬	-13.8221
孜	-13.8222
娓	-13.8223
哝	-13.8224
咀	-13.8225
厘	-13.8226
驹	-13.8227
锵	-13.8228
迦	-13.8229
裁	-13.823
蝠	-13.8231
芍	-13.8232
臆	-13.8233
糙	-13.8234
粽	-13.8235
牧	-13.8236
炯	-13.8237
氓	-13.8238
歧	-13.8239
榆	-13.824
斓	-13.8241
摄	-13.8242
抿	-13.8243
垓	-13.8244
伺	-13.8245
馒	-13.8246
餐	-13.8247
陕	-13.8248
诫	-13.8249
蚂	-13.825
苟	-13.8251
肮	-13.8252
浣	-13.8253
汩	-13.8254
婀	-13.8255
嗳	-13.8256
唧	-13.8257
骼	-13.8258
社	-13.8259
阅	-13.8259
锯	-13.826
钧	-13.8261
邓	-13.8262
赫	-13.8263
萦	-13.8264
脓	-13.8265
狰	-13.8266
柢	-13.8267
旌	-13.8268
慎	-13.8269
悚	-13.827
徨	-13.8271
嫡	-13.8272
嗽	-13.8273
链	-13.8274
迢	-13.8275
谆	-13.8276
胯	-13.8277
瘫	-13.8278
璇	-13.8279
旦	-13.828
憔	-13.8281
悴	-13.8282
忾	-13.8283
廷	-13.8284
娜	-13.8285
咚	-13.8286
仄	-13.8287
蜘	-13.8288
苹	-13.8289
聊	-13.829
祥	-13.8291
狯	-13.8292
呻	-13.8293
蹊	-13.8294
讪	-13.8295
涕	-13.8296
忆	-13.8297
崔	-13.8298
褴	-13.8299
褛	-13.83
葫	-13.8301
芦	-13.8302
膂	-13.8303
脖	-13.8304
簌	-13.8305
祜	-13.8306
睽	-13.8307
睦	-13.8308
玫	-13.8309
泗	-13.831
唠	-13.8311
侥	-13.8312
镗	-13.8313
贝	-13.8314
慷	-13.8315
哗	-13.8316
乓	-13.8317
乒	-13.8318
拇	-13.8319
寞	-13.832
耿	-13.8321
骆	-13.8322
闺	-13.8323
豺	-13.8324
膻	-13.8325
蒲	-13.8326
胧	-13.8327
朦	-13.8328
导	-13.8329
坳	-13.833
区	-13.8331
蓬	-13.8332
普	-13.8333
尴	-13.8334
尬	-13.8335
哽	-13.8336
仔	-13.8337
筵	-13.8338
漓	-13.8339
吆	-13.834
寥	-13.8341
基	-13.8342
纛	-13.8342
伽	-13.8343
讶	-13.8344
煞	-13.8345
域	-13.8346
躇	-13.8347
踌	-13.8348
焚	-13.8349
奄	-13.835
噜	-13.8351
踉	-13.8352
跄	-13.8353
猬	-13.8354
葛	-13.8355
傅	-13.8356
痊	-13.8357
勃	-13.8358
蟋	-13.8359
黝	-13.836
蟆	-13.8361
蛤	-13.8362
舅	-13.8363
敕	-13.8364
惴	-13.8365
淑	-13.8366
蜈	-13.8367
蚣	-13.8368
牯	-13.8369
校	-13.837
仞	-13.8371
湛	-13.8372
仲	-13.8373
钰	-13.8374
脾	-13.8375
忖	-13.8376
洋	-13.8376
坦	-13.8377
顷	-13.8378
狈	-13.8379
匆	-13.838
鞑	-13.8381
浆	-13.8382
吩	-13.8383
铮	-13.8384
铃	-13.8385
呜	-13.8386
咐	-13.8387
啷	-13.8388
嗓	-13.8388
跪	-13.8389
喃	-13.839
蛛	-13.8391
唷	-13.8391
溺	-13.8391
怦	-13.8392
恙	-13.8392
萨	-13.8392
兀	-13.8393
牲	-13.8394
眺	-13.8394
睛	-13.8394
括	-13.8394
凛	-13.8395
衲	-13.8395
丫	-13.8395
磋	-13.8395
胞	-13.8395
黎	-13.8395
虬	-13.8396
郑	-13.8396
竺	-13.8396
臊	-13.8396
蛟	-13.8396
谭	-13.8396
黯	-13.8396
倔	-13.8397
诲	-13.8397
瑛	-13.8397
嫣	-13.8398
俨	-13.8398
娃	-13.8398
轧	-13.8398
絮	-13.8398
霄	-13.8398
瞠	-13.8398
皈	-13.8398
偕	-13.8398
惮	-13.8399
匕	-13.8399
晌	-13.8399
贸	-13.8399
鄂	-13.8399
挠	-13.8399
妃	-13.8399
骚	-13.8399
肴	-13.8399
灶	-13.84
颐	-13.84
瑶	-13.84
什	-13.84
隘	-13.84
噎	-13.84
孰	-13.84
爵	-13.84
衍	-13.84
萍	-13.84
屹	-13.84
愉	-13.84
俟	-13.84
膳	-13.84
暑	-13.8401
飕	-13.8401
爸	-13.8401
呛	-13.8401
媒	-13.8401
琐	-13.8401
膛	-13.8401
淫	-13.8401
瓷	-13.8402
灿	-13.8402
媳	-13.8402
妆	-13.8402
沅	-13.8402
袋	-13.8402
剌	-13.8402
鬟	-13.8402
枭	-13.8402
祁	-13.8402
诳	-13.8402
啧	-13.8402
窖	-13.8403
裸	-13.8403
龟	-13.8403
剽	-13.8403
捶	-13.8403
-	-13.8403
翎	-13.8403
贮	-13.8403
叽	-13.8403
笈	-13.8403
慧	-13.8404
隶	-13.8404
湘	-13.8404
啾	-13.8404
倪	-13.8404
卵	-13.8404
蒜	-13.8404
欧	-13.8405
侃	-13.8405
凋	-13.8405
员	-13.8406
哥	-13.8406
惺	-13.8406
芙	-13.8407
伯	-13.8408
