<unk>	0
<s>	0
</s>	0
,	-2.08668
。	-3.58429
:“	-3.97951
的	-4.42981
道	-4.4443
。”	-4.59053
他	-5.00094
我	-5.03721
了	-5.1062
你	-5.13118
?”	-5.21088
在	-5.56382
她	-5.6216
杨过	-5.6454
、	-5.65975
一	-5.71866
?	-5.72973
郭靖	-5.7396
是	-5.75019
来	-5.77949
这	-5.79365
▁	-5.8292
黄蓉	-5.84859
不	-5.86361
那	-5.88646
上	-5.93945
!”	-5.98234
又	-5.98549
中	-6.06419
去	-6.08868
但	-6.09271
大	-6.10933
说道	-6.16463
人	-6.21351
有	-6.2189
“	-6.23343
得	-6.23952
已	-6.24319
也	-6.25611
将	-6.28768
却	-6.29279
与	-6.39513
要	-6.40463
见	-6.45166
到	-6.4521
”	-6.46688
好	-6.46942
自己	-6.52526
便	-6.5317
小龙女	-6.60793
下	-6.61517
之	-6.62177
向	-6.64333
和	-6.65349
心	-6.65353
都	-6.67723
说	-6.67783
出	-6.68284
过	-6.69353
叫道	-6.69881
一个	-6.73212
笑	-6.75421
着	-6.76221
从	-6.77508
心中	-6.77801
再	-6.77809
咱们	-6.80396
打	-6.81661
为	-6.82781
以	-6.83997
对	-6.87272
就	-6.88728
时	-6.90156
自	-6.90522
心想	-6.91994
两人	-6.9308
而	-6.93921
只	-6.95731
头	-6.97482
小	-6.98662
欧阳锋	-6.99189
用	-7.00397
武功	-7.00643
只是	-7.00708
后	-7.01295
▁郭靖	-7.02427
可	-7.02745
么	-7.03787
▁杨过	-7.03796
甚么	-7.05319
师父	-7.05327
子	-7.05896
无	-7.06886
当下	-7.07593
▁黄蓉	-7.0997
......	-7.12488
给	-7.1267
把	-7.13969
他们	-7.14384
如	-7.14703
洪七公	-7.15701
如此	-7.15811
连	-7.17679
啊	-7.18066
想	-7.19425
啦	-7.21019
还	-7.21917
天	-7.2214
手	-7.22344
黄药师	-7.22974
!	-7.23216
死	-7.23778
于	-7.23963
所	-7.24594
生	-7.25534
之中	-7.26812
只见	-7.27956
快	-7.28052
起	-7.2916
不知	-7.29535
回	-7.29641
周伯通	-7.30135
当	-7.32748
听	-7.32756
知道	-7.32905
多	-7.33685
能	-7.34907
却是	-7.3541
儿	-7.35448
气	-7.35455
等	-7.35919
李莫愁	-7.36579
三	-7.36902
二人	-7.37002
没	-7.37486
两	-7.37864
身	-7.39179
前	-7.39775
虽然	-7.427
行	-7.4332
都是	-7.43467
突然	-7.43863
成	-7.43972
倒	-7.4407
长	-7.44518
被	-7.44758
郭芙	-7.45136
今日	-7.45375
使	-7.45385
眼见	-7.45514
发	-7.46276
会	-7.46523
里	-7.46528
别	-7.46981
罢	-7.47006
虽	-7.47845
急	-7.48021
忙	-7.48444
难	-7.49121
入	-7.49409
我们	-7.50451
事	-7.50761
若是	-7.50856
你们	-7.51452
......”	-7.51477
相	-7.51894
也是	-7.51911
左手	-7.52386
先	-7.52655
不是	-7.52909
才	-7.5301
叫	-7.54302
法王	-7.54749
处	-7.54811
见他	-7.55307
剑	-7.55439
如何	-7.55801
此时	-7.5595
走	-7.56081
做	-7.56197
正是	-7.56329
功夫	-7.56521
身子	-7.56862
郭襄	-7.57481
这时	-7.58045
高	-7.58245
地	-7.59034
马	-7.59822
直	-7.59967
不敢	-7.60467
往	-7.60682
正	-7.60802
未	-7.60867
动	-7.61162
不能	-7.61176
喝道	-7.61179
问道	-7.62018
力	-7.62413
个	-7.62908
四	-7.6297
于是	-7.63472
之后	-7.65546
老	-7.65575
水	-7.66229
右手	-7.68307
原来	-7.6846
开	-7.68628
又是	-7.68915
便是	-7.691
弟子	-7.69169
呢	-7.69209
不禁	-7.69293
郭靖道	-7.69294
一人	-7.69603
双手	-7.69894
名	-7.70817
口	-7.71011
众人	-7.7112
白	-7.71455
命	-7.71645
请	-7.71796
跟	-7.71839
竟	-7.72142
丘处机	-7.72239
怎么	-7.72833
门	-7.72993
此	-7.73712
作	-7.74032
奇	-7.74105
重	-7.74114
登时	-7.74876
身上	-7.74997
到了	-7.75119
非	-7.75373
这般	-7.7612
说着	-7.76587
当即	-7.77334
吃	-7.77799
伤	-7.78169
更	-7.78389
落	-7.78636
看	-7.7922
陆无双	-7.79481
跟着	-7.79576
比	-7.79747
杀	-7.79828
脸上	-7.80181
三人	-7.80714
欧阳克	-7.80855
‘	-7.81668
外	-7.81789
之下	-7.82749
风	-7.82783
字	-7.82946
极	-7.83392
’	-7.83895
招	-7.83926
山	-7.84158
可是	-7.84617
更是	-7.85288
转	-7.85375
问	-7.85657
怒	-7.8589
受	-7.86054
意	-7.86291
众	-7.86326
出来	-7.86419
柯镇恶	-7.86442
斗	-7.86461
击	-7.86991
情	-7.87595
还是	-7.87746
待	-7.88003
女儿	-7.88437
也不	-7.88862
教	-7.89117
掌	-7.89128
就是	-7.89744
敌人	-7.90018
路	-7.91184
说话	-7.91325
至	-7.91957
不可	-7.92053
声	-7.92176
》	-7.92305
《	-7.92305
飞	-7.92429
分	-7.92771
只怕	-7.93071
忽然	-7.93185
不由得	-7.93507
花	-7.93894
法	-7.94194
他的	-7.94281
赵志敬	-7.94422
然	-7.9469
杨康	-7.95162
一般	-7.95278
低声	-7.95444
家	-7.95966
曾	-7.95967
方	-7.97087
仍是	-7.97408
住	-7.97566
若	-7.97676
伸手	-7.98119
有人	-7.98126
梅超风	-7.98155
响	-7.98332
既	-7.98568
早	-7.98812
实	-7.99295
深	-7.9933
强	-7.99529
甚是	-7.99832
对方	-8.00349
尽	-8.00518
真	-8.00934
破	-8.0184
只得	-8.01936
攻	-8.01943
让	-8.02336
乱	-8.02473
带	-8.0277
这个	-8.03242
蒙古	-8.03375
但见	-8.03865
刺	-8.04024
火	-8.0405
似	-8.04229
点	-8.04353
蓉儿	-8.05005
冲	-8.05341
”,	-8.05431
见到	-8.05728
立	-8.05741
一时	-8.05758
骂	-8.05778
只有	-8.05802
不住	-8.0587
话	-8.06103
瞧	-8.06178
甚	-8.06421
放	-8.06491
那人	-8.06823
其	-8.07086
学	-8.07102
不得	-8.07501
明	-8.07835
谁	-8.0787
之时	-8.07888
酒	-8.0828
一阵	-8.08713
同时	-8.0875
出手	-8.08828
听得	-8.08869
练	-8.09137
进	-8.09406
裘千仞	-8.09695
年	-8.10021
本	-8.1009
两个	-8.10125
喜	-8.10217
半	-8.1046
天下	-8.10718
竟是	-8.10808
之间	-8.1086
兄弟	-8.10919
爹爹	-8.10978
间	-8.11037
内	-8.11209
足	-8.11359
越	-8.11526
言	-8.11564
知	-8.11578
吗	-8.11579
父亲	-8.11585
哪知	-8.11816
刀	-8.11818
敌	-8.1204
只要	-8.12446
出去	-8.12866
全	-8.131
厉害	-8.1321
起来	-8.13297
早已	-8.13319
日	-8.13552
五	-8.13634
手中	-8.13687
立时	-8.13984
忽	-8.14116
定	-8.14133
本来	-8.14203
似乎	-8.14358
神	-8.14389
听到	-8.14714
是谁	-8.14765
爱	-8.1488
当真	-8.14912
之事	-8.15152
远	-8.15532
当年	-8.15972
空	-8.16187
这才	-8.16241
各	-8.16402
取	-8.16592
断	-8.16631
眼	-8.16663
二	-8.16683
轻	-8.17298
数	-8.17527
几	-8.17799
兵刃	-8.1812
反	-8.18196
给他	-8.18222
想到	-8.18508
一声	-8.18528
心下	-8.18658
退	-8.18846
动手	-8.19037
姑姑	-8.19183
即	-8.19432
收	-8.19464
实是	-8.19845
指	-8.19981
石	-8.20352
离	-8.20391
最	-8.20464
轻轻	-8.20786
变	-8.20891
同	-8.21221
近	-8.21296
之上	-8.21436
想起	-8.21464
势	-8.21821
过去	-8.21928
过来	-8.22409
急忙	-8.228
全身	-8.23001
书	-8.23007
干	-8.23045
大叫	-8.23179
是以	-8.23224
面	-8.23323
拿	-8.23363
适才	-8.23372
性命	-8.23403
这是	-8.23624
大汗	-8.23769
不过	-8.23785
逃	-8.24098
胸口	-8.24124
求	-8.24152
惊	-8.24355
大声	-8.24357
亲	-8.25131
光	-8.25386
金轮法王	-8.25674
推	-8.25898
刚	-8.26153
难道	-8.26391
长剑	-8.26641
脸	-8.26693
救	-8.27269
一招	-8.2733
通	-8.27773
拉	-8.27969
十	-8.28035
成吉思汗	-8.28073
却也	-8.28213
送	-8.28727
竟然	-8.28771
走到	-8.28925
不错	-8.29496
尹志平	-8.29662
传	-8.29878
或	-8.30053
之人	-8.30213
西	-8.30274
将他	-8.30286
老顽童	-8.30376
信	-8.30703
瑛姑	-8.30848
:‘	-8.3118
不及	-8.31303
只听得	-8.31643
由	-8.31738
铁	-8.32033
过儿	-8.32061
母亲	-8.3214
自是	-8.32345
转身	-8.3255
痛	-8.32676
合	-8.32782
这些	-8.3301
▁他	-8.33095
自然	-8.33272
铁木真	-8.3351
▁小龙女	-8.33518
是个	-8.3354
苦	-8.33542
四人	-8.33821
怪	-8.33887
必	-8.33899
接	-8.34242
之处	-8.34285
黑	-8.34357
傻姑	-8.34675
背	-8.34711
挥	-8.34803
一条	-8.35043
不到	-8.35054
终于	-8.35135
死了	-8.35136
望	-8.35164
果然	-8.35213
真是	-8.35287
旁人	-8.35461
这一	-8.3586
劲	-8.35862
穆念慈	-8.35891
毒	-8.35995
十分	-8.36314
怕	-8.36501
兵	-8.36511
姑娘	-8.36964
朱聪	-8.375
经	-8.37604
横	-8.37887
不会	-8.37901
右	-8.38012
总是	-8.38097
喝	-8.38213
完颜洪烈	-8.38513
左	-8.38513
鬼	-8.38562
黄	-8.38865
战	-8.39149
的武功	-8.39241
边	-8.39303
微	-8.39449
箭	-8.39471
少	-8.40024
万	-8.40077
令	-8.40151
恶	-8.40186
军	-8.40267
清	-8.40332
回来	-8.40354
找	-8.40684
没有	-8.40892
抓	-8.41109
东	-8.41127
拳	-8.41375
药	-8.41438
绝	-8.41795
追	-8.42093
一齐	-8.42172
之际	-8.42296
翻	-8.42513
齐	-8.42518
金	-8.42691
理	-8.42693
难以	-8.42811
些	-8.42849
却又	-8.42995
裘千尺	-8.43176
因此	-8.43543
伸	-8.43725
满	-8.43761
猛	-8.43884
守	-8.43917
只觉	-8.43922
两位	-8.44198
正要	-8.44228
声音	-8.44243
孩子	-8.44447
脚	-8.44454
慢慢	-8.45069
霍都	-8.45182
血	-8.45186
步	-8.45305
上了	-8.45327
这位	-8.45441
女	-8.45673
之极	-8.4568
一掌	-8.45707
耶律齐	-8.45997
胜	-8.46006
红	-8.46074
叹	-8.46672
九阴真经	-8.467
立即	-8.46756
夺	-8.46923
倘若	-8.47181
失	-8.47276
交	-8.47525
般	-8.4757
不肯	-8.47645
公孙止	-8.47647
摇头	-8.47712
七	-8.47759
见她	-8.47924
蛇	-8.48053
随即	-8.48188
坐	-8.48254
完颜康	-8.48482
程英	-8.48483
哪里	-8.48543
怎地	-8.48544
感	-8.4876
世	-8.49198
听他	-8.49243
船	-8.49413
师	-8.4981
望着	-8.49956
衣	-8.50452
举	-8.50586
杀了	-8.50665
此人	-8.50815
活	-8.50952
这么	-8.50996
者	-8.51215
王	-8.51296
后来	-8.51327
国	-8.51579
在地下	-8.51579
觉	-8.51599
已然	-8.51649
念	-8.51772
城	-8.51778
给你	-8.51831
流	-8.51859
妈	-8.51945
口中	-8.52018
暗	-8.52358
站在	-8.52964
欲	-8.53284
你的	-8.53541
上前	-8.53584
身旁	-8.53664
微微	-8.54082
陆冠英	-8.54089
你说	-8.5456
须	-8.54877
每	-8.55351
之声	-8.55407
随	-8.55426
一灯	-8.55468
大喜	-8.55752
:	-8.55936
眼前	-8.56432
报	-8.56689
那是	-8.56699
▁周伯通	-8.5712
八	-8.57152
给我	-8.5717
旁	-8.57277
再也	-8.57305
靖哥哥	-8.57309
那么	-8.57514
的一声	-8.57516
的功夫	-8.58002
▁欧阳锋	-8.58116
怎样	-8.58168
回头	-8.58205
听了	-8.58709
一怔	-8.59051
在这	-8.59084
之意	-8.59191
不见	-8.59388
内功	-8.59633
只听	-8.59781
拖雷	-8.59826
细	-8.59906
始终	-8.59989
大哥	-8.6031
冷笑	-8.60478
又道	-8.60681
物	-8.60701
;	-8.6079
阵	-8.608
纵	-8.60809
扑	-8.60831
木	-8.61157
睡	-8.61372
关	-8.61464
帮主	-8.61472
之前	-8.62188
哈哈大笑	-8.62224
解	-8.62618
提	-8.62701
六	-8.63362
绿萼	-8.63372
▁黄药师	-8.63411
礼	-8.63553
下去	-8.6369
一只	-8.63696
并不	-8.63727
左掌	-8.63777
王处一	-8.63862
目	-8.63916
说了	-8.64021
向他	-8.6415
武修文	-8.64349
色	-8.64415
全真教	-8.64432
现下	-8.64433
张	-8.64445
这样	-8.64618
▁洪七公	-8.6463
马钰	-8.64679
老叫化	-8.6472
定是	-8.64763
手臂	-8.64797
就算	-8.65113
腿	-8.65181
夜	-8.6524
的话	-8.65565
它	-8.65634
头顶	-8.65786
内力	-8.6583
骨	-8.65854
败	-8.65901
是不是	-8.6598
撞	-8.65985
文	-8.66026
中的	-8.66044
杨铁心	-8.66338
射	-8.66451
坐在	-8.6669
布	-8.66734
均	-8.67228
哪	-8.67235
我爹爹	-8.67267
鲁有脚	-8.6734
归	-8.6748
此事	-8.67891
及	-8.68115
穴	-8.68233
跃	-8.68285
梁子翁	-8.68359
手掌	-8.68624
愈	-8.68704
双	-8.6897
姓	-8.69055
我的	-8.69198
抱	-8.69209
逼	-8.6932
原	-8.69347
位	-8.69503
很	-8.69638
首	-8.699
一灯大师	-8.69927
恨	-8.70018
称	-8.70019
服	-8.70035
缓缓	-8.70039
云	-8.70161
否则	-8.70207
太	-8.70228
渐	-8.70299
掷	-8.70428
在这里	-8.70581
派	-8.70651
平	-8.70714
身后	-8.70807
哭	-8.70808
掌力	-8.70865
总	-8.71047
青	-8.71156
不成	-8.71277
来到	-8.71325
去了	-8.71419
无法	-8.71479
道士	-8.71491
挺	-8.71524
应	-8.71626
奔	-8.71636
养	-8.71701
不好	-8.71709
代	-8.71721
乐	-8.71751
尼摩星	-8.71884
因	-8.71947
北	-8.71992
也已	-8.72185
仍	-8.72285
加	-8.72335
丐帮	-8.72386
之外	-8.72398
其实	-8.72973
踢	-8.73019
虚	-8.73269
肉	-8.73485
月	-8.73582
半点	-8.73588
与他	-8.73642
沉	-8.73763
碗	-8.73872
武三通	-8.73943
异常	-8.7397
疾	-8.74042
且	-8.74125
朱子柳	-8.74152
一块	-8.7421
那少女	-8.74323
南	-8.74462
一直	-8.74498
精	-8.74693
怎能	-8.74809
脱	-8.75126
彭连虎	-8.75213
不动	-8.75226
此刻	-8.75294
一片	-8.75323
算	-8.75392
明白	-8.75452
上来	-8.7552
站起身来	-8.75546
妙	-8.75546
在他	-8.75549
跳	-8.75674
美	-8.75756
是啊	-8.75828
只道	-8.76019
其中	-8.76237
抢	-8.76354
潇湘子	-8.76486
人家	-8.76521
雪	-8.76556
百	-8.76626
居然	-8.76632
下来	-8.76645
武	-8.76869
一笑	-8.77004
闻	-8.77222
千	-8.77303
决	-8.77378
英雄	-8.77548
渐渐	-8.7758
功力	-8.77796
肩头	-8.77867
再说	-8.7794
拜	-8.77996
这一下	-8.78025
反而	-8.78107
各人	-8.78152
穿	-8.78577
依	-8.78671
▁郭襄	-8.79308
包	-8.79349
则	-8.79393
不了	-8.79465
放在	-8.79549
微笑	-8.79602
棒	-8.79674
斜	-8.79976
哼	-8.79982
何	-8.80286
答应	-8.80341
条	-8.80345
说得	-8.80394
当真是	-8.80426
结	-8.80562
接着	-8.80865
砍	-8.80993
▁两人	-8.81244
大家	-8.81693
根	-8.81695
竹棒	-8.81761
像	-8.81826
忽地	-8.81856
丈夫	-8.81891
不再	-8.81955
持	-8.81956
久	-8.81973
牛	-8.82084
看来	-8.82088
的是	-8.82398
▁丘处机	-8.82418
倒也	-8.82512
摔	-8.82659
▁这时	-8.82909
岂知	-8.82989
黄蓉笑	-8.83062
受伤	-8.8309
微微一笑	-8.83114
跟你	-8.83257
中了	-8.83303
背后	-8.83433
拍	-8.83494
伸出	-8.8362
进来	-8.83809
记	-8.83868
双掌	-8.83926
劲力	-8.84061
黄老邪	-8.84116
皮	-8.84184
尚未	-8.84256
常	-8.84298
这人	-8.84375
正自	-8.84399
却已	-8.84553
新	-8.84661
取出	-8.84665
洞	-8.84758
将她	-8.84858
居	-8.84903
吃了	-8.84977
语	-8.85062
了他	-8.85093
老毒物	-8.85324
孙婆婆	-8.85615
尹克西	-8.85627
拂尘	-8.85641
引	-8.85858
你是	-8.85939
来的	-8.85974
这等	-8.85999
刚才	-8.86026
无人	-8.8609
更加	-8.86172
襄阳	-8.86194
指点	-8.86237
一张	-8.86284
年纪	-8.86385
安	-8.86401
纵然	-8.86577
一根	-8.86667
三个	-8.86978
视	-8.87061
海	-8.87107
▁那	-8.8718
郭	-8.87216
底	-8.87347
善	-8.87429
烧	-8.87437
寒	-8.88017
你这	-8.88113
龙	-8.8826
我是	-8.88326
端	-8.8835
不用	-8.88387
手指	-8.8846
向前	-8.88472
面前	-8.88535
群	-8.88552
觉得	-8.8863
忽听	-8.88833
比武	-8.89012
知他	-8.89044
武艺	-8.89067
婴儿	-8.89106
土	-8.89169
女子	-8.89257
低	-8.89258
制	-8.89301
武氏兄弟	-8.89339
寻	-8.89361
主	-8.89415
这一招	-8.89415
一面	-8.89579
呼	-8.89627
喂	-8.89638
丝毫	-8.89654
咬	-8.89764
闪	-8.89782
义	-8.89832
招数	-8.89981
写	-8.89996
这里	-8.90016
盘	-8.90038
▁这	-8.90169
忽听得	-8.90213
过了	-8.90298
耳	-8.90339
发出	-8.90343
我也	-8.90414
客	-8.90466
部	-8.90501
华筝	-8.90594
韩小莹	-8.90611
亦	-8.90697
吃了一惊	-8.90698
形	-8.90728
极是	-8.90767
盛	-8.90908
向来	-8.91052
慈恩	-8.91249
古怪	-8.91336
约	-8.91405
嗯	-8.91539
唉	-8.9155
大怒	-8.9155
报仇	-8.91559
神雕	-8.91559
要是	-8.9158
被他	-8.91623
脸色	-8.9163
当日	-8.91719
留	-8.91899
身前	-8.91942
一步	-8.92073
稍	-8.92132
已是	-8.92188
涌	-8.92306
头上	-8.92414
劈	-8.92427
徒	-8.92587
了出来	-8.92609
地下	-8.9268
施	-8.92719
姊姊	-8.92843
暗器	-8.92854
游	-8.92856
背上	-8.92877
玉	-8.92896
一件	-8.92969
前辈	-8.93046
几个	-8.93094
大惊	-8.93104
避	-8.93139
画	-8.93191
腰	-8.93289
管	-8.9335
角	-8.93384
官	-8.93386
除了	-8.93405
抓住	-8.93423
莫	-8.93495
有甚么	-8.9351
跃起	-8.93825
儿子	-8.93967
却不	-8.94008
这次	-8.94031
在此	-8.94134
啊哟	-8.94161
杖	-8.94243
玩	-8.94408
一点	-8.9447
笔	-8.9472
草	-8.94793
硬	-8.94869
尽数	-8.9489
打得	-8.94971
好好	-8.9504
突	-8.95064
照	-8.95273
容	-8.95297
眼睛	-8.95544
▁她	-8.95868
饭	-8.95904
正在	-8.95935
不免	-8.95973
▁郭芙	-8.96141
见了	-8.96221
闪避	-8.96265
瞧着	-8.96276
探	-8.96364
身边	-8.96465
那时	-8.9648
缩	-8.9659
臂	-8.96804
但觉	-8.96972
和他	-8.97095
突然间	-8.97349
初	-8.97383
争	-8.97422
匕首	-8.97469
欢喜	-8.97481
窜	-8.97516
提起	-8.9755
侯通海	-8.97893
用力	-8.97908
一名	-8.9795
功	-8.97966
第一	-8.97989
手里	-8.9812
师叔	-8.98194
妻子	-8.98529
若非	-8.98637
她的	-8.98778
九	-8.98817
一股	-8.98934
桃花岛	-8.99102
前面	-8.99132
便即	-8.99234
达尔巴	-8.99273
包惜弱	-8.99285
瞧瞧	-8.99333
给她	-8.99406
世上	-8.99475
折	-8.99491
毕	-8.9952
软	-8.99553
各位	-8.99573
扬	-8.99591
必是	-8.99636
回到	-8.99998
赶	-9.00141
言语	-9.00247
岂能	-9.003
周伯通道	-9.00352
狗	-9.00397
指着	-9.00539
两名	-9.00614
片刻	-9.00615
第二	-9.00784
完	-9.0085
妹子	-9.009
走了	-9.00939
确是	-9.00994
踏	-9.01101
神色	-9.01174
们	-9.01234
不出	-9.01337
忽必烈	-9.01393
树	-9.01651
当时	-9.01655
手上	-9.01678
得了	-9.01711
而去	-9.01902
并无	-9.021
是我	-9.02152
个个	-9.02302
高手	-9.02517
但他	-9.02558
得紧	-9.02591
围	-9.02655
▁李莫愁	-9.02942
枪	-9.02987
洪凌波	-9.03125
寻思	-9.03141
解药	-9.03158
喜欢	-9.03473
道长	-9.0363
何以	-9.03653
滚	-9.03689
差	-9.03698
紧	-9.03754
藏	-9.03834
叫他	-9.03834
点头	-9.03843
他是	-9.04011
一番	-9.04064
挡	-9.04165
灵	-9.04242
嘴	-9.04295
无不	-9.04355
左右	-9.0452
本事	-9.04579
点了点头	-9.04588
穴道	-9.0459
满脸	-9.04627
之心	-9.04888
这小子	-9.04982
的事	-9.05011
纵身	-9.05133
一路	-9.05169
思	-9.0518
不如	-9.0519
须得	-9.05291
鸡	-9.05311
谷主	-9.05335
捉	-9.05347
金兵	-9.05377
尚	-9.054
定然	-9.05403
一起	-9.05615
上去	-9.05709
全真派	-9.05752
完颜萍	-9.05762
复	-9.05788
一把	-9.05934
道人	-9.05934
对他	-9.05986
待要	-9.0603
乘	-9.06053
忽见	-9.0606
为了	-9.06106
次	-9.06173
何况	-9.06186
韩宝驹	-9.0626
机	-9.06425
骑	-9.06434
领	-9.06464
换	-9.06562
生怕	-9.0663
扫	-9.06776
蒙古兵	-9.06845
封	-9.06855
帮	-9.06896
略	-9.06997
师兄	-9.07125
读	-9.07153
王重阳	-9.07313
划	-9.07374
短	-9.07419
伤了	-9.07473
冷冷的	-9.07559
只见他	-9.07601
也没	-9.07673
曲	-9.07709
跟他	-9.07715
已被	-9.0782
压	-9.07983
鞭	-9.08004
一下	-9.08149
孩儿	-9.08172
不愿	-9.08201
实在	-9.08221
武学	-9.08272
打狗棒法	-9.08332
我师父	-9.08441
模样	-9.08569
我要	-9.08574
凭	-9.08633
跌	-9.08814
和我	-9.08853
投	-9.08892
冷	-9.08892
之力	-9.08911
兀自	-9.09091
侧	-9.09221
相救	-9.09222
怀	-9.09293
厚	-9.09325
为甚么	-9.09402
了一	-9.09554
治	-9.096
胸	-9.0963
这么一	-9.09721
还有	-9.09744
遇	-9.09853
忍不住	-9.09871
无比	-9.10088
听她	-9.10096
并非	-9.10201
异	-9.10296
见过	-9.10351
沙通天	-9.10371
犹如	-9.10399
朝	-9.10579
调	-9.10611
武敦儒	-9.10622
侄儿	-9.10626
怎	-9.10626
有些	-9.10712
助	-9.1074
缠	-9.10783
不论	-9.10828
帐	-9.10863
热	-9.10984
熟	-9.11168
便要	-9.11176
错	-9.11178
沙	-9.11382
跟我	-9.11397
双雕	-9.1142
震	-9.11456
摆	-9.1146
该	-9.11473
少年	-9.11487
相斗	-9.1159
座	-9.11668
就要	-9.11862
想不到	-9.11874
准	-9.11981
修	-9.12038
野	-9.12136
一惊	-9.1215
的大	-9.123
改	-9.12467
定要	-9.12538
险	-9.12626
认	-9.12686
住了	-9.12755
房	-9.12807
神雕侠	-9.12864
奔到	-9.12974
大吃一惊	-9.12984
杨大哥	-9.12998
生平	-9.13066
掌法	-9.13093
假	-9.13161
腰间	-9.13201
露	-9.13271
我就	-9.13286
敬	-9.13291
原来是	-9.13462
樊一翁	-9.13486
出了	-9.13601
人人	-9.13653
香	-9.13657
干么	-9.13658
巨	-9.13692
粗	-9.13704
纷纷	-9.13794
小王爷	-9.13859
低头	-9.13888
什么	-9.13988
蒙古人	-9.14109
悄悄	-9.1422
小人	-9.14263
宫	-9.14314
不对	-9.14402
运	-9.14566
聪明	-9.14585
全金发	-9.14586
已经	-9.14592
鲜血	-9.14594
这番	-9.14665
我不	-9.14792
贫道	-9.14859
与郭靖	-9.15141
有何	-9.15273
举起	-9.15289
向杨过	-9.15307
插	-9.15317
弯	-9.15338
小红马	-9.15465
身形	-9.15499
在一起	-9.15526
闯	-9.15684
神情	-9.15855
按	-9.15869
哲别	-9.15925
回去	-9.15939
隔	-9.15957
夫妇	-9.16115
了几	-9.16347
抛	-9.1663
。’	-9.16712
针	-9.16964
右掌	-9.1697
另	-9.17023
了出去	-9.17215
齐声	-9.17265
▁柯镇恶	-9.17291
别人	-9.17305
向后	-9.17419
伤心	-9.1769
先前	-9.17703
了一阵	-9.17752
鱼	-9.17798
狂	-9.17818
巧	-9.17836
闹	-9.17837
郭伯伯	-9.17891
传授	-9.17944
除	-9.18025
节	-9.18089
料想	-9.18134
大师	-9.18151
傻蛋	-9.18224
最后	-9.18243
马光佐	-9.1842
一口	-9.1844
虽是	-9.18445
的手	-9.18498
旧	-9.18627
答	-9.18698
相助	-9.18727
轻功	-9.18742
得很	-9.18861
消	-9.19316
独	-9.19402
慢	-9.1952
一个人	-9.19525
西毒	-9.19578
双目	-9.19599
终究	-9.19619
弱	-9.1964
这几句话	-9.19701
初时	-9.19808
暗暗	-9.19834
远远	-9.19839
惨	-9.19899
散	-9.1996
屋	-9.20031
程瑶迦	-9.20128
躲	-9.20195
疼痛	-9.20217
一生	-9.20242
百姓	-9.20403
师弟	-9.20423
五人	-9.20434
盗	-9.20535
队	-9.20567
透	-9.20713
那日	-9.20742
遍	-9.20947
不许	-9.21054
圈	-9.21134
干甚么	-9.21146
得意	-9.21182
终	-9.21209
显	-9.21225
皇帝	-9.21285
咱俩	-9.21287
回答	-9.21357
吹	-9.21596
登	-9.21612
号	-9.21692
抢上	-9.21722
可惜	-9.21805
舍	-9.2182
不懂	-9.21823
你要	-9.21837
观	-9.21915
在旁	-9.21991
舞	-9.22014
六怪	-9.2202
顶	-9.22101
夫	-9.22133
钢杖	-9.22167
日后	-9.22169
双臂	-9.22192
单	-9.22227
和尚	-9.22279
奇怪	-9.22304
阴	-9.2241
逃走	-9.22418
相见	-9.2242
一句	-9.2245
故	-9.22505
果	-9.22506
缓	-9.22524
妈妈	-9.22586
右臂	-9.22613
刻	-9.22627
体	-9.2279
臭	-9.2286
了得	-9.22952
抵挡	-9.22976
到底	-9.22997
狠	-9.23046
已将	-9.23166
尖	-9.23202
宝	-9.23245
从未	-9.23273
露出	-9.23429
郝大通	-9.23616
谢	-9.23726
不觉	-9.23739
弄	-9.23781
止	-9.23787
民	-9.23818
贵	-9.23863
是甚么	-9.23889
泥	-9.23902
唱	-9.23917
全真七子	-9.2392
对付	-9.23924
化	-9.23967
以后	-9.2399
”。	-9.24055
▁众人	-9.24151
致	-9.24164
的人	-9.24207
左臂	-9.24405
偏	-9.24475
大事	-9.24533
雕	-9.24584
若不是	-9.24617
垂	-9.24694
脚步	-9.24731
食	-9.24816
害怕	-9.24817
顺手	-9.24859
靖儿	-9.24864
性	-9.24887
手腕	-9.24907
好了	-9.24912
兄	-9.24962
味	-9.25039
剑法	-9.25238
诸	-9.25284
江湖	-9.25335
计	-9.2537
扯	-9.25407
丑	-9.2545
在下	-9.25509
隐隐	-9.25644
谈	-9.25678
就此	-9.25712
固然	-9.25732
了起来	-9.25773
显是	-9.25858
并	-9.25897
不必	-9.25918
之色	-9.26004
背心	-9.26024
你瞧	-9.26041
试	-9.26167
抱着	-9.26167
了一声	-9.26202
真的	-9.26241
为人	-9.2636
爬	-9.2636
见杨过	-9.26373
声响	-9.2639
似是	-9.26403
奉	-9.26614
江南七怪	-9.26622
铁杖	-9.26634
双足	-9.26666
识得	-9.26768
停	-9.26985
托	-9.26987
借	-9.2703
练功	-9.27117
块	-9.27152
只因	-9.27342
可以	-9.27374
那就	-9.27458
第三	-9.27527
不答	-9.27534
放下	-9.27706
俯身	-9.27749
了个	-9.28036
而出	-9.2812
▁法王	-9.28207
避开	-9.28396
劝	-9.28406
正好	-9.28414
待得	-9.28438
晚辈	-9.2847
哼了一声	-9.28483
全然	-9.2857
输	-9.28581
接过	-9.28651
四下	-9.2876
也不能	-9.28978
前来	-9.29009
费	-9.29025
贼	-9.29126
图	-9.29263
迎	-9.29264
架	-9.29385
遇到	-9.29494
你也	-9.29598
而来	-9.29655
来啦	-9.2968
打了	-9.29694
自行	-9.29881
▁“	-9.30019
肯	-9.30037
大为	-9.30053
留下	-9.30091
威	-9.30101
十年	-9.30212
柄	-9.30237
陆	-9.30243
叹了口气	-9.30317
衣衫	-9.30337
降龙十八掌	-9.30343
远处	-9.30404
不少	-9.30437
共	-9.30603
之情	-9.30892
走进	-9.30917
静	-9.31063
负	-9.31188
晚	-9.31276
南希仁	-9.31291
吓得	-9.31395
乃是	-9.31427
走近	-9.31439
敢	-9.31515
向外	-9.31533
堆	-9.31576
却见	-9.31659
心头	-9.31675
然后	-9.31838
不料	-9.31838
群雄	-9.31968
望了一眼	-9.32216
咦	-9.32256
吧	-9.3226
另有	-9.32268
幸	-9.32448
罪	-9.32481
不信	-9.32665
后面	-9.32739
也不知	-9.32822
利	-9.32853
装	-9.32861
古	-9.32876
却不知	-9.32884
江南六怪	-9.32934
良久	-9.32935
飞出	-9.33017
怎会	-9.33022
羊	-9.33029
室	-9.33045
偷	-9.33071
然而	-9.33076
挨	-9.33118
一对	-9.33199
叫我	-9.33293
了下来	-9.33324
拂	-9.33479
行事	-9.33593
吐	-9.33731
这一掌	-9.33823
绕	-9.3386
越来越	-9.33885
此处	-9.33911
一日	-9.33913
柔	-9.3392
遭	-9.34056
全是	-9.34059
较	-9.34123
灵智上人	-9.34207
不易	-9.34244
阳	-9.34398
听说	-9.34667
是你	-9.34708
弹	-9.34753
卷	-9.34757
杨	-9.34838
的弟子	-9.34841
害死	-9.34846
数十	-9.34862
忘了	-9.34955
宗	-9.35118
胡子	-9.35156
鼓	-9.3516
湖	-9.35166
是否	-9.35186
绳索	-9.35201
呼吸	-9.35203
心里	-9.35234
激	-9.35262
料	-9.3534
衣服	-9.35377
要紧	-9.3538
稳	-9.3546
多半	-9.35516
松	-9.3579
仰	-9.35816
纸	-9.3589
段天德	-9.35899
陆庄主	-9.359
塞	-9.35906
讨	-9.35999
音	-9.36008
乃	-9.36015
站起	-9.36118
也就	-9.36168
良	-9.36169
汉	-9.36173
碎	-9.3618
心念一动	-9.36201
摸	-9.36424
丈	-9.36487
拔	-9.36488
▁原来	-9.36536
到处	-9.3662
六人	-9.36636
不理	-9.36668
走出	-9.36743
小弟	-9.36831
心神	-9.36934
受了	-9.36949
江湖上	-9.36977
伏	-9.37015
各自	-9.37035
扶	-9.37071
一位	-9.37083
赏	-9.37198
朋友	-9.37316
跃出	-9.3743
看得	-9.37496
赞	-9.37546
而死	-9.37566
全无	-9.37774
双眼	-9.37813
菜	-9.37973
集	-9.37984
下手	-9.37998
明知	-9.38081
原是	-9.38162
亏	-9.38178
爹	-9.38193
挑	-9.38201
己	-9.38217
彭长老	-9.3823
沉吟	-9.38231
变化	-9.38261
转头	-9.38272
去罢	-9.38286
你爹爹	-9.38403
而已	-9.38415
情花	-9.3842
想来	-9.38478
片	-9.38486
并未	-9.38618
生死	-9.38648
祸	-9.38672
有个	-9.38707
眉	-9.38739
嫁	-9.39005
人影	-9.39009
抬	-9.39127
病	-9.39234
浅	-9.39236
吟	-9.39237
哈哈	-9.39239
闲	-9.39246
俱	-9.39256
生气	-9.39282
若不	-9.39335
凌厉	-9.39493
分别	-9.39533
在空中	-9.39565
既然	-9.39596
躲在	-9.3964
一见	-9.39691
中原	-9.39783
恩	-9.39937
办	-9.40228
仙	-9.40246
小心	-9.40252
戳	-9.40301
父母	-9.4034
晃	-9.40383
一指	-9.404
说到	-9.40424
教我	-9.40513
的声音	-9.40584
上的	-9.40626
向郭靖	-9.40699
还不	-9.40741
混	-9.40835
种	-9.4084
陪	-9.40862
一定	-9.40862
那些	-9.40972
含	-9.41006
为难	-9.41026
凝神	-9.41093
临	-9.41167
现	-9.41173
息	-9.4123
向她	-9.41251
蒙	-9.4134
傻	-9.41343
他老人家	-9.41356
尚有	-9.41356
不要	-9.4136
官兵	-9.41382
台	-9.41411
林	-9.41439
一座	-9.4145
极为	-9.41585
猜	-9.41716
找到	-9.41782
毫不	-9.41785
将来	-9.41796
手下	-9.41804
让他	-9.41821
门外	-9.41977
已有	-9.42129
易	-9.42219
佩服	-9.42278
何必	-9.42283
心知	-9.42316
运劲	-9.4235
重重	-9.42401
回过头来	-9.4242
经书	-9.42487
来了	-9.42489
倒是	-9.42578
欺	-9.42698
场	-9.42737
对我	-9.42746
不说	-9.42754
无礼	-9.42829
江南	-9.42889
板	-9.42982
许多	-9.43077
境	-9.43186
害	-9.43223
愿	-9.43341
担心	-9.43343
不但	-9.43411
别说	-9.43456
钉	-9.43466
说过	-9.43496
徒儿	-9.43594
那个	-9.43708
十余	-9.44027
三招	-9.44073
数日	-9.44093
毛	-9.44232
四个	-9.44331
古墓	-9.44392
在这儿	-9.44399
靖	-9.44492
鸣	-9.44512
坚	-9.44513
头发	-9.4454
饮	-9.44541
勇	-9.4457
桑昆	-9.44583
龙姑娘	-9.44621
拳法	-9.44672
娶	-9.44679
站	-9.44736
暗想	-9.44762
早就	-9.44788
哥哥	-9.4486
又有	-9.44865
记得	-9.44907
具	-9.44972
少女	-9.45041
门口	-9.45045
替	-9.45059
袖	-9.4514
叫声	-9.45192
见郭靖	-9.45282
▁欧阳克	-9.45345
公孙谷主	-9.45384
余	-9.45398
周	-9.45419
雄	-9.45426
门下	-9.45457
顿	-9.45502
宽	-9.45537
索	-9.45564
诗	-9.45667
说到这里	-9.45684
磕头	-9.45715
面目	-9.45729
威力	-9.45773
与杨过	-9.45959
互	-9.46054
切	-9.46108
在她	-9.4613
出言	-9.46228
一拳	-9.46278
互相	-9.46294
跃上	-9.4633
枝	-9.46365
灭	-9.46408
店	-9.46419
身法	-9.46442
割	-9.46655
王爷	-9.46676
师妹	-9.46686
又问	-9.4669
冰	-9.46736
险些	-9.46749
影	-9.46763
决不	-9.46767
赴	-9.46774
茶	-9.46788
诸般	-9.46815
柔声	-9.46833
东西	-9.46887
这句话	-9.46902
金轮	-9.46916
的性命	-9.46936
真经	-9.47071
防	-9.47092
格	-9.47128
成了	-9.4718
削	-9.47256
江	-9.47333
兴	-9.47463
在哪里	-9.47488
一场	-9.47648
一柄	-9.47694
寻常	-9.47745
志	-9.4786
系	-9.47866
惹	-9.47872
弓	-9.47891
你别	-9.47927
一枚	-9.4794
好啊	-9.48056
拔出	-9.48155
手足	-9.48233
护	-9.48374
夹	-9.4859
做了	-9.48599
斩	-9.48723
丝	-9.4889
授	-9.48894
虎	-9.48908
钩	-9.48926
星	-9.4897
配	-9.49032
凉	-9.4904
玉女心经	-9.49046
郭伯母	-9.49052
察看	-9.49081
我去	-9.49161
站着	-9.49172
▁梅超风	-9.49238
轮	-9.49333
向左	-9.49402
▁只听	-9.49526
父	-9.49652
无数	-9.49705
堂	-9.49713
小小	-9.49843
瞧他	-9.49904
墙	-9.49904
大有	-9.4991
满了	-9.49961
小姑娘	-9.49992
这话	-9.5002
金国	-9.50027
圆	-9.50092
目光	-9.50139
梦	-9.50144
钱	-9.50173
丘	-9.50175
羞	-9.50181
盼	-9.5021
颤声	-9.50213
落下	-9.50302
颇	-9.50312
使出	-9.50321
这孩子	-9.50392
均想	-9.50397
绝情谷	-9.50445
了她	-9.50456
待我	-9.505
奔出	-9.506
亮	-9.50778
之法	-9.50823
损	-9.50872
怀中	-9.50879
输了	-9.51082
摇	-9.5111
杨过笑	-9.51172
许	-9.51268
蒙古军	-9.51272
自己的	-9.51286
困	-9.51301
均是	-9.51318
砸	-9.51363
段皇爷	-9.51364
望去	-9.51406
厉声	-9.51474
主人	-9.51508
落在	-9.5169
翻身	-9.51712
丘处机道	-9.51714
推开	-9.51743
只不过	-9.51818
力气	-9.51858
钟	-9.51926
运气	-9.51928
不同	-9.51953
一呆	-9.52096
要害	-9.52221
叫作	-9.52274
尊	-9.52308
母	-9.52326
▁成吉思汗	-9.52381
但见他	-9.52383
庄	-9.52413
你再	-9.52501
美貌	-9.52511
其余	-9.52523
孙不二	-9.52536
抬起头来	-9.5254
钻	-9.5255
解开	-9.52714
邪	-9.52731
忘	-9.52807
我便	-9.52842
公	-9.52883
离开	-9.52893
顾	-9.52896
入了	-9.5294
交给	-9.53014
带着	-9.53055
坐下	-9.53073
创	-9.53104
坏	-9.53106
席	-9.53129
确	-9.53183
盖	-9.532
箫声	-9.53276
而行	-9.5338
欢	-9.53442
怨	-9.53493
溜	-9.5354
绿	-9.53697
铜缸	-9.53732
又惊又喜	-9.5374
过不多时	-9.53795
了下去	-9.53814
一次	-9.53962
甚么事	-9.5398
你师父	-9.54036
逼得	-9.54049
到来	-9.54125
武林中	-9.54131
再来	-9.5415
德	-9.54291
样	-9.54334
武林	-9.54376
怎生	-9.54468
脚下	-9.54471
必有	-9.54618
到后来	-9.54646
聚	-9.54692
眼光	-9.54747
淡	-9.54881
相距	-9.54891
今晚	-9.54942
恩师	-9.55066
你不	-9.55118
你就	-9.5513
但想	-9.55182
当然	-9.5526
抽	-9.55263
之物	-9.55273
眼中	-9.55325
好生	-9.55357
了一会	-9.55396
拉着	-9.55398
风声	-9.55417
阵法	-9.55426
下了	-9.55428
是他	-9.55484
越是	-9.55595
不便	-9.55735
隐	-9.55741
鼻	-9.55755
铁掌帮	-9.5586
必定	-9.55872
矮	-9.55905
悔	-9.56015
不着	-9.56035
驰	-9.56127
尾	-9.56129
好罢	-9.56132
亡	-9.56142
迅捷	-9.56152
夫妻	-9.56154
胡涂	-9.56154
谷中	-9.56203
四下里	-9.56228
都史	-9.56253
握	-9.56255
在一旁	-9.56283
想是	-9.56402
竟会	-9.56483
一口气	-9.56564
岁	-9.56567
暗中	-9.56675
说甚么	-9.56703
说起	-9.56705
饶	-9.56726
陷	-9.57006
重阳宫	-9.57041
累	-9.57091
又想	-9.57113
年轻	-9.57132
只盼	-9.57258
整	-9.57304
减	-9.57364
扭	-9.57374
降	-9.57375
网	-9.57383
赐	-9.57386
王罕	-9.57392
敌手	-9.57468
不明	-9.57493
暗自	-9.57495
醒	-9.57566
纵马	-9.5759
赶到	-9.57644
大宋	-9.57645
自知	-9.57809
另一个	-9.57939
掉	-9.57999
列	-9.58138
严	-9.58143
▁此时	-9.58364
挥出	-9.58373
施展	-9.58388
我这	-9.58415
这两个	-9.58424
扇	-9.58486
▁金轮法王	-9.58494
荡	-9.58498
来势	-9.58553
拥	-9.58639
高台	-9.5865
动弹不得	-9.58653
杨兄弟	-9.58677
性子	-9.58755
汉子	-9.58808
床	-9.58841
套	-9.58923
有了	-9.58939
师姊	-9.5894
自幼	-9.58952
中间	-9.58962
厅	-9.58986
跑	-9.59011
房中	-9.59042
殿	-9.5938
保	-9.59606
反手	-9.59737
瞧得	-9.59794
骗	-9.5981
人物	-9.59812
波	-9.59828
误	-9.59846
执	-9.59852
旗	-9.59862
寂	-9.59903
皆	-9.59909
”、“	-9.5991
奋力	-9.59916
碰	-9.59946
一顿	-9.59979
本领	-9.59984
双方	-9.59991
峰	-9.60029
招架	-9.6006
林中	-9.60073
而且	-9.60128
靠	-9.60131
对手	-9.60133
不妙	-9.6028
那道人	-9.60301
径	-9.60378
一眼	-9.60555
胡	-9.6068
墓	-9.60717
救了	-9.60747
只好	-9.60751
教你	-9.60946
抗	-9.61057
移	-9.61068
才是	-9.61078
逆	-9.61082
一家	-9.61111
烟	-9.61118
薄	-9.61154
郭大侠	-9.61191
都已	-9.61208
豹子	-9.61223
昏	-9.61372
不去	-9.61406
男子	-9.61748
▁只见	-9.61798
印	-9.6181
拉住	-9.61827
他二人	-9.61938
宋	-9.62053
也要	-9.62062
忧	-9.62086
之内	-9.62183
密	-9.62183
当世	-9.62246
明明	-9.62288
度	-9.62379
福	-9.62421
的小	-9.62435
窝阔台	-9.6246
拖	-9.62479
衫	-9.62485
邀	-9.62488
朗声	-9.62508
那少年	-9.62647
重伤	-9.62649
句	-9.62743
有时	-9.62769
有的	-9.62834
只感	-9.6286
将下来	-9.62889
不起	-9.62959
七人	-9.62961
岂不	-9.63036
素	-9.63046
爷爷	-9.63048
一句话	-9.63091
增	-9.63304
抱起	-9.63317
眼下	-9.63323
已知	-9.63325
左足	-9.63326
顺	-9.6341
右足	-9.63457
李萍	-9.63501
腿上	-9.63566
属	-9.63646
尘	-9.63657
以为	-9.63702
大是	-9.63766
裂	-9.63789
达	-9.63796
缝	-9.63797
休息	-9.63824
六位师父	-9.63825
尽皆	-9.63835
落地	-9.63922
双腿	-9.6399
杀人	-9.6401
猛地	-9.64016
颇为	-9.64124
不断	-9.64334
也好	-9.64407
这许多	-9.64485
几步	-9.64525
拚	-9.64569
腹	-9.64674
但若	-9.64687
崖	-9.64804
一看	-9.64853
牢牢	-9.64872
君	-9.64993
凝	-9.65013
续	-9.6502
无力	-9.65031
联	-9.65056
撒	-9.65059
非同小可	-9.65088
词	-9.65123
搬	-9.65131
私	-9.65133
乘机	-9.65156
晃动	-9.65199
让我	-9.65238
转头向	-9.65315
友	-9.65377
中毒	-9.65379
尽是	-9.65444
高兴	-9.65458
上下	-9.65486
得到	-9.65502
铁掌	-9.65617
再无	-9.65621
孔	-9.6571
拆	-9.65797
你怎么	-9.65803
竹	-9.65968
连连	-9.66071
大石	-9.66197
任	-9.66237
携	-9.66251
取胜	-9.6639
之地	-9.66421
起了	-9.66436
滑	-9.66445
歇	-9.66458
残	-9.66469
忌惮	-9.66484
陈玄风	-9.66488
脾气	-9.6649
家伙	-9.66496
拚命	-9.66529
▁裘千仞	-9.66544
那女子	-9.66558
群道	-9.66617
很好	-9.66625
接口	-9.66653
亲兵	-9.66696
不知如何	-9.66697
认得	-9.66802
就在	-9.66878
存	-9.6695
断了	-9.67114
几下	-9.67144
教他	-9.67152
?’	-9.67175
全真教的	-9.67234
得住	-9.67303
错了	-9.67408
鸟	-9.67482
疑	-9.67574
直到	-9.67608
喝了	-9.67629
很是	-9.67655
您	-9.67807
英	-9.6782
掩	-9.67825
不死	-9.67832
缸	-9.67849
襄儿	-9.6787
点点头	-9.67946
发作	-9.67954
玉蜂	-9.67985
成亲	-9.68099
知她	-9.68131
了过去	-9.6815
抱住	-9.68167
脱手	-9.68182
河	-9.68208
走向	-9.68219
吓	-9.68225
迟	-9.68278
之势	-9.68424
奔去	-9.68481
此后	-9.68481
今	-9.68536
是要	-9.68564
一切	-9.68616
▁裘千尺	-9.68889
张口	-9.68977
本已	-9.68985
▁铁木真	-9.68993
好不好	-9.69067
心意	-9.69129
克	-9.69224
决不能	-9.69227
抵	-9.69227
搜	-9.69228
杂	-9.69233
补	-9.69243
张阿生	-9.69246
大伙儿	-9.69248
群丐	-9.69251
这件事	-9.69295
过了一会	-9.69331
戴	-9.69356
脱身	-9.69378
▁杨康	-9.69528
颇有	-9.6959
客店	-9.69603
仇	-9.69613
接连	-9.69698
便在	-9.69703
▁朱聪	-9.69718
外人	-9.69757
带了	-9.69825
的名字	-9.69837
听着	-9.69943
有如	-9.69987
牵	-9.69989
不在	-9.70026
递	-9.70203
不语	-9.70219
清楚	-9.70335
感激	-9.70374
辱	-9.70451
凶	-9.70483
悲	-9.70547
一会	-9.70575
她是	-9.70586
速	-9.70592
打狗棒	-9.70615
广	-9.70621
剧痛	-9.70629
擦	-9.70636
黄岛主	-9.70644
衣襟	-9.70651
故意	-9.70717
庙	-9.708
后心	-9.70851
总算	-9.7088
说不定	-9.70908
夫人	-9.70936
素来	-9.70984
敌军	-9.70998
一言	-9.71044
占	-9.71127
之旁	-9.71171
▁陆无双	-9.71231
转过	-9.71526
不绝	-9.71677
世间	-9.71747
抹	-9.71846
双剑	-9.7189
经过	-9.71929
脉	-9.72001
吸	-9.72057
挤	-9.72079
大踏步	-9.72092
全真	-9.72161
士	-9.72392
只见她	-9.7252
叫你	-9.72815
悟	-9.72876
更无	-9.72892
肩	-9.729
斗然	-9.7292
四周	-9.72925
向上	-9.72934
了两	-9.72953
了不起	-9.7305
我说	-9.73122
窗	-9.73182
朮赤	-9.73204
剑尖	-9.73234
叫做	-9.73244
不怕	-9.73273
歌	-9.733
孙	-9.73325
五个	-9.734
随着	-9.73442
油	-9.73522
地方	-9.7354
试试	-9.73543
郭夫人	-9.73544
东邪	-9.73545
嘉兴	-9.73555
追赶	-9.73569
数次	-9.73585
片刻之间	-9.7359
老前辈	-9.73615
相交	-9.7367
打架	-9.737
随手	-9.73766
幸好	-9.73787
还没	-9.7379
辨	-9.73815
毒蛇	-9.73817
两步	-9.73885
抖	-9.7417
难过	-9.74178
之言	-9.74198
一动	-9.74214
壁	-9.74299
颈	-9.74328
原来他	-9.74429
两只	-9.74475
正中	-9.74499
你还	-9.74518
闭	-9.74525
从前	-9.74534
但她	-9.74694
二十	-9.74701
简长老	-9.74704
显得	-9.74747
拿起	-9.74774
未曾	-9.74834
冒	-9.74919
那公子	-9.74928
愁	-9.74988
一阳指	-9.74991
西山一窟鬼	-9.75001
州	-9.75008
拾起	-9.75011
脑袋	-9.75012
男女	-9.75017
眼泪	-9.75018
恼怒	-9.75035
之术	-9.75115
提防	-9.75142
发觉	-9.75194
才知	-9.75236
绝情丹	-9.75268
城头	-9.7532
杨过心想	-9.75378
永远	-9.7547
截	-9.75608
胆	-9.75614
不管	-9.75703
临安	-9.75754
给人	-9.75758
件	-9.75965
一头	-9.76005
也未必	-9.76011
忍	-9.76027
浑	-9.76069
情势	-9.76092
多谢	-9.76104
便如	-9.76118
侠	-9.76195
不足	-9.76243
诧异	-9.76252
示	-9.76309
你快	-9.76361
柱	-9.76399
段	-9.76409
闷	-9.76418
华	-9.76435
蓉二人	-9.76463
耗	-9.76478
察合台	-9.76495
明日	-9.7651
号令	-9.76532
迎面	-9.76533
相互	-9.76533
怪异	-9.76534
兵器	-9.76555
精神	-9.76573
小子	-9.76588
生性	-9.76599
顺着	-9.76701
▁赵志敬	-9.76808
大师父	-9.76818
退开	-9.76825
第	-9.7683
七八	-9.76896
砰的一声	-9.77035
一剑	-9.77081
理会	-9.77124
快快	-9.77134
半截	-9.77155
擒	-9.77256
论	-9.77358
上山	-9.77366
七公	-9.77404
古墓派	-9.77433
▁尹志平	-9.77446
红马	-9.7746
忙问	-9.77478
不来	-9.7755
村	-9.7762
也必	-9.77661
舌	-9.77728
毕竟	-9.77753
不该	-9.77773
象	-9.77867
她们	-9.77881
两条	-9.77895
务	-9.77965
叉	-9.77985
雅	-9.77996
(	-9.78003
)	-9.78007
黑风双煞	-9.78009
软猬甲	-9.78009
抵御	-9.78012
胡闹	-9.78019
每一	-9.78061
答允	-9.78188
以致	-9.78189
挥动	-9.78225
大哥哥	-9.78322
大金国	-9.7846
一挥	-9.785
走罢	-9.78531
相会	-9.78553
般的	-9.7861
摔倒	-9.78619
力道	-9.78627
始终不	-9.78629
下面	-9.78675
一一	-9.78689
设法	-9.78702
数丈	-9.788
不明白	-9.78909
瞧出	-9.78945
比之	-9.7896
两声	-9.78976
撕	-9.78984
十八	-9.79042
▁完颜康	-9.79096
曾听	-9.79184
便已	-9.79198
名字	-9.79215
纵跃	-9.79222
杯	-9.79233
识	-9.79303
他说	-9.79417
环	-9.7943
的所在	-9.79435
寸	-9.79443
与她	-9.7945
备	-9.79475
疼	-9.79521
迷	-9.79525
嘿嘿	-9.79529
丘道长	-9.79564
了几下	-9.79581
心中一凛	-9.79598
主意	-9.79645
几句	-9.7969
迟疑	-9.79735
甩	-9.7974
合力	-9.79758
其时	-9.79807
笑声	-9.79844
辈	-9.79895
只须	-9.79938
我和	-9.80194
了一个	-9.80199
何处	-9.80218
积	-9.80356
平时	-9.80362
了过来	-9.80507
与黄蓉	-9.80526
府	-9.80565
师徒	-9.80568
卧	-9.80576
终南山	-9.80581
要待	-9.80676
振	-9.80759
不久	-9.80796
掠	-9.80798
▁穆念慈	-9.80798
衣袖	-9.80807
行走	-9.80808
也都	-9.80828
恼	-9.80837
竖	-9.8086
化子	-9.80982
誓	-9.81033
了半晌	-9.81097
朱	-9.811
狼狈	-9.81102
咽	-9.81104
蛤蟆功	-9.81106
吓了一跳	-9.81106
悬崖	-9.81108
卖	-9.81108
突觉	-9.81155
师伯	-9.8122
已在	-9.81277
捏	-9.81475
全力	-9.8154
坐着	-9.81541
容易	-9.81663
走去	-9.8168
举手	-9.8173
两字	-9.81773
说是	-9.81853
女人	-9.8187
何等	-9.81893
令人	-9.81897
服了	-9.82
一手	-9.82023
杆	-9.82024
也不会	-9.82043
本就	-9.82079
突见	-9.82086
手法	-9.82093
早知	-9.82206
西域	-9.82307
郭啸天	-9.82397
一身	-9.82425
银	-9.82444
名叫	-9.82453
已自	-9.82464
程	-9.82548
决计	-9.8261
但听得	-9.82611
春	-9.82633
那渔人	-9.82651
先师	-9.82661
昨晚	-9.82698
何师我	-9.827
英雄好汉	-9.82708
些甚么	-9.82761
岩石	-9.82782
身穿	-9.8282
如何能	-9.82856
高人	-9.82944
仍然	-9.83023
室中	-9.83064
找寻	-9.83075
你先	-9.83122
好啦	-9.8323
终身	-9.83254
赶来	-9.83405
至于	-9.8348
胜过	-9.83532
死在	-9.83576
犯	-9.83677
欲待	-9.83744
跃开	-9.83793
紧紧	-9.83823
迫	-9.83887
桌	-9.83949
丝毫不	-9.83977
买	-9.83981
师哥	-9.84045
依言	-9.84112
婆婆	-9.84114
打在	-9.84127
史	-9.84162
一碗	-9.84189
器	-9.84189
劳	-9.8424
辞	-9.84273
修习	-9.84291
札木合	-9.84306
天竺僧	-9.84306
博尔朮	-9.8431
岳飞	-9.84317
躬身	-9.84323
拍的一声	-9.84364
沉重	-9.84441
在自己	-9.84454
从此	-9.84467
你若	-9.84529
救人	-9.84572
掌风	-9.84614
的本事	-9.84631
一晃	-9.84678
去找	-9.84712
白雕	-9.84715
伤人	-9.84716
方能	-9.84724
剧毒	-9.84726
又见	-9.84741
明明是	-9.84743
疑心	-9.84754
给了	-9.84779
细细	-9.84785
而至	-9.84873
有此	-9.84977
推出	-9.85101
反正	-9.85116
拿了	-9.85267
又已	-9.85279
上一	-9.85421
阻	-9.85489
俯	-9.85532
参	-9.85605
得罪	-9.85617
公孙绿萼	-9.85654
十余年	-9.85655
飘	-9.85689
一团	-9.85693
潜	-9.85716
佛	-9.85777
造	-9.85827
那可	-9.85832
跌倒	-9.85849
经文	-9.85874
承	-9.85914
脏	-9.85917
戏	-9.85922
伏在	-9.85936
祖师婆婆	-9.85945
嚼	-9.8595
陆立鼎	-9.85952
帆	-9.85953
银针	-9.85962
义父	-9.85963
斗然间	-9.85984
相貌	-9.85985
与小龙女	-9.86042
恶斗	-9.8612
认输	-9.86133
下山	-9.86151
出口	-9.86161
弟	-9.86307
还要	-9.86322
所传	-9.86331
待他	-9.86467
候	-9.86609
壮	-9.86706
一拍	-9.86719
堕	-9.86791
进去	-9.86838
北方	-9.8688
又不是	-9.86992
缚	-9.87012
山洞	-9.8705
的模样	-9.87057
讲	-9.87104
祖	-9.8734
点了	-9.87375
丧	-9.87402
竟不	-9.87407
不知道	-9.87449
未必	-9.87559
甲	-9.87567
宿	-9.87596
铺	-9.87601
胖	-9.87605
译	-9.87609
屈	-9.87609
大头鬼	-9.87616
拜见	-9.87635
呼喝	-9.87645
飞舞	-9.87682
联手	-9.87706
奔跑	-9.87765
这事	-9.87822
掠过	-9.87932
急奔	-9.87935
不自禁的	-9.87979
三分	-9.88059
你去	-9.88091
原本	-9.88106
行礼	-9.88144
固	-9.88249
要我	-9.88252
抢到	-9.88358
长大	-9.88443
不知他	-9.88487
一样	-9.88493
又要	-9.88553
罢了	-9.88561
对她	-9.88573
折断	-9.88593
梁	-9.88598
一刀	-9.88598
不忍	-9.88614
只待	-9.88644
▁一灯	-9.88794
城中	-9.88833
传来	-9.88905
▁完颜洪烈	-9.88943
历	-9.88944
伤势	-9.88994
请你	-9.88997
奸	-9.89021
练成	-9.8903
掌心	-9.8907
四字	-9.89092
兔	-9.89217
元	-9.89218
展	-9.89223
瘦	-9.89251
纯	-9.89283
破绽	-9.89305
诚	-9.89311
武三娘	-9.89312
鹿清笃	-9.89313
胡说八道	-9.89313
容貌	-9.89315
巨岩	-9.89324
所在	-9.89339
蓦地里	-9.89348
单刀	-9.89372
铁枪	-9.89414
一些	-9.89441
在桃花岛上	-9.89442
强敌	-9.89505
大笑	-9.8951
龙儿	-9.8954
大厅	-9.89614
一听	-9.89703
拿着	-9.89807
妙极	-9.89928
得知	-9.90021
也只	-9.90043
不服	-9.90169
过招	-9.90267
刺去	-9.90389
岸	-9.90406
说来	-9.90458
前后	-9.90491
挡在	-9.90572
棒法	-9.90615
几次	-9.90623
倒转	-9.90644
岛上	-9.90644
还能	-9.9068
好汉	-9.90698
所以	-9.90818
练到	-9.90821
饶了	-9.90831
旨	-9.90849
担	-9.90897
假装	-9.90903
揭	-9.90934
灰	-9.90935
生了	-9.90958
出招	-9.90978
注	-9.90997
请教	-9.90999
局	-9.91006
吞	-9.91025
愕然	-9.91035
瀑布	-9.91036
黯然	-9.91045
黎生	-9.91046
洪帮主	-9.91053
犹似	-9.91059
周大哥	-9.91061
另外	-9.91118
停步	-9.91224
瞧见	-9.91249
当的一声	-9.91287
展开	-9.91325
山峰	-9.91451
打不过	-9.91628
等人	-9.91659
待会	-9.91669
我在	-9.9174
跟随	-9.91756
有趣	-9.91848
蛮	-9.91938
谷	-9.9196
一半	-9.9203
先行	-9.92079
不敢再	-9.92081
赢	-9.92082
一扬	-9.92091
好手	-9.9211
跃下	-9.92153
溪	-9.92281
迹	-9.92304
谅	-9.92307
竟有	-9.92358
想要	-9.92456
决意	-9.92498
要他	-9.92553
快走	-9.92653
而起	-9.92668
穷	-9.92696
倏	-9.92696
鞋	-9.92697
悬	-9.92778
浪	-9.92779
扳	-9.92781
甫	-9.92782
浓	-9.92782
祖师爷	-9.92784
浸	-9.92788
乞丐	-9.92791
逝世	-9.92795
忍耐不住	-9.92799
凶险	-9.92801
二哥	-9.92804
神态	-9.92808
竟尔	-9.92814
向北	-9.92817
精妙	-9.92837
不由自主的	-9.92845
再行	-9.92871
莫非	-9.92905
几年	-9.92935
喝酒	-9.92937
知觉	-9.93141
这些人	-9.93152
五指	-9.93254
而过	-9.93279
更不	-9.93479
瞎	-9.93685
丹	-9.93814
将军	-9.93856
下马	-9.93886
楼	-9.93943
没了	-9.94022
数十年	-9.94109
僧	-9.94158
术	-9.94198
颜烈	-9.94269
穆易	-9.94285
得多	-9.94302
艺	-9.94325
抚	-9.94348
倏地	-9.94349
言道	-9.94352
洪	-9.94402
肚	-9.94404
打死	-9.94408
瓶	-9.94456
惧	-9.94461
烂	-9.94538
采	-9.94554
载	-9.94556
弃	-9.94562
朗声说	-9.94563
爪	-9.94563
甜	-9.94564
愧	-9.9457
呸	-9.94572
刘贵妃	-9.94574
挽	-9.94574
奥妙	-9.94581
率领	-9.94604
也有	-9.94768
是在	-9.94803
快步	-9.94855
该当	-9.94998
又何必	-9.95004
▁公孙谷主	-9.9506
圈子	-9.95111
念头	-9.9512
马上	-9.95192
又有甚么	-9.95202
自来	-9.95232
竟自	-9.95511
数招	-9.95572
向东	-9.95607
牙齿	-9.95652
这一次	-9.95778
势必	-9.95827
树干	-9.95931
灯	-9.95991
数百	-9.96064
仗	-9.96072
手脚	-9.9608
定了	-9.96099
渔网	-9.96191
还道	-9.96193
策	-9.96229
一百	-9.96238
匹	-9.96244
回身	-9.96276
习	-9.96296
乖	-9.96378
洗	-9.96393
嫌	-9.96393
转过身来	-9.96396
询问	-9.96403
思索	-9.96411
身受重伤	-9.96416
数尺	-9.9642
并肩	-9.96426
哪敢	-9.96427
黑暗中	-9.96427
且慢	-9.9643
呼呼	-9.96432
黄帮主	-9.9648
拍手	-9.96514
相遇	-9.96524
可怜	-9.96544
斤	-9.96545
杀他	-9.96617
心愿	-9.96618
黄二人	-9.96699
旁边	-9.96773
看时	-9.9681
袍	-9.96853
剑柄	-9.96865
另一	-9.96907
搭	-9.97056
但听	-9.97088
看了	-9.97138
不识	-9.9721
袭	-9.97268
先生	-9.97391
遗	-9.97396
最好	-9.97465
空中	-9.97474
▁杨铁心	-9.97486
有所	-9.97493
道路	-9.97647
石室	-9.97669
知晓	-9.97676
深谷	-9.9776
尺	-9.97844
快去	-9.97862
遇上	-9.97877
那便	-9.97973
斥	-9.97982
屋顶	-9.9799
金杵	-9.9801
焦急	-9.98087
告	-9.9809
查	-9.98105
挣扎	-9.98123
得罪了	-9.98145
伤口	-9.98161
破了	-9.98174
店小二	-9.98226
于他	-9.98233
健	-9.98237
拣	-9.98242
李志常	-9.98243
浮	-9.98244
丹田	-9.98245
汤	-9.98246
哈哈一笑	-9.98275
华山	-9.98301
胸前	-9.98396
他武功	-9.98435
可不是	-9.98474
面门	-9.98492
掌教	-9.98499
牛家村	-9.98507
松树	-9.98601
抓起	-9.98643
他在	-9.9877
那也	-9.98775
客人	-9.98831
晕了过去	-9.98849
成功	-9.98872
小腹	-9.98953
叫化	-9.98958
不小	-9.9896
正想	-9.98977
自然是	-9.99251
的一响	-9.99276
手持	-9.9929
一闪	-9.99335
上面	-9.99338
暗叫	-9.99474
一双	-9.99531
幼时	-9.99548
支	-9.99678
大军	-9.99766
幼	-9.99796
汗	-9.99811
雨	-9.9982
详	-9.9985
倾	-9.99879
赌	-10.0001
简	-10.0007
杀死	-10.0007
桨	-10.0009
驱	-10.0009
妖	-10.0009
暴	-10.0012
佳	-10.0013
车	-10.0013
刘处玄	-10.0013
枚	-10.0014
我来	-10.0016
岂非	-10.0017
了片刻	-10.0018
仇人	-10.0029
动静	-10.003
之功	-10.0031
当作	-10.0036
有余	-10.004
第四	-10.0047
发足	-10.0052
缘	-10.0052
若要	-10.0056
要想	-10.0057
怒气	-10.0068
来去	-10.0075
招呼	-10.008
里面	-10.0087
肥	-10.0089
郭靖与黄蓉	-10.0089
相识	-10.0093
而上	-10.0096
失了	-10.0097
挡住	-10.01
酸	-10.0111
锋	-10.0113
这套	-10.0114
下的	-10.0117
如此说	-10.012
进了	-10.0123
岩	-10.0125
亲自	-10.0126
底下	-10.0128
数步	-10.013
相对	-10.013
不致	-10.0131
丛	-10.014
头颈	-10.0145
桌上	-10.0148
瞧去	-10.0149
斯	-10.0152
不幸	-10.0152
长矛	-10.0154
禁	-10.0157
了些	-10.0158
线	-10.016
剪	-10.016
往他	-10.0164
剑招	-10.0164
征	-10.0183
呼叫	-10.0189
豪	-10.0197
跪下	-10.0199
有一	-10.02
率	-10.0202
宴	-10.0203
豪杰	-10.0204
窜出	-10.0204
湿	-10.0204
有异	-10.0205
放在心上	-10.0206
醉	-10.0206
狠辣	-10.0206
耳朵	-10.0206
烦恼	-10.0206
▁只听得	-10.0207
凄然	-10.0207
折扇	-10.0208
银子	-10.0209
颈中	-10.0211
防备	-10.0212
绝技	-10.0214
惊觉	-10.0217
时分	-10.0218
怀里	-10.0219
的女儿	-10.0219
掷出	-10.0222
白衣	-10.0224
好玩	-10.0231
额头	-10.0234
万分	-10.0235
放了	-10.0238
出现	-10.0246
人人都	-10.0246
的好	-10.0248
一天	-10.0251
苦头	-10.0256
那农夫	-10.0258
数年	-10.0267
打我	-10.0273
惊叫	-10.0278
这就	-10.028
我想	-10.0282
按住	-10.0287
放心	-10.029
高举	-10.0291
说他	-10.0292
握住	-10.0301
四名	-10.0307
声势	-10.031
毙	-10.0313
刀剑	-10.032
使用	-10.0326
这场	-10.0326
那位	-10.0327
雕儿	-10.0336
拨	-10.0337
提气	-10.034
一拉	-10.0348
恐	-10.0351
娘	-10.0357
帮众	-10.0359
大船	-10.0362
外面	-10.0364
胜了	-10.0365
鲨鱼	-10.0367
吃饭	-10.0369
▁瑛姑	-10.0371
山后	-10.0374
不弱	-10.0379
这少年	-10.038
坟	-10.0389
魔	-10.039
李	-10.0397
横扫	-10.0398
襄阳城	-10.0399
痒	-10.0401
商	-10.0401
岂	-10.0401
林朝英	-10.0401
笑嘻嘻的	-10.0402
泼	-10.0402
声中	-10.0402
丹药	-10.0404
石子	-10.0406
毒性	-10.0406
药兄	-10.0407
路上	-10.0411
抚摸	-10.0411
向黄蓉	-10.0413
轮子	-10.0416
站定	-10.0421
杵	-10.0426
之辈	-10.0427
黑剑	-10.043
不上	-10.0435
汉人	-10.044
只可惜	-10.0453
当下将	-10.0457
退后	-10.0459
山上	-10.0466
泪水	-10.0473
好看	-10.0476
洞口	-10.048
洪七公笑	-10.0482
飞起	-10.0483
落入	-10.0486
天地	-10.0487
难得	-10.049
拳脚	-10.0491
打开	-10.0492
走开	-10.0495
说要	-10.0496
台下	-10.05
多了	-10.0509
我没	-10.0509
毒手	-10.0514
跟她	-10.0519
疯	-10.0524
就如	-10.0527
见面	-10.0535
算是	-10.0541
送了	-10.0543
感到	-10.0554
镇	-10.0558
跪	-10.0564
将出来	-10.0565
连声	-10.0566
无异	-10.0569
少了	-10.0569
张君宝	-10.0572
问起	-10.0578
危	-10.0583
向小龙女	-10.0588
道理	-10.0589
绝无	-10.059
那书生	-10.0592
小孩	-10.0594
着地	-10.0594
卫	-10.0596
建	-10.0598
秘	-10.0598
废	-10.06
酸麻	-10.06
侵	-10.0601
演	-10.0601
归云庄	-10.0601
米	-10.0601
饱	-10.0601
寺	-10.0602
叔父	-10.0602
笑吟吟的	-10.0602
圣	-10.0602
危险	-10.0603
便可	-10.0605
啸声	-10.0605
约莫	-10.0606
耳边	-10.0608
娘子	-10.0608
桃花岛主	-10.0614
轻易	-10.0614
大奇	-10.0616
危急中	-10.062
扶着	-10.0625
喷	-10.063
要杀	-10.065
表	-10.065
高声叫	-10.0662
只道他	-10.0671
叫她	-10.0673
心思	-10.0673
树林	-10.0674
对自己	-10.068
那老者	-10.0685
十二	-10.0694
着实	-10.0694
披	-10.0705
以来	-10.0708
心中却	-10.0714
被她	-10.0717
说的	-10.0719
▁绿萼	-10.0726
中有	-10.0731
抬头	-10.0736
张开	-10.074
你自己	-10.0747
责	-10.0747
军士	-10.0749
已极	-10.0754
皇	-10.0761
营	-10.0765
晕	-10.0769
顶上	-10.0777
不想	-10.0777
山石	-10.0778
三下	-10.0784
要你	-10.0785
开了	-10.0786
义兄	-10.0788
乡	-10.0791
扰	-10.0791
赖	-10.0796
孤	-10.0797
一交	-10.0798
几声	-10.0801
叶	-10.0803
遣	-10.0804
罗	-10.0805
陈	-10.0805
亭	-10.0805
逞	-10.0805
赤	-10.0805
坑	-10.0806
冯默风	-10.0806
诡计	-10.0806
灵狐	-10.0806
上马	-10.0807
叔叔	-10.0808
皱眉	-10.0813
一大	-10.0815
张望	-10.0815
耳听得	-10.0816
而下	-10.0818
不能再	-10.0818
侧身	-10.082
独自	-10.0838
苦练	-10.084
右腿	-10.084
和她	-10.0844
殊	-10.0845
明儿	-10.0855
双脚	-10.0855
所学	-10.0858
素知	-10.0871
火光	-10.088
毁	-10.088
成为	-10.0884
大漠	-10.0884
掷去	-10.0895
在半空	-10.0896
可就	-10.0901
岂不是	-10.0902
常人	-10.0906
排	-10.0916
也不用	-10.0919
究	-10.093
竟也	-10.0931
▁王处一	-10.0932
一枝	-10.0943
之命	-10.0946
▁霍都	-10.0952
忽觉	-10.0959
便道	-10.096
仰天	-10.0963
无已	-10.0964
永	-10.0964
遮	-10.0965
既是	-10.0965
天色	-10.097
睁开眼	-10.0972
既已	-10.0976
这一来	-10.0977
是了	-10.0983
陆乘风	-10.0984
专	-10.1001
也不敢	-10.1003
秀	-10.1005
盒	-10.101
设	-10.101
膝	-10.1011
尿	-10.1013
选	-10.1014
从怀中取出	-10.1014
耶律燕	-10.1014
茫然	-10.1015
语音	-10.1017
便了	-10.1018
一辈子	-10.1018
机关	-10.1019
长袍	-10.1021
乘势	-10.1021
相抗	-10.1022
阁下	-10.1027
这番话	-10.103
语气	-10.1033
救你	-10.1035
大声叫	-10.1035
之余	-10.1039
猛力	-10.104
和你	-10.1049
在后	-10.1055
抢着	-10.1058
诸将	-10.1058
正待	-10.1063
护住	-10.1063
大和尚	-10.1068
犹	-10.107
酒杯	-10.107
闻到	-10.1071
出门	-10.1075
左腿	-10.1075
插入	-10.1083
已久	-10.1085
觉远	-10.1088
击在	-10.1089
声息	-10.109
酒楼	-10.1096
说完	-10.1101
▁包惜弱	-10.1104
向西	-10.1115
小道士	-10.1119
发掌	-10.1122
拦在	-10.1124
中国	-10.1127
在郭靖	-10.1138
墓中	-10.1141
出来的	-10.1146
量	-10.1149
出力	-10.1164
他身上	-10.1164
腕	-10.1169
岛	-10.1174
还在	-10.1178
袋	-10.1184
妇	-10.1196
大胆	-10.1199
水中	-10.121
咱	-10.121
时候	-10.1211
伴	-10.1211
哪里还	-10.1214
慰	-10.122
裘	-10.1223
牙	-10.1224
考	-10.1225
效	-10.1225
粘	-10.1226
凛然	-10.1227
愈来愈	-10.1227
层	-10.1227
勉强	-10.1228
绸带	-10.1228
满腔	-10.1228
南帝	-10.1228
入内	-10.1228
宛似	-10.1229
有点	-10.1229
跟你说	-10.123
铁轮	-10.123
父王	-10.123
肚子	-10.1231
站立	-10.1233
抵挡不住	-10.1235
郭姑娘	-10.1235
连叫	-10.1241
拔都	-10.1241
骑马	-10.1245
扶起	-10.1248
夹着	-10.1249
一年	-10.1249
自负	-10.1249
短剑	-10.125
品	-10.1251
规矩	-10.1252
绕着	-10.1252
欺侮	-10.1256
救命	-10.1257
心情	-10.1257
只是他	-10.1258
均已	-10.126
挂	-10.1265
再过	-10.1267
也得	-10.1274
碰到	-10.128
起身	-10.1282
心中大喜	-10.1283
!’	-10.1283
腾	-10.1284
真正	-10.1289
料知	-10.1293
也无	-10.1296
处处	-10.1296
竟能	-10.1298
大人	-10.1304
不安	-10.1312
听见	-10.1313
懂	-10.1316
无可	-10.1333
倒退	-10.1335
树枝	-10.1342
那是甚么	-10.1344
可没	-10.1352
王子	-10.1354
将过来	-10.1355
七兄	-10.1368
大大的	-10.137
不出来	-10.1375
飞身	-10.1385
扣	-10.1387
又将	-10.1389
又说	-10.1391
热闹	-10.1391
▁黄蓉见	-10.1395
哪有	-10.1401
小王	-10.1402
可不能	-10.1403
状	-10.1404
舟	-10.1405
十多年	-10.1408
又在	-10.1413
题	-10.1418
了上来	-10.1419
我若	-10.142
的人物	-10.1422
仆	-10.1423
期	-10.1425
有甚	-10.143
束	-10.1432
式	-10.1433
映	-10.1435
若无	-10.1436
娇	-10.144
违	-10.1441
呀	-10.1442
扎	-10.1442
篇	-10.1443
轻身功夫	-10.1443
劫	-10.1444
粒	-10.1444
召	-10.1444
媳妇儿	-10.1444
疗伤	-10.1444
丢	-10.1445
袍袖	-10.1445
蒙哥	-10.1445
安慰	-10.1446
奔驰	-10.1446
十招	-10.1448
被人	-10.1453
移动	-10.1453
君子	-10.1453
丈余	-10.1455
周身	-10.1456
客气	-10.1467
一时之间	-10.1469
骂我	-10.1471
郭靖夫妇	-10.1473
修为	-10.1476
我先	-10.1485
跟我说	-10.1487
山谷	-10.1492
也真	-10.1492
空手	-10.1496
向着	-10.15
累得	-10.1505
为他	-10.1515
不下	-10.1517
我妈	-10.1524
火把	-10.1536
那道姑	-10.1545
倚	-10.1554
出掌	-10.1556
方向	-10.1561
的兵刃	-10.1568
惊人	-10.1578
我瞧	-10.1591
再去	-10.1596
藏在	-10.1598
一击	-10.16
▁公孙止	-10.1602
追来	-10.1603
只能	-10.1607
军中	-10.1611
说出	-10.1613
千万	-10.1614
飞去	-10.1618
使劲	-10.1619
勾	-10.1624
还手	-10.163
唯	-10.1633
要将	-10.1634
十多	-10.1636
绳	-10.1638
渔	-10.164
好笑	-10.1643
的穴道	-10.1643
泪	-10.1653
逢	-10.1655
雾	-10.1659
俗	-10.166
赵	-10.1661
彩	-10.1662
陡	-10.1663
尝	-10.1665
笨	-10.1665
紫	-10.1666
瓦	-10.1666
嘱	-10.1667
延	-10.1667
赠	-10.1667
暗暗心惊	-10.1667
北丐	-10.1667
山下	-10.1668
谈论	-10.1668
二丐	-10.1669
闭目	-10.1669
弯腰	-10.167
门户	-10.167
或许	-10.1671
南下	-10.1671
郭靖心想	-10.1672
他胸口	-10.1672
饮酒	-10.1673
呼的一声	-10.1673
暗算	-10.1675
无穷	-10.1677
长索	-10.1678
胸中	-10.1678
心肠	-10.168
牵着	-10.1685
决不会	-10.1687
一件事	-10.1693
大叫一声	-10.1694
抓住了	-10.1699
师门	-10.1699
隐居	-10.1699
毒针	-10.1703
天罡北斗阵	-10.1704
显然	-10.1709
一副	-10.171
剑刃	-10.1714
牛肉	-10.1718
对杨过	-10.172
写的	-10.172
答话	-10.1727
一颗	-10.1728
父女	-10.1729
三字	-10.1733
六七	-10.1735
大师兄	-10.1735
妹妹	-10.1737
自己也	-10.1738
递给	-10.1744
所说	-10.1746
有意	-10.1749
方位	-10.1751
珠	-10.1751
这种	-10.1758
每人	-10.1768
饶是	-10.1769
盼望	-10.1769
瞒	-10.1772
同去	-10.1774
金人	-10.178
畔	-10.1782
但见她	-10.1788
遇上了	-10.1799
去啦	-10.1807
颗	-10.1815
气息	-10.1816
了不少	-10.1816
得他	-10.1817
▁陆冠英	-10.1818
半分	-10.1822
不解	-10.1825
震得	-10.1834
的招数	-10.1834
向下	-10.1837
学得	-10.1837
便有	-10.1846
特	-10.185
知道了	-10.1851
他知	-10.1852
便似	-10.1854
在此处	-10.1855
轻声	-10.1857
使得	-10.1861
老头儿	-10.1861
尸	-10.1867
钢	-10.1868
不迟	-10.1874
法子	-10.1881
景	-10.1882
不开	-10.1883
砖	-10.1884
杀我	-10.1885
我师	-10.1886
糟	-10.1886
烦	-10.1887
不放	-10.1888
溅	-10.1888
辩	-10.1889
兽	-10.1889
铜	-10.189
魂	-10.1891
吵	-10.1891
仁	-10.1892
握着	-10.1892
赔	-10.1893
彭	-10.1893
桥	-10.1893
畅	-10.1893
谦	-10.1893
工	-10.1893
逾	-10.1894
呛啷	-10.1894
琢磨	-10.1894
北斗阵	-10.1894
末	-10.1894
呆呆出神	-10.1894
克制	-10.1895
现今	-10.1895
顷刻间	-10.1895
侠义	-10.1895
一拂	-10.1895
玉蜂针	-10.1895
方始	-10.1896
不多时	-10.1897
蒙古大军	-10.1897
口诀	-10.1898
温柔	-10.1903
腰带	-10.1905
极大	-10.1906
荒山	-10.191
领会	-10.1911
打扮	-10.1912
好在	-10.1913
内劲	-10.1913
了罢	-10.1914
出洞	-10.1916
物事	-10.192
侧头	-10.1922
哪能	-10.1923
挺剑	-10.1925
放开	-10.1927
向右	-10.1929
走上	-10.193
情意	-10.1934
变招	-10.1934
语声	-10.1939
便将	-10.194
依着	-10.1941
挡开	-10.1942
洞中	-10.1945
重大	-10.1947
哪知他	-10.1948
就会	-10.1949
金针	-10.1958
你想	-10.1964
喊	-10.1964
万万	-10.1969
不顾	-10.1973
决无	-10.1978
竟似	-10.1979
太湖	-10.1982
武功了得	-10.1984
不等	-10.199
传了	-10.2004
大将	-10.2016
十倍	-10.2026
避过	-10.2028
让你	-10.2031
守在	-10.2035
大大	-10.2035
也不是	-10.2036
只想	-10.2047
刃	-10.2054
免	-10.206
多年	-10.2068
定会	-10.2083
抢过	-10.2086
温	-10.2088
▁杨过见	-10.209
爷	-10.2094
柴	-10.2101
埋	-10.2102
秋	-10.2103
权	-10.2106
扮	-10.2107
宁	-10.2108
不定	-10.211
驴	-10.2111
绣	-10.2114
遵	-10.2114
挥手	-10.2115
颜	-10.2118
让她	-10.2119
烈	-10.2119
伯伯	-10.2119
这样的	-10.212
筋	-10.212
痴	-10.2121
冤	-10.2122
是我的	-10.2123
哀	-10.2123
肿	-10.2124
苍	-10.2125
某	-10.2126
污	-10.2126
猪	-10.2126
秦	-10.2126
拦阻	-10.2127
干净	-10.2129
教训	-10.213
呆	-10.2132
二十年	-10.2133
巨响	-10.2136
除非	-10.2138
就只	-10.2138
东边	-10.214
我也不	-10.214
仗着	-10.2141
杨二人	-10.2141
父子	-10.2144
金刀	-10.2144
使者	-10.2158
只消	-10.2159
正面	-10.2164
我可	-10.217
我只	-10.2173
笑容	-10.2174
不大	-10.2174
相信	-10.2176
诸人	-10.2178
甚多	-10.2182
死后	-10.2189
之一	-10.219
点穴	-10.2193
往往	-10.2195
将这	-10.2199
又怎	-10.2216
送给	-10.2233
拱手	-10.2237
老子	-10.2238
几日	-10.2242
再打	-10.2253
撑	-10.2256
作为	-10.2264
纵横	-10.2264
不让	-10.227
了一顿	-10.2278
换了	-10.2278
要去	-10.2278
果然是	-10.2281
▁武三通	-10.2291
让开	-10.2292
化解	-10.2293
便能	-10.2293
休	-10.2295
智	-10.2297
高声	-10.2298
田	-10.2314
就不	-10.2314
安排	-10.2316
郭靖见	-10.2322
雷	-10.2327
一处	-10.2328
技	-10.2337
怜	-10.2337
统	-10.2338
访	-10.2349
定神	-10.2355
料得	-10.2356
可别	-10.2356
翅	-10.2359
鲜	-10.2359
诱	-10.2361
丽	-10.2361
忠	-10.2361
贪	-10.2363
驼	-10.2364
咳	-10.2364
不动声色	-10.2364
烤	-10.2364
继续	-10.2365
刘	-10.2365
了半天	-10.2365
折磨	-10.2365
偷袭	-10.2365
矣	-10.2365
摇了摇头	-10.2366
格格	-10.2366
凝目	-10.2367
从未见过	-10.2367
又惊又怒	-10.2367
经历	-10.2368
你老人家	-10.2368
最是	-10.2368
说罢	-10.2369
狂奔	-10.2369
便宜	-10.237
手帕	-10.2371
体内	-10.2373
师母	-10.2375
二武	-10.2376
阵势	-10.2378
观看	-10.2379
灵动	-10.238
与自己	-10.2383
一株	-10.2385
六个	-10.2388
丐	-10.2392
▁黄蓉笑	-10.2393
茅屋	-10.2395
一震	-10.2396
本门	-10.2396
此言	-10.2402
时时	-10.2406
两下	-10.2407
称为	-10.2415
拍出	-10.2415
好人	-10.2418
走得	-10.2419
可说	-10.2423
眼见他	-10.2432
他身子	-10.2435
左脚	-10.2436
晓	-10.2438
一跃	-10.2442
得出	-10.2449
的法门	-10.2453
了吗	-10.2456
了上去	-10.246
长老	-10.2462
快说	-10.2465
这女子	-10.2477
俩	-10.2487
的东西	-10.2487
结成	-10.2489
共有	-10.2493
触	-10.2495
的儿子	-10.2498
跨	-10.25
本是	-10.2514
的言语	-10.2519
如飞	-10.2525
坏了	-10.2527
招招	-10.2529
升	-10.2532
据	-10.2535
平平	-10.254
撞在	-10.2543
椅	-10.2545
忌	-10.2546
途	-10.2555
出神	-10.2558
到此处	-10.2559
相隔	-10.2561
矛	-10.2561
午	-10.2567
拆了	-10.2576
使力	-10.2578
妹	-10.2582
氏	-10.2585
猎	-10.2586
在地	-10.2586
不算	-10.2587
可是他	-10.2589
挟	-10.2592
恭	-10.2602
族	-10.2603
鞑子	-10.2604
俊	-10.2607
攀	-10.2607
敲	-10.2608
琴	-10.2608
顽皮	-10.2608
撤	-10.2608
焦木	-10.2608
烟雨楼	-10.2608
衰	-10.2609
九指神丐	-10.2609
依稀	-10.2609
空隙	-10.2609
的名头	-10.2612
蒙古武士	-10.2612
筷子	-10.2614
内息	-10.2615
气恼	-10.2619
治伤	-10.2622
老和尚	-10.2622
时日	-10.2626
袖子	-10.2628
和小龙女	-10.263
电	-10.2633
陪着	-10.2635
径自	-10.2636
便算	-10.2638
骗人	-10.2646
皇宫	-10.2648
相同	-10.265
三十	-10.2652
只剩下	-10.2657
左肩	-10.2657
相似	-10.2658
五六	-10.266
可不	-10.266
一套	-10.2665
▁郭靖见	-10.2667
大海	-10.2669
▁彭连虎	-10.267
回家	-10.2673
活着	-10.2675
真人	-10.2676
难道你	-10.2677
那边	-10.268
又不	-10.2691
数声	-10.2694
打到	-10.2702
字诀	-10.2708
▁这一	-10.272
细看	-10.2725
脚步声响	-10.273
心事	-10.2733
不意	-10.2735
看到	-10.2738
一路上	-10.2738
▁那少女	-10.2748
缚在	-10.2751
怎知	-10.2753
一脚	-10.2753
院	-10.2754
深厚	-10.2766
我再	-10.2777
转眼	-10.278
却哪里	-10.2782
脑	-10.2782
剧	-10.2783
丐帮中	-10.2787
他虽	-10.2789
飞步	-10.2792
才好	-10.2795
捧	-10.2799
扑上	-10.2802
是为了	-10.2809
见那	-10.281
裹	-10.2824
你既	-10.2827
舱	-10.2828
见到了	-10.283
几天	-10.2835
老僧	-10.2843
自小	-10.2844
说些甚么	-10.2844
净	-10.2845
放手	-10.2846
置	-10.285
焦	-10.2851
讯	-10.2853
获	-10.2856
兜	-10.2857
规	-10.2857
耕	-10.2857
嘿	-10.2857
盆	-10.2858
献	-10.2858
完颜洪熙	-10.2858
懒	-10.2858
小丫头	-10.2859
女婿	-10.2859
枕	-10.2859
姊妹	-10.2859
昔日	-10.286
良机	-10.2861
神智	-10.2861
经脉	-10.2862
二来	-10.2864
神功	-10.2869
这位姑娘	-10.2873
宁可	-10.2873
揭开	-10.2873
舞动	-10.2874
怪人	-10.2879
到得	-10.2886
将士	-10.2887
▁二人	-10.2897
乘着	-10.2898
帮手	-10.2899
肘	-10.2905
任何	-10.2905
一匹	-10.2918
这两人	-10.2921
好心	-10.2922
有一个	-10.2926
去瞧瞧	-10.2934
彭连虎等	-10.2945
两年	-10.2958
▁三人	-10.2958
援	-10.2959
用功	-10.2962
事情	-10.2965
时刻	-10.2969
无所	-10.2971
一带	-10.2974
分手	-10.2978
赶去	-10.2989
坐在地下	-10.2991
危急	-10.3
送到	-10.3
追去	-10.3006
抓去	-10.3007
不听	-10.3008
再不	-10.3017
嗤的一声	-10.3018
出声	-10.3022
你把	-10.3024
十六年	-10.303
▁程英	-10.304
得手	-10.3048
黄金	-10.3048
念着	-10.3056
八个	-10.3074
也不过	-10.3076
驾	-10.308
梁长老	-10.3084
抱了	-10.3086
项	-10.3088
好事	-10.3088
杀得	-10.3089
再问	-10.3093
或是	-10.3093
阁	-10.3099
貌	-10.3103
当晚	-10.3103
催	-10.3104
擅	-10.3104
患	-10.3106
唇	-10.3106
户	-10.3106
可要	-10.311
月光	-10.3113
疏	-10.3113
花剌子模	-10.3114
惊喜交集	-10.3115
亢龙有悔	-10.3115
翠	-10.3115
戟	-10.3115
怜惜	-10.3115
桅杆	-10.3115
阻拦	-10.3115
商量	-10.3115
投降	-10.3117
突然之间	-10.3117
狠狠	-10.3117
的对手	-10.3119
老弟	-10.3121
醒转	-10.3123
大骇	-10.3124
激斗	-10.3125
胜败	-10.3126
一派	-10.3128
剑术	-10.3131
指挥	-10.3134
怔怔的	-10.3135
桃花岛上	-10.3142
下杀手	-10.3151
攻击	-10.3152
海中	-10.3157
一字	-10.3164
众弟子	-10.3168
两兄弟	-10.3172
弟弟	-10.318
打去	-10.3187
二师父	-10.319
的伤势	-10.3198
微一	-10.32
当胸	-10.3202
传给	-10.3204
拿去	-10.3204
绕过	-10.3211
只见那	-10.3212
坐骑	-10.3217
重剑	-10.322
荒	-10.3223
果真	-10.3227
当先	-10.324
大雪	-10.3241
华山论剑	-10.325
开口	-10.3251
小畜生	-10.3258
这条	-10.3258
到底是	-10.326
痛得	-10.3267
两头	-10.3274
逃命	-10.3279
军马	-10.3284
未免	-10.3295
对准	-10.3297
若有	-10.3305
好意	-10.3306
左首	-10.3306
你说甚么	-10.3306
这么说	-10.3309
逐	-10.3312
抢了	-10.3314
丘处机等	-10.3324
嘶	-10.3324
这招	-10.3329
吃过	-10.333
伤害	-10.3335
奔向	-10.3342
失手	-10.3349
面上	-10.335
剪刀	-10.335
半个时辰	-10.3354
瞧你	-10.3355
豹	-10.3362
怪不得	-10.3363
啸	-10.3364
留在	-10.337
拒	-10.337
尹	-10.3374
一望	-10.3375
冠	-10.3375
彼	-10.3376
蟀	-10.3376
涉	-10.3376
谨	-10.3376
纳	-10.3377
挖	-10.3377
大不相同	-10.3377
歪	-10.3377
嗔	-10.3377
史氏兄弟	-10.3377
泉	-10.3377
蠢	-10.3377
倦	-10.3378
吊	-10.3378
弦	-10.3378
叫了声	-10.3378
王志坦	-10.3378
绞	-10.3378
僵尸	-10.3378
驶	-10.3378
鳄鱼	-10.3378
咽喉	-10.3378
说不出的	-10.3379
偏偏	-10.338
牵了	-10.3381
西征	-10.3382
学艺	-10.3383
招术	-10.3383
树皮	-10.3383
黑影	-10.3383
曰	-10.3384
恰好	-10.3385
了开去	-10.3386
反复	-10.3388
向旁	-10.3389
那马	-10.3389
数月	-10.3392
顺势	-10.3395
已把	-10.3395
大敌	-10.3397
哪里还有	-10.34
之仇	-10.3403
虫	-10.3404
老大	-10.3404
不休	-10.3406
心中一动	-10.3407
之计	-10.3418
歌声	-10.342
擒住	-10.3421
将那	-10.3422
不知如何是好	-10.3422
杖头	-10.343
钻出	-10.3431
事先	-10.3433
转动	-10.3438
未能	-10.344
厅上	-10.3441
从小	-10.3448
跃入	-10.3455
一箭	-10.3455
救我	-10.3455
也不怕	-10.3456
听来	-10.3463
够	-10.3463
越来越是	-10.3465
拦	-10.3473
的情景	-10.3482
取过	-10.3486
没甚么	-10.3486
终是	-10.3488
辛苦	-10.3491
你可	-10.3495
数里	-10.3498
稳稳	-10.3503
丐帮帮主	-10.3504
罩	-10.3504
稍有	-10.3505
十余丈	-10.351
不远	-10.3512
诀	-10.3513
剑上	-10.3513
那大汉	-10.3519
枉	-10.3523
打听	-10.3524
眼珠	-10.3527
道姑	-10.3535
▁正	-10.3537
得快	-10.3543
怕他	-10.3552
在江湖上	-10.3553
不胜	-10.3554
麻	-10.356
缺	-10.3569
晚上	-10.3571
今天	-10.3573
上台	-10.358
惊惶	-10.3583
与人	-10.3583
城下	-10.3584
磕	-10.3587
平安	-10.3592
追上	-10.3599
她身子	-10.36
这可	-10.3603
半句	-10.3604
童	-10.3619
一推	-10.3622
七个	-10.3626
周伯通笑	-10.3627
他既	-10.3628
颤	-10.3629
杨过和小龙女	-10.363
水面	-10.3631
绊	-10.3635
以此	-10.3636
猛听得	-10.3639
打死了	-10.364
尔	-10.3641
叫嚷	-10.3642
郎	-10.3643
人马	-10.3643
傲	-10.3643
欧阳	-10.3646
佩	-10.3646
价	-10.3646
医	-10.3646
我跟	-10.3646
汗血宝马	-10.3647
比武招亲	-10.3647
吕文德	-10.3648
暖	-10.3648
胎	-10.3648
出其不意	-10.3648
程大小姐	-10.3648
卸	-10.3648
耶律晋	-10.3648
芙妹	-10.3648
谭处端	-10.3648
淋	-10.3648
炉	-10.3648
讯息	-10.3649
惭愧	-10.3649
禀报	-10.3649
收拾	-10.365
宋朝	-10.365
竹杖	-10.3651
挡架	-10.3651
蓦地	-10.3652
臭道士	-10.3653
虽在	-10.3654
每次	-10.3655
欧阳克笑	-10.3655
拚斗	-10.3656
这两句话	-10.3657
伸臂	-10.3657
留神	-10.366
大喝一声	-10.3661
追兵	-10.3664
攻城	-10.3669
再加上	-10.3673
两枚	-10.3682
的女子	-10.3683
故事	-10.3683
武功高强	-10.3683
用以	-10.3683
反击	-10.3685
在古墓中	-10.3686
不像	-10.3687
家传	-10.3687
在蒙古	-10.3695
攻打	-10.3699
领教	-10.3704
搂住	-10.3705
蜜	-10.3707
这一剑	-10.3707
热气	-10.3709
又怎能	-10.3713
不已	-10.3715
太阳	-10.3716
不待	-10.3717
问他	-10.3718
插在	-10.3731
围攻	-10.3732
身手	-10.374
数人	-10.3743
不敌	-10.3744
所有	-10.3746
多少	-10.375
创口	-10.375
▁樊一翁	-10.3751
男	-10.3751
挥掌	-10.3763
放着	-10.3763
在意	-10.3771
大丈夫	-10.3776
身披	-10.3784
家里	-10.3784
畜生	-10.3784
和杨过	-10.3787
对面	-10.3788
真有	-10.3793
命他	-10.3797
是你的	-10.3798
的妻子	-10.3799
见二人	-10.3801
十四	-10.3806
用意	-10.3812
从中	-10.3822
一举	-10.3826
心中一	-10.3826
了一层	-10.3833
心想这	-10.3838
也能	-10.3843
过的	-10.3843
去势	-10.3844
好兄弟	-10.3845
的神色	-10.3851
十三	-10.3852
师兄弟	-10.3866
大树	-10.3867
劲风	-10.3868
允	-10.3883
还未	-10.3883
箫	-10.3883
拿住	-10.3883
小妹	-10.3885
幽	-10.3893
也会	-10.3893
纵声	-10.3894
但这	-10.3896
公子	-10.3898
我给你	-10.3899
果见	-10.39
惜	-10.3901
书房	-10.3902
和郭靖	-10.3903
月光下	-10.3906
这小	-10.3906
过了良久	-10.3909
能够	-10.3913
筷	-10.3916
旋	-10.3919
之气	-10.392
一分	-10.392
掀	-10.3922
捕	-10.3922
摇晃	-10.3922
乌	-10.3923
抄	-10.3924
姿	-10.3925
咕	-10.3925
犬	-10.3925
染	-10.3925
荣	-10.3925
虑	-10.3925
掘	-10.3925
裘千丈	-10.3926
叫甚么名字	-10.3926
摘	-10.3926
阔	-10.3926
九阴白骨爪	-10.3926
钦佩	-10.3926
玄铁剑	-10.3926
万人队	-10.3926
面面相觑	-10.3926
老天爷	-10.3926
锦帕	-10.3927
洪老帮主	-10.3927
盘旋	-10.3927
背脊	-10.3927
微一沉吟	-10.3927
悄声	-10.3927
胆敢	-10.3927
索性	-10.3928
门人	-10.3928
他背心	-10.3929
雕兄	-10.393
叹息	-10.3931
老爷	-10.3931
兼之	-10.3937
虽有	-10.3941
练武	-10.3942
羽箭	-10.3945
腰里	-10.3946
西边	-10.3946
胆子	-10.395
丐帮弟子	-10.3951
花树	-10.3951
打伤	-10.3952
我姑姑	-10.3958
在手	-10.3959
住手	-10.3962
这副	-10.3962
挥剑	-10.3966
脑中	-10.3971
给他们	-10.3972
猜到	-10.3973
下盘	-10.3977
咬住	-10.398
毫无	-10.398
不妨	-10.3985
亲手	-10.3987
胁下	-10.3988
你知道	-10.3989
本帮	-10.399
饭菜	-10.3993
派人	-10.4
面子	-10.4001
便走	-10.4007
郭靖大喜	-10.401
官人	-10.4012
屋中	-10.4018
见黄蓉	-10.4018
一层	-10.4019
日间	-10.4021
一转	-10.4032
雪地	-10.4035
一群	-10.4036
将下去	-10.4038
茫茫	-10.4044
这日	-10.4048
闯进	-10.4051
大呼	-10.4057
一队	-10.4057
分开	-10.4061
兄弟俩	-10.4062
一抖	-10.4063
搂	-10.4068
太过	-10.4072
凡	-10.4074
余人	-10.4079
先后	-10.4088
从来不	-10.4089
辛	-10.409
▁梁子翁	-10.4092
进攻	-10.4094
这时见	-10.4096
早有	-10.4096
的心意	-10.4103
答应了	-10.4104
柳	-10.4116
可真	-10.4118
各有	-10.4119
愈是	-10.4122
又是一	-10.4127
抱住了	-10.4132
又怕	-10.4137
表姊	-10.4141
自当	-10.4143
就可	-10.4144
谁也	-10.4146
只听他	-10.4146
片刻间	-10.4147
大会	-10.4149
傻小子	-10.4158
潭	-10.4163
囊	-10.4167
传出	-10.4175
作甚	-10.4181
有事	-10.4183
也不必	-10.4186
▁当下	-10.4187
我教	-10.4188
擒拿	-10.4188
没半点	-10.419
逃出	-10.4193
把这	-10.4194
愤	-10.4195
几乎	-10.4196
去路	-10.4197
默	-10.4199
玄	-10.4203
怎么办	-10.4204
僵	-10.4205
谋	-10.4208
后跃	-10.4209
贤	-10.421
妄	-10.421
支持	-10.421
情花之毒	-10.4211
史叔刚	-10.4211
拢	-10.4211
长叹一声	-10.4211
狼	-10.4211
业	-10.4211
啄	-10.4211
耽	-10.4211
跃起身来	-10.4212
芦	-10.4212
无论如何	-10.4212
迅速	-10.4212
残废	-10.4213
霎时之间	-10.4213
脸上一红	-10.4215
毙命	-10.4215
平素	-10.4215
偷偷	-10.4216
小侄	-10.4216
奇特	-10.4216
号称	-10.4217
算帐	-10.4217
不中	-10.4218
嚷	-10.4218
危难	-10.422
礼物	-10.4223
母子	-10.4224
种种	-10.4224
借力	-10.4227
插口	-10.4228
停留	-10.4228
黄姑娘	-10.4229
鼻子	-10.423
蛇杖	-10.423
三尺	-10.423
应声	-10.4232
爱女	-10.4233
白雪	-10.4235
甚是得意	-10.4237
使的是	-10.424
两句	-10.4241
之手	-10.4242
百倍	-10.4242
寻找	-10.4244
明白了	-10.4244
害人	-10.4247
斗得	-10.4248
见是	-10.4252
欢呼	-10.4253
烛火	-10.4254
相接	-10.4254
在桃花岛	-10.4255
怒火	-10.4255
右肩	-10.426
死活	-10.426
宫中	-10.4264
写着	-10.4265
抛下	-10.4266
那少妇	-10.4267
跟前	-10.4269
杀手	-10.4271
了一遍	-10.4278
爬上	-10.4279
损伤	-10.4282
淡淡的	-10.4282
甘	-10.4284
听他说	-10.4287
轰	-10.4289
不得不	-10.4292
潇湘子等	-10.4293
大仇	-10.4294
免得	-10.4295
变成了	-10.4298
白发	-10.4298
身份	-10.4306
人多	-10.4309
两次	-10.4309
之理	-10.431
撕下	-10.4316
再看	-10.432
好不	-10.4328
为之	-10.4329
俏	-10.4329
难当	-10.4335
着了	-10.4337
足下	-10.4347
瞧不出	-10.435
瞧她	-10.4351
练了	-10.4352
三天	-10.4354
一臂	-10.4356
于此	-10.436
放眼	-10.4365
真心	-10.4366
的手掌	-10.4369
口气	-10.4382
惊呼	-10.4384
尹志平道	-10.4386
他心中	-10.4388
都说	-10.4389
在此时	-10.4393
个筋斗	-10.4396
瞧在	-10.4396
是非	-10.4401
▁这一下	-10.4404
一味	-10.4406
紧急	-10.4409
帮中	-10.4411
加害	-10.4411
的少年	-10.4412
起初	-10.4421
始	-10.4424
竟无	-10.4434
将过去	-10.4442
凑	-10.4442
害死了	-10.4444
兄妹	-10.4445
丐帮的	-10.4445
的地方	-10.4452
这和尚	-10.4453
烛	-10.4456
练得	-10.4456
三步	-10.4456
你这般	-10.4457
伸手在	-10.4462
秃	-10.447
竟被	-10.447
不闻	-10.4476
以及	-10.4478
▁杨过心想	-10.4483
渔人	-10.4483
这二人	-10.4487
肠	-10.4488
那女郎	-10.4488
天下英雄	-10.4494
斧	-10.4494
蛋	-10.4495
本想	-10.4497
慌	-10.4499
几招	-10.4499
梅	-10.4501
京	-10.4501
帝	-10.4501
所授的	-10.4503
一段	-10.4504
碧	-10.4504
深湛	-10.4505
政	-10.4505
韩	-10.4505
枣核钉	-10.4505
唐	-10.4505
放声大哭	-10.4506
恭恭敬敬的	-10.4506
占上风	-10.4506
意料之外	-10.4506
怯	-10.4506
肌肉	-10.4506
较量	-10.4506
黑衣僧	-10.4507
享	-10.4507
冰魄银针	-10.4507
惶急	-10.4508
安答	-10.451
已到	-10.451
十余年来	-10.4511
尚且	-10.4511
第一次	-10.4512
楼梯	-10.4512
高明	-10.4512
不堪	-10.4512
马匹	-10.4514
更增	-10.4515
宋军	-10.4516
驴子	-10.4516
虎口	-10.4517
两件	-10.4518
吃亏	-10.4518
睡觉	-10.4518
精兵	-10.4519
猛地里	-10.4519
瞎子	-10.452
大侠	-10.4522
一颗心	-10.4523
七子	-10.4523
推举	-10.4525
蜜蜂	-10.4525
敌兵	-10.453
三次	-10.4531
一来	-10.4535
半边	-10.4535
十余招	-10.4536
一把抓住	-10.4537
却无	-10.4549
从来没	-10.455
瞧我	-10.4557
一部	-10.456
大感	-10.4574
没人	-10.4575
我自然	-10.4576
提着	-10.4578
蒙古兵将	-10.4583
眼望	-10.4585
不够	-10.4592
一撑	-10.4593
转了	-10.4595
教人	-10.4598
没事	-10.4603
船上	-10.4604
大功	-10.4604
其后	-10.4604
亲热	-10.4605
想着	-10.461
斜眼	-10.4614
如风	-10.4616
石棺	-10.4617
义弟	-10.4618
与黄药师	-10.4629
后院	-10.4629
我把	-10.4632
公公	-10.4632
那老妇	-10.464
只求	-10.4641
一杯	-10.4644
一酸	-10.4646
的掌力	-10.4646
▁韩小莹	-10.4646
说的是	-10.4657
已从	-10.4658
拆解	-10.4659
店伴	-10.466
手段	-10.4664
内伤	-10.4667
师祖	-10.4672
出城	-10.4673
来救	-10.4675
后颈	-10.4678
痛快	-10.4698
地步	-10.4706
毒药	-10.4712
一命	-10.4714
经中	-10.4719
了一下	-10.472
我不知道	-10.4722
劲急	-10.4725
▁耶律齐	-10.4725
抽出	-10.4725
话声	-10.4726
道家	-10.4727
击去	-10.4728
尤	-10.4736
他手	-10.4736
退出	-10.4737
际	-10.4738
滴	-10.4739
见这	-10.4747
好处	-10.4748
不行	-10.4752
过得	-10.4755
却仍是	-10.4756
一摆	-10.4759
房门	-10.476
认出	-10.4767
可是我	-10.477
三弟	-10.4773
围住	-10.4773
济	-10.478
下令	-10.4781
臣	-10.4784
四位	-10.4784
交手	-10.4785
两根	-10.4787
将郭靖	-10.4788
学武	-10.479
教了	-10.4793
蹄声	-10.4797
兄长	-10.4798
将自己	-10.4799
酣	-10.48
樵	-10.4801
昂	-10.4802
锤	-10.4805
枯	-10.4805
章	-10.4805
粉	-10.4806
的内功	-10.4806
继	-10.4806
附	-10.4806
狐	-10.4807
哨	-10.4807
著	-10.4808
芳	-10.4808
掳	-10.4808
不耐烦	-10.4808
好奇心起	-10.4808
简管家	-10.4808
贯	-10.4808
抑	-10.4808
寡	-10.4809
源	-10.4809
霜	-10.4809
冯铁匠	-10.4809
墨	-10.4809
岳父	-10.4809
钻研	-10.4809
对郭靖	-10.4809
木筏	-10.481
胜于	-10.481
手执	-10.481
忠义	-10.481
暂且	-10.481
察觉	-10.481
布置	-10.4811
金娃娃	-10.4811
神雕大侠	-10.4811
数十丈	-10.4811
隐约	-10.4812
双轮	-10.4813
王旗	-10.4813
软鞭	-10.4814
巧妙	-10.4814
尊师	-10.4814
焉能	-10.4814
千户	-10.4815
威猛	-10.4816
对头	-10.4816
不要脸	-10.4818
木棒	-10.4818
变色	-10.4822
聚会	-10.4823
猛恶	-10.4825
大叔	-10.4827
以防	-10.4828
走啦	-10.4829
扇子	-10.483
营帐	-10.483
远不及	-10.4831
马道长	-10.4832
份	-10.4835
跃到	-10.4837
扶住	-10.4839
正色	-10.484
随口	-10.484
尚在	-10.4841
猛击	-10.4841
活命	-10.4841
飘飘	-10.4842
呆了半晌	-10.4842
运功	-10.4842
途中	-10.4845
长须	-10.4845
寒玉床	-10.4848
袭击	-10.4853
马背	-10.4858
想不出	-10.486
了七八	-10.4861
▁公孙绿萼	-10.4864
▁郭靖心想	-10.4865
王府	-10.4865
嗤嗤	-10.4866
真相	-10.4873
半身	-10.4875
找不到	-10.4881
胡说	-10.4884
瞧来	-10.4885
来得	-10.4889
▁便在此	-10.4893
学了	-10.4894
竟将	-10.4909
疾冲	-10.4913
一提	-10.4914
一撞	-10.4917
剑锋	-10.493
自有	-10.4934
等到	-10.4941
过人	-10.4942
瞧不见	-10.4953
饿	-10.4956
身畔	-10.4957
松手	-10.4962
缓步	-10.4972
我跟你	-10.4982
提到	-10.5003
刚好	-10.5006
打中	-10.5007
大理	-10.5009
道袍	-10.501
写了	-10.5013
一紧	-10.5018
号角	-10.5018
难道我	-10.5025
小孩儿	-10.5026
所见	-10.5029
你不用	-10.5035
日子	-10.5043
闪身	-10.5044
辣	-10.5045
的脸	-10.5049
恶人	-10.5054
实非	-10.5058
猛向	-10.5065
回转	-10.5067
飞奔	-10.507
奸贼	-10.5076
喷出	-10.5076
留着	-10.5076
大小	-10.5076
自称	-10.5089
二道	-10.5096
转念一想	-10.5098
潮	-10.5107
掌上	-10.5109
都有	-10.5109
知是	-10.5112
伸指	-10.5113
左侧	-10.5114
怎么会	-10.5117
朗	-10.5117
池	-10.5119
棍	-10.512
宣	-10.512
宾	-10.512
磨	-10.512
夕	-10.512
绑	-10.512
丁	-10.512
逊	-10.512
拗	-10.5121
孝	-10.5121
盲	-10.5121
侯	-10.5121
屁股	-10.5121
仅	-10.5121
狮	-10.5121
雌雕	-10.5121
焦躁	-10.5121
窝	-10.5121
无可奈何	-10.5121
吉	-10.5121
喝彩	-10.5121
此言一出	-10.5121
双颊	-10.5122
恨恨的	-10.5122
全真五子	-10.5122
商议	-10.5122
万料不到	-10.5123
支持不住	-10.5123
牛鼻子	-10.5123
乞	-10.5123
向后跃开	-10.5124
常言道	-10.5124
竭力	-10.5125
小小年纪	-10.5125
不打紧	-10.5126
齿	-10.5131
此番	-10.5131
外公	-10.5132
三位	-10.5132
修练	-10.5133
应付	-10.5133
大门	-10.5134
点儿	-10.5134
布袋	-10.5134
威风	-10.5134
抱拳	-10.5135
误会	-10.5136
撒手	-10.5139
冲出	-10.5139
之所	-10.5141
未到	-10.5144
养伤	-10.5147
南方	-10.515
照料	-10.5151
拦住	-10.5153
难分	-10.5154
对敌	-10.5156
与李莫愁	-10.516
兵马	-10.5165
一千	-10.5166
快活	-10.5167
爹爹妈妈	-10.5168
加劲	-10.5171
脸现	-10.5174
坏人	-10.5174
竟没	-10.518
身分	-10.518
上岸	-10.5183
尽力	-10.5183
一记	-10.5191
▁郭靖与黄蓉	-10.5192
斩断	-10.5195
呆了	-10.521
出家	-10.5212
前去	-10.5214
哪一个	-10.5214
救他	-10.5216
之念	-10.5219
一个是	-10.5219
这门	-10.5223
灭了	-10.5227
快来	-10.5228
后退	-10.523
无用	-10.5238
要来	-10.5239
▁眼见	-10.5243
又没	-10.5246
石上	-10.5247
前胸	-10.5248
一个大	-10.5253
不见了	-10.5257
与欧阳锋	-10.5259
有甚么好	-10.5261
多半是	-10.5264
撞去	-10.5266
大汉	-10.5267
生得	-10.527
岂有	-10.5279
待你	-10.5279
道爷	-10.5283
决非	-10.5286
铁桨	-10.5288
日夜	-10.5291
小心了	-10.531
食指	-10.5315
抢出	-10.5319
在外	-10.5321
的么	-10.5321
非但	-10.5323
就能	-10.5337
来不及	-10.5337
近身	-10.534
了大半	-10.5342
实在太	-10.5347
却听得	-10.5349
的孩子	-10.5353
伐	-10.5359
一门	-10.5365
就这么	-10.5365
婆	-10.5376
十九	-10.539
吼	-10.5393
益	-10.5393
出了一	-10.5396
却有	-10.5396
虽只	-10.5404
轿	-10.5407
表妹	-10.5418
杀了他	-10.5422
谁都	-10.5423
蜂	-10.5426
起疑	-10.5427
兼	-10.543
拾	-10.5432
纷	-10.5434
挂念	-10.5435
距	-10.5438
态	-10.544
质	-10.5441
暂	-10.5442
敝	-10.5442
脚上	-10.5442
钓	-10.5442
谷底	-10.5443
疯疯癫癫	-10.5443
陆家庄	-10.5443
锁	-10.5443
诀窍	-10.5444
及得上	-10.5444
史孟捷	-10.5444
寿	-10.5444
锅	-10.5444
冻	-10.5444
渡	-10.5444
贺	-10.5444
鲁长老	-10.5444
莲	-10.5445
钢针	-10.5445
返	-10.5445
又惊又	-10.5445
尸首	-10.5446
戏弄	-10.5446
舒服	-10.5446
酒菜	-10.5446
忽尔	-10.5447
惊惧	-10.5449
金银	-10.5449
胜负	-10.5449
摇摇头	-10.545
抖动	-10.5455
杨家	-10.5455
我可不	-10.5456
三名	-10.5457
竟敢	-10.5459
黑衣	-10.546
动弹	-10.5461
小僧	-10.5461
神妙	-10.5462
情由	-10.5463
怎敢	-10.5464
当场	-10.5464
携手	-10.5464
今后	-10.5466
也非	-10.5467
何不	-10.5468
告知	-10.5469
文字	-10.547
去世	-10.5472
喉头	-10.5475
必然	-10.5476
下毒手	-10.5477
却听	-10.5483
却没	-10.5484
对答	-10.5485
刻着	-10.5487
惊奇	-10.5488
平常	-10.5491
七日	-10.5497
▁穆易	-10.5499
气得	-10.5504
耳中	-10.5506
那晚	-10.5511
之徒	-10.5511
似有	-10.5513
究竟	-10.5516
桃花岛的	-10.5521
拍拍	-10.5521
赶上	-10.5522
因而	-10.5526
必能	-10.5529
明天	-10.5531
▁陆庄主	-10.5542
已到了	-10.5543
一扯	-10.5546
花丛	-10.5546
招手	-10.5547
缓缓的	-10.5548
个圈子	-10.5554
的踪迹	-10.5563
的尸身	-10.5564
难道还	-10.5565
墓门	-10.5567
多说	-10.5582
一堆	-10.5582
当地	-10.5603
徒弟	-10.5605
三只	-10.5609
床上	-10.5616
没能	-10.5617
远远的	-10.5622
面具	-10.5628
一响	-10.563
解救	-10.5633
现出	-10.5634
当此	-10.5637
吃的	-10.5641
是天下	-10.5643
伸手去	-10.5652
呆呆	-10.5652
十六	-10.5653
一个个	-10.5656
将起来	-10.5657
接了	-10.5658
练过	-10.5679
墙头	-10.5683
立时便	-10.5684
更有	-10.5686
限	-10.5687
跟在	-10.569
都要	-10.5691
死人	-10.5699
三年	-10.5699
刺死	-10.5699
远去	-10.5702
得过	-10.5704
小腿	-10.5713
你干么	-10.5714
腹中	-10.5719
想起自己	-10.572
别再	-10.5725
有这等	-10.5733
传你	-10.5737
全都	-10.5747
厉声喝	-10.5747
到这里	-10.5749
自如	-10.5749
却也是	-10.5759
肩上	-10.5762
老儿	-10.5763
小姐	-10.5764
法王等	-10.5765
类	-10.5765
之士	-10.5767
就没	-10.5767
一边	-10.5767
适	-10.577
去救	-10.5772
既不	-10.5773
以前	-10.5774
蹲	-10.5775
▁忽听得	-10.5775
议	-10.5775
帖	-10.5776
慕	-10.5776
操	-10.5776
儒	-10.5776
流下泪来	-10.5776
剥	-10.5777
自言自语	-10.5777
畏惧	-10.5777
镜	-10.5777
黑暗之中	-10.5777
滋味	-10.5777
秘诀	-10.5777
沾	-10.5777
丈许	-10.5777
宝贝	-10.5777
弹指神通	-10.5777
木华黎	-10.5777
杨龙二人	-10.5777
提了	-10.5777
姿式	-10.5777
英雄大宴	-10.5778
面颊	-10.5778
硬生生	-10.5778
霎时间	-10.5778
拐杖	-10.5778
那也罢了	-10.5778
根基	-10.5778
身躯	-10.5779
我师哥	-10.5779
到头来	-10.5779
这么大	-10.5779
展开轻功	-10.5779
领悟	-10.5779
冰凉	-10.5779
计较	-10.578
可怖	-10.578
无伦	-10.578
附近	-10.5781
半尺	-10.5782
身材	-10.5782
千万不可	-10.5783
那老人	-10.5783
热血	-10.5784
举止	-10.5784
毒计	-10.5786
数寸	-10.5787
取了	-10.5787
变故	-10.5788
之类	-10.579
七位	-10.5791
眉头	-10.5792
以免	-10.5792
打量	-10.5794
鞋子	-10.5794
只吓得	-10.5795
神像	-10.5795
护身	-10.5796
小辈	-10.5797
七怪	-10.5798
勒马	-10.58
小艇	-10.58
与你	-10.58
所授	-10.5802
左边	-10.5802
怒目	-10.5804
述说	-10.5806
追击	-10.5811
用劲	-10.5811
不妥	-10.5813
两个人	-10.5813
他身后	-10.5816
家数	-10.5817
清水	-10.5818
只要你	-10.582
一惊之下	-10.5821
二字	-10.5822
敬重	-10.5823
又听	-10.5824
跌落	-10.5825
几位	-10.5826
▁那书生	-10.5829
向自己	-10.5831
遗书	-10.5833
夺回	-10.5833
暗暗好笑	-10.5836
三声	-10.5838
军官	-10.584
溪水	-10.5841
半天	-10.5846
最多	-10.5847
回手	-10.5847
自觉	-10.5852
急叫	-10.5853
容情	-10.5854
生日	-10.5858
小孔	-10.586
余下	-10.586
谁说	-10.5861
每日	-10.5867
绝顶	-10.5869
上乘	-10.5869
是为	-10.587
加上	-10.5872
正当	-10.5872
猛往	-10.5877
射去	-10.5878
光闪闪	-10.589
千人	-10.589
均有	-10.5892
饶你	-10.5894
石梁	-10.5897
折了	-10.5903
从来	-10.591
定有	-10.5914
齐上	-10.5915
想想	-10.5916
学会了	-10.5916
杨过与小龙女	-10.5917
▁忽必烈	-10.592
的说话	-10.593
在桌上	-10.5934
击出	-10.5936
等等	-10.594
玉箫	-10.5954
不停	-10.5956
威名	-10.5957
自己性命	-10.5958
懂得	-10.5959
也不知道	-10.5967
深知	-10.5969
掌中	-10.5969
一会儿	-10.5969
之至	-10.5969
想到了	-10.5971
躺在	-10.5971
零	-10.598
姓名	-10.5984
哪里有	-10.5984
眼前一	-10.5989
全不	-10.5989
好教	-10.599
西藏	-10.599
众人都	-10.6002
打败	-10.6005
放入	-10.6005
打倒	-10.6007
四五	-10.6015
逐一	-10.6018
当头	-10.6022
淡淡一	-10.6023
老是	-10.6025
城门	-10.6027
挣	-10.603
但不知	-10.6038
着急	-10.6038
接住	-10.6039
笑着	-10.6042
向黄药师	-10.6043
大半	-10.6044
也没甚么	-10.605
学会	-10.6052
这部	-10.6054
但郭靖	-10.6058
勒	-10.6072
不喜	-10.6072
一般的	-10.6076
但此时	-10.6083
供	-10.6083
碑	-10.6084
到哪里	-10.6085
有几	-10.6097
喘	-10.61
来此	-10.6101
不轻	-10.6101
不尽	-10.6104
昔	-10.6105
婚	-10.6105
锦	-10.6111
料到	-10.6111
诈	-10.6115
焉	-10.6115
橱	-10.6117
充	-10.6118
拐	-10.6118
恋	-10.6119
舒	-10.6119
未及	-10.612
疲	-10.612
牢	-10.612
狡	-10.6121
拙	-10.6121
逝	-10.6121
翼	-10.6121
武穆遗书	-10.6121
朝廷	-10.6121
搁	-10.6121
冬	-10.6122
灌	-10.6122
嘛	-10.6122
潇洒	-10.6122
革	-10.6122
暗暗称奇	-10.6122
境界	-10.6122
叠	-10.6122
寨主	-10.6122
凌空	-10.6122
铜尸	-10.6123
欧阳先生	-10.6123
夸	-10.6123
旗杆	-10.6123
漏	-10.6123
兰	-10.6123
利器	-10.6124
解释	-10.6124
特异	-10.6124
枯木	-10.6124
顷刻之间	-10.6124
包裹	-10.6124
王真人	-10.6125
赵王府	-10.6125
吐露	-10.6126
士卒	-10.6127
说不出话来	-10.6127
弓箭	-10.6129
不测	-10.613
清清楚楚	-10.613
已无	-10.6132
黄蓉叹	-10.6132
阴毒	-10.6132
身不由主的	-10.6132
苦思	-10.6133
凝视着	-10.6134
十余里	-10.6134
转念	-10.6136
里许	-10.6137
来回	-10.6137
看出	-10.6137
今儿	-10.6138
连环	-10.6139
不爱	-10.6141
现身	-10.6142
坟墓	-10.6144
传令	-10.6145
男人	-10.6147
在身上	-10.6154
感诧异	-10.6155
普天下	-10.6158
双双	-10.6165
几时	-10.6171
他手腕	-10.6172
割断	-10.6174
一翻	-10.6179
这功夫	-10.6181
却在	-10.6184
何时	-10.6184
同行	-10.6188
匹马	-10.6191
随后	-10.6193
好容易	-10.62
射出	-10.6202
向南	-10.6203
不知她	-10.6204
恶毒	-10.6206
再见	-10.6207
三枚	-10.621
帐外	-10.6212
一麻	-10.6217
一个时辰	-10.6218
八人	-10.6218
的伤	-10.6221
水底	-10.6226
▁马钰	-10.6228
料来	-10.6231
这老儿	-10.6231
往事	-10.6234
不知是	-10.6236
陷入	-10.6236
忽然想起	-10.6237
这时听	-10.6237
撞击	-10.6239
马鞭	-10.624
别让	-10.6242
二百	-10.6244
这声音	-10.6245
尽头	-10.6251
年幼	-10.6255
也自	-10.6258
自尽	-10.6261
▁完颜萍	-10.6264
去见	-10.6265
响亮	-10.6274
对准了	-10.6276
一生之中	-10.6278
帐中	-10.6281
向内	-10.6281
两响	-10.6282
在他身上	-10.6287
跪倒	-10.6289
右边	-10.6292
个大	-10.6293
老头	-10.6297
到哪里去	-10.6305
贴	-10.6306
但随即	-10.6307
中都	-10.6307
大金	-10.6311
的意思	-10.6311
无事	-10.6314
请问	-10.6316
竟已	-10.632
大祸	-10.6324
上当	-10.6327
拳头	-10.633
问我	-10.6333
奔来	-10.6336
身在	-10.6344
得起	-10.6346
受了伤	-10.6348
奔上	-10.6349
团	-10.635
一按	-10.6351
坐了	-10.6353
下风	-10.6354
记挂	-10.6355
▁韩宝驹	-10.6358
探头	-10.6361
说笑	-10.6363
老者	-10.6369
地上	-10.6372
极大的	-10.6373
缠住	-10.6383
瞧那	-10.6404
作了	-10.6404
要她	-10.6407
靠在	-10.6407
万里	-10.6407
也不肯	-10.641
倒有	-10.6419
送来	-10.6419
大乱	-10.6421
半夜	-10.6423
内堂	-10.6427
日久	-10.644
之毒	-10.644
▁就在	-10.6441
曲三	-10.6445
木剑	-10.6446
老贼	-10.6451
若再	-10.6452
的厉害	-10.6454
付	-10.6455
传到	-10.6455
所说的	-10.6458
沿	-10.6463
你便	-10.6463
察	-10.6465
凝视	-10.6471
变幻	-10.6472
叛	-10.6473
拟	-10.6473
僻	-10.6474
跌下	-10.6474
勿	-10.6474
勤	-10.6475
武士	-10.6475
壶	-10.6476
趋	-10.6476
繁	-10.6476
旁观	-10.6476
屠	-10.6477
奶	-10.6478
藤	-10.6478
艳	-10.6478
全真诸子	-10.6478
一模一样	-10.6479
狡猾	-10.6479
纠缠	-10.6479
霞	-10.6479
祝	-10.6479
奸臣	-10.6479
一言不发	-10.6479
轻飘飘的	-10.6479
蓝	-10.6479
手忙脚乱	-10.6479
九花玉露丸	-10.6479
得干干净净	-10.6479
抢攻	-10.6479
耶律楚材	-10.6479
绘	-10.6479
拭	-10.6479
南海神尼	-10.648
加快脚步	-10.648
手下留情	-10.648
空明拳	-10.648
肋骨	-10.648
髅	-10.648
噗的一声	-10.648
秀眉	-10.648
痛楚	-10.648
挣脱	-10.6481
勉力	-10.6481
群兽	-10.6481
服侍	-10.6482
巨钟	-10.6483
杆棒	-10.6483
转眼间	-10.6483
横卧	-10.6484
瓷瓶	-10.6484
垂下	-10.6485
但那	-10.6485
双眉	-10.6485
欧阳锋笑	-10.6486
颤动	-10.6486
铁钉	-10.6486
郭靖笑	-10.6487
干系	-10.6488
迎接	-10.6488
暗暗叫苦	-10.6489
看清楚	-10.649
石屋	-10.6493
远胜于	-10.6493
发抖	-10.6494
皇后	-10.6494
你是谁	-10.6495
足底	-10.6497
幼小	-10.6497
尽管	-10.6497
怪蛇	-10.65
三十六	-10.6502
大惊之下	-10.6502
起伏	-10.6504
夹击	-10.6505
众位	-10.6507
嘴里	-10.6508
等他	-10.6508
雪白	-10.6509
是从	-10.651
携着	-10.6511
柔和	-10.6515
极少	-10.6516
山东	-10.6517
破解	-10.6519
奸人	-10.6522
有关	-10.6522
伤痛	-10.6526
崖顶	-10.6527
送命	-10.6527
做甚么	-10.6532
天上	-10.6532
真情	-10.6533
轻重	-10.6536
几口	-10.6537
数万	-10.6541
四个人	-10.6546
两旁	-10.6547
架开	-10.6547
说甚么也	-10.655
记着	-10.655
长刀	-10.6553
全凭	-10.6556
缚住	-10.6557
醒来	-10.6558
为师	-10.6558
的背影	-10.6559
这样一个	-10.6566
两家	-10.6575
见小龙女	-10.6575
关心	-10.6583
不分	-10.6583
来着	-10.6584
完了	-10.6587
记起	-10.66
极高	-10.6603
扑去	-10.6606
部下	-10.6611
交出	-10.6614
心惊	-10.6623
哪知道	-10.6624
成一团	-10.6626
丹房	-10.6627
他手掌	-10.6633
生下	-10.6634
不加	-10.6637
真好	-10.6639
如是	-10.6643
却被	-10.6644
吐出	-10.6644
九个	-10.6646
一挡	-10.6646
自会	-10.665
▁武氏兄弟	-10.6653
他手臂	-10.6656
也不禁	-10.6657
法门	-10.6657
甚么都	-10.6657
情状	-10.6674
怪客	-10.6676
千百	-10.6676
地底	-10.6682
有许多	-10.6683
传人	-10.6686
一事	-10.6686
抵敌	-10.669
了几句	-10.6693
▁一灯大师	-10.6693
而前	-10.6694
自身	-10.67
未见	-10.6702
住在	-10.6708
下楼	-10.6709
我不是	-10.6716
苦苦	-10.6719
骗我	-10.6734
因为	-10.6741
不难	-10.6745
开门	-10.6745
却不是	-10.6745
墙上	-10.6749
老妇	-10.6749
报了	-10.6755
股	-10.6759
杨过见她	-10.6761
睡了	-10.6762
若能	-10.6772
刺出	-10.6778
会意	-10.6784
你要我	-10.6787
那里	-10.6787
的日子	-10.6787
柯	-10.6787
最后一	-10.6793
我虽	-10.6793
深深	-10.6802
怎么又	-10.6804
人品	-10.6805
石壁	-10.6812
剩下	-10.6817
妻	-10.6824
惟	-10.6828
这姑娘	-10.6829
甚么人	-10.683
大起	-10.6831
锐	-10.6833
岔	-10.6838
博	-10.6839
都在	-10.6842
爽	-10.6842
不似	-10.6843
即令	-10.6844
穆	-10.6844
鲁	-10.6845
迅	-10.6847
预	-10.6847
牌	-10.6847
级	-10.6847
盟	-10.6847
便想	-10.6848
奏	-10.6848
吴	-10.6848
园	-10.6848
编	-10.6849
富	-10.6849
产	-10.6849
皇爷	-10.6849
启	-10.6849
窄	-10.6849
姬清虚	-10.6849
订	-10.6849
麻雀	-10.6849
侣	-10.6849
情急之下	-10.6849
同归于尽	-10.6849
骤	-10.6849
助你	-10.6849
痊愈	-10.6849
荆	-10.6849
醉仙楼	-10.6849
精湛	-10.6849
劣	-10.6849
团团	-10.6849
公主	-10.6849
惊诧	-10.6849
无恙	-10.685
庭	-10.685
老太婆	-10.685
眼眶	-10.685
陆展元	-10.685
棺盖	-10.685
哑巴	-10.685
】	-10.685
脸色惨白	-10.685
自刎	-10.685
栽	-10.685
臂膀	-10.685
郑重	-10.685
富贵	-10.685
庄丁	-10.685
担忧	-10.6851
素不相识	-10.6851
悲愤	-10.6851
尺许	-10.6851
臂上	-10.6851
苏	-10.6851
跟随在后	-10.6851
守御	-10.6851
隐瞒	-10.6851
世界	-10.6851
山坡	-10.6851
勇士	-10.6852
差遣	-10.6852
艰难	-10.6852
贼汉子	-10.6852
厮杀	-10.6852
即是	-10.6852
乱成一团	-10.6852
挡格	-10.6853
怀疑	-10.6853
慌乱	-10.6854
脸上变色	-10.6855
料不到	-10.6856
存心	-10.6856
望一眼	-10.6856
脑门	-10.6856
峰顶	-10.6857
主持	-10.6858
临敌	-10.6859
石板	-10.6859
句话	-10.6859
进境	-10.6859
使将出来	-10.686
神仙	-10.686
王道长	-10.6861
锋锐	-10.6863
绳子	-10.6864
击中	-10.6864
四顾	-10.6865
逼近	-10.6867
火折	-10.6867
拔剑	-10.687
桌子	-10.687
自然而然的	-10.687
上乘武功	-10.6871
一筹	-10.6872
右脚	-10.6873
之期	-10.6873
刚猛	-10.6874
胡乱	-10.6877
半步	-10.6877
相差	-10.6878
消失	-10.6883
倾听	-10.6884
埋伏	-10.6884
比试	-10.6885
老帮主	-10.6886
城外	-10.6887
书生	-10.6894
▁当晚	-10.6894
有毒	-10.6895
化为	-10.6895
喝问	-10.6898
平生	-10.6901
其意	-10.6902
那时候	-10.6902
一二	-10.6902
一个筋斗	-10.6903
见识	-10.6905
攻势	-10.6908
晕去	-10.691
神力	-10.6911
你好好	-10.6912
一物	-10.6916
走远	-10.6917
你放心	-10.6924
老顽童周伯通	-10.6924
当面	-10.6927
喜爱	-10.6927
一振	-10.6934
想不起	-10.6935
不救	-10.6937
一摸	-10.6937
直击	-10.6939
我跟你说	-10.694
大急	-10.694
喀喇一声	-10.6941
我和你	-10.6944
难受	-10.6947
急步	-10.6948
三四	-10.6948
教她	-10.6953
的影子	-10.6958
偷了	-10.6963
金帐	-10.6965
压在	-10.6967
手腕上	-10.6968
思念	-10.6973
一排	-10.6977
天空	-10.6979
一点儿	-10.698
的长剑	-10.6981
▁程瑶迦	-10.6982
的姑娘	-10.6987
很多	-10.6988
数十名	-10.6989
路子	-10.6991
甚么地方	-10.6992
分心	-10.6995
跟人	-10.6998
来历	-10.6998
在先	-10.7
好些	-10.7
甚为	-10.7
我在这里	-10.7005
都想	-10.7006
难看	-10.7013
一死	-10.7014
咱们再	-10.7017
沙通天等	-10.7018
四十	-10.7023
总有	-10.7026
在前	-10.7028
说出来	-10.7032
求见	-10.7035
但要	-10.7035
关头	-10.7036
吃得	-10.7038
珍	-10.7039
那怪客	-10.7041
一红	-10.7043
没想到	-10.7044
响声	-10.7048
大举	-10.7049
与洪七公	-10.7049
御	-10.7053
窗外	-10.7057
▁拖雷	-10.706
缩回	-10.7063
救援	-10.7065
如山	-10.7066
消息	-10.7067
笑话	-10.7067
跟他们	-10.7068
便往	-10.7069
可知	-10.707
无一不	-10.7071
大汗的	-10.7073
叫好	-10.7076
追到	-10.708
撞到	-10.7084
上身	-10.7088
情景	-10.7089
便知	-10.7099
直至	-10.71
哥	-10.7101
昏晕	-10.7112
尸身	-10.7122
解下	-10.7129
与周伯通	-10.7135
裘老前辈	-10.7141
葬	-10.7148
但想到	-10.7155
奇妙	-10.7155
狠毒	-10.7155
了几次	-10.7161
街	-10.7169
立足不	-10.7173
郭靖忙	-10.7175
收回	-10.7177
都被	-10.7185
的心思	-10.7186
的手臂	-10.7188
壁上	-10.719
等三人	-10.7191
做得	-10.7193
述	-10.7194
棺	-10.7196
去看	-10.7198
她手	-10.7211
树丛	-10.7212
胁	-10.7213
得甚是	-10.7213
两块	-10.7215
侍	-10.7217
偷听	-10.7221
鞍	-10.7228
一凛	-10.723
屏	-10.723
畏	-10.7231
界	-10.7231
财	-10.7231
影踪	-10.7232
履	-10.7232
贞	-10.7232
巡	-10.7232
涂	-10.7233
嫩	-10.7233
窥	-10.7233
叙	-10.7233
吻	-10.7234
哄	-10.7234
覆	-10.7234
呵呵	-10.7234
沉吟半晌	-10.7234
棺材	-10.7234
尹赵二人	-10.7234
笃	-10.7234
诡异	-10.7234
洋洋	-10.7234
塔	-10.7234
黄河四鬼	-10.7234
肃	-10.7234
舒畅	-10.7234
欧阳伯伯	-10.7234
夏	-10.7235
牲口	-10.7235
默默	-10.7235
盟主	-10.7235
愤怒	-10.7235
凿	-10.7235
医治	-10.7235
乳	-10.7235
装束	-10.7236
嘴唇	-10.7236
躺在地下	-10.7236
冷汗	-10.7236
碎裂	-10.7237
猛烈	-10.7237
长须鬼	-10.7237
徒孙	-10.7237
颠倒	-10.7237
快捷	-10.7239
单凭	-10.724
喘气	-10.7241
无耻	-10.7241
沉思	-10.7242
如电	-10.7242
命人	-10.7243
报答	-10.7243
灯火	-10.7243
常常	-10.7245
君山	-10.7246
击落	-10.7246
窗口	-10.7246
市镇	-10.7247
尖刀	-10.7247
过于	-10.7248
已抓住	-10.7248
提醒	-10.7249
不敢怠	-10.7252
激动	-10.7254
厅中	-10.7256
宛如	-10.7257
了半日	-10.7258
虚实	-10.7259
草原上	-10.726
青年	-10.7261
之策	-10.7263
相思	-10.7263
咱们走罢	-10.7264
已给	-10.7265
亲近	-10.7267
▁这一日	-10.7268
睡得	-10.7269
白色	-10.7269
交情	-10.727
动武	-10.7272
铁枪庙	-10.7274
寒气	-10.7275
一块大石	-10.7276
半年	-10.7283
之境	-10.7283
只说	-10.7289
抢先	-10.7294
两军	-10.7299
两边	-10.7299
这时他	-10.7301
必当	-10.7306
山崖	-10.7307
又再	-10.7308
两大	-10.7308
这傻小子	-10.7309
村中	-10.7309
听黄蓉	-10.731
好朋友	-10.731
三哥	-10.731
四方	-10.7311
要找	-10.7313
雄雕	-10.7316
但愿	-10.7318
小说	-10.7319
决不肯	-10.7325
无情	-10.7327
几名	-10.7328
三掌	-10.7328
说到此处	-10.7328
所能	-10.734
武功虽	-10.7343
抓着	-10.7344
放松	-10.7344
旁的	-10.7349
全真派武功	-10.7349
不是我	-10.735
大弟子	-10.7358
小兄弟	-10.7363
要穴	-10.7363
站起来	-10.7365
她知	-10.7365
会神	-10.7366
如何不	-10.7379
对着	-10.7385
说着将	-10.7391
八名	-10.7394
却非	-10.74
微感	-10.7401
▁那人	-10.7403
抢在	-10.7406
极深	-10.7408
回想	-10.7409
大哭	-10.741
瞎了	-10.7411
内心	-10.7412
脸有	-10.7413
下马来	-10.7417
所知	-10.7419
大英雄	-10.742
珠宝	-10.7429
学过	-10.7431
除去	-10.7432
法儿	-10.7433
▁杨过见她	-10.7444
不善	-10.7447
让他们	-10.7448
这中间	-10.7453
大声喝	-10.7453
正与	-10.7456
的神情	-10.7461
两招	-10.7462
住口	-10.7462
这便	-10.7463
等我	-10.7465
不离	-10.7475
一遍	-10.7475
千里	-10.7479
望望	-10.748
潭中	-10.7481
胜得	-10.7482
的法子	-10.7483
上船	-10.7487
委	-10.7488
虽强	-10.7489
倒在地	-10.7489
信了	-10.7494
高出	-10.7495
贫	-10.75
平日	-10.7505
还给	-10.7508
的那个	-10.7508
了许多	-10.7509
先将	-10.7514
受到	-10.7516
说明	-10.7526
怕她	-10.7529
被欧阳锋	-10.7529
你身上	-10.7532
却似	-10.7538
一世	-10.7538
飞来	-10.7541
在地上	-10.7541
只怕他	-10.7541
便请	-10.7542
作声	-10.7544
叫化子	-10.7544
全没	-10.7551
惯	-10.7561
穿着	-10.7566
十五	-10.7567
下落	-10.7579
你猜	-10.7579
叫人	-10.7585
柄剑	-10.7587
你倒	-10.759
叔	-10.7592
遥	-10.7593
伯	-10.7596
他想	-10.7598
宛	-10.7598
脸颊	-10.76
高高	-10.7604
羽	-10.7606
少年时	-10.7606
凭你	-10.7606
蹄	-10.7614
受人	-10.7619
蓉	-10.7619
痕	-10.7622
梯	-10.7623
奋	-10.7627
熬	-10.7628
竭	-10.7628
督	-10.763
跛	-10.763
渊	-10.763
桶	-10.7631
莽	-10.7631
婿	-10.7631
释	-10.7631
鬓	-10.7632
筏	-10.7632
庸	-10.7632
孽	-10.7632
典	-10.7633
旷	-10.7633
丫鬟	-10.7633
役	-10.7633
玉女素心剑法	-10.7634
玩耍	-10.7634
史季强	-10.7634
淑女剑	-10.7634
翁	-10.7634
跳起身来	-10.7634
霸	-10.7634
森森	-10.7634
无意中	-10.7634
邻	-10.7634
金龙鞭	-10.7634
将信将疑	-10.7634
宋德方	-10.7634
搓	-10.7634
闹着玩	-10.7634
肌肤	-10.7634
渊源	-10.7634
殴	-10.7634
公孙姑娘	-10.7634
班	-10.7634
鲜血淋漓	-10.7634
背诵	-10.7635
款	-10.7635
计议	-10.7635
嫣然一笑	-10.7635
卓绝	-10.7635
首级	-10.7635
大理国	-10.7636
银轮	-10.7636
割了	-10.7636
上乘内功	-10.7636
野兽	-10.7636
毒质	-10.7637
小觑	-10.7637
全真剑法	-10.7637
猛兽	-10.7637
丐帮帮众	-10.7637
半个	-10.7637
美丽	-10.7638
周师叔	-10.7638
红晕	-10.7639
点点	-10.7639
昂然	-10.764
感奇怪	-10.764
了他一眼	-10.764
躲避	-10.764
称赞	-10.7641
恶贼	-10.7644
低低	-10.7644
无限	-10.7644
关怀	-10.7645
特别	-10.7645
一同	-10.7646
混乱	-10.7647
脉门	-10.7647
惊异	-10.7648
我倒	-10.7649
原因	-10.7649
力大	-10.7649
丧命	-10.7651
现下我	-10.7651
直冲	-10.7651
惨然	-10.7652
相聚	-10.7653
袍子	-10.7653
精通	-10.7653
再斗	-10.7653
说了出来	-10.7653
他日	-10.7654
有谁	-10.7656
五位	-10.7657
情形	-10.7658
失望	-10.7659
打仗	-10.7659
墙壁	-10.7659
听到这里	-10.7662
怒喝	-10.7663
两个孩子	-10.7665
书信	-10.7666
性儿	-10.7668
上天	-10.7668
拚着	-10.7669
命丧	-10.767
要旨	-10.7674
却要	-10.7681
正欲	-10.7682
刀法	-10.7685
发了	-10.7688
却仍	-10.7688
梢	-10.7694
还礼	-10.7697
在半空中	-10.7702
蒙古大汗	-10.7702
使一招	-10.7706
怒极	-10.7708
这女孩儿	-10.7708
舌头	-10.7709
扰乱	-10.771
高强	-10.7711
一碰	-10.7711
为何	-10.7714
睡着了	-10.7718
斜身	-10.7718
顾不得	-10.7722
逃开	-10.7725
身受	-10.7726
百出	-10.7728
那样	-10.7729
必须	-10.773
毒辣	-10.773
用心	-10.7733
真气	-10.7736
满脸通红	-10.7739
了进去	-10.7739
奔近	-10.774
使开	-10.774
土山	-10.7743
了良久	-10.7743
重又	-10.7744
不会武功	-10.7747
不通	-10.7751
大高手	-10.7755
刀子	-10.7758
重行	-10.7758
于是将	-10.7763
有气	-10.7765
蒙古军中	-10.7767
行动	-10.7772
得着	-10.7772
甚高	-10.7777
中土	-10.7787
丫头	-10.7787
急转	-10.7792
没听见	-10.7796
只要他	-10.7799
在石上	-10.7801
没用	-10.7801
除下	-10.7805
藏语	-10.781
原来她	-10.7813
瞪	-10.7831
为她	-10.7832
替他	-10.7832
拿来	-10.784
数千	-10.7844
你在这里	-10.7846
番	-10.7847
意思	-10.7848
苦笑	-10.7853
的手段	-10.7855
过后	-10.7856
可得	-10.7866
▁尼摩星	-10.7867
铁掌帮的	-10.7868
中指	-10.7872
举刀	-10.7882
天生	-10.7882
出房	-10.7887
不提	-10.7889
钻入	-10.7889
死啦	-10.7898
跟着又	-10.7902
几句话	-10.7905
这一拳	-10.7912
树上	-10.7912
名家	-10.7914
守城	-10.7927
学到	-10.7934
离去	-10.7935
话未说	-10.7937
轻轻的	-10.7941
屋子	-10.7946
卷住	-10.7955
助我	-10.7956
年老	-10.7962
老婆	-10.7968
呼声	-10.7979
来罢	-10.7989
西首	-10.799
哪一位	-10.799
绕到	-10.7991
甚么话	-10.7993
却给	-10.7994
急奔而	-10.7995
救她	-10.7995
那么你	-10.7996
叫了起来	-10.8001
▁沙通天	-10.8002
天下第一	-10.8005
放你	-10.8008
大穴	-10.8008
崩	-10.8012
剩	-10.8012
好好的	-10.8019
就得	-10.8022
姑	-10.8022
齐向	-10.8023
店中	-10.8023
峰上	-10.8026
这小姑娘	-10.803
已被他	-10.8035
冲到	-10.8035
岳	-10.8041
幻	-10.8043
只见一个	-10.8044
我叫	-10.8046
鲨	-10.8047
肆	-10.8048
蒲团	-10.8048
连连点头	-10.8048
研	-10.8048
证	-10.8049
重阳真人	-10.8049
朴	-10.8049
饰	-10.8049
浆	-10.805
悍	-10.805
评	-10.805
粪	-10.805
单打独斗	-10.805
梳	-10.805
鼠	-10.805
哑仆	-10.805
莹	-10.805
页	-10.8051
赤老温	-10.8051
烫	-10.8051
蜡烛	-10.8051
耽搁	-10.8051
嵌	-10.8051
泄漏	-10.8051
到此	-10.8051
博尔忽	-10.8051
耸	-10.8051
棘藤	-10.8051
明明白白	-10.8051
恕罪	-10.8051
煮	-10.8051
铜轮	-10.8051
伯父	-10.8051
盈盈	-10.8051
北极星位	-10.8051
黑龙潭	-10.8051
人皮面具	-10.8052
踏上一步	-10.8052
痴痴	-10.8052
二位	-10.8052
锋兄	-10.8052
意中人	-10.8052
容颜	-10.8053
闺女	-10.8053
炼	-10.8053
烛台	-10.8053
刷的一声	-10.8054
威震	-10.8055
默然	-10.8056
周师兄	-10.8056
教导	-10.8056
忘记	-10.8056
这门功夫	-10.8058
内脏	-10.8059
甘愿	-10.8059
关节	-10.806
轻薄	-10.806
菜肴	-10.8061
贵由	-10.8062
哼哼	-10.8062
拉扯	-10.8062
为妻	-10.8064
渐感	-10.8064
江山	-10.8064
打断	-10.8066
潮水	-10.8067
所谓	-10.8068
相抵	-10.8068
急速	-10.8068
形势	-10.8069
战阵	-10.807
冷然	-10.8071
逃脱	-10.8071
实无	-10.8072
寻仇	-10.8073
苦楚	-10.8073
一愕	-10.8073
寻访	-10.8074
杯酒	-10.8075
守军	-10.8075
身周	-10.8075
▁次日	-10.8076
接战	-10.8077
一行人	-10.8079
疾风	-10.8082
深入	-10.8082
支撑	-10.8084
乖乖的	-10.8085
而坐	-10.8085
偏生	-10.8088
一瞧	-10.8089
有心要	-10.8091
干吗	-10.8091
难道是	-10.8092
滑溜	-10.8092
亲口	-10.8094
可也	-10.8096
驰到	-10.8097
无人能	-10.8098
晚间	-10.81
刺杀	-10.8101
贼秃	-10.8102
负着	-10.8103
她身上	-10.8105
本教	-10.8107
断折	-10.8115
深意	-10.8115
冲杀	-10.812
得胜	-10.812
树林中	-10.8124
缩身	-10.8126
这路	-10.8129
卒	-10.813
从旁	-10.813
顾念	-10.8139
手中长剑	-10.8141
的安危	-10.8143
这位是	-10.8144
你就是	-10.8144
的手腕	-10.8145
纵身而	-10.8146
奔得	-10.8152
怎么啦	-10.8155
纵起	-10.8157
的父亲	-10.8158
跃过	-10.8162
引见	-10.8163
好极	-10.8166
请两位	-10.8167
千万别	-10.8167
急跃	-10.8171
别怕	-10.8172
抢上去	-10.8174
众多	-10.8177
外号	-10.8181
的心事	-10.8182
两个娃娃	-10.8184
可有	-10.8185
重阳祖师	-10.8187
见他神色	-10.8188
极快	-10.8188
不凡	-10.8189
便欲	-10.8195
害我	-10.8197
此间	-10.82
一晚	-10.82
倒地	-10.8201
美人	-10.8201
攻敌	-10.8205
将上来	-10.8208
占了	-10.8209
八九	-10.8214
只把	-10.8217
要请	-10.8219
既有	-10.8219
抬起	-10.822
快马	-10.8224
下场	-10.8228
在临安	-10.823
你当真	-10.8233
海底	-10.8233
也不懂	-10.8237
十个	-10.8239
瞧这	-10.8242
毒发	-10.8243
日前	-10.8243
处所	-10.8243
身子已	-10.8246
杨过大喜	-10.825
摸出	-10.8255
曾在	-10.8257
那女孩	-10.8259
逼他	-10.826
▁尹克西	-10.8263
她爹爹	-10.8263
万人	-10.8268
你叫我	-10.8268
你若不	-10.8275
忽而	-10.8276
心法	-10.828
那也是	-10.8282
的经文	-10.8284
命在	-10.8287
各处	-10.8291
这四人	-10.8295
那就是	-10.8295
只是她	-10.8301
娃娃	-10.8305
不透	-10.8306
固是	-10.8308
可比	-10.8311
难道他	-10.8317
寻到	-10.8322
待她	-10.8344
不清	-10.8345
为甚么要	-10.8346
多时	-10.8352
骑了	-10.8353
极重	-10.8358
感动	-10.836
交好	-10.8364
她肩头	-10.8364
有这么	-10.8365
倍	-10.8368
急了	-10.8373
陪你	-10.8377
有点儿	-10.8378
一瞥	-10.8379
两人都是	-10.8383
的眼光	-10.8388
向郭靖道	-10.8389
掉了	-10.8397
迈	-10.8401
与之	-10.8401
已死	-10.8408
竟未	-10.8414
七道	-10.8415
解开了	-10.8423
郭靖一怔	-10.8426
划了	-10.8428
千余	-10.8429
鞘	-10.843
指向	-10.8432
也曾	-10.8435
睡罢	-10.8439
的时候	-10.8445
极难	-10.8445
他怕	-10.8447
你们两个	-10.8447
城墙	-10.845
已成	-10.8452
榻	-10.8454
艇	-10.8456
漠	-10.8458
到桃花岛	-10.8458
说着向	-10.8463
助他	-10.8466
长草	-10.8467
头脑	-10.847
叫他们	-10.8471
岂肯	-10.8472
人丛中	-10.8474
训	-10.8475
大路	-10.8477
凄	-10.8479
新娘	-10.848
几条	-10.8481
笼	-10.8481
中所载	-10.8481
耶律	-10.8482
球	-10.8482
豁	-10.8483
那女人	-10.8483
柄长剑	-10.8483
慨	-10.8483
厌	-10.8484
基	-10.8484
逗	-10.8484
哉	-10.8484
完颜	-10.8484
县	-10.8485
堵	-10.8485
扁担	-10.8485
罚	-10.8485
维	-10.8485
婆娘	-10.8485
鸦	-10.8485
织	-10.8485
酸软	-10.8485
韵	-10.8485
旺	-10.8485
灵机一动	-10.8485
悴	-10.8485
出神入化	-10.8485
恰到好处	-10.8485
鸳	-10.8485
炭	-10.8485
蚁	-10.8485
您老人家	-10.8485
九尾灵狐	-10.8486
庆	-10.8486
窃	-10.8486
合撒儿	-10.8486
脑海中	-10.8486
脸色大变	-10.8486
好端端的	-10.8486
百夫长	-10.8486
杨大嫂	-10.8486
默不作声	-10.8486
这些年来	-10.8486
违抗	-10.8486
继承	-10.8486
武林盟主	-10.8486
蓬的一声	-10.8486
公子爷	-10.8486
不住口的	-10.8486
爹娘	-10.8487
泊	-10.8487
》、《	-10.8487
丘真人	-10.8487
梅师姊	-10.8487
一步步的	-10.8487
绝伦	-10.8487
颤抖	-10.8487
恁地	-10.8487
桌椅	-10.8488
四肢	-10.8488
莽撞	-10.8488
鼻息	-10.8488
恩公	-10.8488
张十五	-10.8488
显示	-10.8488
形貌	-10.8488
呐喊	-10.8488
丁大全	-10.8488
昏迷	-10.8489
银鞭	-10.8489
武术	-10.8489
照顾	-10.849
的高手	-10.849
柔软	-10.8491
宁定	-10.8491
哀求	-10.8491
爱惜	-10.8491
公平	-10.8491
月亮	-10.8492
摸到	-10.8495
又是好笑	-10.8495
心中怦怦乱跳	-10.8496
腕上	-10.8496
那天	-10.8497
胯下	-10.8497
树木	-10.8498
宝物	-10.8498
日光	-10.8498
手背	-10.8499
不约而同的	-10.85
能胜	-10.85
南北	-10.85
来来来	-10.8501
莫怪	-10.8502
二次	-10.8502
等候	-10.8503
后来怎样	-10.8506
坏事	-10.8507
正宗	-10.8508
水性	-10.8509
决定	-10.8509
飞扬	-10.8509
老夫	-10.851
相迎	-10.8511
脸上神色	-10.8512
精深	-10.8512
铁蛇	-10.8512
一揖	-10.8514
暗喜	-10.8517
一楞	-10.8519
怒色	-10.8521
见他如此	-10.8522
猛然	-10.8522
情势危急	-10.8523
放箭	-10.8523
天权	-10.8524
风流	-10.8527
伸掌	-10.8529
全神	-10.8531
白须	-10.8531
山边	-10.8531
比我	-10.8531
大殿	-10.8533
轻视	-10.8534
身体	-10.8536
一朵	-10.8538
温言	-10.8539
转头对	-10.8542
暗藏	-10.8543
众兄弟	-10.8547
笔直	-10.8551
每当	-10.8552
打滚	-10.8554
分辨	-10.8554
讨好	-10.8556
无双	-10.8556
竖起	-10.8557
离地	-10.8558
镇上	-10.856
那武官	-10.8561
小叫化	-10.8562
居住	-10.8563
不容	-10.8566
▁郭啸天	-10.857
运起	-10.8571
毒物	-10.8581
为敌	-10.8582
方才	-10.8583
一倍	-10.8587
洞穴	-10.8593
毕生	-10.8598
乘马	-10.8605
一批	-10.8608
小女	-10.8611
的遗	-10.8612
重会	-10.8616
黄蓉心想	-10.8622
几人	-10.8623
却始终	-10.8625
指尖	-10.8632
岂是	-10.8633
多谢你	-10.8634
这不是	-10.8635
犯了	-10.8636
相处	-10.8636
见到他	-10.8637
久了	-10.8638
求你	-10.8639
所伤	-10.8641
尽可	-10.8642
竹林	-10.8642
伸手到	-10.8644
怎不	-10.8645
呆呆的	-10.8646
一棵	-10.8647
打了个	-10.8653
疾奔	-10.8662
火烧	-10.8663
甚么东西	-10.8664
赢了	-10.8664
从不	-10.8669
好孩子	-10.8678
可爱	-10.8682
远胜	-10.8683
御厨	-10.8685
你不肯	-10.8685
之日	-10.8688
一架	-10.8689
生出	-10.8694
读书	-10.8694
向法王	-10.8697
喝一声	-10.8701
往外	-10.8701
找他	-10.8703
瞪眼	-10.8703
那店伴	-10.8706
还有甚么	-10.8707
一个女子	-10.871
饿死	-10.8714
隐隐传来	-10.8719
出外	-10.8723
想得	-10.8724
追问	-10.8725
的朋友	-10.8736
又怎样	-10.8737
亦不	-10.8737
不杀	-10.8746
撞得	-10.8749
又叫	-10.8754
是何	-10.8755
解毒	-10.8757
挡住了	-10.8761
回房	-10.8767
没见过	-10.8771
知道自己	-10.8771
矮子	-10.8777
结义	-10.878
有一位	-10.878
魔头	-10.8781
臭小子	-10.8786
不走	-10.8789
吃完	-10.8799
高深	-10.8806
去取	-10.8811
了结	-10.8813
被郭靖	-10.8814
甚有	-10.8818
树后	-10.8822
不相干	-10.8825
洞外	-10.8829
伙	-10.8839
中年	-10.8842
怎么说	-10.8848
眼看	-10.8849
两人同时	-10.8851
下山去	-10.8852
手肘	-10.8854
打落	-10.8855
禅	-10.8857
厨	-10.8862
如何是好	-10.8864
倘	-10.8865
一刻	-10.8874
在牛家村	-10.8876
你这小子	-10.8879
向里	-10.8879
就请	-10.8881
茅	-10.8881
的道理	-10.8882
步步	-10.8885
得远了	-10.8885
黄蓉微笑	-10.8889
好歹	-10.8897
咱们就	-10.8897
高处	-10.8899
说说	-10.8906
水声	-10.8907
的故事	-10.8908
均感	-10.8912
守住	-10.8912
凳	-10.8912
累了	-10.8919
急攻	-10.8919
牧	-10.8919
市	-10.8923
铸	-10.8925
有丝毫	-10.8926
望见	-10.8928
辰	-10.8931
钦	-10.8931
注视	-10.8931
哈	-10.8932
概	-10.8933
赤练仙子	-10.8933
有一股	-10.8934
挫	-10.8935
舵	-10.8935
耀	-10.8936
戒	-10.8936
瞬	-10.8936
蹙	-10.8938
使个眼色	-10.8939
陋	-10.8939
予	-10.8939
头下脚上	-10.8939
案	-10.8939
阿	-10.8939
逸	-10.8939
洁	-10.8939
唆	-10.8939
瞬息之间	-10.894
泽	-10.894
喧	-10.894
呈	-10.894
抡	-10.894
腐	-10.894
斑	-10.894
煞	-10.894
拘	-10.894
伸了伸舌头	-10.894
▁说话之间	-10.894
锦袍	-10.894
孩童	-10.894
扼	-10.894
不怀好意	-10.894
陆二娘	-10.894
暮	-10.894
胡言乱语	-10.894
小妖女	-10.894
粉身碎骨	-10.894
纵声长笑	-10.894
教诲	-10.894
爬起身来	-10.894
转过头来	-10.894
毡	-10.894
彭寨主	-10.894
炮	-10.894
省悟	-10.894
蒸	-10.894
咸	-10.8941
黑黝黝的	-10.8941
缠绵	-10.8941
程英和陆无双	-10.8941
山坳	-10.8941
卫士	-10.8941
死里逃生	-10.8941
躬身行礼	-10.8942
出帐	-10.8942
岭	-10.8942
护卫	-10.8942
踪影	-10.8942
清脆	-10.8942
嫂子	-10.8942
赵师兄	-10.8942
灾	-10.8942
呼哨	-10.8942
相询	-10.8943
歇歇	-10.8943
站在一旁	-10.8943
包扎	-10.8943
后悔	-10.8943
冒险	-10.8943
乌云	-10.8943
摸索	-10.8944
性格	-10.8944
转身便走	-10.8944
恼恨	-10.8944
官府	-10.8944
绿衫弟子	-10.8944
阴阳	-10.8945
玩意儿	-10.8945
急得	-10.8945
屋角	-10.8945
尘土	-10.8945
不知怎的	-10.8946
爱怜	-10.8946
务须	-10.8946
半夜里	-10.8947
眉目	-10.8947
贵客	-10.8947
一般无异	-10.8948
众丐	-10.8948
纵身跃起	-10.8948
令尊	-10.8948
言辞	-10.8948
招式	-10.8949
食物	-10.895
花园	-10.895
点头答应	-10.895
棒端	-10.8951
相逢	-10.8951
称呼	-10.8952
此时已	-10.8953
盘算	-10.8953
论剑	-10.8955
立刻	-10.8957
低微	-10.8957
舍不得	-10.8959
性情	-10.8959
轻灵	-10.8959
只震得	-10.896
红色	-10.896
功劳	-10.8961
老兄	-10.8961
口音	-10.8961
接应	-10.8962
听得清清楚楚	-10.8962
假意	-10.8963
擒拿手	-10.8964
散开	-10.8965
避让	-10.8967
受苦	-10.8967
通红	-10.8969
运力	-10.8969
这股	-10.8969
几欲	-10.897
臀上	-10.897
乡下	-10.8971
吃惊	-10.8972
买了	-10.8972
山洪	-10.8972
暗骂	-10.8974
服输	-10.8976
大王	-10.8976
国家	-10.8978
原委	-10.8979
明师	-10.8979
脸颊上	-10.8979
以便	-10.8981
失声	-10.8982
扑击	-10.8982
该死	-10.8982
进门	-10.8983
奇功	-10.8984
心存	-10.8985
不在乎	-10.8986
不合	-10.8988
首先	-10.8989
看清	-10.899
西毒欧阳锋	-10.8991
也只有	-10.8993
这么多	-10.8996
重阳宫中	-10.8998
脚步声	-10.8998
再也不敢	-10.8999
黄马	-10.9006
隔着	-10.9007
相比	-10.9009
穿了	-10.901
一跳	-10.9011
▁突然	-10.9012
难怪	-10.9013
斗到	-10.9014
另一人	-10.9015
一共	-10.9017
不肯说	-10.9021
在他肩头	-10.9024
左腕	-10.9024
至此	-10.9025
这一抓	-10.9026
殿上	-10.9027
跌入	-10.9027
天边	-10.9031
用兵	-10.9031
山洞中	-10.9033
进入	-10.9033
但这时	-10.9033
古人	-10.9035
大异	-10.9037
纵有	-10.9039
睁眼	-10.9039
。’”	-10.904
所发	-10.9041
郭靖奇	-10.9044
只用	-10.9047
饿了	-10.9048
三日	-10.9051
相待	-10.9052
穿过	-10.9054
须知	-10.9054
嫁给	-10.9055
可见	-10.9057
甚感	-10.906
因之	-10.906
大厅上	-10.9062
连日	-10.9063
扣住	-10.9064
委实	-10.9067
如果	-10.9071
苦于	-10.9073
连刺	-10.9075
忍住	-10.9076
不利	-10.9077
▁段天德	-10.9081
飞到	-10.9083
马蹄	-10.9084
船舱	-10.9085
洞里	-10.9085
也没有	-10.9087
要是我	-10.9088
柳树	-10.9088
道兄	-10.909
之感	-10.9091
大队	-10.9093
不须	-10.9094
使个	-10.9096
一点也不	-10.9101
我问你	-10.9102
娶她	-10.9105
进洞	-10.9107
我帮	-10.9111
死命	-10.9114
密室	-10.9117
的用意	-10.9118
触到	-10.912
枪杆	-10.9122
劈去	-10.9123
了这许多	-10.9125
古墓派的	-10.9125
还得	-10.9125
我才不	-10.913
发怒	-10.9131
让路	-10.9136
也算	-10.9136
上卷	-10.9139
走入	-10.9141
脚底	-10.9144
不容易	-10.9145
却只	-10.9145
钻进	-10.9153
幼女	-10.9154
要知	-10.9155
问你	-10.916
已近	-10.917
船头	-10.9176
刚要	-10.9178
毁了	-10.9182
她脸上	-10.9184
的劲力	-10.9187
喝骂	-10.9188
这件	-10.9191
郭兄	-10.9203
刺入	-10.9205
贱	-10.9205
这是我	-10.9209
否	-10.9211
关上	-10.9212
黄蓉的手	-10.9213
个时辰	-10.9219
何人	-10.9224
却也不	-10.9225
▁武修文	-10.9229
藏僧	-10.9237
去寻	-10.924
对小龙女	-10.9243
均觉	-10.9246
任他	-10.9252
你爱	-10.9256
直刺	-10.9258
裤	-10.9259
手势	-10.9262
救得	-10.9268
但求	-10.9273
门边	-10.9283
骂人	-10.9285
强劲	-10.9286
我妈妈	-10.9287
前行	-10.9297
幸得	-10.9301
捉住	-10.9308
任你	-10.9312
来攻	-10.9313
儿女	-10.9314
黄蓉与郭靖	-10.9315
打中了	-10.9315
的来历	-10.9316
额	-10.9317
说得是	-10.9317
厮	-10.932
纸上	-10.9323
炕	-10.9324
版	-10.9332
湖边	-10.9339
幅	-10.9345
谎	-10.9347
顶门	-10.9353
在手中	-10.9361
妥	-10.9363
收了	-10.9367
株	-10.937
活死人墓	-10.9373
只叫	-10.9373
歹	-10.9373
出气	-10.9374
未必便	-10.9375
就死	-10.9375
飘忽	-10.9375
一间	-10.9378
惯了	-10.9379
实不知	-10.9384
别来	-10.9385
大营	-10.9395
难道这	-10.9398
干么要	-10.9398
人身	-10.9398
打发	-10.9399
成名	-10.94
字迹	-10.9404
微有	-10.9404
又听得	-10.9407
海面	-10.941
床边	-10.9411
也觉	-10.9411
屁	-10.9411
熄	-10.9412
顽童	-10.9413
凭着	-10.9413
劝他	-10.9413
撰	-10.9414
啼	-10.9414
焚	-10.9414
涛	-10.9414
叱	-10.9414
漫	-10.9415
蕴	-10.9415
资质	-10.9415
皮清玄	-10.9415
站立不稳	-10.9415
审	-10.9415
腻	-10.9415
盏	-10.9415
申志凡	-10.9416
鬼鬼祟祟	-10.9416
祁志诚	-10.9416
刮	-10.9416
疾驰	-10.9416
枣核	-10.9416
裙	-10.9416
骄	-10.9416
森	-10.9416
恍然大悟	-10.9416
燕	-10.9416
憾	-10.9416
喇	-10.9416
猿	-10.9416
络	-10.9416
侧身避过	-10.9416
赫然	-10.9416
敛	-10.9416
竹签	-10.9416
揉	-10.9416
塘	-10.9416
一男一女	-10.9416
惊心动魄	-10.9416
敕封	-10.9416
上前去	-10.9416
斡赤斤	-10.9417
回过身来	-10.9417
叹了一口气	-10.9417
倔强	-10.9417
兴高采烈	-10.9417
惊疑不定	-10.9417
妒	-10.9417
曲灵风	-10.9417
喀的一声	-10.9417
阿弥陀佛	-10.9417
玉女剑法	-10.9417
乘隙	-10.9417
喜悦	-10.9417
肩膀	-10.9417
迷糊	-10.9417
撒谎	-10.9417
溢	-10.9417
新郎	-10.9417
就把	-10.9418
尊驾	-10.9418
欣喜	-10.9418
铁尸	-10.9418
歹毒	-10.9418
影踪不见	-10.9418
计策	-10.9419
转瞬间	-10.9419
洪恩师	-10.9419
搏击	-10.9419
奸计	-10.9419
宰相	-10.9419
咒骂	-10.9419
泛	-10.942
笼罩	-10.942
昔年	-10.942
四杰	-10.942
爱妻	-10.942
逐步	-10.942
尤其	-10.9421
部属	-10.9421
丑雕	-10.9422
长长的	-10.9422
贵帮	-10.9422
钢刀	-10.9423
这小小	-10.9423
桌边	-10.9423
呆立	-10.9423
但如	-10.9423
黄夫人	-10.9424
结果	-10.9424
惊疑	-10.9425
猛虎	-10.9425
六位	-10.9425
破烂	-10.9425
雪地里	-10.9426
这两位	-10.9426
怨毒	-10.9426
君子剑	-10.9428
哭了出来	-10.9429
拆招	-10.943
石块	-10.9431
借势	-10.9431
无声	-10.9431
领兵	-10.9432
勾当	-10.9432
相候	-10.9433
提及	-10.9433
弯刀	-10.9434
休想	-10.9434
长辈	-10.9435
绝情谷中	-10.9436
胸间	-10.9436
越想越是	-10.9436
霍都王子	-10.9436
自恃	-10.9436
格开	-10.9436
摇动	-10.9437
哪里还能	-10.9437
淡淡	-10.9439
是何用意	-10.9439
气闷	-10.944
武功天下第一	-10.944
石阵	-10.944
怪物	-10.9441
隐没	-10.9442
刺客	-10.9442
精进	-10.9443
断骨	-10.9444
柄匕首	-10.9445
万万不能	-10.9445
说一句	-10.9445
遍地	-10.9445
小船	-10.9446
遥遥	-10.9446
一行	-10.9446
袖手	-10.9448
第二个	-10.945
令爱	-10.9453
对不起	-10.9457
自创	-10.9458
观斗	-10.9458
却未	-10.946
后辈	-10.946
不济	-10.9461
黄蓉低声	-10.9463
兵法	-10.9464
参与	-10.9466
多端	-10.9467
如此了得	-10.9467
▁过了良久	-10.947
遗命	-10.9471
大剪刀	-10.9474
叫唤	-10.9475
未得	-10.9476
我家	-10.9476
哭叫	-10.9477
说到后来	-10.9477
借着	-10.9479
这几日	-10.948
推门	-10.9482
说谎	-10.9483
剑刺	-10.9483
闪开	-10.9484
一幅	-10.9486
屋顶上	-10.9489
惊动	-10.9491
▁这日	-10.9492
深山	-10.9492
分明	-10.9492
石弹	-10.9493
风响	-10.9495
相通	-10.9496
地势	-10.9498
一搭	-10.9503
一丛	-10.9504
不知去向	-10.9504
或能	-10.9508
容让	-10.9509
海水	-10.9513
最爱	-10.9519
深处	-10.9519
使不得	-10.9523
行刺	-10.9528
草丛中	-10.9529
无怪	-10.9532
洞内	-10.9532
有限	-10.9533
是蒙古	-10.9534
那便是	-10.9534
大腿	-10.9535
传下	-10.9535
只听她	-10.9541
真要	-10.9545
双膝	-10.9547
右腕	-10.9549
藏身	-10.955
襄阳城中	-10.9551
上升	-10.9551
刺向	-10.9551
缺口	-10.9558
口里	-10.9564
时光	-10.9568
死得	-10.9568
一直在	-10.9572
瞧不起	-10.9576
这一日	-10.9582
不受	-10.9592
一试	-10.9595
三月	-10.9595
与拖雷	-10.9597
荒谷	-10.9601
摔得	-10.9603
恃	-10.9607
便不能	-10.9611
了一半	-10.9613
虽已	-10.9614
竟把	-10.9621
松了	-10.9622
回家去	-10.9628
边上	-10.9628
门前	-10.9628
过了一阵	-10.963
倒也不	-10.9631
送上	-10.9634
黄蓉见他	-10.9636
一变	-10.9642
那怪人	-10.9643
喀喇	-10.9644
再练	-10.9646
周围	-10.9647
言下	-10.9647
这一场	-10.9649
台上	-10.9651
这时候	-10.9652
贴身	-10.9653
的情状	-10.9655
在何处	-10.9656
给你们	-10.9658
四师父	-10.966
自此	-10.9661
白纸	-10.9661
倒似	-10.9662
攻上	-10.9665
莫要	-10.9667
进招	-10.967
算得	-10.9673
找个	-10.9678
盘膝坐在	-10.9678
你为甚么	-10.9679
叫甚么	-10.9683
梁上	-10.9689
▁朱子柳	-10.9691
向洪七公	-10.9692
娶了	-10.9693
也均	-10.9695
害了	-10.9701
生生	-10.9702
这几句	-10.9704
并没	-10.9705
▁鲁有脚	-10.971
所使的	-10.9716
震断	-10.9717
小路	-10.9718
了两下	-10.9721
开心	-10.9722
抓到	-10.9726
点中	-10.9728
棵	-10.9729
有心	-10.9729
一只大	-10.9734
好说	-10.9743
的对头	-10.9745
你到底	-10.9746
也决不能	-10.9747
负了	-10.975
一送	-10.9759
世人	-10.9759
你干甚么	-10.976
怕甚么	-10.9762
当今	-10.9766
黄蓉微微一笑	-10.9775
几只	-10.9775
便不	-10.9776
农夫	-10.9779
也不致	-10.9779
的力道	-10.9785
没料到	-10.9785
▁潇湘子	-10.9786
子弟	-10.9789
有难	-10.9792
手指上	-10.9792
在床上	-10.9806
高下	-10.9809
黑雕	-10.9817
打出	-10.982
奔回	-10.982
叫喊	-10.9823
又自	-10.9825
猜想	-10.9826
单是	-10.9827
说不得	-10.9835
这几个	-10.9843
永远不	-10.9851
鼻中	-10.9851
趣	-10.9854
虽多	-10.9865
打个	-10.9868
个手势	-10.9869
果是	-10.987
皱	-10.9871
弹出	-10.9878
王将军	-10.9878
桃	-10.9879
一大块	-10.9883
史伯威	-10.9885
碍	-10.9885
送出	-10.9885
在襄阳	-10.9886
骇然	-10.9889
阵阵	-10.9893
次日	-10.9896
惊醒	-10.9897
年纪虽	-10.9897
杀敌	-10.9897
叩	-10.99
脱下	-10.99
身侧	-10.9903
点去	-10.9905
押	-10.9905
瓜	-10.9905
是好人	-10.9906
搔	-10.9907
一沉	-10.9908
女的	-10.991
导	-10.991
泰	-10.991
咒	-10.9911
促	-10.9911
迁	-10.9912
川	-10.9912
驳	-10.9913
膀	-10.9914
脆	-10.9914
醒悟	-10.9914
肤	-10.9914
骷髅头	-10.9915
躁	-10.9915
蜜浆	-10.9915
研习	-10.9915
符	-10.9915
飒	-10.9915
胀	-10.9915
祭	-10.9915
荆棘	-10.9916
爆	-10.9916
叮	-10.9916
镶	-10.9916
猫	-10.9916
恕	-10.9916
笑脸鬼	-10.9916
全真六子	-10.9916
宏	-10.9916
江南七侠	-10.9916
聘	-10.9916
性命不保	-10.9916
雁	-10.9916
臻	-10.9916
郭破虏	-10.9916
呵	-10.9916
转过了头	-10.9916
脂	-10.9916
瞧了一眼	-10.9916
也速该	-10.9916
添	-10.9916
哥儿俩	-10.9916
余暇	-10.9916
寄	-10.9916
小娃儿	-10.9916
有性命之忧	-10.9916
波涛	-10.9917
端倪	-10.9917
侍卫	-10.9917
不碍事	-10.9917
聪明伶俐	-10.9917
亲眼见到	-10.9917
仙姑	-10.9917
绵绵	-10.9917
统率	-10.9917
莫测	-10.9917
抗拒	-10.9917
圆球	-10.9917
枯柴	-10.9917
苦苦思索	-10.9917
松柴	-10.9917
嘴巴	-10.9917
旭烈兀	-10.9917
骇异	-10.9917
昨日	-10.9918
希奇	-10.9918
师徒俩	-10.9918
敝帮	-10.9918
顾忌	-10.9918
齐声惊呼	-10.9918
图谋	-10.9918
瞪视	-10.9918
鲁帮主	-10.9918
微蹙	-10.9919
激烈	-10.9919
老朽	-10.9919
毫不理会	-10.9919
激荡	-10.9919
祖宗	-10.9919
阻止	-10.9919
凶狠	-10.992
抢上前去	-10.992
题目	-10.992
妙策	-10.992
惊慌	-10.992
原来如此	-10.9921
避开了	-10.9921
不准	-10.9921
在洞中	-10.9921
冰冷	-10.9922
一生一世	-10.9922
修习内功	-10.9922
孤苦	-10.9922
恭喜	-10.9923
捡起	-10.9923
凶猛	-10.9923
遇险	-10.9923
图画	-10.9924
决不致	-10.9925
习练	-10.9925
愁苦	-10.9925
无碍	-10.9925
师尊	-10.9925
▁当	-10.9925
放在桌上	-10.9925
关切	-10.9926
玩玩	-10.9926
任由	-10.9926
才智	-10.9927
立誓	-10.9927
极厉害的	-10.9928
强忍	-10.9928
示意	-10.993
新娘子	-10.993
大校场	-10.9931
援手	-10.9931
女娃娃	-10.9932
身在半空	-10.9932
迎敌	-10.9933
得悉	-10.9934
▁第三十	-10.9935
农家	-10.9935
了个空	-10.9935
抢夺	-10.9936
何苦	-10.9938
无赖	-10.9938
逆行	-10.9938
微微冷笑	-10.9938
▁第二十	-10.9938
花香	-10.994
装作	-10.994
行径	-10.994
众百姓	-10.994
一痛	-10.9941
我兄弟	-10.9941
痛哭	-10.9941
怪文	-10.9941
处境	-10.9941
酒饭	-10.9941
何用	-10.9941
流血	-10.9942
枪法	-10.9942
夺去	-10.9942
风吹	-10.9943
做个	-10.9944
利剑	-10.9945
发现	-10.9945
保护	-10.9945
郭家	-10.9946
射来	-10.9946
亲随	-10.9947
轰轰	-10.9947
疾刺	-10.9947
暗暗吃惊	-10.9947
不脱	-10.9947
那魔头	-10.9948
来找	-10.9948
恨不得	-10.9949
震动	-10.9949
抚着	-10.9951
小事	-10.9953
向李莫愁	-10.9956
两侧	-10.9959
胜得过	-10.9959
临安府	-10.9963
曾说	-10.9964
二女	-10.9966
充满了	-10.9967
写得	-10.9967
回桃花岛	-10.9968
不止	-10.9968
不枉了	-10.9968
安好	-10.9968
好小子	-10.9971
两尺	-10.9972
传过	-10.9973
提剑	-10.9973
凡是	-10.9974
陪笑	-10.9974
山西	-10.9976
夺得	-10.9977
求情	-10.9977
这魔头	-10.9978
名道人	-10.9979
脚力	-10.9979
只知	-10.998
朱聪等	-10.9983
去买	-10.9984
世事	-10.9985
你说我	-10.9987
为主	-10.9991
古墓中	-10.9992
深情	-10.9994
之故	-10.9996
帮着	-10.9996
更甚	-10.9996
满身	-10.9997
用手指	-10.9997
领着	-10.9997
那船	-11
相求	-11.0003
处女	-11.0006
郭靖依言	-11.0008
倒在地下	-11.0008
出墓	-11.0012
’!”	-11.0012
见到杨过	-11.0016
之约	-11.0016
▁那渔人	-11.0017
不假	-11.0018
和李莫愁	-11.0023
我且	-11.0023
刺中	-11.0024
留心	-11.0026
满心	-11.0027
椅上	-11.0027
所书	-11.0031
停住	-11.0032
回掌	-11.0033
一线	-11.0033
难解	-11.0036
一放	-11.0037
惶恐	-11.004
一辈	-11.0044
▁那少年	-11.0045
小石子	-11.0045
双拳	-11.0046
神色间	-11.005
发招	-11.0052
浑不	-11.0052
谁要你	-11.0054
立足	-11.0054
冲天	-11.0055
没见到	-11.0059
拿住了	-11.0067
心生	-11.0067
向欧阳锋	-11.0072
仰头	-11.0074
跟我们	-11.0075
撞向	-11.0075
转出	-11.0075
都是一惊	-11.0078
对你说	-11.008
一个小小	-11.0081
心血	-11.0083
枪头	-11.0083
阻住	-11.0083
未免太	-11.0087
上峰	-11.0088
这时却	-11.0091
▁马光佐	-11.0101
小孩子	-11.0105
余下的	-11.0105
家中	-11.0106
分离	-11.0106
尖刺	-11.0106
乱打	-11.0108
黄蓉拍手	-11.0109
却是个	-11.0109
也不理会	-11.0111
居中	-11.0111
这一惊	-11.0116
三剑	-11.0118
妙法	-11.012
长发	-11.0122
挂着	-11.0123
不久便	-11.0124
了一场	-11.0127
够了	-11.0128
心中甚是	-11.0128
铁掌山	-11.0129
有理	-11.0131
马蹄声	-11.0134
大口	-11.0134
但此刻	-11.0136
竟要	-11.0141
言语中	-11.0142
隆	-11.0146
▁华筝	-11.0156
当前	-11.0159
咱们先	-11.016
红了	-11.0163
舍命	-11.0167
爬起	-11.0171
▁孙婆婆	-11.0173
箭射	-11.0173
大力	-11.0178
稍一	-11.0186
见物	-11.0198
这一脚	-11.0201
数招一	-11.0201
这一刀	-11.0203
不喜欢	-11.0207
去捉	-11.0213
再加	-11.0216
横过	-11.0216
矮胖子	-11.0223
铁剑	-11.0226
攻到	-11.0233
两剑	-11.0235
书画	-11.0237
出鞘	-11.0237
甘心	-11.0246
无能	-11.0246
说些	-11.0247
见了他	-11.0249
心地	-11.025
妇人	-11.0251
目不	-11.0255
骂得	-11.0255
干么不	-11.0258
人数	-11.0259
原也	-11.0263
教过	-11.0264
总得	-11.0265
踏上	-11.0271
惊得	-11.0273
了多少	-11.0274
祖师	-11.0278
隐身	-11.028
▁黄蓉心想	-11.0287
猛攻	-11.0288
摔下	-11.0289
击下	-11.0297
问她	-11.0299
那道士	-11.0312
不自禁	-11.0314
北边	-11.0316
戴上	-11.0316
也罢	-11.0322
方得	-11.0327
发劲	-11.0328
满是	-11.033
鹰	-11.0339
武功虽然	-11.0341
也奇怪	-11.0348
北上	-11.0355
铁锤	-11.0357
定能	-11.0359
冲去	-11.036
险恶	-11.0362
武官	-11.0363
乎	-11.0369
责骂	-11.0378
和郭芙	-11.0383
快些	-11.0388
喉	-11.039
剑光	-11.0391
此人武功	-11.0394
也顾不得	-11.0396
丸	-11.0399
箱	-11.0405
杨过一怔	-11.0405
阻挡	-11.0409
愿意	-11.041
咬牙	-11.0412
贸然	-11.0415
太多	-11.0417
守着	-11.0417
草原	-11.0421
要死	-11.0421
耻	-11.0421
此去	-11.0422
传我	-11.0426
恰	-11.0426
同声	-11.0426
从没	-11.0428
踪	-11.0428
深陷	-11.0432
帽	-11.0432
井	-11.0435
捡	-11.0435
禀	-11.0435
纪	-11.0437
绿衫	-11.0437
紧迫	-11.0438
循	-11.044
巴	-11.044
心念	-11.0441
寝	-11.0441
挪	-11.0441
赵王	-11.0441
鹿	-11.0441
造诣	-11.0441
蚌	-11.0442
神龙摆尾	-11.0442
妙手书生	-11.0442
骸骨	-11.0442
姬	-11.0442
弥	-11.0442
溃	-11.0442
酷	-11.0442
七日七夜	-11.0442
白眉僧	-11.0442
黯然销魂掌	-11.0442
诏	-11.0442
暴躁	-11.0442
成千成万	-11.0442
e	-11.0442
刹那间	-11.0442
我义父	-11.0442
浩	-11.0442
莫名其妙	-11.0442
帷	-11.0442
近年来	-11.0442
踹	-11.0442
置之度外	-11.0442
八袋弟子	-11.0442
坐起身来	-11.0443
妾	-11.0443
一时三刻	-11.0443
坛	-11.0443
沉沉睡去	-11.0443
迭	-11.0443
放在眼里	-11.0443
犹豫	-11.0443
做声不得	-11.0443
戒备	-11.0443
祝寿	-11.0443
厄	-11.0443
精神大振	-11.0443
傍晚	-11.0443
鉴	-11.0443
东南西北	-11.0443
鸭	-11.0443
丰	-11.0443
半枚丹药	-11.0443
阔阔出	-11.0443
断肠草	-11.0443
剧烈	-11.0443
一跃而起	-11.0443
偶尔	-11.0443
御敌	-11.0444
哭泣	-11.0444
讲究	-11.0444
是真是假	-11.0444
岳爷爷	-11.0444
轴	-11.0444
自忖	-11.0444
穆姊姊	-11.0444
有话	-11.0444
越听越	-11.0444
谭	-11.0445
告辞	-11.0445
灰尘	-11.0445
钦服	-11.0445
宾客	-11.0445
利刃	-11.0445
吸一口气	-11.0445
污泥	-11.0445
形状	-11.0446
乃蛮	-11.0446
棺木	-11.0446
群豪	-11.0446
凝思	-11.0447
天下无双	-11.0447
恶妇	-11.0447
颜色	-11.0447
多少时候	-11.0447
长春子丘处机	-11.0447
宛然	-11.0447
一般见识	-11.0448
谢罪	-11.0448
汉语	-11.0449
酣斗	-11.0449
奸恶	-11.045
凶恶	-11.0451
婚事	-11.0451
全仗	-11.0451
广东	-11.0452
守护	-11.0453
催马	-11.0454
重逢	-11.0454
退避	-11.0454
今年	-11.0454
处置	-11.0454
画像	-11.0455
一阵剧痛	-11.0455
练剑	-11.0455
十五掌	-11.0456
撇下	-11.0456
微微一惊	-11.0457
忽听身后	-11.0458
瞪着	-11.0458
沉沉	-11.0458
高僧	-11.0458
该当如何	-11.046
性命难保	-11.046
相传	-11.046
罢休	-11.0461
转念又想	-11.0461
火堆	-11.0462
重阳	-11.0463
非凡	-11.0464
径往	-11.0464
铁棒	-11.0465
▁又过	-11.0465
气喘	-11.0466
踢出	-11.0466
一想	-11.0467
在那边	-11.0468
睡着	-11.0468
举步	-11.047
杖法	-11.0473
之技	-11.0473
宝马	-11.0474
眼色	-11.0474
右拳	-11.0474
子孙	-11.0475
若说	-11.0475
一只手	-11.0476
鬼怪	-11.0477
请各位	-11.0478
痛苦	-11.048
受重伤	-11.0481
虚招	-11.0483
药丸	-11.0484
存心要	-11.0485
抢去	-11.0485
了几分	-11.0486
劲敌	-11.0486
天性	-11.0487
落败	-11.0488
收势	-11.049
点燃了	-11.0492
无计	-11.0493
服食	-11.0496
何事	-11.05
也不以为意	-11.0503
四尺	-11.0506
扑上去	-11.0507
各路	-11.051
外功	-11.0512
之恩	-11.0512
想像	-11.0513
满地	-11.0513
蒙古包	-11.0514
在水中	-11.0516
进击	-11.0517
作势	-11.0518
同门	-11.0519
▁陆乘风	-11.0521
归天	-11.0522
背负	-11.0523
比拚	-11.0525
仇怨	-11.053
侧过	-11.0531
小妹子	-11.0532
刷的一	-11.0535
扬起	-11.0536
毒气	-11.0538
直立	-11.0544
老实	-11.0545
带动	-11.0546
这丫头	-11.0547
堂上	-11.0548
铃声	-11.0549
变成	-11.055
你怎么啦	-11.055
灵便	-11.0554
天黑	-11.0555
的衣袖	-11.0557
乱石	-11.0561
冲入	-11.0561
多日	-11.0562
带到	-11.0563
转弯	-11.0568
始终没	-11.0572
知他是	-11.0572
光闪烁	-11.0572
扑到	-11.0574
以内力	-11.0576
两日	-11.0576
▁那道人	-11.0584
去找他	-11.0589
解了	-11.0589
毙了	-11.059
四弟子	-11.059
一缩	-11.0592
▁这一来	-11.0593
直奔	-11.0594
▁哪知	-11.0595
数十年来	-11.0596
讲到	-11.0598
那妇人	-11.0601
生长	-11.0605
翻转	-11.0606
▁江南六怪	-11.0611
砰的一	-11.0613
那老丐	-11.0613
等情	-11.0616
之伤	-11.0621
百年	-11.0625
难言	-11.0626
还击	-11.0631
牛羊	-11.0633
直扑	-11.0638
闪过	-11.064
制住	-11.0641
郭靖摇头	-11.0648
压得	-11.065
任谁	-11.065
见到她	-11.0656
还会	-11.0656
教中	-11.0659
李莫愁师徒	-11.0662
捉了	-11.0663
一棒	-11.0672
约有	-11.0672
好姑娘	-11.0673
小儿	-11.0674
▁第十	-11.0678
声呼叫	-11.0682
小鬼	-11.0686
有甚么用	-11.0686
席上	-11.0688
第三个	-11.0689
两手	-11.0696
行到	-11.0697
▁慈恩	-11.0699
半空	-11.0706
罢手	-11.0707
陪我	-11.0708
▁郭	-11.0708
爹爹说	-11.0709
斟了	-11.0713
倚在	-11.0715
听到他	-11.0716
女孩儿	-11.0717
斟	-11.0717
睡在	-11.0723
的徒弟	-11.0726
径向	-11.0738
现下你	-11.0741
快逃	-11.0754
跌得	-11.076
枪尖	-11.076
处穴道	-11.0763
领了	-11.0775
不避	-11.0779
就在这	-11.0785
还怕	-11.0788
马钰等	-11.0792
笑问	-11.0794
人情	-11.0794
眼角	-11.0798
想必	-11.0798
三师父	-11.0799
一个少年	-11.0806
副	-11.0816
一卷	-11.0816
如此厉害	-11.0817
开城	-11.0819
在左近	-11.0822
掉下	-11.0825
樵子	-11.0826
人间	-11.0828
棺中	-11.0836
又行	-11.084
碑上	-11.0848
不还手	-11.0867
安稳	-11.0871
无疑	-11.0874
几十	-11.0876
就算是	-11.0879
拉住了	-11.0879
影子	-11.0881
大金国的	-11.0882
托在	-11.0884
虽说	-11.0896
英雄豪杰	-11.09
响起	-11.0907
藏着	-11.0908
跟我来	-11.0908
十指	-11.0913
迟了	-11.093
长身	-11.0931
可说是	-11.0933
拉开	-11.0934
碟	-11.0936
谁敢	-11.0941
一松	-11.0942
进房	-11.095
姓杨的	-11.095
崖边	-11.0953
晕倒	-11.0956
左拳	-11.0957
筹	-11.0959
两只手	-11.0963
落得	-11.0964
骇	-11.0968
次晨	-11.0969
奴	-11.0973
都不禁	-11.0975
侄	-11.0979
见他脸色	-11.0981
跟他说	-11.0982
隙	-11.0984
一阵阵	-11.0984
搏	-11.0985
捷	-11.0987
霎	-11.0988
飞过	-11.0989
耐	-11.0991
泄	-11.0991
呕	-11.0993
才能	-11.0994
冈	-11.0994
尼	-11.0994
赶快	-11.0995
再好也没有	-11.0996
漆	-11.0996
摩	-11.0996
斫	-11.0997
郁	-11.0997
范	-11.0997
侮	-11.0997
驯	-11.0997
欠	-11.0997
藏边五丑	-11.0997
葛	-11.0997
灶	-11.0997
翘	-11.0997
四大长老	-11.0997
蔽	-11.0997
五毒神掌	-11.0997
诉	-11.0997
锭	-11.0997
窍	-11.0997
录	-11.0998
纹丝不动	-11.0998
徐	-11.0998
卑	-11.0998
熏	-11.0998
易如反掌	-11.0998
议论	-11.0998
天翻地覆	-11.0998
大惊失色	-11.0998
践	-11.0998
点苍渔隐	-11.0998
飘逸	-11.0998
在华山绝顶	-11.0998
严厉	-11.0998
筋疲力尽	-11.0998
腮	-11.0998
低下头来	-11.0998
双剑合璧	-11.0998
咬紧牙关	-11.0998
姊夫	-11.0998
刑	-11.0998
夷	-11.0998
姓郭的小子	-11.0998
武氏父子	-11.0998
何沅君	-11.0998
尾巴	-11.0998
得粉碎	-11.0998
栏	-11.0998
风陵渡	-11.0998
帐幕	-11.0998
殉	-11.0998
魄	-11.0998
委屈	-11.0998
大惑不解	-11.0998
郁郁	-11.0998
寂静无声	-11.0998
见识见识	-11.0998
叔侄	-11.0999
神骏	-11.0999
娇艳	-11.0999
伟	-11.0999
堪堪	-11.0999
责备	-11.0999
师侄	-11.0999
行侠仗义	-11.0999
洒	-11.0999
说给我听	-11.0999
烟雾	-11.0999
李师伯	-11.0999
趋避	-11.1
赵王爷	-11.1
尹师兄	-11.1
凑巧	-11.1
智计	-11.1
争吵	-11.1001
杂毛	-11.1001
新婚	-11.1001
凄苦	-11.1001
求恳	-11.1001
昼	-11.1001
虎虎	-11.1002
她手腕	-11.1002
饭铺	-11.1002
天下无敌	-11.1002
麻木	-11.1002
伞	-11.1002
怔怔的望着	-11.1002
部族	-11.1002
获胜	-11.1002
肚皮	-11.1003
杨兄	-11.1003
蛇毒	-11.1003
饮食	-11.1004
六侠	-11.1004
房屋	-11.1005
同伴	-11.1006
厮守	-11.1006
玩弄	-11.1006
掀开	-11.1007
悲痛	-11.1008
舱门	-11.1008
长啸	-11.1008
盖世	-11.1008
手中拿着	-11.1008
了一个多时辰	-11.1008
无大碍	-11.1009
葬身	-11.101
奔了一阵	-11.101
罕见	-11.101
脱险	-11.101
低呼	-11.1011
男儿	-11.1011
银光	-11.1012
抛在地下	-11.1012
五轮	-11.1012
挥舞	-11.1014
到了何处	-11.1015
你怎知	-11.1015
他生平	-11.1016
槐树	-11.1016
兵刃相交	-11.1017
顺口	-11.1017
海边	-11.1019
尺来长	-11.1019
肚腹	-11.1019
伸手接过	-11.102
柔情	-11.1021
时机	-11.1021
门下弟子	-11.1022
断臂	-11.1022
美女	-11.1022
大宗师	-11.1022
拿到	-11.1023
姓杨	-11.1024
数十招	-11.1025
大红	-11.1025
年纪轻轻	-11.1026
坐船	-11.1027
护着	-11.1028
毒液	-11.1028
放脱	-11.1032
美酒	-11.1032
宝剑	-11.1032
孙子	-11.1033
近前	-11.1033
将近	-11.1034
而论	-11.1035
写字	-11.1036
雪花	-11.1036
两场	-11.1036
钢刺	-11.1036
满面	-11.1037
深夜	-11.1038
潜入	-11.1041
礼法	-11.1041
潜心	-11.1043
观战	-11.1043
松开	-11.1044
亲传	-11.1045
香气	-11.1045
山坡上	-11.1046
家师	-11.1046
这几位	-11.105
名目	-11.1052
到这里来	-11.1054
进退	-11.1055
门后	-11.1055
究是	-11.1056
遗体	-11.1056
带同	-11.1058
听他说得	-11.106
言明	-11.106
追逐	-11.106
拚了	-11.1061
一咬牙	-11.1061
裹住	-11.1062
身随	-11.1063
南阳	-11.1064
见不到	-11.1064
悉	-11.1065
大雨	-11.1066
回过	-11.1068
月光下只见	-11.107
大驾	-11.1072
细想	-11.1072
托着	-11.1072
回入	-11.1074
回首	-11.1074
斥责	-11.1077
尚自	-11.1077
羊腿	-11.1082
书写	-11.1082
而为	-11.1083
▁张君宝	-11.1085
硬接	-11.1087
连夜	-11.1089
三个人	-11.1092
那瘦丐	-11.1097
这边	-11.1102
下次	-11.1103
追出	-11.1105
探出	-11.1106
磕了	-11.1107
迈步	-11.1107
按在	-11.1107
化成	-11.1116
瞧清楚	-11.1116
在田	-11.1116
莫说	-11.1117
走过去	-11.1118
踢中	-11.1119
我怎能	-11.112
还不是	-11.1121
奇门	-11.1128
众军	-11.113
故人	-11.113
激得	-11.1132
闭住	-11.1144
喊声	-11.1144
穿出	-11.1145
见机	-11.1147
两人一齐	-11.1147
惨死	-11.1148
事迹	-11.1149
片刻间已	-11.1151
条鲨鱼	-11.1152
的手法	-11.1152
多言	-11.1157
这剑	-11.1159
了一些	-11.1164
入门	-11.1166
缩手	-11.1171
上山来	-11.1172
两掌	-11.1177
却见他	-11.1178
散乱	-11.1181
虽知	-11.1186
若在	-11.119
踢去	-11.1194
响动	-11.1196
严守	-11.1196
腾腾	-11.1197
▁六怪	-11.1197
为此	-11.12
的规矩	-11.1201
也未必能	-11.1203
都感	-11.1207
同来	-11.1209
▁哲别	-11.121
阳光	-11.1211
树下	-11.1215
一番话	-11.1221
散了	-11.1227
听声音	-11.1227
任帮主	-11.1231
外边	-11.1232
的目光	-11.1234
逐出	-11.1238
相干	-11.1241
巨石	-11.1243
悟到	-11.1245
▁达尔巴	-11.1248
大火	-11.1249
▁侯通海	-11.1253
向敌人	-11.1253
就走	-11.1255
借了	-11.1256
一面说	-11.1257
瞧瞧去	-11.1259
人声	-11.1262
安睡	-11.1265
伤得	-11.1266
骑在	-11.1268
说了一遍	-11.1268
欺侮你	-11.1269
所为	-11.1277
十余人	-11.1278
百斤	-11.1279
的姓名	-11.1281
姓郭	-11.1284
黄河	-11.1295
囊中	-11.1295
练到了	-11.1298
五年	-11.1303
更为	-11.1307
这一路	-11.1307
冲进	-11.1312
脚踢	-11.1321
最高	-11.1324
一轮	-11.1326
一问	-11.1326
太平	-11.1332
回头向	-11.1333
只道是	-11.1343
略有	-11.1353
后殿	-11.1353
的坐骑	-11.1369
踪迹	-11.1369
听话	-11.1371
解说	-11.1373
紧闭	-11.1376
绝招	-11.1382
大战	-11.1385
向前急	-11.1386
我可要	-11.1387
得多了	-11.1387
举掌	-11.1389
在大漠	-11.1392
急冲	-11.1403
十几	-11.1403
郭靖听了	-11.1408
要将他	-11.1412
拂中	-11.1419
虽非	-11.142
几个字	-11.1422
艘	-11.1427
溜下	-11.1429
守得	-11.1433
有什么	-11.1437
便此	-11.144
柴草	-11.1449
刷刷刷	-11.145
男的	-11.1456
想念	-11.146
西北方	-11.1465
入口	-11.1466
再比	-11.1468
你们要	-11.1471
均知	-11.1471
宰	-11.148
话中	-11.1484
有失	-11.1485
见情势	-11.1494
奔逃	-11.1498
步而行	-11.1499
常说	-11.1499
饶他	-11.15
朵	-11.1509
唤	-11.1513
之能	-11.1513
马缰	-11.1514
打扰	-11.1516
树丛中	-11.1517
湖中	-11.1527
去找寻	-11.1528
拿出	-11.1529
睛	-11.1531
在嘉兴	-11.1536
伸左手	-11.1536
害你	-11.1545
甲板	-11.1549
楼下	-11.1551
希罕	-11.1557
谓	-11.1562
其实是	-11.1563
不敢再说	-11.1563
递出	-11.1566
草丛	-11.1567
小可	-11.157
胯	-11.1571
居士	-11.1573
思潮起伏	-11.1574
肝	-11.1574
急驰	-11.1578
厉	-11.1579
塌	-11.158
躬	-11.1581
纤	-11.1582
旁观众人	-11.1583
帅	-11.1583
窟	-11.1583
诡	-11.1584
稀	-11.1584
郭靖和黄蓉	-11.1584
寨	-11.1584
秤杆	-11.1585
忆	-11.1585
泣	-11.1585
超	-11.1585
傻里傻气	-11.1585
呼呼风响	-11.1586
彩雪蛛	-11.1586
赌赛	-11.1586
卑鄙	-11.1586
疆	-11.1586
姬妾	-11.1586
藏经阁	-11.1586
炸	-11.1586
辔	-11.1586
喏	-11.1586
作恶多端	-11.1586
脸色苍白	-11.1586
目瞪口呆	-11.1586
瞪了一眼	-11.1586
讥嘲	-11.1586
从头至尾	-11.1586
区区	-11.1586
后会有期	-11.1586
仓卒	-11.1586
拚个你死我活	-11.1586
韩世忠	-11.1586
自相残杀	-11.1586
站直身子	-11.1586
陶	-11.1586
泡	-11.1586
邦	-11.1586
呆在当地	-11.1586
朦胧	-11.1586
颠三倒四	-11.1586
严峻	-11.1586
侧耳倾听	-11.1587
搅	-11.1587
驻	-11.1587
愚	-11.1587
刁	-11.1587
耶律大爷	-11.1587
恶狠狠的	-11.1587
保佑	-11.1587
阿沅	-11.1587
魁	-11.1587
毛骨悚然	-11.1587
的份儿	-11.1587
诛	-11.1587
队伍	-11.1587
小沙弥	-11.1587
独孤前辈	-11.1587
个鬼脸	-11.1587
迟钝	-11.1587
她老人家	-11.1587
三头蛟侯通海	-11.1587
淫贼	-11.1587
柯大侠	-11.1587
诚恳	-11.1587
柳妹	-11.1588
喘息	-11.1588
繁复	-11.1588
慑	-11.1588
漆黑	-11.1588
音讯	-11.1588
洪老前辈	-11.1588
跟在后面	-11.1588
玉箫剑法	-11.1588
傲慢	-11.1588
阴谋	-11.1589
齐声喝彩	-11.1589
讥刺	-11.1589
断为两截	-11.1589
丘师伯	-11.1589
故乡	-11.1589
长春子	-11.1589
追踪	-11.1589
挂怀	-11.159
一个女子声音	-11.159
觅路	-11.159
断肠崖前	-11.159
害羞	-11.159
恩怨	-11.1591
浑厚	-11.1591
奔腾	-11.1591
双翅	-11.1591
幸亏	-11.1591
疲累	-11.1591
照耀	-11.1592
稍减	-11.1592
连绵	-11.1592
公鸡	-11.1592
谈谈	-11.1593
瞧得明白	-11.1593
一动不动	-11.1593
岳母	-11.1593
血迹	-11.1594
华筝公主	-11.1594
泥沙	-11.1594
金环	-11.1594
碰撞	-11.1594
个不停	-11.1595
再拆数	-11.1595
嘴角	-11.1595
成婚	-11.1596
美人儿	-11.1596
局面	-11.1596
气愤	-11.1597
伤处	-11.1597
曲折	-11.1597
两柄长剑	-11.1597
船板	-11.1598
听了此言	-11.1598
两丈	-11.1598
爹妈	-11.1599
微晃	-11.1599
四王子	-11.16
有多大	-11.16
日后再	-11.16
亲密	-11.16
携带	-11.1601
武学中	-11.1602
三长老	-11.1602
欺骗	-11.1602
低沉	-11.1602
容色	-11.1603
一心要	-11.1604
微侧	-11.1604
仗剑	-11.1605
瘦马	-11.1605
逆转	-11.1605
身子一晃	-11.1606
五丑	-11.1606
之遥	-11.1606
丐帮的帮主	-11.1607
离岛	-11.1607
千斤	-11.1607
己方	-11.1607
后患	-11.1607
追寻	-11.1608
脑后	-11.1609
升起	-11.1609
小哥	-11.1611
银两	-11.1611
至宝	-11.1612
伸手往	-11.1612
闭气	-11.1613
我一生	-11.1613
牧人	-11.1613
相公	-11.1614
来袭	-11.1614
蛇阵	-11.1614
叫了几声	-11.1614
腰刀	-11.1615
室门	-11.1615
几个时辰	-11.1615
所擒	-11.1615
两个儿子	-11.1615
玩意	-11.1616
神通	-11.1616
缠斗	-11.1617
笑了笑	-11.1619
额上	-11.1621
险些儿	-11.1622
明月	-11.1622
连续	-11.1622
之状	-11.1624
寒意	-11.1625
提刀	-11.1625
行止	-11.1627
嘉兴府	-11.1627
柔儿	-11.1628
这柄	-11.1628
没死	-11.1632
小溪	-11.1632
岂不是好	-11.1633
着恼	-11.1633
机会	-11.1634
恨极	-11.1634
长鞭	-11.1635
自保	-11.1635
缰绳	-11.1635
数合	-11.1637
几个月	-11.1637
活死人墓中	-11.1638
万难	-11.1639
纵上	-11.164
就是这样	-11.164
推拿	-11.164
之象	-11.164
远离	-11.1643
中途	-11.1645
参见	-11.1646
光明	-11.1646
之位	-11.1647
疾向	-11.1649
刺伤	-11.1649
疾忙	-11.165
但知	-11.165
来接	-11.1651
墓碑	-11.1651
甚远	-11.1652
心中好生	-11.1652
落在地下	-11.1653
小师妹	-11.1654
书法	-11.1655
带领	-11.1655
掌柜的	-11.1658
船夫	-11.1659
大殿上	-11.1659
围着	-11.1661
明言	-11.1662
这份	-11.1664
忽然间	-11.1665
卷起	-11.1666
样子	-11.1668
敌意	-11.1668
随身	-11.1671
跃上马背	-11.1677
是也不是	-11.1677
只管	-11.1677
不支	-11.1678
第一个	-11.1679
四面	-11.1679
迷迷糊糊的	-11.1681
一战	-11.1685
原可	-11.1687
回夺	-11.1688
挡得住	-11.1689
近处	-11.169
忽听得远处	-11.1694
怎肯	-11.1699
所料	-11.1699
看招	-11.1701
起落	-11.1703
一份	-11.1705
骗你	-11.1706
喜色	-11.1707
斗口	-11.171
五行	-11.1711
若肯	-11.1712
小嘴	-11.1714
你怎知道	-11.1717
舍却	-11.1719
叫一声	-11.172
一滴	-11.1721
变得	-11.1727
起始	-11.1728
一个月	-11.1729
念及此	-11.1737
定须	-11.174
长声	-11.174
大袖	-11.1741
他一生	-11.1741
这一击	-11.1743
我教你	-11.1743
流传	-11.1747
打坐	-11.1748
一弹	-11.1753
斯文	-11.1754
说着伸手	-11.1755
之礼	-11.1755
来找你	-11.1756
抛去	-11.1758
二子	-11.1764
在岛上	-11.1766
加之	-11.1766
出世	-11.1771
含笑	-11.1772
认定	-11.1773
船只	-11.1775
光一闪	-11.1782
裤子	-11.1782
听见了	-11.1787
好生奇怪	-11.1788
大增	-11.1796
岩洞	-11.1798
所杀	-11.1798
只打得	-11.1799
洪七公与欧阳锋	-11.1803
都吃了一惊	-11.1803
料定	-11.1803
大义	-11.1804
双手齐	-11.1805
难事	-11.1805
足尖	-11.1811
两眼	-11.1812
凭他	-11.1812
点心	-11.1813
北风	-11.1816
个大字	-11.1823
拍去	-11.1825
取笑	-11.1826
那红马	-11.183
无辜	-11.1833
不作	-11.1835
丛中	-11.1838
这匹	-11.184
回剑	-11.1841
学着	-11.1847
不认	-11.1848
但因	-11.1855
处于	-11.1861
非常	-11.187
金丝	-11.1872
不敬	-11.1879
长生	-11.1881
在窗外	-11.1884
转为	-11.1889
那化子	-11.189
念及	-11.1893
踢开	-11.1896
罢啦	-11.1897
见怪	-11.1898
剑鞘	-11.1899
收留	-11.19
刀枪	-11.1901
叽哩咕噜的	-11.1918
的方位	-11.1918
握住了	-11.1923
这是甚么	-11.1924
所及	-11.1933
舍命救	-11.1935
运内力	-11.1942
这傻蛋	-11.1949
那男子	-11.1949
已抓住了	-11.1951
好似	-11.1958
又想起	-11.1964
到手	-11.1967
已不过	-11.197
抬头望	-11.197
生满	-11.1976
周伯通大喜	-11.1976
也即	-11.1977
桩	-11.1978
盼他	-11.1981
就只怕	-11.1983
来寻	-11.1986
师父们	-11.2005
停在	-11.2005
有一天	-11.201
纵是	-11.2012
你妈妈	-11.2012
十余丈外	-11.2016
之名	-11.2017
虽无	-11.2022
完全	-11.203
营中	-11.2032
走过	-11.204
是大出意料之外	-11.2043
叹了一口长气	-11.2045
已不知去向	-11.2045
小贼	-11.2047
挂在	-11.2047
在一边	-11.2048
一端	-11.2049
枚金针	-11.2049
殊无	-11.2051
两股	-11.2053
只见欧阳锋	-11.2055
回进	-11.2059
十人	-11.2064
臂弯	-11.2067
一丝	-11.207
奔进	-11.2081
铃	-11.2081
背向	-11.2086
全神贯注	-11.2088
心里一	-11.2089
尸体	-11.209
哭得	-11.2092
何况他	-11.2099
也不知是	-11.2101
一曲	-11.2108
快出来	-11.2125
连珠	-11.2127
进屋	-11.214
好奇	-11.2141
充满	-11.2142
怔	-11.2158
▁过了	-11.2158
得清清楚楚	-11.2158
孩	-11.2167
臀	-11.2169
出于	-11.2175
已失	-11.2178
室顶	-11.2186
筝	-11.2186
我这就	-11.2189
慈	-11.2196
只剩	-11.2198
觅	-11.2198
兀	-11.2199
就怕	-11.22
材	-11.22
册	-11.2201
栗	-11.2201
睁大	-11.2201
烛光	-11.2203
西方	-11.2206
杰	-11.2206
落英神剑掌	-11.2208
恳	-11.2208
先天功	-11.2208
滩	-11.2208
燃	-11.2209
屎	-11.2209
涩	-11.2209
迸	-11.2209
彻	-11.2209
嘉	-11.2209
忍耐	-11.221
哑	-11.221
张志光	-11.221
洞房花烛	-11.221
哭丧棒	-11.221
摧	-11.221
许配于	-11.221
金刚杵	-11.2211
隐隐作痛	-11.2211
克敌制胜	-11.2211
秘密	-11.2211
校	-11.2211
貂	-11.2211
货	-11.2211
过意不去	-11.2211
童大海	-11.2211
热辣辣的	-11.2211
一拥而上	-11.2211
大胜关	-11.2211
绿衣弟子	-11.2211
光明磊落	-11.2211
轻描淡写	-11.2211
嗅	-11.2211
移魂大法	-11.2211
安安静静的	-11.2211
庞	-11.2211
涨	-11.2211
独个儿	-11.2211
嘻嘻	-11.2211
谊	-11.2211
廊	-11.2211
白驼山	-11.2211
嘘	-11.2211
烦躁	-11.2211
秘奥	-11.2211
摊	-11.2211
婉	-11.2211
鼎	-11.2211
诡计多端	-11.2211
哎唷	-11.2211
千军万马	-11.2211
铁链	-11.2211
斑斑	-11.2211
郭二姑娘	-11.2211
武功再高	-11.2211
破口大骂	-11.2211
挚	-11.2211
仪	-11.2211
铎	-11.2211
慈悲	-11.2211
敷	-11.2211
串	-11.2211
铲	-11.2211
凸	-11.2212
窘	-11.2212
盛怒之下	-11.2212
许配给	-11.2212
饼	-11.2212
攀援	-11.2212
夭	-11.2212
迷惘	-11.2212
唔	-11.2212
滞	-11.2212
百忙中	-11.2212
☆	-11.2212
四面八方	-11.2212
-------------	-11.2212
乌鸦	-11.2212
痊可	-11.2212
矫	-11.2212
官职	-11.2212
燕京	-11.2212
偿	-11.2212
锭银子	-11.2212
见龙	-11.2212
默然不语	-11.2212
具石棺	-11.2213
这回事	-11.2213
皮帽	-11.2213
武学之士	-11.2213
妖妇	-11.2213
海滩	-11.2213
越说越	-11.2213
振翅	-11.2213
夫妻俩	-11.2213
宠爱	-11.2213
啼哭	-11.2213
丑陋	-11.2213
杨爷	-11.2214
浓烟	-11.2214
野蜂	-11.2214
庄主	-11.2214
遭逢	-11.2214
转瞬	-11.2214
捕捉	-11.2214
赔罪	-11.2214
岂敢	-11.2214
惊骇	-11.2214
奉承	-11.2214
锋利	-11.2214
内力深厚	-11.2215
昂首	-11.2215
比赛	-11.2215
隔了半晌	-11.2215
这少女	-11.2216
的问话	-11.2216
包氏	-11.2216
五哥	-11.2216
站稳	-11.2216
这些日子	-11.2216
全然不同	-11.2216
分毫	-11.2217
施展轻功	-11.2217
娇美	-11.2217
隔了一会	-11.2217
这样一来	-11.2217
鬼魂	-11.2217
青袍	-11.2218
粗浅	-11.2218
组成	-11.2218
行踪	-11.2218
颜面	-11.2218
二妹	-11.2219
册子	-11.2219
转眼之间	-11.2219
过了好一阵	-11.2219
难保	-11.2219
了几遍	-11.222
灵台	-11.222
试探	-11.222
天井	-11.222
蒙古鞑子	-11.222
喜慰	-11.2221
上乘功夫	-11.2221
箱子	-11.2221
禁不住	-11.2222
伸手扶起	-11.2222
流星	-11.2222
发颤	-11.2223
南朝	-11.2225
从所未见	-11.2225
十多名	-11.2226
王师弟	-11.2226
依照	-11.2227
足印	-11.2227
听了这几句话	-11.2227
相烦	-11.2227
难以抵挡	-11.2227
反悔	-11.2227
微弱	-11.2228
用得着	-11.2228
不传	-11.2228
一十六年	-11.2229
按理	-11.2229
两丐	-11.2229
勃然	-11.2231
跳跃	-11.2231
眉间	-11.2231
骑兵	-11.2231
坚实	-11.2231
两银子	-11.2232
罕有	-11.2232
青布	-11.2233
排成	-11.2233
掌影	-11.2234
中神通	-11.2235
想法子	-11.2235
午后	-11.2235
全真教中	-11.2236
鼓掌	-11.2236
信义	-11.2237
程二人	-11.2238
千金	-11.2238
沉猛	-11.2238
十余名	-11.2238
冒犯	-11.224
黄色	-11.2242
路径	-11.2243
脸皮	-11.2243
绣着	-11.2244
惟有	-11.2246
恶念	-11.2246
奇险	-11.2247
争斗	-11.2249
留情	-11.225
长胡子	-11.225
摇手	-11.225
相劝	-11.225
伸手接住	-11.2251
旧事	-11.2254
榻上	-11.2257
大臣	-11.2258
庄子	-11.2259
七兄弟	-11.2261
心灵	-11.2261
好生为难	-11.2262
每个	-11.2263
极目	-11.2265
他小腹	-11.2265
土地	-11.2267
份上	-11.2268
无幸	-11.2269
找些	-11.227
行功	-11.2271
精力	-11.2272
万一	-11.2273
穿上	-11.2275
军情	-11.2276
拳招	-11.2278
对己	-11.2279
厉害之极	-11.2281
拜倒	-11.2281
不好意思	-11.2281
▁猛听得	-11.2283
所制	-11.2285
退让	-11.2286
挨打	-11.2287
异样	-11.2288
已不在	-11.229
玩儿	-11.229
必可	-11.2291
来见我	-11.2297
甚至	-11.2299
不知有多少	-11.2299
荒岛	-11.23
手印	-11.23
石门	-11.2303
内外	-11.2303
幽幽的	-11.2303
汗国	-11.2307
托住	-11.2309
横行	-11.2311
布囊	-11.2312
甚重	-11.2312
矛头	-11.2314
心中一惊	-11.2314
头皮	-11.2316
好东西	-11.2317
抹去	-11.2317
太子	-11.2319
宰了	-11.232
往日	-11.2322
未定	-11.2322
深重	-11.2324
会面	-11.2327
来瞧瞧	-11.2327
二十余年	-11.2335
骨头	-11.2336
约定	-11.2337
海上	-11.2338
你可知道	-11.2338
乱走	-11.2343
此外	-11.2346
掌劈	-11.2353
迫得	-11.2354
就可惜	-11.2354
当下也不	-11.2362
身处	-11.2362
一尺	-11.2364
强行	-11.2365
红花	-11.2371
叫了一声	-11.2373
害得	-11.2374
那矮子	-11.2375
惯了的	-11.2376
毫	-11.2377
搭在	-11.2378
驰来	-11.2378
女孩	-11.238
之首	-11.238
随从	-11.2382
异人	-11.2382
自必	-11.2383
齐施	-11.2387
举剑	-11.2396
一觉	-11.2397
老丐	-11.2398
那姑娘	-11.2405
接住了	-11.2406
兵将	-11.2409
回教	-11.2409
那婆婆	-11.241
这棒法	-11.2411
下地来	-11.242
攻襄阳	-11.242
在武林中	-11.2422
横梁	-11.2423
▁待得	-11.2426
动怒	-11.2439
火头	-11.2441
落入了	-11.2441
数倍	-11.2443
贱人	-11.2445
有约	-11.2448
杀害	-11.2455
发难	-11.2457
不理会	-11.2458
脚边	-11.246
在道上	-11.2461
引得	-11.2462
庙门	-11.2464
两柄	-11.2465
练成了	-11.2472
个圆圈	-11.2478
得片刻	-11.2482
一语	-11.2483
好险	-11.2483
确也	-11.2487
师父是谁	-11.2488
猛见	-11.2495
不屑	-11.2496
的消息	-11.2498
剑身	-11.2498
三成	-11.2499
这一推	-11.25
的绝招	-11.2501
数下	-11.2502
▁突然间	-11.2506
杖上	-11.2506
树梢	-11.2513
转世	-11.2525
桌旁	-11.2527
之交	-11.253
既无	-11.2537
半枚	-11.2545
才把	-11.2545
水潭	-11.255
不改	-11.256
恩德	-11.2561
姓郭的	-11.2563
▁各人	-11.2565
郭靖一呆	-11.2567
在帐中	-11.2569
算来	-11.2575
打败了	-11.2576
隐隐有	-11.2583
晃身	-11.2585
急退	-11.2587
所用的	-11.2588
左手抓住	-11.259
也很	-11.259
就似	-11.2595
掌缘	-11.2606
踏在	-11.2606
张渔网	-11.2608
三杯	-11.2612
多久	-11.2612
挥拳	-11.2615
官儿	-11.2617
他后心	-11.2622
你敢	-11.2624
来跟我	-11.2626
不坏	-11.2628
大雕	-11.2647
一探	-11.2649
放回	-11.2649
进帐	-11.265
几岁	-11.265
扑面	-11.2655
信中	-11.2658
路旁	-11.2662
推去	-11.2668
看着	-11.2669
围墙	-11.2681
夹攻	-11.2685
滚开	-11.269
草堆	-11.2692
压住	-11.2696
是甚么人	-11.2697
禀告	-11.2698
虽高	-11.2709
睡去	-11.271
那张	-11.271
我叫你	-11.2711
说下去	-11.2715
一角	-11.2733
抬头向	-11.2739
都曾	-11.2743
好友	-11.2751
少妇	-11.2754
齐名	-11.2754
好让	-11.2762
山顶	-11.2763
溜走	-11.2779
极强	-11.278
掌握	-11.278
又多了	-11.2782
伸出左手	-11.2786
弄得	-11.2789
急欲	-11.279
甩出	-11.2792
问明	-11.2799
出全力	-11.2804
几块	-11.2813
不暇	-11.2823
输在	-11.2824
后领	-11.2824
点中了	-11.2825
北京	-11.2827
遥望	-11.284
菱	-11.2846
女郎	-11.285
帕	-11.2852
割下	-11.2853
青草	-11.2855
不禁暗暗	-11.2858
松林	-11.2859
也决计	-11.2859
合十	-11.2861
缰	-11.2861
武林中人	-11.2862
怦怦乱跳	-11.2862
鳄	-11.2863
之顶	-11.2863
皆是	-11.2866
多想	-11.2866
恍	-11.2868
康	-11.2869
府中	-11.2869
粮	-11.2871
顷刻	-11.2872
身负	-11.2873
纷飞	-11.2873
赛	-11.2873
诵	-11.2873
偶	-11.2874
况	-11.2875
为两截	-11.2875
噗	-11.2875
汁	-11.2876
篙	-11.2876
岳武穆	-11.2876
八卦	-11.2876
元史	-11.2877
羡	-11.2877
省	-11.2877
上官剑南	-11.2877
值	-11.2877
扁	-11.2877
疤	-11.2877
钹	-11.2877
毅	-11.2877
贤侄	-11.2877
是何等样人	-11.2877
律	-11.2877
凤	-11.2877
囚	-11.2877
切磋	-11.2877
椎	-11.2877
瞧在眼里	-11.2877
那胖子	-11.2877
柳叶刀	-11.2877
巾	-11.2877
得心应手	-11.2877
万夫长	-11.2877
狐狸	-11.2877
君臣	-11.2877
沟	-11.2877
伺	-11.2877
东奔西	-11.2877
有恃无恐	-11.2877
怒气勃发	-11.2878
懈	-11.2878
双腿一夹	-11.2878
根柢	-11.2878
垫	-11.2878
从怀里取出	-11.2878
择	-11.2878
武功最强	-11.2878
到了极处	-11.2878
个寒噤	-11.2878
依样葫芦	-11.2878
滨	-11.2878
结结实实	-11.2878
双手互搏	-11.2878
心念一转	-11.2878
转过头去	-11.2878
猱身	-11.2878
誉	-11.2878
叮叮	-11.2878
长春真人	-11.2878
喜出望外	-11.2878
凶多吉少	-11.2878
撩	-11.2878
赤手空拳	-11.2878
辈份	-11.2878
似笑非笑	-11.2878
横了一眼	-11.2878
迂	-11.2878
孤零零的	-11.2878
惊怒交集	-11.2878
蒲儿帖	-11.2878
豆	-11.2878
棉	-11.2878
胸膛	-11.2878
扒	-11.2878
遁	-11.2878
一瞬间	-11.2878
凝望	-11.2878
玄门正宗	-11.2878
俘虏	-11.2878
侮辱	-11.2878
咱哥儿俩	-11.2878
沿途	-11.2878
净衣派	-11.2878
玉虚洞	-11.2878
密密层层	-11.2878
心满意足	-11.2878
元帅	-11.2878
小武哥哥	-11.2878
念念不忘	-11.2878
荷塘	-11.2878
垢	-11.2878
媚	-11.2878
鲁莽	-11.2878
劈空掌	-11.2878
捣甚么鬼	-11.2878
汴梁	-11.2878
糟糕	-11.2878
不计其数	-11.2878
温暖	-11.2878
历史	-11.2879
奶奶	-11.2879
两头白雕	-11.2879
菩萨	-11.2879
金刀驸马	-11.2879
行了一礼	-11.2879
应手而	-11.2879
朕	-11.2879
荒僻	-11.2879
机括	-11.2879
萼儿	-11.2879
好生失望	-11.2879
李氏	-11.2879
哇哇大叫	-11.2879
茫然不解	-11.2879
吐纳	-11.2879
焚烧	-11.288
辉	-11.288
仰天大笑	-11.288
奋勇	-11.288
仰慕	-11.288
我姑母	-11.288
髻	-11.288
漠北	-11.288
破空之声	-11.288
沙漠	-11.288
郭大爷	-11.288
崇	-11.288
花瓣	-11.288
杨公子	-11.288
我知道啦	-11.2881
剧震	-11.2881
油灯	-11.2881
感慨	-11.2881
贪图	-11.2881
周密	-11.2881
帮规	-11.2881
含泪	-11.2881
心神不定	-11.2881
思量	-11.2881
荡荡	-11.2881
焦木大师	-11.2881
躺着	-11.2881
水帘	-11.2882
鬓边	-11.2882
假扮	-11.2882
哪肯	-11.2882
悠悠醒转	-11.2882
一个筋斗翻	-11.2882
站在当地	-11.2882
勾结	-11.2883
伸手去接	-11.2883
伯通	-11.2883
放屁	-11.2883
何尝	-11.2883
侧身避开	-11.2883
仗义	-11.2883
撑持	-11.2883
红烛	-11.2883
李莫愁拂尘	-11.2884
并不答话	-11.2884
本拟	-11.2884
欺压	-11.2885
黑夜之中	-11.2885
屏风	-11.2885
六弟	-11.2885
及不上	-11.2885
逼迫	-11.2885
躲了起来	-11.2885
轻轻一推	-11.2886
光彩	-11.2886
铁舟	-11.2886
第三次	-11.2886
何方	-11.2887
遗训	-11.2887
神技	-11.2887
一声喊	-11.2887
赤练仙子李莫愁	-11.2887
送了性命	-11.2887
七十二	-11.2887
四大弟子	-11.2887
逐渐	-11.2887
花驴	-11.2888
拦路	-11.2888
麻袋	-11.2888
呆呆的望着	-11.2888
月余	-11.2889
忍痛	-11.2889
满腹	-11.2889
风景	-11.289
短短	-11.289
口唇	-11.289
当先一人	-11.289
悲苦	-11.289
外敌	-11.289
算计	-11.289
跳了起来	-11.2891
身子摇晃	-11.2891
垂首	-11.2891
半寸	-11.2892
掩面	-11.2892
形容	-11.2892
众军士	-11.2893
相触	-11.2893
精熟	-11.2893
到哪里去啦	-11.2893
好哇	-11.2893
流了下来	-11.2894
护送	-11.2894
孤身	-11.2894
酒保	-11.2895
亲切	-11.2895
深仇	-11.2895
吼叫	-11.2895
这几句话说得	-11.2895
也遂	-11.2896
二十年前	-11.2896
先锋	-11.2897
众亲兵	-11.2898
侍从	-11.2898
任意	-11.2898
争夺	-11.2898
显露	-11.2899
方圆	-11.2899
斧头	-11.2899
铸成	-11.29
黑夜中	-11.29
读四人	-11.29
允可	-11.2901
真乃	-11.2901
反弹	-11.2901
合围	-11.2902
这位前辈	-11.2902
发见	-11.2903
二十余	-11.2903
抢步	-11.2903
报应	-11.2904
远不如	-11.2905
说了几句	-11.2906
青衣	-11.2907
歹人	-11.2907
板门	-11.2907
给我瞧瞧	-11.2907
血色	-11.2908
下头去	-11.2908
相顾	-11.2909
疯子	-11.2909
一动也不动	-11.291
忽施	-11.291
疑难	-11.2911
狂风	-11.2912
相护	-11.2912
细微	-11.2912
有缘	-11.2913
这一掷	-11.2913
如刀	-11.2913
郭兄弟	-11.2913
矮身	-11.2913
未答	-11.2914
三路	-11.2915
长袖	-11.2916
流露出	-11.2916
精明	-11.2918
几乎要	-11.2918
来找我	-11.2918
打赌	-11.2919
小娃娃	-11.292
实则	-11.292
的一声大叫	-11.292
专心	-11.2921
哪里来的	-11.2921
两片	-11.2921
偷学	-11.2923
难民	-11.2924
大感诧异	-11.2924
活活	-11.2926
拔起	-11.2926
哭声	-11.2927
小贱人	-11.2928
居然还	-11.2929
有几分	-11.2931
不再说话	-11.2931
横刀	-11.2934
上马背	-11.2935
垂手	-11.2936
老英雄	-11.2938
不甘	-11.2941
尽快	-11.2942
白骨	-11.2942
大爷	-11.2942
窗下	-11.2943
架子	-11.2943
真传	-11.2945
至少	-11.2945
总不能	-11.2946
板凳	-11.2946
项颈	-11.2948
伤感	-11.2948
回臂	-11.2948
扬手	-11.2951
第五	-11.2952
学全	-11.2953
怪招	-11.2954
流水	-11.2956
满口	-11.2956
一匹马	-11.2958
名满	-11.2958
败在	-11.2959
这样罢	-11.296
到了这里	-11.2962
的名号	-11.2965
为止	-11.2965
抢起	-11.2966
两穴	-11.2966
这老贼	-11.2968
袋中	-11.2969
会使	-11.2969
轰然	-11.2969
部位	-11.297
这张	-11.2971
心中奇怪	-11.2973
齐叫	-11.2974
盘子	-11.2975
落空	-11.2975
大师哥	-11.2976
敌招	-11.2977
冲击	-11.2977
▁觉远	-11.2977
气运	-11.2978
蛇头	-11.298
这奸贼	-11.2981
的痕迹	-11.2982
过节	-11.2983
听人说	-11.2984
坐起	-11.2986
岸上	-11.2986
送入	-11.2989
在洞口	-11.299
▁颜烈	-11.2995
年纪比	-11.2996
不识得	-11.2996
逼开	-11.3001
到哪里去了	-11.3003
两个少年	-11.3004
摔出	-11.3006
上楼	-11.3007
只恨	-11.3008
洪七公摇头	-11.3008
而立	-11.3009
全神贯注的	-11.3011
的尸体	-11.3012
女孩儿家	-11.3012
那小子	-11.3013
已奔到	-11.3017
今日之事	-11.3018
没有啊	-11.302
平地	-11.3021
▁那公子	-11.3025
脱出	-11.3026
之义	-11.3027
疾驰而	-11.3027
接任	-11.3027
服药	-11.3028
▁过了一会	-11.303
七八个	-11.303
半日	-11.3034
▁李萍	-11.3038
领军	-11.3039
无知	-11.3041
有这许多	-11.3043
连问	-11.3044
相击	-11.3048
大忌	-11.305
那藏僧	-11.3055
罩在	-11.3055
直向	-11.3057
石碑	-11.306
去禀告	-11.3062
万想不到	-11.3063
一个少女	-11.3063
势危	-11.3068
之女	-11.307
装得	-11.308
十五年	-11.3087
忧急	-11.3088
上前动手	-11.3097
脸孔	-11.3099
指望	-11.31
进厅	-11.3102
截住	-11.3103
有多少	-11.3103
近身来	-11.3104
轻拍	-11.3108
出去罢	-11.3108
西南	-11.3109
那樵子	-11.3109
死不了	-11.3114
这臭小子	-11.3117
▁郝大通	-11.3117
数百名	-11.3118
事事	-11.3123
及时	-11.3125
用强	-11.3133
东首	-11.3138
下拜	-11.3139
决不敢	-11.3142
一抬头	-11.3144
殿后	-11.3152
在墓中	-11.3153
走路	-11.3154
欺侮我	-11.3156
庙中	-11.3156
颇感	-11.3156
分头	-11.3156
强自	-11.3159
竟连	-11.316
堕入	-11.3161
一插	-11.3163
三千	-11.3166
了几声	-11.3172
未必就	-11.3178
下卷	-11.3181
这小丫头	-11.3185
这句	-11.3188
怀抱	-11.3198
托大	-11.3199
被逼	-11.3201
折断了	-11.3207
国王	-11.3208
自杀	-11.3218
还记得	-11.3222
那条	-11.3228
一顶	-11.3228
回去罢	-11.3231
跌出	-11.3232
一登	-11.3241
如不是	-11.3242
的威名	-11.3246
房里	-11.3247
墙角	-11.3249
第二次	-11.3256
飞跃	-11.3262
帮主之位	-11.3277
想得到	-11.3286
却不见	-11.3295
这一番	-11.3297
东方	-11.3301
碎片	-11.3302
均各	-11.3306
跑得	-11.331
他的手臂	-11.3311
天晚上	-11.3311
一月	-11.3313
出谷	-11.3315
一格	-11.3316
嗤的一	-11.3318
须得先	-11.332
河南	-11.333
有物	-11.333
怎么能	-11.3344
也不想	-11.3346
一艘	-11.3359
进店	-11.3361
轻挥	-11.3366
心跳	-11.3378
决不是	-11.3381
入海	-11.3388
捣乱	-11.3398
一起去	-11.341
亲亲	-11.3425
亦无	-11.3425
喝止	-11.3443
相扶	-11.3452
只觉得	-11.3457
是全真派的	-11.346
掏	-11.3464
在树上	-11.3467
已抵	-11.3472
逼出	-11.3474
盗去	-11.3475
我妹妹	-11.3475
相撞	-11.3484
敌不过	-11.3492
好胜	-11.3493
厢	-11.3495
请进	-11.3503
没听见过	-11.3505
叫苦	-11.3512
说不上	-11.3515
鞭子	-11.3515
那贵官	-11.3531
动手罢	-11.3546
说得好	-11.3547
罕	-11.3549
听见过	-11.355
少年人	-11.355
动也不动	-11.3558
战马	-11.3562
逼着	-11.3564
哇	-11.3574
从所未	-11.3577
精奥	-11.358
整整齐齐	-11.358
屋外	-11.3583
颠	-11.3584
手爪	-11.3586
半空中	-11.3586
匠	-11.3589
蓄	-11.3589
敏	-11.359
晋	-11.359
韧	-11.359
闺	-11.359
睹	-11.359
断龙石	-11.3591
秤	-11.3591
亚	-11.3591
判	-11.3591
天真烂漫	-11.3592
汤祖德	-11.3592
雀	-11.3592
一败涂地	-11.3592
饥	-11.3592
高姓大名	-11.3592
撅	-11.3592
污衣派	-11.3592
缕	-11.3592
揽	-11.3592
奈何不了	-11.3592
哑梢公	-11.3592
捆	-11.3592
遥遥望见	-11.3592
鲁老伯	-11.3592
成平手	-11.3592
藉	-11.3592
剌	-11.3592
大叫大嚷	-11.3592
衔	-11.3592
心中甚喜	-11.3592
小杂种	-11.3592
低下了头	-11.3592
厌憎	-11.3592
颚	-11.3592
滑稽	-11.3592
弩	-11.3592
诃额伦夫人	-11.3592
寡不敌众	-11.3592
歉仄	-11.3592
渴	-11.3592
轻轻巧巧的	-11.3592
匪夷所思	-11.3592
心痒难搔	-11.3592
心甘情愿	-11.3592
愉	-11.3592
郭世兄	-11.3592
诺	-11.3592
智慧	-11.3592
充耳不闻	-11.3592
法华寺	-11.3592
深不可测	-11.3592
打定了主意	-11.3592
昏昏沉沉	-11.3592
武功再强	-11.3592
胫	-11.3592
祠堂	-11.3592
乏	-11.3592
蒲扇	-11.3592
钳	-11.3592
锄	-11.3592
翻翻滚滚	-11.3592
口口声声	-11.3593
手足无措	-11.3593
i	-11.3593
占了便宜	-11.3593
相视一笑	-11.3593
也是枉然	-11.3593
目眩	-11.3593
青灵子	-11.3593
一顿饭时分	-11.3593
沮丧	-11.3593
模糊	-11.3593
啊唷	-11.3593
脸如死灰	-11.3593
陵	-11.3593
宇	-11.3593
罐	-11.3593
果然名不虚传	-11.3593
五毒秘传	-11.3593
豆腐	-11.3593
相顾骇然	-11.3593
冤枉	-11.3593
醋	-11.3593
又有何用	-11.3593
这会儿	-11.3593
镬	-11.3593
漆黑一团	-11.3593
锦旗	-11.3593
救命之恩	-11.3593
钢叉	-11.3593
嫡传	-11.3593
凄凉	-11.3593
舅舅	-11.3593
罪孽	-11.3593
麻烦	-11.3593
史仲猛	-11.3593
愠	-11.3593
筹思	-11.3593
俊雅	-11.3593
跪倒在地	-11.3593
点中了穴道	-11.3594
惨厉	-11.3594
秀丽	-11.3594
俨然	-11.3594
憎恨	-11.3594
岛主	-11.3594
眸	-11.3594
无耻之徒	-11.3594
船舷	-11.3594
统治	-11.3594
呆了一呆	-11.3594
哇的一声	-11.3594
事到临头	-11.3594
姨	-11.3594
判官笔	-11.3594
一言甫	-11.3594
武功大进	-11.3594
瞧出破绽	-11.3594
木箱	-11.3595
在梦中	-11.3595
越打越	-11.3595
逃得性命	-11.3595
为了何事	-11.3595
英俊	-11.3595
金铃	-11.3595
倏忽之间	-11.3595
巡视	-11.3595
这当儿	-11.3595
动起手来	-11.3595
掠而过	-11.3595
考较	-11.3595
无聊	-11.3595
精研	-11.3595
呼叱	-11.3595
祖父	-11.3595
火焰	-11.3595
财物	-11.3595
计谋	-11.3596
浑小子	-11.3596
寸许	-11.3596
桃花	-11.3596
早晨	-11.3596
灰影	-11.3596
一声长啸	-11.3596
严密	-11.3596
欺辱	-11.3597
个绿衫人	-11.3597
黑夜	-11.3597
前后左右	-11.3597
昨天	-11.3597
循声	-11.3597
云雾	-11.3597
英雄宴	-11.3598
欲滴	-11.3598
以一敌	-11.3598
低头不语	-11.3598
天资	-11.3598
白衣女子	-11.3598
深渊	-11.3598
天枢	-11.3598
减弱	-11.3598
第二件	-11.3598
点了穴道	-11.3599
熄灭	-11.3599
无甚	-11.3599
折辱	-11.3599
精纯	-11.3599
整治	-11.3599
面貌	-11.3599
牢牢抓住	-11.3599
前辈高人	-11.3599
硬拚	-11.36
转述	-11.36
万状	-11.36
康儿	-11.36
积雪	-11.36
两张	-11.36
助威	-11.3601
梅花	-11.3601
高声大叫	-11.3601
救我性命	-11.3601
隔室	-11.3602
晚饭	-11.3602
走上前去	-11.3602
旋转	-11.3602
蛇胆	-11.3602
最厉害的	-11.3602
捉摸	-11.3602
烈火	-11.3603
点头称是	-11.3603
心中一喜	-11.3603
生辰	-11.3603
不住倒退	-11.3603
越高	-11.3603
斩首	-11.3603
波的一声	-11.3604
渗出	-11.3604
掉在地下	-11.3604
右手食指	-11.3604
帽子	-11.3604
难熬	-11.3604
反手一掌	-11.3605
练习	-11.3605
使诈	-11.3605
合心意	-11.3606
宋兵	-11.3606
搔头	-11.3606
黑烟	-11.3606
铁扇	-11.3607
慈和	-11.3607
鳄潭	-11.3608
包围	-11.3609
料理	-11.3609
反抗	-11.3609
保全	-11.3609
久闻	-11.3609
终须	-11.3609
点穴功夫	-11.3609
躺下	-11.361
上前相助	-11.361
轿子	-11.361
难免	-11.3611
想起一事	-11.3611
安葬	-11.3612
受辱	-11.3613
临近	-11.3613
纵身上前	-11.3613
受内伤	-11.3613
大拇指	-11.3613
草木	-11.3613
此仇	-11.3614
耳目	-11.3614
发疯	-11.3614
每个人	-11.3615
三颗	-11.3615
嘴边	-11.3615
拔足	-11.3615
也算得	-11.3616
南归	-11.3616
衣角	-11.3616
已经死了	-11.3616
改变	-11.3617
您老	-11.3617
本性	-11.3618
牵动	-11.3619
十六年后	-11.362
实是非同小可	-11.362
不忿	-11.3621
远远不及	-11.3621
刚硬	-11.3622
摔交	-11.3622
军民	-11.3623
并肩而立	-11.3623
有话说	-11.3623
退缩	-11.3623
江水	-11.3623
失色	-11.3624
出手相救	-11.3624
南边	-11.3624
这批	-11.3625
白眉	-11.3625
一绊	-11.3626
落下风	-11.3628
临死	-11.3628
左颊	-11.3628
斗在一起	-11.3629
运转	-11.363
先父	-11.363
兔子	-11.363
药物	-11.3631
▁次晨	-11.3631
一株大树	-11.3634
防身	-11.3634
第二招	-11.3634
这一晚	-11.3634
半碗	-11.3635
缘故	-11.3635
交战	-11.3636
大家都	-11.3636
数十里	-11.3636
恶鬼	-11.3637
两颗	-11.3637
部众	-11.3638
依法	-11.3641
性急	-11.3641
流下	-11.3642
打造	-11.3642
改口	-11.3642
所害	-11.3642
未复	-11.3643
头戴	-11.3643
主将	-11.3646
微变	-11.3647
征服	-11.3648
一顿饭	-11.3649
厉害无比	-11.365
衣带	-11.3651
花木	-11.3651
右手伸出	-11.3652
伤愈	-11.3653
终生	-11.3657
拍马	-11.3657
长臂	-11.3658
下堕	-11.3658
最近	-11.3659
示下	-11.366
你可知	-11.366
这些话	-11.366
没入	-11.3661
回复	-11.3662
这个自然	-11.3662
回思	-11.3662
于怀	-11.3663
现在	-11.3663
箭法	-11.3664
眼神	-11.3664
心中大是	-11.3666
恶意	-11.3667
横飞	-11.3668
义气	-11.3669
是甚么意思	-11.3669
花毒	-11.367
向后急	-11.3672
那句话	-11.3672
楼上	-11.3673
扑地	-11.3674
小龙女与杨过	-11.3675
▁梁长老	-11.368
金国钦使	-11.3682
伸右手	-11.3682
准头	-11.3683
指教	-11.3683
蒙古话	-11.3683
斗不过	-11.3683
这法儿	-11.3684
石壁上	-11.3684
这藏僧	-11.3684
笑了起来	-11.3692
黑马	-11.3698
坐倒	-11.37
记住了	-11.3703
一枪	-11.3704
两腿	-11.3706
白日	-11.3707
虽不及	-11.3713
气血	-11.3713
是哪一位	-11.3713
昏暗	-11.3715
且莫	-11.3717
葬了	-11.3721
这矮子	-11.3721
终南山上	-11.3721
小菜	-11.3723
玩笑	-11.3723
使剑	-11.3726
▁欧阳克见	-11.3726
咱们一起	-11.3726
臭叫化	-11.3727
豪杰之士	-11.3727
黑气	-11.3728
捉拿	-11.3731
咬着	-11.3732
我几时	-11.3736
坐定	-11.3738
救治	-11.374
打算	-11.3744
▁简长老	-11.3746
头黑雕	-11.3757
手劲	-11.3757
驰出	-11.376
投入	-11.3761
下毒	-11.3761
一拨	-11.3766
一阵响	-11.3772
在西域	-11.3779
重责	-11.3779
箭头	-11.3779
如同	-11.3782
却见她	-11.3786
牵过	-11.3787
总之	-11.3787
疾往	-11.3788
高低	-11.3789
却何以	-11.3789
被擒	-11.3791
有这等事	-11.3793
别哭	-11.3795
将官	-11.3797
一十五年	-11.3805
向一灯	-11.3808
说错了	-11.3811
说几句话	-11.3812
石墓	-11.3813
几枚	-11.3814
那也不用	-11.3824
杀气	-11.3826
袭到	-11.3827
▁群雄	-11.3828
三更	-11.3829
如常	-11.3831
管教	-11.3833
这叫做	-11.3836
第二人	-11.384
跨出	-11.384
决不容	-11.3843
而言	-11.385
过世	-11.3853
左眼	-11.3853
飞脚	-11.3855
十斤	-11.3855
蹄印	-11.3856
上次	-11.3863
划破	-11.3865
身高	-11.3868
却也不能	-11.3873
伸手抓住	-11.3875
顿足	-11.3877
出圈子	-11.3877
夺过	-11.3881
气力	-11.3883
排列	-11.3884
毫不费力	-11.3892
遇见	-11.3893
遗下	-11.3897
此次	-11.39
那矮胖子	-11.3901
收起	-11.3909
这一着	-11.3917
出林	-11.392
这时才	-11.3922
咬牙切齿的	-11.3926
一只小	-11.393
是假的	-11.3935
存了	-11.3938
不防	-11.394
放开了	-11.3946
横蛮	-11.395
看守	-11.3955
场中	-11.3957
夺下	-11.3973
出数丈	-11.3973
这一手	-11.3979
不醒	-11.398
惊吓	-11.3991
壮汉	-11.3999
扑向	-11.4
赶回	-11.4004
出家人	-11.4011
削去	-11.4013
说起过	-11.4014
只余	-11.4017
做官	-11.4019
静静	-11.4032
打伤了	-11.4032
胆小	-11.4034
俏脸	-11.4043
邪门	-11.4047
谁也不敢	-11.4053
句句	-11.4056
你要杀	-11.4063
是我师父	-11.4063
铁掌水上飘	-11.4076
一捏	-11.4079
这四个	-11.4082
觉奇怪	-11.4091
阴世	-11.4096
问问	-11.4098
即使	-11.41
欺近	-11.412
此生	-11.4124
厨房	-11.4142
西行	-11.4143
睁	-11.4153
李莫愁冷笑	-11.4174
内室	-11.4183
三百	-11.4186
饿得	-11.4188
金狗	-11.4191
安危	-11.4196
兵卒	-11.4201
猜中	-11.4204
须发	-11.4205
背影	-11.4207
画中	-11.4208
好菜	-11.421
喧哗	-11.4212
涌身	-11.4221
瘦丐	-11.4228
见她神色	-11.4231
舟中	-11.4234
迷迷糊糊	-11.4238
跳起	-11.424
高山	-11.4241
显然是	-11.4243
玩得	-11.4262
西北	-11.4262
记住	-11.4267
不住向	-11.4274
妖法	-11.4274
加强	-11.4276
毒虫	-11.4279
奥	-11.4283
船身	-11.4283
坡	-11.4288
楚	-11.4303
青蛇	-11.4304
宜	-11.431
解衣	-11.4313
箱中	-11.4318
液	-11.432
缆	-11.4321
我瞧你	-11.4322
山脚	-11.4326
越想越	-11.4328
悦	-11.4329
忿	-11.4332
转了个	-11.4333
小舟	-11.4338
拇指	-11.434
校场	-11.4341
寒玉	-11.4343
遂	-11.4343
相敬	-11.4343
伦	-11.4349
黎	-11.435
昨	-11.4351
沸	-11.4352
刀锋	-11.4352
绵	-11.4352
怖	-11.4352
襄	-11.4352
艰	-11.4354
郊	-11.4357
流露	-11.4357
鸽	-11.4358
职	-11.4359
凌	-11.4359
腔	-11.4359
耍	-11.4359
哇哇	-11.4359
盔	-11.4359
灵芝	-11.4359
獐	-11.4359
舷	-11.436
肌	-11.436
哒	-11.436
贤弟	-11.436
为国为民	-11.436
例	-11.436
虐	-11.436
第三代弟子	-11.4361
歼	-11.4361
澄	-11.4361
蝶	-11.4361
腥	-11.4361
活在世上	-11.4361
心意已决	-11.4361
慈祥	-11.4361
稚	-11.4361
重重叠叠	-11.4361
逍遥游	-11.4361
司	-11.4361
悄没声的	-11.4361
轩	-11.4361
钱镖	-11.4361
泗水渔隐	-11.4361
万念俱灰	-11.4361
之声大作	-11.4361
居高临下	-11.4361
气喘吁吁	-11.4361
央求	-11.4361
下卷经文	-11.4361
万兽山庄	-11.4361
冯	-11.4361
摩诃末	-11.4361
认贼作父	-11.4361
盾牌	-11.4361
锥	-11.4361
序	-11.4361
笛	-11.4361
东闪西	-11.4361
忤	-11.4361
陀	-11.4361
比划比划	-11.4361
粮食	-11.4361
银梭	-11.4361
随后跟去	-11.4361
寂然无声	-11.4362
炙	-11.4362
诞	-11.4362
拜你为师	-11.4362
甘拜下风	-11.4362
脸上微微一红	-11.4362
玄铁重剑	-11.4362
浙	-11.4362
验	-11.4362
杨家枪法	-11.4362
筒	-11.4362
花言巧语	-11.4362
纵声长啸	-11.4362
伸伸舌头	-11.4362
郁闷	-11.4362
脸上无光	-11.4362
奈何他不得	-11.4362
东北角	-11.4362
摸不着头脑	-11.4362
心花怒放	-11.4362
定睛看	-11.4362
此起彼	-11.4362
瞑	-11.4362
全心全意	-11.4362
查察	-11.4362
跷	-11.4362
疑惑	-11.4362
个千人队	-11.4362
玉蜂蜜浆	-11.4362
瞧不清楚	-11.4362
啐	-11.4362
习俗	-11.4362
癫	-11.4362
铁锚	-11.4362
再好不过	-11.4362
养育	-11.4362
希奇古怪的	-11.4362
一声长叹	-11.4362
捶	-11.4362
安抚使吕文德	-11.4362
责罚	-11.4362
邪魔外道	-11.4362
侍候	-11.4362
罗唆	-11.4362
斜睨	-11.4362
玎玎	-11.4362
捋	-11.4362
了这么久	-11.4362
公孙先生	-11.4362
泪珠	-11.4362
激射而出	-11.4362
搂在怀里	-11.4362
焦虑	-11.4362
在归云庄上	-11.4363
杨居士	-11.4363
羡慕	-11.4363
猜测	-11.4363
灶王爷	-11.4363
放心不下	-11.4363
荷叶	-11.4363
淮	-11.4363
坏蛋	-11.4363
熟悉	-11.4363
全无血色	-11.4363
柳枝	-11.4363
踏上两步	-11.4363
娘娘	-11.4363
绑缚	-11.4363
参详	-11.4363
奋不顾身	-11.4363
马青雄	-11.4363
擒获	-11.4363
捣鬼	-11.4363
预备	-11.4363
糖	-11.4363
主帅	-11.4363
竹亭	-11.4363
往地下一掷	-11.4363
酋长	-11.4363
失措	-11.4364
h	-11.4364
周旋	-11.4364
捏造	-11.4364
无不骇然	-11.4364
残暴	-11.4364
清晨	-11.4364
呕血	-11.4364
郭芙与武氏兄弟	-11.4364
玄功	-11.4364
有病	-11.4365
豹夫	-11.4365
召集	-11.4365
灵智	-11.4365
递了过去	-11.4365
藤枝	-11.4365
枝叶	-11.4365
在风中	-11.4365
往地下一	-11.4365
铁菱	-11.4365
英雄帖	-11.4365
禀明	-11.4365
餐	-11.4365
挑拨	-11.4365
愤恨	-11.4366
残忍	-11.4366
西瓜	-11.4366
黎明	-11.4366
僵持	-11.4366
功力深厚	-11.4366
竹枝	-11.4366
冰柱	-11.4366
长须道人	-11.4366
孤身一人	-11.4366
忠厚	-11.4366
劝阻	-11.4367
驱赶	-11.4367
双手合十	-11.4367
众兵将	-11.4367
来得及	-11.4367
学武之人	-11.4367
穆姑娘	-11.4367
筋骨	-11.4368
最大的	-11.4368
一大片	-11.4368
退了两步	-11.4368
曲师哥	-11.4368
隔壁	-11.4368
另一端	-11.4368
连声答应	-11.4368
南征	-11.4368
呀的一声	-11.4369
站了起来	-11.4369
急促	-11.4369
早料到	-11.4369
一块岩石	-11.4369
乱石阵	-11.4369
搜寻	-11.437
武林高手	-11.437
洞孔	-11.437
结识	-11.437
发泄	-11.437
太祖	-11.4371
驱蛇	-11.4371
绝艺	-11.4372
明珠	-11.4372
没趣	-11.4372
花豹	-11.4372
之声不绝	-11.4372
缘由	-11.4373
咱两个	-11.4374
绿色	-11.4374
气概	-11.4374
决计不会	-11.4374
无此	-11.4374
居室	-11.4374
正酣	-11.4374
难为你	-11.4374
机灵	-11.4374
窗边	-11.4375
虚晃	-11.4375
催动	-11.4375
中央	-11.4375
六王爷	-11.4375
初次	-11.4375
激射	-11.4376
船尾	-11.4376
交互	-11.4376
各执	-11.4376
诸位	-11.4377
触动	-11.4378
火候	-11.4378
四溅	-11.4378
相互间	-11.4378
忒也	-11.4378
发麻	-11.4379
拔步	-11.4379
数百年	-11.4379
押着	-11.438
耻笑	-11.438
拔出长剑	-11.438
肯不肯	-11.438
情不自禁的	-11.438
激战	-11.438
汗水	-11.4382
三妹	-11.4382
狗王	-11.4382
坐了下来	-11.4383
结拜	-11.4384
境内	-11.4384
我带你	-11.4385
提了起来	-11.4385
够啦	-11.4385
威势	-11.4385
淡然	-11.4386
端的是	-11.4386
打岔	-11.4386
第七	-11.4386
悲伤	-11.4386
十多年前	-11.4386
蒙古官兵	-11.4387
飘动	-11.4387
灵药	-11.4387
想得出	-11.4387
厅外	-11.4387
店家	-11.4387
铁鞭	-11.4387
惧怕	-11.4388
重任	-11.4388
心中伤痛	-11.4388
手中接过	-11.4388
蛇群	-11.4388
群蛇	-11.4389
骨肉	-11.4389
椅子	-11.4389
摔在地下	-11.4389
义女	-11.439
团团围住	-11.439
恩情	-11.4391
怎么样	-11.4392
讨教	-11.4392
元气	-11.4392
纵身过去	-11.4393
紧紧抓住	-11.4393
大纛	-11.4395
白影	-11.4395
一条条	-11.4396
如雨	-11.4396
无暇	-11.4396
错乱	-11.4396
一出手就	-11.4396
右首	-11.4399
余地	-11.4399
国师	-11.44
福气	-11.4401
瓶子	-11.4402
气度	-11.4403
梁子	-11.4403
为伴	-11.4403
稻草	-11.4406
个响头	-11.4407
地图	-11.4407
有甚么事	-11.4408
殊不知	-11.4408
酒碗	-11.4409
教主	-11.4409
恶战	-11.441
窗子	-11.4411
一托	-11.4412
而卧	-11.4413
挣扎着	-11.4413
身遭	-11.4413
语意	-11.4414
金刚	-11.4415
闻声	-11.4416
玉女	-11.4418
缚着	-11.4418
舍身	-11.4419
他妈的	-11.442
拆开	-11.4421
但转念一想	-11.4422
最怕	-11.4422
这两掌	-11.4423
军营	-11.4423
五绝	-11.4423
退兵	-11.4423
另行	-11.4424
人氏	-11.4427
识破	-11.4427
一股大力	-11.4428
我表妹	-11.4428
相避	-11.4428
喊声大	-11.4429
了开来	-11.443
休得	-11.4432
那老儿	-11.4433
尚能	-11.4433
长官	-11.4434
个个都是	-11.4436
仆人	-11.4437
拳掌	-11.444
外衣	-11.444
那怎么办	-11.444
跟你在一起	-11.4443
一柄长剑	-11.4443
中秋	-11.4443
火势	-11.4445
逃得	-11.4445
郭二人	-11.4446
是天下第一	-11.4446
捏住	-11.4446
足足	-11.4446
径行	-11.4448
一碟	-11.4448
接待	-11.4449
深奥	-11.4449
若干	-11.445
水流	-11.4451
势力	-11.4453
那官员	-11.4456
到底是谁	-11.4457
退路	-11.446
一股热气	-11.4462
异状	-11.4462
两派	-11.4462
这几天	-11.4463
花轿	-11.4464
眉心	-11.4465
遗物	-11.4466
加快	-11.4468
厢房	-11.4468
▁到得	-11.4469
急流	-11.4469
挺起	-11.4469
大梁	-11.4469
回归	-11.4472
本意	-11.4473
一个念头	-11.4474
入城	-11.4474
橱门	-11.4475
按着	-11.4477
一桌	-11.4478
怒骂	-11.4479
心性	-11.4481
一勾	-11.4482
这厮	-11.4484
自不免	-11.4484
推动	-11.4485
纵使	-11.4486
亲信	-11.4487
极尽	-11.4489
强得多	-11.4492
突然想起	-11.4493
眼力	-11.4493
街上	-11.4496
赶着	-11.4497
有要事	-11.45
心怀	-11.45
闯入	-11.4502
份量	-11.4503
拔下	-11.4503
断剑	-11.4503
谅来	-11.4506
听母亲	-11.4507
跃后	-11.451
炕上	-11.4512
声名	-11.4518
手背上	-11.4519
▁其时	-11.4521
真力	-11.4522
第六	-11.4523
射死	-11.4523
两指	-11.4527
▁朮赤	-11.453
数十人	-11.4531
跟她说	-11.4531
拉起	-11.4532
天大的	-11.4535
相若	-11.4541
求生	-11.4542
斗地	-11.4547
眉毛	-11.4549
自管	-11.4549
非寻常	-11.4558
无望	-11.4558
有法子	-11.456
武三通等	-11.456
大丑	-11.4563
平和	-11.4569
掌力震	-11.4571
作弄	-11.4573
墓室	-11.4573
罩住	-11.4577
大鸟	-11.4577
气派	-11.4582
作主	-11.4584
是万万	-11.4586
不足以	-11.4587
细心	-11.459
南湖	-11.4594
枝长矛	-11.4595
飞回	-11.4597
喀喇一	-11.4601
是丐帮的	-11.4602
砍下	-11.4608
喝令	-11.4614
只见前面	-11.4617
大致	-11.4633
右侧	-11.4637
雕背	-11.4641
激起	-11.4642
枉自	-11.4649
意欲	-11.4651
得无影无踪	-11.4653
天色渐	-11.4654
是个女子	-11.4655
一桩	-11.4657
入海中	-11.4658
硬要	-11.4663
帐门	-11.4667
在海中	-11.4672
左近	-11.4673
他的用意	-11.4688
去摸	-11.4689
爱吃	-11.4695
踏进	-11.4697
偷看	-11.4709
猛觉	-11.471
不敢作声	-11.4721
号角声	-11.4724
猛冲	-11.4728
下床	-11.4728
收藏	-11.4736
盖上	-11.474
如铁	-11.4762
桨柄	-11.4766
瞒过	-11.479
服下	-11.4799
既不肯	-11.4801
一抬	-11.4806
自然知道	-11.4809
爬到	-11.4821
要设法	-11.4822
屑	-11.4822
一拱	-11.4825
这一箭	-11.4835
渺茫	-11.4837
肥胖	-11.4843
河北	-11.4844
在他身旁	-11.485
绝非	-11.4853
不知该	-11.4856
并排	-11.4857
均未	-11.4868
暗赞	-11.4881
无影无踪	-11.4887
花枝	-11.4904
男孩	-11.4909
过多少	-11.4914
交换	-11.4916
不用怕	-11.4925
十多个	-11.4938
呼喊	-11.4951
闪烁	-11.4961
不是好人	-11.4971
三件	-11.4974
说甚么也不	-11.4978
在外面	-11.4985
死战	-11.4987
一张脸	-11.4997
墙边	-11.5002
每晚	-11.5005
不放心	-11.5008
密林	-11.5024
发热	-11.5031
窑	-11.5048
石窟	-11.5052
跃下马	-11.5058
九年	-11.5066
幽幽	-11.5074
受惊	-11.5076
乍	-11.508
一剑刺	-11.509
官员	-11.5091
借给	-11.5096
身上穿	-11.5098
林外	-11.511
悠悠	-11.5113
突听	-11.5115
无仇	-11.5115
只觉一股	-11.5118
在江南	-11.5124
二三	-11.5128
楞	-11.5131
揖	-11.5135
骏马	-11.5142
两枝	-11.5152
挡不住	-11.5153
凳上	-11.5162
农	-11.5163
至今	-11.517
撑着	-11.5171
撇	-11.5173
东南	-11.5174
意思说	-11.5174
进城	-11.5176
枣	-11.518
潜运	-11.5183
哟	-11.5186
勉	-11.5187
晨	-11.5188
枢	-11.5188
偎	-11.5189
讥	-11.5191
绸	-11.5191
蟒	-11.5191
盈	-11.5192
焰	-11.5192
帚	-11.5192
脊	-11.5192
措	-11.5193
桅	-11.5193
模	-11.5193
融	-11.5193
兮	-11.5193
篷	-11.5193
障	-11.5194
杜	-11.5194
一招一式	-11.5194
吠	-11.5194
峻	-11.5194
何足道哉	-11.5194
摇头晃脑	-11.5194
滴溜溜	-11.5194
荷	-11.5194
孕	-11.5194
一转念间	-11.5194
壳	-11.5194
噗哧一笑	-11.5194
光秃秃的	-11.5194
郝	-11.5194
千方百计	-11.5194
嗒	-11.5194
湘	-11.5194
猿猴	-11.5194
禽	-11.5194
眉大眼	-11.5194
酬	-11.5194
相差太远	-11.5194
惠	-11.5194
一饮而尽	-11.5194
少林寺	-11.5194
平平无奇	-11.5194
偏袒	-11.5194
炫	-11.5194
屠戮	-11.5194
神通广大	-11.5194
躯体	-11.5194
扑地倒了	-11.5194
胡思乱想	-11.5194
这首诗	-11.5194
中气充沛	-11.5194
安抚使	-11.5194
情深爱	-11.5194
淹	-11.5194
一日一夜	-11.5194
馆	-11.5194
喀的一响	-11.5194
胜之不武	-11.5194
虞	-11.5195
辅	-11.5195
吾	-11.5195
叨	-11.5195
屡	-11.5195
大声吆喝	-11.5195
砰嘭	-11.5195
靴	-11.5195
魂飞天外	-11.5195
俄罗斯	-11.5195
脑浆迸裂	-11.5195
陆氏夫妇	-11.5195
旁门左道	-11.5195
那贵公子	-11.5195
亲生女儿	-11.5195
心惊胆战	-11.5195
钗	-11.5195
狼牙棒	-11.5195
玲	-11.5195
四张机	-11.5195
嬉	-11.5195
涕	-11.5195
负在背上	-11.5195
樊	-11.5195
馋	-11.5195
无声无息	-11.5195
格格作响	-11.5195
萦	-11.5195
大发脾气	-11.5195
的一声叫了出来	-11.5195
粥	-11.5195
苗	-11.5195
冢	-11.5195
吊死鬼	-11.5195
嗣	-11.5195
津	-11.5195
紧急关头	-11.5195
今而后	-11.5195
者勒米	-11.5195
趁	-11.5195
狂怒之下	-11.5195
世代相传	-11.5195
个窟窿	-11.5195
九阳真经	-11.5195
杀人不眨眼	-11.5195
癞	-11.5195
斩钉截铁	-11.5195
曲曲折折	-11.5195
铐	-11.5195
巴巴的	-11.5195
伸出手去	-11.5195
悠	-11.5195
差不多	-11.5195
四肢百骸	-11.5195
走来走去	-11.5195
从何说起	-11.5195
核	-11.5195
酸楚	-11.5195
围在垓心	-11.5195
二姊	-11.5195
尘土飞扬	-11.5195
满头大汗	-11.5195
巷	-11.5195
宅	-11.5195
机伶	-11.5195
兰花拂穴手	-11.5195
分筋错骨手	-11.5195
斡儿朵	-11.5195
统帅	-11.5195
侧过了头	-11.5195
险象环生	-11.5195
姊妹俩	-11.5195
的克星	-11.5195
赎	-11.5195
呼的一掌	-11.5195
武老伯	-11.5195
金铃索	-11.5196
衣钵	-11.5196
身上有伤	-11.5196
易筋锻骨篇	-11.5196
这女魔头	-11.5196
戈	-11.5196
平白无端的	-11.5196
楞伽经	-11.5196
骑在马上	-11.5196
无意之中	-11.5196
龙象般若功	-11.5196
拜我为师	-11.5196
旷野	-11.5196
寡妇	-11.5196
越走越	-11.5196
到此地步	-11.5196
左右互搏之术	-11.5196
吕	-11.5196
检视	-11.5196
冒充	-11.5196
陈设	-11.5196
还了一招	-11.5196
防范	-11.5196
僧人	-11.5196
貂裘	-11.5196
萨多	-11.5196
没来由的	-11.5196
拙夫	-11.5196
两枚银针	-11.5196
状元	-11.5196
兴奋	-11.5196
冲天而起	-11.5196
殷红	-11.5196
缎子	-11.5197
呼呼喘气	-11.5197
萧	-11.5197
驾临	-11.5197
肉瘤	-11.5197
泄露	-11.5197
不明其意	-11.5197
鼾声	-11.5197
迟了一步	-11.5197
黄贤弟	-11.5197
向旁跃开	-11.5197
元朝	-11.5197
敬畏	-11.5197
父女俩	-11.5197
揪住	-11.5197
手下容情	-11.5197
正是求之不得	-11.5197
乐趣	-11.5197
倏忽间	-11.5197
狂妄	-11.5198
轻盈	-11.5198
别无他	-11.5198
嘴角边	-11.5198
服饰	-11.5198
额角	-11.5198
吹奏	-11.5198
扑通一声	-11.5198
一名武官	-11.5198
拉屎	-11.5198
欣然	-11.5198
齐声欢呼	-11.5198
食盒	-11.5199
铁筝	-11.5199
开玩笑	-11.5199
百来斤	-11.5199
所住的	-11.5199
赵王完颜洪烈	-11.5199
疾趋	-11.5199
轻捷	-11.5199
悄立	-11.5199
陪伴	-11.5199
哪料到	-11.5199
珍宝	-11.5199
铁蹄	-11.5199
怨仇	-11.5199
郊外	-11.5199
劝慰	-11.5199
跃上屋顶	-11.5199
作揖	-11.5199
世伯	-11.5199
拿在手中	-11.5199
临死之时	-11.52
拦腰	-11.52
这套掌法	-11.52
从来没见过	-11.52
再也支持不住	-11.52
步履	-11.52
树叶	-11.52
罗汉	-11.52
看得清楚	-11.52
仁义	-11.52
耳畔	-11.52
玄虚	-11.52
坐倒在地	-11.52
两名军士	-11.52
丐帮大会	-11.5201
永不再	-11.5201
金球	-11.5201
礁石	-11.5201
大姊	-11.5201
落下地来	-11.5201
并列	-11.5202
尸骨	-11.5202
奸徒	-11.5202
抵挡得住	-11.5202
抚养	-11.5202
说了几句话	-11.5202
危急之际	-11.5202
迁怒	-11.5202
裘帮主	-11.5202
七妹	-11.5202
酒壶	-11.5203
复仇	-11.5203
指甲	-11.5203
尊敬	-11.5203
不及细想	-11.5203
世俗	-11.5203
历代	-11.5203
奔过去	-11.5203
凑眼	-11.5204
跪在地下	-11.5204
观赏	-11.5204
配制	-11.5204
拔出匕首	-11.5205
也就是了	-11.5205
毒砂	-11.5205
怪责	-11.5205
光景	-11.5205
拍的一响	-11.5205
遭遇	-11.5205
嘿嘿冷笑	-11.5206
盘膝坐下	-11.5206
四哥	-11.5206
严加	-11.5206
寻觅	-11.5207
马鞍	-11.5207
拿捏	-11.5207
四个儿子	-11.5207
术数	-11.5207
缓缓而行	-11.5208
弯曲	-11.5208
独臂	-11.5208
双掌齐出	-11.5208
峭壁	-11.5208
冰雪	-11.5208
酒量	-11.5208
苦恼	-11.5208
战士	-11.5208
铁甲	-11.5208
剧斗	-11.5208
胸怀	-11.5208
口齿	-11.5209
平台	-11.5209
情势紧迫	-11.521
轻轻一拍	-11.521
爽快	-11.521
士兵	-11.5211
几分	-11.5211
凶光	-11.5211
也是无用	-11.5211
妙计	-11.5211
得出奇	-11.5212
对付不了	-11.5212
武功之高	-11.5212
游玩	-11.5213
重量	-11.5213
老伯伯	-11.5213
仇敌	-11.5213
一回事	-11.5213
铁钟	-11.5213
烛光下	-11.5213
原该	-11.5214
木屋	-11.5214
粗布	-11.5214
台边	-11.5214
光亮	-11.5214
宋五	-11.5215
挺枪	-11.5215
老娘	-11.5216
侧目	-11.5216
急智	-11.5216
首领	-11.5216
出乎	-11.5217
伸左臂	-11.5217
整日	-11.5217
长期	-11.5218
皮肉	-11.5218
报复	-11.5218
双耳	-11.5218
肚子里	-11.5218
一百个	-11.5219
面临	-11.5219
石窟中	-11.522
即行	-11.522
两位居士	-11.522
巧劲	-11.5221
轻轻叹了口气	-11.5221
公然	-11.5222
小擒拿手	-11.5222
随即会意	-11.5222
第二日	-11.5222
沿着	-11.5223
大批	-11.5224
束手	-11.5224
谢过	-11.5225
斗志	-11.5226
斩落	-11.5226
不悦	-11.5226
厅口	-11.5227
挂念着	-11.5229
映照	-11.5229
撞见了	-11.523
了一夜	-11.5231
松林中	-11.5231
乱闯	-11.5232
拳风	-11.5232
精微	-11.5232
奴才	-11.5232
查问	-11.5232
太重	-11.5232
活不成	-11.5233
小时候	-11.5233
脚色	-11.5233
单掌	-11.5233
负伤	-11.5234
不中用	-11.5234
圆睁	-11.5234
一皱	-11.5235
头晕	-11.5236
指引	-11.5236
接骨	-11.5237
遵从	-11.5238
在台上	-11.5239
牢牢记住	-11.5239
不肖	-11.5239
各持	-11.5239
一条手臂	-11.524
何日	-11.524
长箭	-11.524
小爷	-11.5241
长江	-11.5241
凶手	-11.5241
▁郭靖和黄蓉	-11.5243
异声	-11.5243
心智	-11.5243
陆地	-11.5244
这姓杨的	-11.5244
柯镇恶铁杖	-11.5244
哪想到	-11.5244
越加	-11.5245
女鬼	-11.5245
岁年纪	-11.5245
柱子	-11.5246
喜乐	-11.5247
回护	-11.5249
所创	-11.5249
相谢	-11.525
颈后	-11.5251
然则	-11.5251
心下大喜	-11.5252
事隔	-11.5255
易于	-11.5255
不论如何	-11.5256
回音	-11.5256
后脑	-11.5257
拨开	-11.5258
味儿	-11.5259
尘头	-11.5259
斜飞	-11.526
失足	-11.526
兵书	-11.526
相帮	-11.526
!’”	-11.5261
撑住	-11.5262
进步	-11.5262
矮小	-11.5262
一百年	-11.5262
木然	-11.5263
南行	-11.5266
天堂	-11.5266
猎人	-11.5267
自以为	-11.5268
闻名	-11.5268
受伤之后	-11.5269
荡开	-11.5269
口边	-11.5269
闪闪	-11.527
统兵	-11.527
传言	-11.5271
得不知去向	-11.5274
是他对手	-11.5274
崩断	-11.5275
见谅	-11.5277
主要	-11.5277
说话声音	-11.5278
翻飞	-11.5278
忽变	-11.5279
之辱	-11.5279
奔马	-11.528
复生	-11.528
错啦	-11.528
▁那女郎	-11.5286
拖雷与郭靖	-11.5287
此举	-11.5287
心中焦急	-11.5288
下峰	-11.5289
相逼	-11.529
破空	-11.5292
所思	-11.5292
跨上	-11.5293
难愈	-11.5293
瞧得起	-11.5293
满门	-11.5293
只见地下	-11.5293
早日	-11.5298
使妖法	-11.5306
无功	-11.5306
集于	-11.5307
力战	-11.531
探子	-11.531
极轻	-11.5312
乍见	-11.5312
大半个时辰	-11.5313
伸剑	-11.5314
四望	-11.5315
小朋友	-11.5317
特来	-11.5318
照着	-11.5322
击刺	-11.5323
▁杨过与小龙女	-11.5324
偏心	-11.5324
唯一	-11.5327
可算得	-11.5327
狠心	-11.5327
连称	-11.5328
击毙	-11.5329
这小贼	-11.5329
有意要	-11.5331
驰马	-11.5332
带风	-11.5332
骑着	-11.5334
向前扑	-11.5335
不听话	-11.5339
不怕死	-11.534
击掌	-11.5344
当初	-11.5344
亲事	-11.5344
在绝情谷中	-11.5345
窑洞	-11.5346
出版	-11.5349
那僧人	-11.5367
在他背上	-11.5372
细问	-11.5373
门派	-11.5378
前日	-11.5381
双掌齐	-11.5381
桌面	-11.5392
想出来的	-11.5392
还有谁	-11.5399
决意要	-11.5399
遮住	-11.5401
筋斗	-11.5401
草地	-11.5415
这许多人	-11.5415
甚是疼痛	-11.5416
待我好	-11.5418
一挣	-11.542
引着	-11.5424
蒙古语	-11.5427
处大穴	-11.5437
站住	-11.5443
又有谁	-11.5448
感到一阵	-11.5458
就在这里	-11.5474
瞧是谁	-11.5476
兵力	-11.5483
转头问	-11.5498
着地滚	-11.5499
自幼便	-11.5518
情花丛	-11.5518
三场	-11.5525
艘船	-11.5536
是自己人	-11.554
算数	-11.5557
接任掌教	-11.556
林子	-11.5562
是否能	-11.5565
挥拂尘	-11.5573
几口气	-11.5574
拍的一	-11.5581
碰上	-11.5608
并肩坐在	-11.5621
始终没有	-11.5622
入耳	-11.5626
抵住	-11.5627
坐在石上	-11.5632
总觉	-11.5634
布成	-11.5634
被缚	-11.5638
也不以为	-11.5638
渔网阵	-11.5646
就像	-11.5659
挺剑刺	-11.5661
妨	-11.5673
两个道人	-11.5674
将经文	-11.5681
七八十	-11.5693
九成	-11.5694
摸着	-11.5701
茫	-11.571
厅门	-11.5721
跃进	-11.5731
圆圈	-11.5732
五尺	-11.5744
不相识	-11.5747
说几句	-11.5764
个法儿	-11.5769
百岁	-11.5776
挺刀	-11.5779
流泪	-11.5794
追杀	-11.5807
未必能	-11.5807
小径	-11.5849
得满脸通红	-11.5867
受挫	-11.5874
静坐	-11.5874
家父	-11.589
重围	-11.5907
舱中	-11.5909
块牛肉	-11.5912
传来一阵	-11.593
震开	-11.593
跟谁	-11.5931
快走罢	-11.5941
痕迹	-11.5963
谷口	-11.5967
根本	-11.5975
有一件事	-11.5978
认错	-11.5981
西游	-11.5984
电闪	-11.5989
几根	-11.5989
由此	-11.5992
悄	-11.5995
一瞬之间	-11.5997
致命	-11.5999
臭贼	-11.6001
钦使	-11.6001
请安	-11.6003
针刺	-11.6003
在寒玉床上	-11.6023
呼啸	-11.6028
要是给	-11.6033
蜂群	-11.6045
一把火	-11.6045
毫没	-11.6047
未受伤	-11.6048
株大树	-11.6054
天灵盖	-11.606
轿中	-11.606
怠	-11.6064
无异状	-11.6065
蓦	-11.6073
梢公	-11.6075
如雷	-11.6076
十万	-11.6079
论到	-11.6083
忒	-11.6084
巅	-11.6085
个多时辰	-11.6087
询	-11.6094
闪电般	-11.6094
籍	-11.6097
帘	-11.6098
捣	-11.6098
伪	-11.6098
肢	-11.6099
监	-11.61
憎	-11.61
柜	-11.6101
衡	-11.6101
钝	-11.6101
镖	-11.6101
赃	-11.6101
参仙老怪	-11.6102
千夫长	-11.6102
铁匠	-11.6102
狱	-11.6102
文武全才	-11.6102
药材	-11.6102
幕	-11.6102
玑	-11.6103
竿	-11.6103
虏	-11.6103
那四川人	-11.6103
锈	-11.6103
薰	-11.6103
绰	-11.6103
二十八宿大阵	-11.6103
眼睁睁的	-11.6103
刀斧手	-11.6103
苦寒之地	-11.6103
袜	-11.6103
深仇大怨	-11.6103
蜂巢	-11.6103
冒大险	-11.6103
窒滞	-11.6103
柔情蜜意	-11.6103
三日三夜	-11.6103
余兆兴	-11.6103
眼花缭乱	-11.6103
斡难河	-11.6103
蚌壳	-11.6103
铜钹	-11.6103
摧心掌	-11.6103
血肉之躯	-11.6103
压根儿	-11.6103
喀喀	-11.6103
斜刺里	-11.6103
虹	-11.6103
跋	-11.6103
提心吊胆	-11.6103
穴道被点	-11.6104
鲁钝	-11.6104
刹	-11.6104
纠缠不清	-11.6104
窒	-11.6104
勃勃	-11.6104
杀父仇人	-11.6104
缩了回去	-11.6104
熊	-11.6104
凹	-11.6104
支颐	-11.6104
痰	-11.6104
飞龙在天	-11.6104
皱起眉头	-11.6104
腊	-11.6104
仞	-11.6104
一窍不通	-11.6104
刊	-11.6104
汪	-11.6104
治疗	-11.6104
瑰	-11.6104
言出如山	-11.6104
愁眉苦脸	-11.6104
崔志方	-11.6104
雇	-11.6104
安安稳稳的	-11.6104
绝口不提	-11.6104
翻来覆去	-11.6104
咎	-11.6104
涯	-11.6104
祷祝	-11.6104
胃	-11.6104
大呼小叫	-11.6104
拜了几拜	-11.6104
死于非命	-11.6104
馁	-11.6104
不守信约	-11.6104
拈	-11.6104
潇湘子和尹克西	-11.6104
催促	-11.6104
情是何物	-11.6104
摇摇晃晃	-11.6104
嬉皮笑脸	-11.6104
任掌教	-11.6104
拿在手里	-11.6104
翩	-11.6104
碌	-11.6104
走近身去	-11.6104
不知所措	-11.6104
动上了手	-11.6104
凄厉	-11.6104
汗巾	-11.6104
肺	-11.6104
轧轧	-11.6104
袖手旁观	-11.6104
滚来滚去	-11.6104
盘膝而坐	-11.6104
达尔巴和霍都	-11.6104
攘	-11.6104
满脸怒容	-11.6104
荫	-11.6104
越奔越	-11.6104
转身便逃	-11.6104
十夫长	-11.6104
乙	-11.6104
在伯仲之间	-11.6104
在赵王府中	-11.6104
泻	-11.6104
血渍	-11.6104
努	-11.6104
就此别过	-11.6104
十天半月	-11.6105
恢复	-11.6105
除此之外	-11.6105
髯	-11.6105
怒目而视	-11.6105
冲口而出	-11.6105
所作所为	-11.6105
矫捷	-11.6105
告诉	-11.6105
变化精微	-11.6105
枉自送了性命	-11.6105
伸出手来	-11.6105
傻瓜	-11.6105
掉下泪来	-11.6105
提高声音	-11.6105
悠然神往	-11.6105
炽	-11.6105
兄嫂	-11.6105
放慢脚步	-11.6105
煞神鬼	-11.6105
讳	-11.6105
苟	-11.6105
灯笼	-11.6105
嘻笑	-11.6105
猜想不透	-11.6105
腥臭	-11.6105
岳州	-11.6105
调匀呼吸	-11.6105
恭谨	-11.6105
我姑丈	-11.6105
委顿	-11.6105
枯枝	-11.6105
惟恐	-11.6105
记诵	-11.6105
就此罢手	-11.6105
炒	-11.6105
转马头	-11.6106
筋脉	-11.6106
s	-11.6106
纵声大笑	-11.6106
猜不透	-11.6106
飞翔	-11.6106
伙计	-11.6106
兜圈子	-11.6106
郭贤侄	-11.6106
刃锋	-11.6106
嘻嘻一笑	-11.6106
锐利	-11.6106
麻痒	-11.6106
讲述	-11.6106
退开两步	-11.6106
隔了良久	-11.6106
狼狈不堪	-11.6106
打他不过	-11.6106
远远望见	-11.6107
僻静	-11.6107
横行天下	-11.6107
一间石室	-11.6107
无歹意	-11.6107
啪的一声	-11.6107
贼婆娘	-11.6107
齐声呐喊	-11.6107
尹师弟	-11.6107
十八岁	-11.6107
花纹	-11.6107
巨鲨	-11.6107
越看越	-11.6107
逗留	-11.6107
交迸	-11.6107
中所述	-11.6107
这路掌法	-11.6107
听我的话	-11.6107
草莽	-11.6107
宁静	-11.6108
全身发颤	-11.6108
心头一震	-11.6108
一股劲风	-11.6108
海潮	-11.6108
晦气	-11.6108
银丝	-11.6108
庄严	-11.6108
瞪目	-11.6108
心中突突乱跳	-11.6108
偶然	-11.6108
楼板	-11.6108
怨愤	-11.6108
犯不着	-11.6108
恭敬	-11.6109
屋瓦	-11.6109
山巅	-11.6109
机缘	-11.6109
不输于	-11.6109
脸一沉	-11.6109
再斗下去	-11.6109
愤愤的	-11.6109
双斧	-11.6109
神尼	-11.6109
静候	-11.6109
听你话	-11.611
谎言	-11.611
听你的话	-11.611
恍然	-11.611
郭爷	-11.611
师叔祖	-11.611
猛然间	-11.611
一宵	-11.611
内功深湛	-11.6111
远远传来	-11.6111
吓得魂不附体	-11.6111
任性	-11.6111
有趣得紧	-11.6111
胸口热血	-11.6111
借宿	-11.6111
筹划	-11.6111
机密	-11.6111
恍若	-11.6112
听他这么说	-11.6112
止歇	-11.6112
详加	-11.6112
跟踪	-11.6112
求婚	-11.6112
但随即想起	-11.6112
闲谈	-11.6112
缓步走到	-11.6112
扭曲	-11.6113
中含意	-11.6113
救他性命	-11.6113
大声喝彩	-11.6113
陆兄	-11.6113
红肿	-11.6113
永世	-11.6113
如沸	-11.6114
奸细	-11.6115
没有听见	-11.6115
违背	-11.6115
遍体	-11.6115
赴桃花岛	-11.6115
霎时	-11.6116
擒拿法	-11.6116
横扫过去	-11.6116
交叉	-11.6117
酸痛	-11.6117
临死时	-11.6117
举杯	-11.6117
能否	-11.6117
狗贼	-11.6117
山谷间	-11.6118
脚程	-11.6118
拳术	-11.6118
各族	-11.6118
睁着	-11.6118
恶女人	-11.6118
分辩	-11.6119
啊哈	-11.612
故居	-11.612
兵士	-11.612
点拨	-11.612
瓜子	-11.612
移步	-11.612
并骑	-11.6121
大声呼喝	-11.6121
裹伤	-11.6121
听了这话	-11.6121
节拍	-11.6121
称谢	-11.6121
进袭	-11.6121
五弟	-11.6121
站在门口	-11.6122
轮流	-11.6122
母女	-11.6122
寒冷	-11.6122
三子窝阔台	-11.6123
华筝妹子	-11.6123
▁次日清晨	-11.6123
好极啦	-11.6123
老婆子	-11.6124
应该	-11.6124
四弟	-11.6124
渔舟	-11.6124
摆脱	-11.6124
仙女	-11.6124
抗敌	-11.6125
心肝	-11.6125
撑地	-11.6125
的长子	-11.6125
靠近	-11.6125
我和姑姑	-11.6126
治愈	-11.6126
千万不能	-11.6126
走了进来	-11.6126
本门功夫	-11.6126
相距不过	-11.6126
厮打	-11.6127
四名弟子	-11.6127
碍着	-11.6127
虚劈	-11.6128
饭碗	-11.6128
蜂子	-11.6128
陆姑娘	-11.6128
难题	-11.6129
很喜欢	-11.6129
哪容	-11.6129
制服	-11.6129
乘坐	-11.6129
老先生	-11.6129
十五六岁	-11.613
读者	-11.613
三丐	-11.613
本来面目	-11.613
永远不会	-11.6131
触手	-11.6132
抬头望着	-11.6132
清香	-11.6132
共同	-11.6132
郭大哥	-11.6133
来得好快	-11.6133
花样	-11.6133
钟声	-11.6134
反贼	-11.6134
觉得怎样	-11.6134
刀柄	-11.6135
挥鞭	-11.6135
室内	-11.6135
落将下来	-11.6135
又是难过	-11.6136
原由	-11.6136
露面	-11.6137
到口边	-11.6137
那男孩	-11.6137
数十年前	-11.6138
两个时辰	-11.6138
互击	-11.6138
结交	-11.6138
脑子	-11.6138
金主	-11.6138
了几眼	-11.6139
都是一样	-11.6139
蒙古军官	-11.6139
机变	-11.614
久经	-11.6142
胜算	-11.6142
面容	-11.6143
短刀	-11.6143
若在平	-11.6145
老虎	-11.6145
相碰	-11.6145
伤敌	-11.6147
射箭	-11.6148
白胡子	-11.6149
无缘	-11.6149
做梦	-11.6149
旧情	-11.6149
女流	-11.6149
捧着	-11.6149
八字	-11.6149
微微摇头	-11.615
挟着	-11.615
童心	-11.6151
断腿	-11.6151
▁这一晚	-11.6151
墓前	-11.6151
尊长	-11.6153
大缆	-11.6153
▁旁观众人	-11.6153
在马背上	-11.6153
从洞中	-11.6154
被困	-11.6154
逃不了	-11.6156
凑到	-11.6157
长鸣	-11.6157
又是害怕	-11.6157
手刃	-11.6158
了一圈	-11.6158
被害	-11.6158
养神	-11.6158
遭难	-11.616
奇异	-11.616
吹动	-11.6161
一身武功	-11.6161
拍拍两	-11.6162
▁史伯威	-11.6162
直透	-11.6162
韩宝驹等	-11.6162
海面上	-11.6163
也不算	-11.6164
一人之力	-11.6164
摆动	-11.6166
甲板上	-11.6168
求救	-11.617
向来路	-11.6172
两排	-11.6172
字条	-11.6172
又是欢喜	-11.6173
身子略	-11.6173
并肩而行	-11.6174
抢前	-11.6175
急忙转身	-11.6179
游动	-11.6179
引开	-11.6179
在北京	-11.618
吹起	-11.6182
用不着	-11.6182
马群	-11.6183
跃落	-11.6185
了半夜	-11.6185
傻子	-11.6185
戴着	-11.6187
▁那道士	-11.6188
情欲	-11.6189
横挥	-11.619
早些	-11.619
悠悠醒	-11.619
撒麻尔罕城	-11.6192
也不须	-11.6192
半月	-11.6192
中午	-11.6197
所乘	-11.6199
轻敌	-11.6201
属于	-11.6202
美事	-11.6202
长久	-11.6203
流落	-11.6204
聚集	-11.6205
自古	-11.6206
随意	-11.6207
还没死	-11.6211
端起	-11.6213
不知是何	-11.6215
记在心	-11.6215
吼声	-11.6217
之父	-11.6218
宽心	-11.622
饭店	-11.6222
眼望着	-11.6227
左足踏	-11.623
凑近	-11.6232
闭穴	-11.6233
牢牢抱住	-11.6234
兴起	-11.624
无益	-11.6241
长眉	-11.6243
铁箱	-11.6243
决不可	-11.6249
五岁	-11.6251
块大石	-11.6255
给人害死	-11.6263
在道旁	-11.6266
如你这般	-11.6272
四个字	-11.6275
大鹰	-11.6283
向前疾	-11.6285
瞥眼	-11.6294
躲开	-11.6297
还说甚么	-11.63
一伙	-11.6305
剪断	-11.6311
枚毒菱	-11.6321
有甚么法子	-11.6322
尤胜	-11.6324
不用再	-11.6329
挫折	-11.635
卧室	-11.6353
分站	-11.6357
大出意料之外	-11.6358
难道我就	-11.6369
进屋去	-11.637
始终不肯	-11.6381
塞入	-11.6393
全真派的武功	-11.6403
硬逼	-11.6425
飞身而	-11.6425
被他抓住	-11.6436
偷眼	-11.6448
既知	-11.6466
两只小	-11.6474
风扑面	-11.6476
小女孩	-11.6477
了十几	-11.6478
两人并肩	-11.6486
好生感激	-11.6498
山壁	-11.6517
谁也没	-11.6528
刷刷	-11.6544
钟底	-11.6547
混入	-11.6552
躲闪	-11.6563
刺破	-11.6596
不作声	-11.6602
咬牙切齿	-11.6649
师祖爷	-11.6661
恃强	-11.6664
▁李莫愁见	-11.6672
令兄	-11.6676
闻到一阵	-11.6687
牛皮	-11.6688
觉有趣	-11.6724
三个化子	-11.674
批	-11.6745
截断	-11.6766
羊肉	-11.6777
也说不	-11.6809
一灯微笑	-11.682
知己	-11.6861
九岁	-11.6873
杯口	-11.6876
四散	-11.6877
学到了	-11.6883
拳打出	-11.6891
墙外	-11.6893
认不出	-11.6899
毒菱	-11.6913
山腰	-11.6928
廿	-11.6933
全真教掌教	-11.6938
女婴	-11.6944
知悉	-11.6944
惨叫	-11.6946
金光	-11.6959
掌柜	-11.6985
家客店	-11.701
猛地想起	-11.7021
名号	-11.7029
意义	-11.7039
船边	-11.7046
两句话	-11.7053
红光	-11.7054
起手来	-11.7059
畜	-11.7062
洪七公与郭靖	-11.7077
峭	-11.7087
砂	-11.7091
资	-11.7094
惶	-11.7095
欣	-11.7095
梵文	-11.7096
断肠崖	-11.7097
枚冰魄银针	-11.7098
朽	-11.7099
襟	-11.71
螺	-11.7101
域	-11.7101
蹑	-11.7101
胶	-11.7102
五根手指	-11.7102
秉	-11.7102
社	-11.7102
懦	-11.7102
孟	-11.7102
那胖妇人	-11.7102
了一口长气	-11.7102
戾	-11.7102
控	-11.7102
蜇	-11.7103
恢	-11.7103
十之八九	-11.7103
祠	-11.7103
目不转瞬的	-11.7103
陈大方	-11.7103
伊	-11.7103
烹	-11.7103
五袋弟子	-11.7103
踱	-11.7103
束手无策	-11.7103
缨	-11.7103
各家各派	-11.7103
亢	-11.7103
t	-11.7103
刹时之间	-11.7103
杨陆二人	-11.7103
黑沉沉的	-11.7103
稽	-11.7103
人厨子	-11.7103
奇珍异宝	-11.7103
听在耳里	-11.7103
妒忌	-11.7103
无常鬼	-11.7103
足智多谋	-11.7103
饥饿	-11.7103
揣	-11.7103
千斤坠	-11.7103
大头矮子	-11.7103
总纲	-11.7103
纱	-11.7103
涎	-11.7103
百花谷	-11.7103
惑	-11.7103
天竺国	-11.7103
百草仙	-11.7103
眠	-11.7103
钱青健	-11.7103
闩	-11.7103
檀	-11.7103
笺	-11.7103
把持不定	-11.7103
玎玲	-11.7103
胡里胡涂	-11.7103
得死去活来	-11.7104
禽兽	-11.7104
絮	-11.7104
清净散人	-11.7104
北斗大阵	-11.7104
描	-11.7104
整日价	-11.7104
软软的	-11.7104
驸马爷	-11.7104
摇了几摇	-11.7104
少说也有	-11.7104
登峰造极	-11.7104
睡梦中	-11.7104
神不守舍	-11.7104
神出鬼没	-11.7104
千难万难	-11.7104
抽抽噎噎的	-11.7104
酌	-11.7104
沙龙王	-11.7104
报仇雪恨	-11.7104
无法可施	-11.7104
远眺	-11.7104
铅轮	-11.7104
欧	-11.7104
喻	-11.7104
眺望	-11.7104
一小队	-11.7104
命不久长	-11.7104
咭咭咯咯	-11.7104
署	-11.7104
腾挪	-11.7104
走火入魔	-11.7104
驷	-11.7104
爽爽快快	-11.7104
一声长笑	-11.7104
喃喃自语	-11.7104
酿	-11.7104
瘫	-11.7104
那老仆	-11.7104
只守不攻	-11.7104
唾沫	-11.7104
若游丝	-11.7104
贼厮鸟	-11.7104
唳	-11.7104
来来去去	-11.7104
连人带	-11.7104
连人带椅	-11.7104
闭上眼睛	-11.7104
大椎穴	-11.7104
巍	-11.7104
摔了一交	-11.7104
需	-11.7104
香扑鼻	-11.7104
侧耳听	-11.7104
四头骆驼	-11.7104
蹲下身来	-11.7104
渔樵耕读	-11.7104
跌跌撞撞	-11.7104
不加理睬	-11.7104
欣慰	-11.7104
喜极而	-11.7104
灵柩	-11.7104
回心转意	-11.7104
结结巴巴	-11.7104
哈里发	-11.7104
心狠手辣	-11.7104
党	-11.7104
届	-11.7104
拄	-11.7104
欢悦	-11.7104
判官	-11.7104
季	-11.7104
这倒奇了	-11.7104
暴跳如雷	-11.7104
告诫	-11.7104
抗御	-11.7104
无怨无仇	-11.7104
怅	-11.7104
周遭情势	-11.7104
无路可走	-11.7104
贾	-11.7104
兑	-11.7104
哪里还来得及	-11.7104
怒从心	-11.7104
搞	-11.7104
鳞	-11.7104
功力大进	-11.7104
得更加紧了	-11.7104
标	-11.7104
脸露微笑	-11.7104
阙	-11.7104
隐隐约约	-11.7104
别来无恙	-11.7104
旅	-11.7104
脏腑	-11.7104
欧阳叔侄	-11.7104
嘟	-11.7104
大武哥哥	-11.7104
张家口	-11.7104
如箭般	-11.7104
瑟	-11.7104
疗毒	-11.7104
说给你听	-11.7104
院子中	-11.7104
讨厌	-11.7105
脸如土色	-11.7105
巢	-11.7105
勤修苦练	-11.7105
简略说了	-11.7105
衙役	-11.7105
内心深处	-11.7105
成这个样子	-11.7105
绌	-11.7105
佑	-11.7105
喜不自胜	-11.7105
大得异乎寻常	-11.7105
弧形	-11.7105
洞庭湖	-11.7105
鄂尔多	-11.7105
亲眼目睹	-11.7105
叫了两声	-11.7105
吮吸	-11.7105
温馨	-11.7105
必有蹊跷	-11.7105
置之不理	-11.7105
心念甫	-11.7105
着实不轻	-11.7105
说一是一	-11.7105
鸠	-11.7105
越斗越	-11.7105
叮嘱	-11.7105
谦逊	-11.7105
歼灭	-11.7105
烈焰	-11.7105
心情激动	-11.7105
油腻	-11.7105
取他性命	-11.7105
轩辕台	-11.7105
粮草	-11.7105
苍苍	-11.7105
豪迈	-11.7105
这部经书	-11.7105
鞭梢	-11.7105
婢女	-11.7105
信口胡	-11.7106
倍增	-11.7106
咕咕	-11.7106
篾儿乞惕	-11.7106
翻阅	-11.7106
不想活了	-11.7106
临安府牛家村	-11.7106
汗珠	-11.7106
玉镯	-11.7106
舍侄	-11.7106
钦仰	-11.7106
又好气又好笑	-11.7106
扫帚	-11.7106
大有进境	-11.7106
好得很啊	-11.7106
碧绿	-11.7106
茅舍	-11.7106
肚兜	-11.7106
监视	-11.7106
心头一凛	-11.7106
书籍	-11.7106
疑团	-11.7106
四下眺望	-11.7106
陡然间	-11.7106
只觉一股大力	-11.7106
店伙	-11.7106
甜甜	-11.7106
肉搏	-11.7106
比武之约	-11.7107
四十岁	-11.7107
扳桨	-11.7107
心中一荡	-11.7107
跃下地来	-11.7107
歉然	-11.7107
木桩	-11.7107
唯恐	-11.7107
在其内	-11.7107
凝神倾听	-11.7107
僧袍	-11.7107
坚壁	-11.7107
又喜又	-11.7107
师傅	-11.7107
途径	-11.7107
的神气	-11.7107
壮健	-11.7107
牵挂	-11.7107
男装	-11.7107
的精要	-11.7107
颂	-11.7107
坦然	-11.7107
高高举起	-11.7107
体贴	-11.7107
声长嘶	-11.7107
纵横江湖	-11.7107
所居的	-11.7108
棘手	-11.7108
飞驰而	-11.7108
木桶	-11.7108
衣裤	-11.7108
少庄主	-11.7108
也就罢了	-11.7108
灵蛇拳	-11.7108
吹箫	-11.7108
不加理会	-11.7108
拿捏不住	-11.7108
歇宿	-11.7108
坐在椅上	-11.7108
纷纷跌落	-11.7108
安寝	-11.7108
哪里还敢	-11.7108
夫妇俩	-11.7109
云梯	-11.7109
羞愧	-11.7109
顷	-11.7109
角落里	-11.7109
险些摔倒	-11.7109
垂泪	-11.7109
板壁	-11.7109
领头的	-11.7109
窗格	-11.7109
任脉	-11.7109
受伤不轻	-11.7109
木棍	-11.7109
臭虫	-11.7109
干粮	-11.7109
落英神剑掌法	-11.7109
英雄大会	-11.7109
新鲜	-11.7109
父仇	-11.711
听她语气	-11.711
柯大哥	-11.711
子聪	-11.711
锦衣	-11.711
为伍	-11.711
挟制	-11.711
作伪	-11.711
应援	-11.711
满拟	-11.711
池穴	-11.711
周老前辈	-11.711
纯熟	-11.711
令牌	-11.7111
熟习	-11.7111
太阳穴	-11.7111
轻贱	-11.7111
花朵	-11.7111
放入口中	-11.7111
防护	-11.7111
堂堂	-11.7111
偎倚	-11.7111
全身酸软	-11.7111
感应	-11.7111
剧毒无比	-11.7111
沉吟不语	-11.7111
戒指	-11.7111
李道长	-11.7112
东邪西毒	-11.7112
不久就	-11.7112
京师	-11.7112
回头一望	-11.7112
威严	-11.7112
吼一声	-11.7112
兴致	-11.7112
王十三	-11.7112
你敢不敢	-11.7113
奇幻	-11.7113
惧色	-11.7113
一封信	-11.7113
宛若	-11.7113
手臂酸麻	-11.7113
脸上满是	-11.7113
装傻	-11.7113
看得清清楚楚	-11.7114
震荡	-11.7114
抵敌不住	-11.7114
个耳光	-11.7114
大嫂	-11.7114
统军	-11.7115
立时毙命	-11.7115
全真道人	-11.7115
翻腾	-11.7115
块石头	-11.7115
拒敌	-11.7115
注目	-11.7115
俯首	-11.7116
急忙后跃	-11.7116
师娘	-11.7116
势挟	-11.7116
偷盗	-11.7116
第八	-11.7116
边缘	-11.7116
诱敌	-11.7117
钻了出来	-11.7117
一上来就	-11.7117
卫兵	-11.7117
又是愤怒	-11.7117
端严	-11.7117
怜爱	-11.7117
岸边	-11.7118
帕子	-11.7118
尖利	-11.7119
领袖	-11.7119
含义	-11.7119
嗯了一声	-11.712
与人动手	-11.712
俗家	-11.712
开始	-11.712
不敢逼近	-11.7121
关系	-11.7121
略略	-11.7121
隙可	-11.7121
冤家	-11.7121
计算	-11.7121
闪躲	-11.7122
群盗	-11.7122
倏忽	-11.7123
无人敢	-11.7123
建立	-11.7123
数招之间	-11.7123
店房	-11.7123
两匹马	-11.7123
追不上	-11.7124
迫近	-11.7124
充满着	-11.7124
闭眼	-11.7124
杨帮主	-11.7124
射雕	-11.7125
锦囊	-11.7125
傻孩子	-11.7125
正午	-11.7125
一门功夫	-11.7125
山腰里	-11.7125
得好快	-11.7126
心中思潮起伏	-11.7126
高手比武	-11.7126
数度	-11.7127
平野	-11.7127
中指峰	-11.7127
不再言语	-11.7127
座位	-11.7127
断续	-11.7127
略加	-11.7128
迷路	-11.7129
正式	-11.7129
挑战	-11.713
了好一阵	-11.713
斗胆	-11.713
一听之下	-11.713
走到门口	-11.713
止步	-11.713
一旦	-11.7131
发呆	-11.7131
仇家	-11.7131
全是为了	-11.7131
招架不住	-11.7131
瞧一眼	-11.7131
可有多	-11.7132
烟火	-11.7132
错过了	-11.7132
爱护	-11.7132
酒席	-11.7132
青龙	-11.7132
秀发	-11.7133
简直	-11.7133
说不出口	-11.7134
拜师	-11.7134
捧起	-11.7134
默写	-11.7134
危急之中	-11.7134
伏在地下	-11.7135
相距既	-11.7135
全真教主	-11.7135
长春	-11.7136
那梢公	-11.7136
果然了得	-11.7138
幸喜	-11.7138
稍稍	-11.7138
倾倒	-11.7138
叩见	-11.7138
向他后心	-11.7139
云云	-11.7139
四壁	-11.7139
明晚	-11.714
凝望着	-11.714
筝声	-11.714
豪气	-11.714
举拂尘	-11.7141
苦功	-11.7141
招惹	-11.7141
其余三人	-11.7142
任凭	-11.7142
服色	-11.7142
不宜	-11.7142
金珠	-11.7143
尊重	-11.7143
左手一挥	-11.7144
布阵	-11.7144
移开	-11.7144
乱舞	-11.7145
无别物	-11.7145
呼痛	-11.7146
本该	-11.7146
擅自	-11.7146
带队	-11.7146
北国	-11.7146
吓得魂飞魄散	-11.7146
出手相助	-11.7147
厉害得紧	-11.7148
砖头	-11.7148
意图	-11.7149
逃避	-11.715
尖声	-11.715
真假	-11.715
渐远	-11.7151
想起当日	-11.7151
姓黄	-11.7151
猛扑	-11.7152
天灵盖上	-11.7153
甚是了得	-11.7153
粗声	-11.7153
拔开	-11.7154
结亲	-11.7154
乘早	-11.7154
境地	-11.7155
第三招	-11.7155
几行字	-11.7156
丝丝	-11.7156
只使了	-11.7156
床前	-11.7157
不敢贸然	-11.7157
说的都是	-11.7158
不禁大为	-11.7158
刺耳	-11.716
扑通	-11.716
赶路	-11.7161
小童	-11.7162
心中一震	-11.7162
面色	-11.7163
不禁骇然	-11.7164
相较	-11.7165
应敌	-11.7166
村子	-11.7166
施展出来	-11.7167
黑血	-11.7169
金铁	-11.7173
要诀	-11.7176
四个女子	-11.7179
微光	-11.7179
不敢违拗	-11.718
楼头	-11.7181
发毛	-11.7184
小店	-11.7188
话题	-11.7191
决计不肯	-11.7192
算得甚么	-11.7194
腿骨	-11.7194
微笑不答	-11.7195
佛经	-11.7205
台前	-11.7215
我偏不	-11.7225
无处可	-11.7232
差得远	-11.7241
是丐帮中的	-11.7244
详细	-11.7245
成两截	-11.7256
失常	-11.7259
智取	-11.7264
化开	-11.7266
捧住	-11.7269
终南山重阳宫	-11.7271
这一节	-11.7271
大铁锤	-11.7279
掌教真人	-11.7286
掏出	-11.7288
禅房	-11.7294
此际	-11.7296
万岁	-11.7307
马嘶	-11.731
安排下	-11.7325
搭住	-11.7325
不用担心	-11.7334
千余人	-11.7337
在杨过身上	-11.7346
盘膝坐	-11.7349
座山峰	-11.7361
遗言	-11.7365
由此而	-11.7365
左手食指	-11.7366
十六岁	-11.7366
树顶	-11.7368
无妨	-11.737
熟知	-11.738
微笑不语	-11.7386
来捣乱	-11.7391
剑尖刺	-11.7397
一掌击	-11.7399
店堂	-11.7406
飞身跃	-11.7418
据说	-11.7419
疯汉	-11.7428
入座	-11.7431
谁教你	-11.7447
日一早	-11.7454
忽听得身后	-11.7465
难忍	-11.7485
牙齿咬	-11.7486
呆望	-11.7503
敌营	-11.7506
后梢	-11.7523
此节	-11.7538
隐藏	-11.7546
是甚么东西	-11.7555
强好胜	-11.7579
吹牛	-11.7586
惨呼	-11.7588
出谷去	-11.7601
二次华山论剑	-11.7619
运内功	-11.7629
感恩	-11.7638
退三步	-11.7649
个规矩	-11.7684
十七八	-11.773
掌教之位	-11.7746
一件大事	-11.7817
出数里	-11.7871
安静	-11.7881
第一件	-11.7887
片片	-11.7903
呼应	-11.7916
光耀眼	-11.7931
拉着她手	-11.7969
两个孩儿	-11.7981
须眉	-11.7981
声叫喊	-11.7987
枚绝情丹	-11.8004
右胁	-11.8012
宗师	-11.8023
小女孩儿	-11.8042
说笑话	-11.8059
加紧	-11.806
迟迟	-11.8082
半晌不语	-11.8094
嗤嗤嗤	-11.8107
封住	-11.8117
光滑	-11.8129
违拗	-11.8132
几颗	-11.8135
纛	-11.8166
绪	-11.8205
觑	-11.8206
刺了一	-11.8208
脾	-11.821
揪	-11.8212
铅	-11.8212
润	-11.8212
淫	-11.8213
雌	-11.8213
左右互搏	-11.8213
识广	-11.8213
警	-11.8213
惩	-11.8214
灿烂	-11.8214
嫣然	-11.8214
篮	-11.8214
茸	-11.8214
霄	-11.8214
戮	-11.8214
灿然	-11.8214
伶俐	-11.8214
粗糙	-11.8214
蒙古第一国师	-11.8214
黑袍将军	-11.8214
攒	-11.8214
破涕为笑	-11.8214
辅佐	-11.8214
悯	-11.8214
一招半式	-11.8214
舐	-11.8214
从腰间拔出	-11.8214
剽悍	-11.8214
笑眯眯的	-11.8214
诣	-11.8214
透骨钉	-11.8214
炎	-11.8214
揍	-11.8214
大着胆子	-11.8214
逛	-11.8214
退了几步	-11.8214
万里迢迢的	-11.8214
潇湘兄	-11.8214
纠葛	-11.8214
蓝天和	-11.8214
问个明白	-11.8214
讨不了好去	-11.8214
填膺	-11.8214
撮	-11.8214
眼前金星乱冒	-11.8214
炉火纯青	-11.8214
隅	-11.8214
姜	-11.8214
叽叽	-11.8214
潇	-11.8214
不可思议	-11.8215
冒昧	-11.8215
在天之灵	-11.8215
幸灾乐祸	-11.8215
无情无义	-11.8215
绝世武功	-11.8215
债	-11.8215
杏	-11.8215
一流高手	-11.8215
倚多为胜	-11.8215
无缘无故的	-11.8215
煤	-11.8215
瘤	-11.8215
靥	-11.8215
俦	-11.8215
出了一身冷汗	-11.8215
无法可想	-11.8215
空荡荡的	-11.8215
袄	-11.8215
丑八怪	-11.8215
吏	-11.8215
宁死不屈	-11.8215
浊	-11.8215
理也不理	-11.8215
皱纹	-11.8215
胖瘦二丐	-11.8215
谁胜谁败	-11.8215
适逢	-11.8215
锣	-11.8215
阴恻恻的	-11.8215
仰天长笑	-11.8215
乱七八糟	-11.8215
排山倒海	-11.8215
以毒攻毒	-11.8215
大功告成	-11.8215
娃	-11.8215
竞	-11.8215
言而有信	-11.8215
瑶	-11.8215
喀喇喇一声	-11.8215
寇	-11.8215
擂	-11.8215
淳	-11.8215
不听使唤	-11.8215
处心积虑	-11.8215
奴隶	-11.8215
山谷鸣响	-11.8215
当今之世	-11.8215
恻	-11.8215
申师叔	-11.8215
面红耳赤	-11.8215
蔑	-11.8215
一年半载	-11.8215
妓	-11.8215
威风凛凛	-11.8215
剃	-11.8215
碌碌	-11.8215
不明不白的	-11.8215
无言可对	-11.8215
上卷经文	-11.8215
嘶哑着嗓子	-11.8215
多管闲事	-11.8215
尼摩星的铁蛇	-11.8215
涧	-11.8215
碗口粗细	-11.8215
迈开大步	-11.8215
闻所未闻	-11.8215
一往情深	-11.8215
两行字	-11.8215
劳什子	-11.8215
忽高忽低	-11.8215
拳打足踢	-11.8215
欧阳世兄	-11.8215
那美貌少妇	-11.8215
靡	-11.8215
一前一后	-11.8215
同胞	-11.8215
涨得通红	-11.8215
耳括子	-11.8215
龟	-11.8215
一点儿也不错	-11.8215
在客店中	-11.8215
戕	-11.8215
赦	-11.8215
糟老头子	-11.8215
一跷一拐	-11.8215
丹阳子马钰	-11.8215
偕	-11.8215
刀枪不入	-11.8215
励	-11.8215
卜	-11.8215
嘭	-11.8215
门缝中	-11.8215
戏耍	-11.8215
拍了拍	-11.8215
捉迷藏	-11.8215
炊	-11.8215
贪生怕死	-11.8215
不知天高地厚	-11.8215
五位师长	-11.8215
吁	-11.8215
哑然失笑	-11.8215
蛾眉钢刺	-11.8215
谢天谢地	-11.8215
远远传了出去	-11.8215
一本正经的	-11.8215
这幅画	-11.8215
女娃儿	-11.8215
活得不耐烦了	-11.8215
翅膀	-11.8215
衬	-11.8215
沉着脸	-11.8215
淘	-11.8215
皓	-11.8215
砰砰砰	-11.8215
跚	-11.8215
蹒	-11.8215
周老爷子	-11.8215
衷	-11.8215
翠寒堂	-11.8215
小酒店	-11.8215
带在身边	-11.8215
馋涎	-11.8215
硬碰硬	-11.8215
晒	-11.8215
言中之意	-11.8215
哗	-11.8215
半截断剑	-11.8215
n	-11.8215
盾	-11.8215
一个白衣少女	-11.8216
心灰意懒	-11.8216
怜悯之	-11.8216
条血痕	-11.8216
毫不理睬	-11.8216
柯老公公	-11.8216
殷勤	-11.8216
清净散人孙不二	-11.8216
缒	-11.8216
若是换作	-11.8216
身中剧毒	-11.8216
庇	-11.8216
母鹿	-11.8216
躺在床上	-11.8216
启禀	-11.8216
愕然相顾	-11.8216
拖泥带水	-11.8216
旌旗	-11.8216
交过手	-11.8216
麻痒难当	-11.8216
唣	-11.8216
拜伏在地	-11.8216
磁	-11.8216
行若无事	-11.8216
动过手	-11.8216
心下暗惊	-11.8216
明其理	-11.8216
一片寂静	-11.8216
▁睡到	-11.8216
朱伯伯	-11.8216
指手划脚	-11.8216
羁	-11.8216
下不了手	-11.8216
铁铸的	-11.8216
事已如此	-11.8216
屋檐	-11.8216
可要小心了	-11.8216
拆了数十招	-11.8216
过了一盏茶	-11.8216
一声不响	-11.8216
全神戒备	-11.8216
厌烦	-11.8216
惊得呆了	-11.8216
踏上半步	-11.8216
得滚瓜烂熟	-11.8216
性子暴躁	-11.8216
拆了十余招	-11.8216
快给我滚	-11.8216
爷儿俩	-11.8216
质朴	-11.8216
刁钻古怪	-11.8217
黄前帮主	-11.8217
不是他的敌手	-11.8217
不识水性	-11.8217
千千万万	-11.8217
豪爽	-11.8217
炎热	-11.8217
啼鸣	-11.8217
眨	-11.8217
记耳光	-11.8217
妙龄	-11.8217
手足酸软	-11.8217
纤夫	-11.8217
灵敏	-11.8217
勇悍	-11.8217
喝了一大口酒	-11.8217
我来助你	-11.8217
隐秘	-11.8217
试一试	-11.8217
丹田之气	-11.8217
差愕	-11.8217
伕	-11.8217
繁星	-11.8217
在这当口	-11.8217
剧痛难当	-11.8217
繁华	-11.8217
纤腰	-11.8217
冠英	-11.8217
江南六侠	-11.8218
上下打量	-11.8218
在古墓之中	-11.8218
铜杵	-11.8218
听而不闻	-11.8218
柯瞎子	-11.8218
彻骨	-11.8218
追赶不上	-11.8218
带刀渔网	-11.8218
占便宜	-11.8218
沙滩	-11.8218
打你不过	-11.8218
温雅	-11.8218
足为奇	-11.8218
哪想得到	-11.8218
愤激	-11.8218
漫游	-11.8218
临死之际	-11.8218
木材	-11.8218
珍贵	-11.8218
团聚	-11.8218
煎	-11.8218
妥善	-11.8218
蹑足	-11.8218
抵赖	-11.8219
抢步上前	-11.8219
遭际	-11.8219
星聚会	-11.8219
昆	-11.8219
舍命相救	-11.8219
一忽儿	-11.8219
洪亮	-11.8219
百余里	-11.8219
毫不在意	-11.8219
叛徒	-11.8219
a	-11.8219
欲呕	-11.8219
蛇奴	-11.8219
上乘轻功	-11.8219
父母之命	-11.8219
武艺高强	-11.822
低头避过	-11.822
卫护	-11.822
血手印	-11.822
丘师哥	-11.822
双膝跪地	-11.822
各执兵刃	-11.822
欧阳锋与裘千仞	-11.822
蓄势	-11.822
铁掌水上飘裘千仞	-11.822
难测	-11.822
倾侧	-11.822
阿根	-11.822
丈有余	-11.822
蜂涌	-11.822
加倍	-11.822
守城官	-11.822
臭尿	-11.822
异族	-11.822
猴儿	-11.8221
娇柔	-11.8221
端丽	-11.8221
你可不许	-11.8221
在她耳边	-11.8221
机智	-11.8221
较艺	-11.8221
快如闪电	-11.8221
吵闹	-11.8221
汉奸	-11.8221
吞吐	-11.8221
四下张望	-11.8221
丈许之外	-11.8221
包抄	-11.8221
伏魔	-11.8221
统领	-11.8221
探访	-11.8221
湿透	-11.8221
拜倒在地	-11.8221
膝弯	-11.8221
骑术	-11.8221
齐哥	-11.8221
左胁	-11.8221
所受的	-11.8222
抛弃	-11.8222
斟酒	-11.8222
热泪	-11.8222
陆师哥	-11.8222
低啸	-11.8222
坚冰	-11.8222
程师妹	-11.8222
诗词	-11.8222
拉了郭靖	-11.8222
却不答话	-11.8222
投缘	-11.8222
随侍	-11.8222
波斯	-11.8222
疯狗	-11.8222
隔了片刻	-11.8222
声震天	-11.8223
文章	-11.8223
一心一意	-11.8223
侧身闪避	-11.8223
挺矛	-11.8223
二小姐	-11.8223
掌教师兄	-11.8223
免不了	-11.8223
奔出数丈	-11.8223
男子汉	-11.8223
俯身拾起	-11.8223
灵丹	-11.8223
郭叔父	-11.8223
怪僻	-11.8223
记载	-11.8223
傻哥哥	-11.8223
防御	-11.8223
村民	-11.8224
头绪	-11.8224
放火烧	-11.8224
跛足	-11.8224
埋骨	-11.8224
俯耳	-11.8224
铁拐	-11.8224
潭边	-11.8224
背叛	-11.8224
游戏	-11.8224
大宋百姓	-11.8224
午夜	-11.8224
秀美	-11.8225
形迹	-11.8225
周兄	-11.8225
干预	-11.8225
圈套	-11.8225
玉环	-11.8225
宝庄	-11.8225
不敢硬接	-11.8226
得更快	-11.8226
相搏	-11.8226
杯盘	-11.8226
勤练	-11.8226
登时醒悟	-11.8226
素闻	-11.8226
听他语气	-11.8226
想见见	-11.8226
进益	-11.8227
毒蛇咬	-11.8227
双爪	-11.8227
一时说不出话来	-11.8227
灰土	-11.8227
坚厚	-11.8227
左翅	-11.8227
倒也罢了	-11.8227
黑驴	-11.8227
讲解	-11.8227
惨遭	-11.8228
拍了几下	-11.8228
调息	-11.8228
缓慢	-11.8228
干休	-11.8228
朝阳	-11.8228
争执	-11.8228
治病	-11.8229
听我话	-11.8229
背后风声	-11.8229
不顾性命	-11.8229
长子朮赤	-11.8229
能耐	-11.8229
珍重	-11.8229
仇恨	-11.8229
腾的一声	-11.8229
采药	-11.823
闹了个	-11.823
南宋	-11.823
不下去了	-11.823
请勿	-11.8231
师承	-11.8231
攻拒	-11.8231
野果	-11.8231
拜堂	-11.8231
陡然	-11.8231
傲然	-11.8231
石盒	-11.8231
羊太傅庙	-11.8232
稍加	-11.8232
并不理会	-11.8232
腾的一	-11.8232
图形	-11.8232
远征	-11.8232
开口说话	-11.8233
军务	-11.8233
正自沉吟	-11.8233
之巅	-11.8233
七寸	-11.8233
太公	-11.8233
镇定	-11.8233
尽量	-11.8234
宁海	-11.8234
玄门	-11.8234
从半空中	-11.8234
羊皮	-11.8234
争闹	-11.8234
难以脱身	-11.8234
已自不及	-11.8234
武学高手	-11.8235
痴情	-11.8235
沉稳	-11.8235
王公	-11.8236
治好了	-11.8236
两大高手	-11.8236
僵直	-11.8236
足迹	-11.8237
师恩	-11.8237
急忙跃开	-11.8237
金钱	-11.8237
老道姑	-11.8237
人影不见	-11.8237
三件事	-11.8237
拜谢	-11.8237
须得好好	-11.8237
十多岁	-11.8238
得山来	-11.8239
哭了起来	-11.8239
白雾	-11.8239
横削	-11.8239
得正急	-11.824
黄影	-11.8241
赞叹	-11.8241
依次	-11.8241
眼波	-11.8242
查看	-11.8242
慢慢走近	-11.8243
复原	-11.8243
心下暗自	-11.8243
并世	-11.8243
年岁	-11.8245
席间	-11.8246
独步	-11.8246
注视着	-11.8246
晕红	-11.8246
灰白	-11.8247
三个月	-11.8247
闪跃	-11.8248
斜斜	-11.8248
火星	-11.8248
重誓	-11.8249
我和靖哥哥	-11.8249
两根手指	-11.8249
路程	-11.825
助拳	-11.825
想不通	-11.825
明亮	-11.8251
成了亲	-11.8251
昔时	-11.8251
闭门	-11.8251
满嘴	-11.8251
脸蛋	-11.8252
确然	-11.8252
个美貌少女	-11.8252
新帮主	-11.8252
脸露	-11.8253
露脸	-11.8253
到襄阳来	-11.8255
糟啦	-11.8255
惊险	-11.8256
微扬	-11.8256
躲在这里	-11.8256
退了出去	-11.8257
所教的	-11.8257
隆起	-11.8258
向郭靖望了一眼	-11.8264
说过的话	-11.8265
不敢再看	-11.8266
瞧热闹	-11.8267
不敢再问	-11.8267
得有字	-11.8268
见了这等	-11.8274
门大开	-11.8275
宝石	-11.8278
瞥见	-11.828
消解	-11.8283
从人丛中	-11.8291
力量	-11.8294
代替	-11.8308
岂难道	-11.8311
瞥眼见	-11.8311
你的臭	-11.8319
装假	-11.8331
侠士	-11.8336
枝长箭	-11.834
悄然	-11.8342
供桌	-11.8348
幽谷	-11.8351
烧毁	-11.8359
不知好歹	-11.8364
好生佩服	-11.8367
法之快	-11.8373
转了几个	-11.8379
十八年前	-11.8388
柯老头	-11.8404
也算不了甚么	-11.8407
廿四	-11.8408
损折	-11.8422
件件	-11.8459
睁开	-11.846
足踝	-11.8465
没学到	-11.848
法王与尼摩星	-11.8487
耀眼	-11.8515
伐金	-11.8523
出重围	-11.854
性命要紧	-11.8541
没法子	-11.8547
占住	-11.8564
往他头顶	-11.8566
入树林	-11.8596
轻舟	-11.8614
口鼻	-11.8642
不必说了	-11.8643
有甚么古怪	-11.8643
一一说了	-11.865
二十岁	-11.866
斜眼看	-11.8671
叽哩咕噜	-11.8771
退数步	-11.8776
衣囊	-11.8777
轰隆	-11.8801
夹住	-11.8826
隆隆	-11.8842
也不在意	-11.8933
开橱门	-11.8948
虽不甚	-11.8951
湖南	-11.8959
东北方	-11.9029
一交摔倒	-11.9064
破洞	-11.907
抬头看	-11.9077
未必能胜	-11.9126
文士	-11.9135
白光闪	-11.9156
势凌厉	-11.9166
踝	-11.9188
一意要	-11.924
中原武林	-11.9251
拉住她手	-11.9263
一十八年	-11.9272
居古墓	-11.9306
普	-11.9334
瞥	-11.9336
怔怔	-11.9344
点燃	-11.9351
愕	-11.939
箱盖	-11.9413
测	-11.9432
旦	-11.9433
说不出话	-11.9433
堪	-11.9436
组	-11.9451
使的正是	-11.9452
婴	-11.9455
不欲伤	-11.9455
猴	-11.9457
躯	-11.9457
霍地站起	-11.9458
坦	-11.9459
阅	-11.946
恁	-11.946
瓣	-11.946
翔	-11.946
光溜溜的	-11.9461
宠	-11.9461
卓	-11.9461
喀	-11.9461
纹	-11.9462
检	-11.9462
龄	-11.9462
嫡	-11.9462
肋	-11.9462
棋	-11.9462
瞬息间	-11.9463
括	-11.9463
锚	-11.9463
眷	-11.9463
钵	-11.9463
豺狼谷	-11.9463
檐	-11.9463
韩侂胄	-11.9463
殷	-11.9463
惘	-11.9464
牡丹	-11.9464
间不容发	-11.9464
心旷神怡	-11.9464
沫	-11.9464
家叔	-11.9464
捺	-11.9464
辗	-11.9464
逆行经脉	-11.9464
神采飞扬	-11.9464
正人君子	-11.9464
胡作非为	-11.9464
出家为僧	-11.9464
华山二次论剑	-11.9464
抢在头里	-11.9464
鬼门龙王	-11.9464
视而不见	-11.9464
大仁大义	-11.9464
歪歪斜斜	-11.9464
秃头老者	-11.9464
青龙滩	-11.9464
许许多多	-11.9464
谱	-11.9464
饵	-11.9464
乔	-11.9464
瘟疫	-11.9464
规模	-11.9464
闪闪发光	-11.9464
心悦诚服	-11.9464
直娘贼	-11.9464
这些日来	-11.9464
优	-11.9464
说个明白	-11.9464
按捺	-11.9464
反唇相	-11.9464
大出意外	-11.9464
构	-11.9464
公孙	-11.9464
洋	-11.9464
从怀里摸出	-11.9464
家破人亡	-11.9464
浪得虚名	-11.9464
刹时间	-11.9464
形于色	-11.9464
惊世骇俗	-11.9464
段智兴	-11.9464
蹦	-11.9464
圆圆的	-11.9464
垂头丧气	-11.9464
扩	-11.9464
蹬	-11.9464
八十一只麻雀	-11.9464
厘毫	-11.9464
圣因师太	-11.9464
束手待毙	-11.9464
姻	-11.9465
先声夺人	-11.9465
分进合击	-11.9465
千里迢迢	-11.9465
半死不活	-11.9465
蛙	-11.9465
难说得很	-11.9465
惹恼了	-11.9465
我命休矣	-11.9465
蒙古第一勇士	-11.9465
见势头不	-11.9465
豁出了性命	-11.9465
金丝手套	-11.9465
齐声发喊	-11.9465
巴格达	-11.9465
马王神韩宝驹	-11.9465
糕	-11.9465
五行生克	-11.9465
搠	-11.9465
槁	-11.9465
又气又急	-11.9465
啐了一口	-11.9465
快速无伦	-11.9465
死有余辜	-11.9465
熙	-11.9465
突如其来	-11.9465
脸如白纸	-11.9465
侧耳静听	-11.9465
心惊肉跳	-11.9465
快捷无伦	-11.9465
冷冰冰	-11.9465
单名一个	-11.9465
大汗淋漓	-11.9465
奇耻大辱	-11.9465
涵	-11.9465
盖运聪	-11.9465
禅院	-11.9465
辽	-11.9465
半斤八两	-11.9465
呆滞	-11.9465
天可怜见	-11.9465
谐	-11.9465
香雪厅	-11.9465
鲜血长流	-11.9465
嘈	-11.9465
心慌意乱	-11.9465
独孤求败	-11.9465
症	-11.9465
那还了得	-11.9465
奕	-11.9465
不知身在何处	-11.9465
新元史	-11.9465
沮	-11.9465
熔	-11.9465
监禁	-11.9465
虬髯	-11.9465
赫赫	-11.9465
黄家妹子	-11.9465
一语不发	-11.9465
在战场上	-11.9465
大祸临头	-11.9465
脐	-11.9465
落荒而逃	-11.9465
天旋地转	-11.9465
头一低	-11.9465
娇滴滴的	-11.9465
直教生死相许	-11.9465
从怀里掏出	-11.9465
十成中	-11.9465
反来复去	-11.9465
唠唠叨叨	-11.9465
无善策	-11.9465
栅	-11.9465
祥	-11.9465
鄙夷	-11.9465
个措手不及	-11.9465
曹	-11.9465
百余招	-11.9465
笨拙	-11.9465
抬起了头	-11.9465
不寒而栗	-11.9465
千真万确	-11.9465
叶三姐	-11.9465
垣	-11.9465
梁老怪	-11.9465
牧童	-11.9465
直上直下的	-11.9465
言语相激	-11.9465
这口恶气	-11.9465
阶	-11.9465
猾	-11.9465
作了一揖	-11.9465
清晰	-11.9465
皱起了眉头	-11.9465
神威凛凛	-11.9465
罪该万死	-11.9465
连声称是	-11.9465
霉	-11.9465
鸳鸯织就欲双飞	-11.9465
默默无言	-11.9465
不以为然	-11.9465
次子察合台	-11.9465
发射暗器	-11.9465
咄	-11.9465
旗鼓相当	-11.9465
火浣室	-11.9465
男子汉大丈夫	-11.9465
精神为之一振	-11.9465
迄今	-11.9465
那姓孙的	-11.9465
亲眼所见	-11.9465
丧生于	-11.9465
十八年来	-11.9465
悲从中来	-11.9465
弯弓搭箭	-11.9465
捞	-11.9465
七十二路空明拳	-11.9465
桂	-11.9465
走一遭	-11.9465
醺	-11.9465
骎	-11.9465
烬	-11.9465
一个多月	-11.9465
剐	-11.9465
仇深似海	-11.9465
广宁子郝大通	-11.9465
端端正正的	-11.9465
见纸上写	-11.9465
心中大慰	-11.9465
调匀	-11.9465
伤他不得	-11.9465
分心二用	-11.9465
唾吐	-11.9465
玫瑰花	-11.9465
直飞出去	-11.9465
身材魁梧	-11.9465
阿里不哥	-11.9465
于无形	-11.9465
盈眶	-11.9465
诳	-11.9465
w	-11.9465
凋	-11.9465
悲喜交集	-11.9465
更加响了	-11.9465
篆	-11.9465
不自量力	-11.9465
个水落石出	-11.9465
再好没有	-11.9465
弯了腰	-11.9465
身材高大	-11.9465
连使眼色	-11.9465
那童子	-11.9465
1	-11.9465
偷鸡摸狗	-11.9465
嘻嘻哈哈的	-11.9465
坎	-11.9465
娇媚	-11.9465
媒妁之言	-11.9465
庐	-11.9465
晴	-11.9465
盏油灯	-11.9465
磕了四个头	-11.9465
第三日上	-11.9465
见死不救	-11.9465
欢声雷动	-11.9465
义结金兰	-11.9465
无意间	-11.9465
瞻	-11.9465
纷至沓来	-11.9465
裕	-11.9465
鸳鸯五珍脍	-11.9465
从怀中摸出	-11.9466
』	-11.9466
乘人之危	-11.9466
搽	-11.9466
精微奥妙	-11.9466
趟	-11.9466
郝师弟	-11.9466
哦	-11.9466
钧	-11.9466
不知所云	-11.9466
各挺长剑	-11.9466
身子不适	-11.9466
震天价	-11.9466
一口鲜血喷	-11.9466
失魂落魄	-11.9466
『	-11.9466
九阴神功	-11.9466
腹中饥饿	-11.9466
踢了一脚	-11.9466
个落花流水	-11.9466
连连摇手	-11.9466
一番美意	-11.9466
已不在人世	-11.9466
天已大明	-11.9466
难以自已	-11.9466
加入战团	-11.9466
十月廿四	-11.9466
咭	-11.9466
头晕眼花	-11.9466
星光下	-11.9466
母女俩	-11.9466
示警	-11.9466
结为夫妇	-11.9466
肘锤	-11.9466
异想天开	-11.9466
忽都虎	-11.9466
褪	-11.9466
从窗中	-11.9466
白驼山少主	-11.9466
诸葛亮	-11.9466
萍	-11.9466
伸手入怀	-11.9466
基业	-11.9466
蒙力克	-11.9466
喀喀两声	-11.9466
坪	-11.9466
金创药	-11.9466
胸襟	-11.9466
愤慨	-11.9466
叹了口长气	-11.9466
长长叹了口气	-11.9466
移形换位	-11.9466
一笔勾销	-11.9466
屹立	-11.9466
谭师哥	-11.9466
连声称谢	-11.9466
丧门鬼	-11.9466
玉衡	-11.9466
长生不老	-11.9466
亡妻	-11.9466
嫌隙	-11.9466
又是好气	-11.9466
尼姑	-11.9466
相顾愕然	-11.9466
有道之士	-11.9466
浑浑噩噩	-11.9466
美女拳法	-11.9466
那幅画	-11.9466
领教领教	-11.9466
鬼门龙王沙通天	-11.9466
静悄悄的	-11.9466
一首诗	-11.9466
仆役	-11.9467
痴呆	-11.9467
玉阳子王处一	-11.9467
这几年来	-11.9467
恩惠	-11.9467
欧阳公子	-11.9467
姿态	-11.9467
隐蔽	-11.9467
也还罢了	-11.9467
西山十鬼	-11.9467
稍有疏	-11.9467
怀孕	-11.9467
乱石堆	-11.9467
掳掠	-11.9467
乖僻	-11.9467
滑腻	-11.9467
笑了一笑	-11.9467
豁达	-11.9467
机警	-11.9467
湍急	-11.9467
音律	-11.9467
慢吞吞的	-11.9467
追得上	-11.9467
那书记	-11.9467
坚牢	-11.9467
茶馆	-11.9467
五百两银子	-11.9467
印证	-11.9467
的名称	-11.9467
诵读	-11.9467
赐予	-11.9467
疑心大起	-11.9467
那天竺僧人	-11.9467
松鼠	-11.9467
恸	-11.9467
满脸喜色	-11.9467
得远远地	-11.9467
配得上	-11.9468
许婚	-11.9468
况且	-11.9468
太监	-11.9468
微一迟疑	-11.9468
断成两截	-11.9468
市集	-11.9468
高举火把	-11.9468
喜悦之情	-11.9468
按摩	-11.9468
介意	-11.9468
康复	-11.9468
财宝	-11.9468
朱大叔	-11.9468
憎恶	-11.9468
报此仇	-11.9468
奔驰来去	-11.9468
皮肤	-11.9468
突兀	-11.9468
同样的	-11.9468
愕然不解	-11.9468
最上乘的	-11.9468
绝顶聪明	-11.9468
抱在怀里	-11.9468
撕下衣襟	-11.9468
聪明绝顶	-11.9468
脸色一沉	-11.9468
目睹	-11.9468
瞎说八道	-11.9468
契	-11.9469
天色渐黑	-11.9469
武学名家	-11.9469
两个老丐	-11.9469
善哉	-11.9469
掩埋	-11.9469
做兄弟的	-11.9469
掩映	-11.9469
望了几眼	-11.9469
屠牛	-11.9469
越女剑法	-11.9469
一股疾风	-11.9469
金盔	-11.9469
狗屁	-11.9469
说话的正是	-11.9469
缓步而出	-11.9469
招两式	-11.9469
毒蟒	-11.9469
这件大事	-11.9469
窥探	-11.9469
樱桃	-11.9469
侵犯	-11.9469
举起马鞭	-11.9469
精锐	-11.947
印痕	-11.947
虎啸	-11.947
低头沉思	-11.947
瞥眼间	-11.947
上前夹攻	-11.947
苦涩	-11.947
毒汁	-11.947
陆爷	-11.947
退了一步	-11.947
杨郎	-11.947
粗鲁	-11.947
四十来岁	-11.947
雷鸣	-11.947
侍奉	-11.947
擦擦	-11.9471
空有一身	-11.9471
翻身上马	-11.9471
向他使个眼色	-11.9471
丸药	-11.9471
宽慰	-11.9471
怔怔的瞧着	-11.9471
线索	-11.9471
不明所以	-11.9471
的住处	-11.9471
看了一眼	-11.9471
活生生	-11.9471
麻软	-11.9471
纵身扑上	-11.9472
圣旨	-11.9472
海螺	-11.9472
贤徒	-11.9472
砍柴	-11.9472
所能及	-11.9472
父皇	-11.9472
迅疾	-11.9472
心眼儿	-11.9472
彼端	-11.9472
老铁匠	-11.9472
耗损	-11.9472
待我很好	-11.9472
时刻稍	-11.9472
存亡	-11.9472
密密	-11.9473
座小山	-11.9473
伏在桌上	-11.9473
武林人物	-11.9473
七个道人	-11.9473
浑忘了	-11.9473
悲切	-11.9473
霍地	-11.9473
叛师	-11.9473
恩仇	-11.9473
督战	-11.9473
蹲在地下	-11.9473
反驳	-11.9473
君宝	-11.9473
恋战	-11.9473
鲜美	-11.9473
争辩	-11.9474
悟性	-11.9474
摔倒在地	-11.9474
中了情花之毒	-11.9474
功效	-11.9474
广博	-11.9474
放肆	-11.9474
约束	-11.9474
全不理会	-11.9474
缓步上前	-11.9474
蓬头	-11.9474
武家兄弟	-11.9474
完颜兄弟	-11.9475
蒲团之上	-11.9475
铁尸梅超风	-11.9475
结束	-11.9475
颇具	-11.9475
精钢	-11.9475
来捉我	-11.9475
蜂毒	-11.9475
一上手	-11.9475
一切全是	-11.9475
山冈	-11.9475
玉瓶	-11.9475
药粉	-11.9475
查探	-11.9475
伸手去拿	-11.9476
四川	-11.9476
帝国	-11.9476
挡在身前	-11.9476
微颤	-11.9476
柳姑娘	-11.9476
使上了十成	-11.9476
追捕	-11.9476
金冠	-11.9476
肥肉	-11.9476
星星	-11.9477
转舵	-11.9477
尘沙	-11.9477
该不该	-11.9477
悔改	-11.9477
是当代	-11.9477
桃花岛黄岛主	-11.9477
铁箫	-11.9477
手里拿着一	-11.9477
凑合	-11.9477
溪底	-11.9477
唇边	-11.9478
姓李	-11.9478
拾起地下	-11.9478
泰山	-11.9478
暗暗佩服	-11.9478
倒塌	-11.9478
志敬	-11.9478
不到半个时辰	-11.9478
团团围	-11.9478
佛像	-11.9478
厅角	-11.9479
惊呼一声	-11.9479
武器	-11.9479
群英	-11.9479
传讯	-11.9479
粗索	-11.9479
灰色	-11.948
沿路	-11.948
听了这番话	-11.948
救人哪	-11.948
旗号	-11.948
尚浅	-11.9481
主母	-11.9481
推究	-11.9481
有名的	-11.9481
交锋	-11.9482
上心来	-11.9482
个平手	-11.9482
溪边	-11.9482
十五招	-11.9483
恐怕	-11.9483
北宋	-11.9483
奔波	-11.9483
人影闪	-11.9484
算不算	-11.9484
箭杆	-11.9485
插嘴	-11.9486
扇骨	-11.9486
闭上了眼	-11.9488
枣树	-11.9488
无别法	-11.9489
鼻血	-11.9489
整理	-11.9489
新野	-11.949
了一大半	-11.9492
了转来	-11.9493
我有话跟	-11.9495
伤痕	-11.9498
到绝情谷去	-11.9509
暇	-11.9509
的望着自己	-11.951
亲口答应	-11.9511
尊夫	-11.9512
奔出数里	-11.9519
清净	-11.9526
咱三个	-11.9534
提缰	-11.9546
急驰而	-11.9547
桃树	-11.9549
部小说	-11.9549
七八丈	-11.9553
牵引	-11.956
好生后悔	-11.9561
艘大船	-11.9561
勒住	-11.9565
几个圈子	-11.9578
声呼啸	-11.9579
一出手便	-11.9586
认识	-11.959
决不能让	-11.9592
条青蛇	-11.9616
石窟之	-11.9655
一声惊呼	-11.966
躲藏	-11.967
连珠箭	-11.9691
就只这么	-11.9692
有甚么好玩	-11.9692
雷震	-11.9702
群玉蜂	-11.971
声喧哗	-11.9722
到杨过身前	-11.9733
瞧瞧热闹	-11.9745
第九	-11.9788
两个小贼	-11.9793
凝神看	-11.9817
隔十六年	-11.9819
搂抱	-11.9861
百余人	-11.9881
仰天一交	-11.989
十七八岁	-11.9915
砰	-11.9916
的那块	-11.992
七名道人	-11.9969
悄悄溜	-12.0096
堆积	-12.0111
啪的一	-12.0118
静室	-12.0178
是铁木真的	-12.0186
啪	-12.0186
翻身坐	-12.0202
情谷底	-12.023
头顶击落	-12.0243
神色有异	-12.0274
手一伸	-12.0294
块巨石	-12.0329
辨认	-12.0374
开房门	-12.0382
急步抢	-12.0431
蜂蜜	-12.0465
使的都是	-12.0467
双膝跪	-12.05
现喜色	-12.0682
裘老帮主	-12.0718
不以为意	-12.0736
群鲨	-12.0763
乖乖	-12.0776
拱	-12.084
肴	-12.0857
次日清晨	-12.0863
瓷	-12.0867
瓶塞	-12.0877
聪	-12.0881
什	-12.0884
K	-12.0887
是求之不得	-12.0888
蓬	-12.0888
鼾	-12.0889
歉	-12.0889
踏步进	-12.089
喆	-12.089
上官帮主	-12.0891
噬	-12.0891
饲养	-12.0891
牛鼻子老道	-12.0891
各有所长	-12.0891
凤冠	-12.0891
构筑	-12.0891
只作不见	-12.0891
临终时	-12.0891
乔寨主	-12.0891
汉武帝	-12.0891
匀	-12.0892
融会贯通	-12.0892
身经百战	-12.0892
猎豹	-12.0892
两不相助	-12.0892
层出不穷	-12.0892
郑	-12.0892
殆	-12.0892
相依为命	-12.0892
微感惊讶	-12.0892
阴阳双刃	-12.0892
黑压压的	-12.0892
不到一盏茶	-12.0892
贝	-12.0892
睨	-12.0892
匪	-12.0892
武家哥哥	-12.0892
阻挠	-12.0892
闷闷不乐	-12.0892
嘲讽	-12.0892
火花四溅	-12.0892
秽	-12.0892
以大欺小	-12.0893
天罗地网势	-12.0893
手舞足蹈	-12.0893
枭鸣	-12.0893
身材高瘦	-12.0893
陷溺	-12.0893
嘲	-12.0893
骚	-12.0893
天涯海角	-12.0893
震耳欲聋	-12.0893
小棒头	-12.0893
无穷无尽	-12.0893
课	-12.0893
一揖到地	-12.0893
加油添酱	-12.0893
匣	-12.0893
奇经八脉	-12.0893
敦	-12.0893
绒	-12.0893
逮	-12.0893
员	-12.0893
好生之德	-12.0893
知难而退	-12.0893
密密麻麻	-12.0893
拓	-12.0893
摄	-12.0893
溜之大吉	-12.0893
比武决胜	-12.0893
黑漆一团	-12.0893
言而无信	-12.0893
怎生想个法儿	-12.0893
沓	-12.0893
仰天打个哈哈	-12.0893
o	-12.0893
咕嘟咕嘟的	-12.0893
灵丹妙药	-12.0893
狭窄	-12.0893
神定气闲	-12.0893
达摩祖师	-12.0893
鄙	-12.0893
一连串	-12.0893
笑腰穴	-12.0893
有死无生	-12.0893
神机妙算	-12.0893
全真诸道	-12.0893
天色大明	-12.0893
称得上	-12.0893
迫不得已	-12.0893
签	-12.0893
夸奖	-12.0893
如影随形	-12.0893
铁脚仙	-12.0893
镇慑心神	-12.0893
从怀中掏出	-12.0893
低沉了声音	-12.0893
大剌剌	-12.0893
大英雄大豪杰	-12.0893
宪宗	-12.0893
招了招手	-12.0893
探手入	-12.0893
潜心思索	-12.0893
狼心狗肺	-12.0893
祟	-12.0893
秘笈	-12.0893
蝇	-12.0893
狭	-12.0893
镯	-12.0893
身赤裸	-12.0893
那姓穆的	-12.0893
怦怦而跳	-12.0893
一条明路	-12.0893
两名官军	-12.0893
中神通五人	-12.0893
柔肠百转	-12.0893
砰砰两	-12.0893
裁	-12.0893
铄	-12.0893
蜡	-12.0893
创教祖师	-12.0893
忘恩负义	-12.0893
梵语	-12.0893
毒龙鞭	-12.0893
独来独往	-12.0893
缚手缚脚	-12.0893
两把剑	-12.0893
八月中秋	-12.0893
副对联	-12.0893
力充沛	-12.0893
沦	-12.0893
用起功来	-12.0893
筋折骨断	-12.0893
罡	-12.0893
聆	-12.0893
静夜之中	-12.0893
三头蛟	-12.0893
峡	-12.0893
十二个时辰之内	-12.0893
抓了一把	-12.0893
提高嗓子	-12.0893
血肉模糊	-12.0893
越墙而出	-12.0893
那矮小汉子	-12.0893
蛟	-12.0893
卑职	-12.0893
屯	-12.0893
挖掘	-12.0893
晃亮火折	-12.0893
每一招每一式	-12.0893
累赘	-12.0893
自身安危	-12.0893
蹲下身子	-12.0893
道君皇帝	-12.0893
an	-12.0893
双剑齐出	-12.0893
幸何如之	-12.0893
截然不同	-12.0893
防不胜防	-12.0893
哩	-12.0894
迁延	-12.0894
一块大岩石	-12.0894
家学渊源	-12.0894
峨	-12.0894
抒	-12.0894
收他为徒	-12.0894
晃了几晃	-12.0894
程陆二人	-12.0894
聋	-12.0894
言出必践	-12.0894
远远传送出去	-12.0894
深情无限	-12.0894
天突穴	-12.0894
肃然起敬	-12.0894
谒	-12.0894
购	-12.0894
辆	-12.0894
那瘦子	-12.0894
钞	-12.0894
耸然动容	-12.0894
三股叉	-12.0894
从何而来	-12.0894
兆	-12.0894
分从左右	-12.0894
怦然心动	-12.0894
王公大将	-12.0894
眉清目	-12.0894
驸	-12.0894
乱成一片	-12.0894
小嘴一扁	-12.0894
岂有此理	-12.0894
歉疚	-12.0894
汝	-12.0894
箕	-12.0894
千言万语	-12.0894
拉着郭靖的手	-12.0894
衽	-12.0894
不顺眼	-12.0894
吃饱了	-12.0894
得津津有味	-12.0894
死心塌地	-12.0894
蚕	-12.0894
蝉	-12.0894
赤练魔头	-12.0894
这贼谷主	-12.0894
那姓杨的小子	-12.0894
姓杨名过	-12.0894
点亮了	-12.0894
百感交集	-12.0894
罕见罕闻	-12.0894
跃跃欲试	-12.0894
销	-12.0894
又有何难	-12.0894
傍	-12.0894
九旄大纛	-12.0894
坚韧	-12.0894
心念忽动	-12.0894
惊天动地	-12.0894
敏捷	-12.0894
横冲直撞	-12.0894
深深一揖	-12.0894
考证	-12.0894
诬	-12.0894
镫	-12.0894
马上乘客	-12.0894
尚在人世	-12.0894
瓜葛	-12.0894
恍惚	-12.0894
格格直响	-12.0894
阅历	-12.0894
随机应变	-12.0894
探头探脑	-12.0894
打抱不平	-12.0894
库里尔台	-12.0894
为非作歹	-12.0894
剖	-12.0894
只作不知	-12.0894
可怜未老头先白	-12.0894
如箭离弦	-12.0894
摸了摸	-12.0894
这对白雕	-12.0894
撼	-12.0894
浪涛	-12.0894
胆战心惊	-12.0894
伏地大哭	-12.0894
不害臊	-12.0894
做哥哥的	-12.0894
化敌为友	-12.0894
半晌说不出话来	-12.0894
如痴如狂	-12.0894
委顿在地	-12.0894
斋	-12.0894
暗暗纳罕	-12.0894
横练功夫	-12.0894
生死系于一	-12.0894
瘁	-12.0894
郡	-12.0894
黄葛短	-12.0894
雷轰电	-12.0894
贩	-12.0894
镇帮之宝	-12.0894
〗	-12.0894
一无所知	-12.0894
伤她不得	-12.0894
剑魔独孤求败	-12.0894
竹帘	-12.0894
绕弯儿	-12.0894
越练越	-12.0894
足不停步的	-12.0894
黑漆漆的	-12.0894
婚姻	-12.0894
双颊晕红	-12.0894
心头火起	-12.0894
戒律	-12.0894
直挺挺的	-12.0894
飞天蝙蝠柯镇恶	-12.0894
大喜若狂	-12.0894
瞧上一眼	-12.0894
那姓龙的女子	-12.0894
碧波掌法	-12.0894
稍纵即逝	-12.0894
锦缎	-12.0894
风驰电	-12.0894
鬼魅	-12.0894
城内城外	-12.0894
大蒙古国	-12.0894
寸步不离	-12.0894
心胆俱裂	-12.0894
忠臣	-12.0894
武功全失	-12.0894
白了一眼	-12.0894
百余丈	-12.0894
笑逐颜开	-12.0894
顽劣	-12.0894
香港	-12.0894
年老力衰	-12.0894
弓弩手	-12.0894
低沉着嗓子	-12.0894
千手人屠彭连虎	-12.0894
巫师	-12.0894
杀父之仇	-12.0894
称之为	-12.0894
程陆二女	-12.0894
獒	-12.0894
一件件的	-12.0894
不去理他	-12.0894
嗬	-12.0894
找上门来	-12.0894
文武双全	-12.0894
茂	-12.0894
脸色焦黄	-12.0894
追他不上	-12.0894
不逊于	-12.0894
众兵丁	-12.0894
意料之中	-12.0894
指了指	-12.0894
洛	-12.0894
笑出声来	-12.0894
蹈	-12.0894
冤孽	-12.0895
匙	-12.0895
天竺神僧	-12.0895
捡拾	-12.0895
转角处	-12.0895
这贼杀才	-12.0895
这路棒法	-12.0895
农舍	-12.0895
壁上挂着	-12.0895
连遇险招	-12.0895
平平安安的	-12.0895
在哪儿	-12.0895
愚蠢	-12.0895
红红的	-12.0895
一名千夫长	-12.0895
丈开外	-12.0895
更加近了	-12.0895
菜篮	-12.0895
帛	-12.0895
斗笠	-12.0895
结为兄弟	-12.0895
秘史	-12.0895
全军覆没	-12.0895
兼而有之	-12.0895
娇嫩	-12.0895
神力惊人	-12.0895
出言相激	-12.0895
凌波	-12.0895
羹	-12.0895
诡秘	-12.0895
随后赶去	-12.0895
柯大爷	-12.0895
呼吸急促	-12.0895
梁三长老	-12.0895
机敏	-12.0895
那对白雕	-12.0895
城上城下	-12.0895
恭贺	-12.0895
啧啧	-12.0895
智谋	-12.0895
蛮不讲理	-12.0895
难解难分	-12.0895
骑了一匹	-12.0895
恒	-12.0895
明霞岛	-12.0895
体会到	-12.0895
合十行礼	-12.0895
的秘要	-12.0895
郭二小姐	-12.0895
越行越	-12.0895
那中年妇人	-12.0895
兜截	-12.0895
中午时分	-12.0895
恳切	-12.0895
洪伯父	-12.0895
虎吼一声	-12.0895
贡	-12.0895
株大松树	-12.0895
如刀割	-12.0895
泪痕	-12.0896
痴恋	-12.0896
稍稍放心	-12.0896
教他读书	-12.0896
到极处	-12.0896
说不出的舒服	-12.0896
厮拚	-12.0896
团圆	-12.0896
奸诈	-12.0896
并无恶意	-12.0896
具骸骨	-12.0896
郭芙和武氏兄弟	-12.0896
岳父岳母	-12.0896
没出息	-12.0896
缘巧合	-12.0896
有骨气	-12.0896
红润	-12.0896
再也追赶不上	-12.0896
帐篷	-12.0896
斜坡	-12.0896
西北角	-12.0896
身有武功	-12.0896
必有缘故	-12.0896
今日得见	-12.0896
周师叔祖	-12.0896
督脉	-12.0896
脉搏	-12.0896
为的是要	-12.0896
眼睁睁的瞧着	-12.0896
杨过与绿萼	-12.0896
右颊	-12.0896
参仙老怪梁子翁	-12.0896
杨相公	-12.0896
程英与陆无双	-12.0896
一问一答	-12.0896
不知不觉的	-12.0896
一株树上	-12.0896
顾虑	-12.0896
捶胸	-12.0896
晋南	-12.0896
聪明才智	-12.0896
杯筷	-12.0896
艰险	-12.0896
羊梯	-12.0896
虎翼	-12.0896
一张椅子	-12.0896
中年汉子	-12.0897
已有计较	-12.0897
称他为	-12.0897
大宋江山	-12.0897
这路剑法	-12.0897
符号	-12.0897
臀部	-12.0897
无一能	-12.0897
口长气	-12.0897
脑筋	-12.0897
结义之情	-12.0897
一排排	-12.0897
娶妻	-12.0897
耶律兄妹	-12.0897
纷纷议论	-12.0897
沅江	-12.0897
c	-12.0897
严谨	-12.0897
守住门户	-12.0897
虎豹	-12.0897
总有一日	-12.0897
催动掌力	-12.0897
讲故事	-12.0897
育	-12.0897
册封	-12.0897
恭候	-12.0897
獐腿	-12.0897
六太子	-12.0897
维护	-12.0897
屈膝	-12.0898
影踪全无	-12.0898
裘铁掌	-12.0898
的欢心	-12.0898
狡计	-12.0898
久战不	-12.0898
咒语	-12.0898
欢嘶	-12.0898
施展轻身功夫	-12.0898
秀雅	-12.0898
紧紧跟随	-12.0898
放入怀中	-12.0898
杨大侠	-12.0898
不敢轻忽	-12.0898
畏缩	-12.0898
穷酸	-12.0898
羽毛	-12.0898
展翅	-12.0898
钓鱼	-12.0898
三十来岁	-12.0898
巨大的	-12.0898
丝毫不惧	-12.0899
夕阳	-12.0899
在他的手里	-12.0899
皱眉不语	-12.0899
岳丈	-12.0899
渔隐	-12.0899
垂柳	-12.0899
凝神观看	-12.0899
骷髅头骨	-12.0899
娇羞	-12.0899
宣扬	-12.0899
记忆	-12.09
波浪	-12.09
疼痛难当	-12.09
真是再好也没有	-12.09
临危	-12.09
谁也不许	-12.09
怎生是好	-12.09
铁八卦	-12.09
尹兄	-12.0901
所作的	-12.0901
涉险	-12.0901
焦木和尚	-12.0901
垂危	-12.0901
整整	-12.0901
决胜负	-12.0902
一不做	-12.0903
没留意	-12.0905
场大病	-12.0906
只怪我	-12.0907
的光头	-12.0908
把话说	-12.0914
得自由	-12.0917
认他为	-12.0919
得不得了	-12.0923
芝房	-12.0925
栗树	-12.0926
又哭又	-12.0926
心爱的	-12.0926
练就了	-12.0928
感吃力	-12.0933
是我杀的	-12.0936
久久不	-12.0938
怎想得到	-12.094
一场大战	-12.0945
在他的身上	-12.0953
折而向	-12.0955
斤重的	-12.0956
不闪不	-12.0956
交了给	-12.096
伤她性命	-12.0965
有甚么希罕	-12.0968
抵受不	-12.0969
堆乱石	-12.097
哪知她竟	-12.098
匹骏马	-12.0991
我总是不	-12.1051
在这一瞬之间	-12.1069
放心好啦	-12.107
听杨过说	-12.1094
飞身抢	-12.1107
倏地飞	-12.1129
根树枝	-12.1149
腾空而起	-12.12
邪魔	-12.1228
一念之	-12.1233
股大力	-12.1259
跃入海中	-12.1302
帮之主	-12.1316
板橱	-12.1324
柴房	-12.1397
奔出十余丈	-12.1405
零碎	-12.1542
珍珠	-12.1668
慈悲为怀	-12.1675
害无辜	-12.1861
颊	-12.2465
听父亲说	-12.2467
肖	-12.2469
那使单刀的	-12.2502
羊太傅	-12.2533
伍	-12.2547
晦	-12.2552
骏	-12.2552
疗	-12.2552
李广利	-12.2556
到临头	-12.2556
希	-12.2557
越女剑	-12.2557
橐	-12.2558
把捏不定	-12.2558
惭	-12.2558
眩	-12.2558
摇了摇	-12.2558
纠	-12.2558
庚	-12.2558
梳妆	-12.2558
模仿	-12.2558
敕	-12.2558
不讲理	-12.2558
那女魔头	-12.2559
声自远而近	-12.2559
俯伏在地	-12.2559
柏	-12.2559
玉阳子	-12.2559
踩	-12.2559
乖乖不得了	-12.2559
含糊	-12.2559
完颜洪烈那奸贼	-12.2559
淑	-12.2559
灯光下	-12.2559
秤锤	-12.2559
潇湘子和尼摩星	-12.2559
哎哟	-12.2559
手到拿来	-12.2559
敦儒	-12.2559
蓬蓬	-12.2559
锯齿金刀	-12.2559
盟主之位	-12.2559
是死是活	-12.2559
浇	-12.2559
南山樵子南希仁	-12.2559
发异光	-12.2559
祈	-12.2559
身材瘦削	-12.2559
还有命么	-12.2559
金铃软索	-12.2559
颓	-12.2559
泪流满面	-12.2559
洲	-12.2559
人所难测	-12.2559
以二敌一	-12.2559
忽喜忽	-12.2559
绷	-12.2559
恋恋不舍	-12.2559
曳	-12.2559
坳	-12.2559
公孙老儿	-12.2559
我也这么想	-12.2559
猥	-12.2559
看家本领	-12.2559
矍	-12.2559
逆运经脉	-12.2559
髓	-12.2559
蒙古大汗的敕封	-12.2559
吮	-12.2559
只一盏茶	-12.2559
市井	-12.2559
足下加快	-12.2559
鬣	-12.2559
无坚不摧	-12.2559
一口唾液	-12.2559
东张西望	-12.2559
你听我说	-12.2559
双手同使	-12.2559
吞入肚	-12.2559
拚个同归于尽	-12.2559
敷衍	-12.2559
桃花岛岛主黄药师	-12.2559
浑若无事	-12.2559
漂	-12.2559
珠穆朗玛	-12.2559
蒙古众武士	-12.2559
赔个不是	-12.2559
郁郁不乐	-12.2559
鏖	-12.2559
难以索解	-12.2559
大惊小怪	-12.2559
说个清楚	-12.2559
两全其美	-12.256
亥	-12.256
背叛师门	-12.256
膛	-12.256
欧洲	-12.256
凹凹凸凸	-12.256
夹手将	-12.256
怒火上冲	-12.256
沌	-12.256
猝不及防	-12.256
空手夺白刃	-12.256
见所未见	-12.256
讥讽	-12.256
麦	-12.256
溺	-12.256
匝	-12.256
在这荒岛之上	-12.256
尊姓大名	-12.256
占了上风	-12.256
夺眶而出	-12.256
手拉着手	-12.256
料事如神	-12.256
没了没完	-12.256
猪狗不如	-12.256
莲蓬	-12.256
难逃性命	-12.256
骡	-12.256
朋	-12.256
库	-12.256
潮水涨时	-12.256
立于不败之地	-12.256
一叠连声的	-12.256
不共戴天	-12.256
仿	-12.256
孤苦伶仃	-12.256
孽障	-12.256
着着进逼	-12.256
空手入白刃	-12.256
臼	-12.256
装腔作势	-12.256
丝毫无损	-12.256
嘉兴王铁枪庙中	-12.256
恩将仇报	-12.256
打不定主意	-12.256
湿淋淋	-12.256
疚	-12.256
精灵古怪	-12.256
r	-12.256
一千两银子	-12.256
佯	-12.256
兜了个圈子	-12.256
古里古怪	-12.256
吴青烈	-12.256
噫	-12.256
堤	-12.256
奉师命	-12.256
好俊功夫	-12.256
强身健体	-12.256
敌忾同仇	-12.256
武功天下第一的名号	-12.256
沉不住气	-12.256
第二指节	-12.256
胀红了脸	-12.256
这首词	-12.256
长须鬼和大头鬼	-12.256
鹅	-12.256
龙家妹子	-12.256
一窟鬼	-12.256
沛	-12.256
的死讯	-12.256
苔	-12.256
无中生有	-12.256
日思夜想	-12.256
有说有笑	-12.256
璧	-12.256
阖	-12.256
隽	-12.256
戚	-12.256
噪	-12.256
多有得罪	-12.256
一显身手	-12.256
东征西	-12.256
佩服得五体投地	-12.256
几千几万	-12.256
数使然	-12.256
杨再兴	-12.256
波涛汹涌	-12.256
溯	-12.256
蜡丸	-12.256
裔	-12.256
迅速异常的	-12.256
飞也似的	-12.256
鸿	-12.256
伤了和气	-12.256
奉若神	-12.256
心念已决	-12.256
泪如雨下	-12.256
泳	-12.256
的奸谋	-12.256
跛子曲三	-12.256
迎亲人众	-12.256
随随便便的	-12.256
搧	-12.256
乘虚而	-12.256
互道别来	-12.256
倒行逆施	-12.256
又悲又	-12.256
孺	-12.256
胚	-12.256
贮	-12.256
仓	-12.256
拧	-12.256
播	-12.256
饯	-12.256
械	-12.256
鹏	-12.256
琐	-12.256
砌	-12.256
膊	-12.256
科	-12.256
喙	-12.256
茎	-12.256
蛤	-12.256
寓	-12.2561
遏	-12.2561
猖	-12.2561
砚	-12.2561
缀	-12.2561
恤	-12.2561
挢	-12.2561
迥	-12.2561
翎	-12.2561
剁	-12.2561
售	-12.2561
瞄	-12.2561
葱	-12.2561
锡	-12.2561
蚊	-12.2561
虾	-12.2561
蓑	-12.2561
棚	-12.2562
缴	-12.2562
荐	-12.2563
弊	-12.2564
铭	-12.2564
悚	-12.2567
簪	-12.2568
衙	-12.2569
渺	-12.3349
刷	-12.3704
姐	-12.443
嫂	-12.4528
霍	-12.4529
○	-12.4551
聊	-12.4552
棘	-12.4552
赘	-12.4553
亨	-12.4556
弘	-12.4557
揩	-12.4557
骸	-12.4558
慧	-12.4558
澈	-12.4558
申	-12.4558
簇	-12.4558
唾	-12.4558
凯	-12.4558
巳	-12.4558
闾	-12.4558
卦	-12.4558
昧	-12.4558
糊	-12.4558
贰	-12.4559
岗	-12.4559
憨	-12.4559
弧	-12.4559
删	-12.4559
币	-12.4559
亵	-12.4559
协	-12.4559
兹	-12.4559
燥	-12.4559
伶	-12.4559
旬	-12.4559
爿	-12.4559
猝	-12.4559
膏	-12.4559
梭	-12.4559
殃	-12.4559
啃	-12.4559
谬	-12.4559
鹤	-12.4559
瀰	-12.456
仲	-12.456
奠	-12.456
蟾	-12.456
赋	-12.456
嶙	-12.456
扛	-12.456
梗	-12.456
培	-12.456
疮	-12.456
辖	-12.456
峋	-12.456
档	-12.456
耶	-12.456
篓	-12.456
峙	-12.456
扔	-12.456
淤	-12.456
媒	-12.456
札	-12.456
矢	-12.456
贻	-12.456
妆	-12.456
嘤	-12.456
辕	-12.456
卯	-12.456
臊	-12.456
甸	-12.456
嫔	-12.456
爵	-12.456
盐	-12.456
航	-12.456
隧	-12.456
辟	-12.456
亟	-12.4561
冶	-12.4561
烙	-12.4561
馨	-12.4561
蔬	-12.4561
2	-12.4561
谜	-12.4561
捻	-12.4561
犀	-12.4561
.	-12.4561
嫉	-12.4561
惕	-12.4561
焕	-12.4561
眯	-12.4561
韬	-12.4561
侃	-12.4561
俘	-12.4561
莞	-12.4561
佐	-12.4561
疫	-12.4561
玷	-12.4561
恣	-12.4561
栖	-12.4562
嗜	-12.4562
滥	-12.4562
翌	-12.4562
卉	-12.4562
绍	-12.4562
蹻	-12.4562
绢	-12.4562
税	-12.4563
H	-12.4563
翰	-12.4564
魏	-12.4564
咏	-12.4566
庵	-12.4595
躺	-12.5478
姊	-12.7021
嘻	-12.7038
礁	-12.7039
忖	-12.705
丫	-12.705
辜	-12.7051
纽	-12.7053
嗑	-12.7055
介	-12.7055
牲	-12.7056
宦	-12.7056
顽	-12.7057
肾	-12.7057
赚	-12.7057
澜	-12.7058
链	-12.7058
阕	-12.7058
踞	-12.7058
舅	-12.7058
癸	-12.7058
懵	-12.7059
蝎	-12.7059
擞	-12.7059
鸾	-12.7059
灼	-12.7059
旌	-12.7059
廉	-12.7059
枷	-12.7059
滋	-12.7059
俺	-12.7059
崽	-12.7059
罄	-12.7059
蟹	-12.7059
鸩	-12.7059
颐	-12.7059
俚	-12.7059
晤	-12.7059
仄	-12.706
膳	-12.706
谕	-12.706
彬	-12.706
稠	-12.706
览	-12.706
彦	-12.706
栈	-12.706
沽	-12.706
猩	-12.706
袒	-12.706
谣	-12.706
勋	-12.706
瞠	-12.706
婢	-12.706
g	-12.706
咯	-12.706
植	-12.706
萃	-12.706
镣	-12.706
嘀	-12.706
噢	-12.706
寐	-12.706
捐	-12.706
搐	-12.706
衾	-12.706
酥	-12.706
祷	-12.706
榆	-12.706
蒋	-12.706
骁	-12.706
骢	-12.706
区	-12.706
蚓	-12.706
奖	-12.7061
皎	-12.7061
瞟	-12.7061
绦	-12.7061
瘾	-12.7061
馔	-12.7061
吭	-12.7061
垮	-12.7061
璃	-12.7061
箍	-12.7061
/	-12.7061
昭	-12.7061
睿	-12.7061
缔	-12.7061
啜	-12.7061
湾	-12.7061
狸	-12.7061
壑	-12.7061
峦	-12.7061
戆	-12.7061
脯	-12.7061
浴	-12.7061
菊	-12.7061
贿	-12.7061
掮	-12.7061
鸥	-12.7061
昌	-12.7061
颔	-12.7061
谄	-12.7061
颦	-12.7061
犒	-12.7061
瘀	-12.7061
鞠	-12.7061
厘	-12.7062
栋	-12.7062
·	-12.7062
f	-12.7062
曼	-12.7062
楷	-12.7062
牒	-12.7062
剜	-12.7063
奚	-12.7064
飨	-12.7064
莱	-12.7074
烁	-12.7155
嗤	-12.9128
稻	-13.0173
勃	-13.0272
槐	-13.0276
凛	-13.0296
黯	-13.0375
萼	-13.0382
缎	-13.0385
纲	-13.0387
庶	-13.0388
哲	-13.0388
俨	-13.0388
弈	-13.0389
汞	-13.0389
廷	-13.039
乾	-13.039
胞	-13.039
痣	-13.039
酉	-13.039
棹	-13.039
汴	-13.039
迄	-13.039
藩	-13.039
绽	-13.0391
缤	-13.0391
薪	-13.0391
缭	-13.0391
琢	-13.0391
偈	-13.0391
衅	-13.0391
酱	-13.0391
坠	-13.0391
戌	-13.0391
刨	-13.0391
噤	-13.0392
粤	-13.0392
虬	-13.0392
蹶	-13.0392
娈	-13.0392
弑	-13.0392
缟	-13.0392
踊	-13.0392
p	-13.0392
惫	-13.0392
挲	-13.0392
谑	-13.0392
壤	-13.0392
筑	-13.0392
衍	-13.0392
袂	-13.0392
拌	-13.0392
拷	-13.0392
摹	-13.0392
癖	-13.0392
驿	-13.0392
纺	-13.0393
绾	-13.0393
陌	-13.0393
彰	-13.0393
瞿	-13.0393
遽	-13.0393
仕	-13.0393
腑	-13.0393
啾	-13.0393
剔	-13.0393
厝	-13.0393
醇	-13.0393
锯	-13.0393
魅	-13.0393
禄	-13.0393
k	-13.0393
亩	-13.0393
唬	-13.0393
晖	-13.0393
硝	-13.0393
鳌	-13.0393
m	-13.0393
踵	-13.0393
舀	-13.0393
哎	-13.0393
嗄	-13.0393
恬	-13.0393
麝	-13.0393
豫	-13.0393
3	-13.0394
娱	-13.0394
徵	-13.0394
獠	-13.0394
垒	-13.0394
墟	-13.0394
浃	-13.0394
炬	-13.0394
绡	-13.0394
褚	-13.0394
谀	-13.0394
谗	-13.0394
谛	-13.0394
贷	-13.0394
迦	-13.0394
琼	-13.0394
5	-13.0394
彀	-13.0394
煽	-13.0394
琤	-13.0394
荼	-13.0394
镂	-13.0394
靦	-13.0394
髭	-13.0394
匕	-13.0394
4	-13.0394
眦	-13.0394
禾	-13.0394
殒	-13.0394
b	-13.0394
6	-13.0394
8	-13.0394
9	-13.0394
券	-13.0394
厥	-13.0394
憩	-13.0394
洽	-13.0394
箩	-13.0394
芬	-13.0394
蜀	-13.0394
觍	-13.0394
靶	-13.0394
T	-13.0394
怡	-13.0394
莺	-13.0394
坊	-13.0394
型	-13.0394
旱	-13.0394
珊	-13.0394
蹂	-13.0394
阐	-13.0394
7	-13.0394
惚	-13.0394
炖	-13.0394
W	-13.0395
绅	-13.0395
藕	-13.0395
唏	-13.0395
伽	-13.0395
奢	-13.0395
卿	-13.0395
棱	-13.0396
堡	-13.0396
裱	-13.0397
隘	-13.0397
盥	-13.0399
剿	-13.04
屹	-13.0407
芝	-13.5255
央	-13.5277
渗	-13.5289
呐	-13.5338
湛	-13.5358
宵	-13.536
酋	-13.5383
痊	-13.5383
刎	-13.5383
湍	-13.5387
赫	-13.5388
讽	-13.5389
港	-13.5389
Y	-13.5389
眶	-13.539
瀑	-13.539
渍	-13.5391
灿	-13.5391
诧	-13.5391
轧	-13.5391
y	-13.5391
掬	-13.5391
巫	-13.5391
倪	-13.5392
聂	-13.5392
蒜	-13.5392
饲	-13.5392
坤	-13.5392
叽	-13.5392
填	-13.5392
C	-13.5392
侦	-13.5393
矩	-13.5393
剽	-13.5393
锻	-13.5393
丙	-13.5393
樱	-13.5393
裸	-13.5393
菩	-13.5393
沈	-13.5393
觏	-13.5393
梨	-13.5394
挠	-13.5394
u	-13.5394
斡	-13.5394
d	-13.5394
瘟	-13.5394
俐	-13.5394
併	-13.5395
荤	-13.5395
玎	-13.5395
蒂	-13.5396
隶	-13.5396
瑕	-13.5397
亘	-13.5397
勘	-13.5397
佬	-13.5397
估	-14.4975
伫	-14.4976
L	-14.4977
G	-14.4978
龌	-14.4979
龊	-14.498
麈	-14.4981
钺	-14.4982
鎩	-14.4983
逑	-14.4984
辙	-14.4985
轶	-14.4986
跂	-14.4987
诨	-14.4988
诌	-14.4989
蚯	-14.499
虔	-14.4991
臾	-14.4992
胛	-14.4993
耆	-14.4994
缥	-14.4995
缈	-14.4996
绯	-14.4997
绎	-14.4998
纭	-14.4999
窬	-14.5
砾	-14.5001
皿	-14.5002
痹	-14.5003
疴	-14.5004
琉	-14.5005
熹	-14.5006
潦	-14.5007
漾	-14.5008
淇	-14.5009
泞	-14.501
泓	-14.5011
毗	-14.5012
楣	-14.5013
杞	-14.5014
暹	-14.5015
挼	-14.5016
惰	-14.5017
怼	-14.5018
忏	-14.5019
帜	-14.502
帔	-14.5021
嵩	-14.5022
嵋	-14.5023
孀	-14.5024
嚓	-14.5025
嗥	-14.5026
啮	-14.5027
哮	-14.5028
咤	-14.5029
咙	-14.503
咆	-14.5031
吝	-14.5032
卤	-14.5033
卢	-14.5034
俞	-14.5035
伥	-14.5036
M	-14.5037
鹞	-14.5038
魈	-14.5039
馥	-14.504
饪	-14.5041
颧	-14.5042
钥	-14.5043
遒	-14.5044
遑	-14.5045
逦	-14.5046
迤	-14.5047
辫	-14.5048
辎	-14.5049
轾	-14.505
贲	-14.5051
谙	-14.5052
褥	-14.5053
蜮	-14.5054
蜍	-14.5055
茹	-14.5056
臃	-14.5057
胥	-14.5058
羲	-14.5059
簿	-14.506
砧	-14.5061
盎	-14.5062
甬	-14.5063
琶	-14.5064
琵	-14.5065
犷	-14.5066
烽	-14.5067
潺	-14.5068
渎	-14.5069
淙	-14.507
涔	-14.5071
泸	-14.5072
殖	-14.5073
榈	-14.5074
椽	-14.5075
棕	-14.5076
杳	-14.5077
扦	-14.5078
戛	-14.5079
愫	-14.508
愀	-14.5081
尉	-14.5082
姥	-14.5083
姘	-14.5084
妩	-14.5085
塑	-14.5086
嚏	-14.5087
嚅	-14.5088
嗫	-14.5089
喳	-14.509
喁	-14.5091
啥	-14.5092
啕	-14.5093
叟	-14.5094
卵	-14.5095
傥	-14.5096
倜	-14.5097
佼	-14.5098
佻	-14.5099
—	-14.51
鲤	-14.5101
髀	-14.5102
骛	-14.5103
骓	-14.5104
雍	-14.5105
陛	-14.5106
阎	-14.5107
辍	-14.5108
蜷	-14.5109
藜	-14.511
蒺	-14.5111
膜	-14.5112
绮	-14.5113
磺	-14.5114
硫	-14.5115
砒	-14.5116
皙	-14.5117
瘩	-14.5118
痪	-14.5119
疙	-14.512
澡	-14.5121
湮	-14.5122
渝	-14.5123
泫	-14.5124
旖	-14.5125
旎	-14.5126
撬	-14.5127
惆	-14.5128
怃	-14.5129
徘	-14.513
徊	-14.5131
岘	-14.5132
妞	-14.5133
埃	-14.5134
圹	-14.5135
喽	-14.5136
唿	-14.5137
咫	-14.5138
倨	-14.5139
企	-14.514
0	-14.5141
鹊	-14.5142
飓	-14.5143
蹋	-14.5144
裣	-14.5145
绉	-14.5146
稼	-14.5147
瞭	-14.5148
皑	-14.5149
痞	-14.515
炷	-14.5151
漉	-14.5152
溶	-14.5153
涤	-14.5154
杠	-14.5155
摒	-14.5156
惋	-14.5157
悻	-14.5158
娓	-14.5159
姗	-14.516
喟	-14.5161
哝	-14.5162
咿	-14.5163
匈	-14.5164
偌	-14.5165
仃	-14.5166
霭	-14.5167
芍	-14.5168
胳	-14.5169
胭	-14.517
粽	-14.5171
籁	-14.5172
瑙	-14.5173
漩	-14.5174
榜	-14.5175
柬	-14.5176
旄	-14.5177
怩	-14.5178
忸	-14.5179
崎	-14.518
岖	-14.5181
呱	-14.5182
〖	-14.5183
鳅	-14.5184
颖	-14.5185
逻	-14.5186
跶	-14.5187
跤	-14.5188
蟠	-14.5189
蝴	-14.519
蝗	-14.5191
笋	-14.5192
眈	-14.5193
涡	-14.5194
浣	-14.5195
怫	-14.5196
妮	-14.5197
妁	-14.5198
嗳	-14.5199
吱	-14.52
侂	-14.5201
伎	-14.5202
麾	-14.5203
陕	-14.5204
镔	-14.5205
襁	-14.5206
褓	-14.5207
裟	-14.5208
袈	-14.5209
艾	-14.521
腼	-14.5211
腆	-14.5212
氓	-14.5213
桁	-14.5214
敞	-14.5215
扈	-14.5216
悸	-14.5217
婀	-14.5218
仑	-14.5219
l	-14.522
邓	-14.5221
邂	-14.5222
逅	-14.5223
讷	-14.5224
袱	-14.5225
蠕	-14.5226
蜿	-14.5227
蜒	-14.5228
篾	-14.5229
窦	-14.523
犁	-14.5231
濂	-14.5232
潼	-14.5233
桓	-14.5234
斓	-14.5235
掣	-14.5236
怏	-14.5237
彷	-14.5238
彪	-14.5239
冥	-14.524
蜘	-14.5241
苹	-14.5242
臆	-14.5243
础	-14.5244
睫	-14.5245
皈	-14.5246
玛	-14.5247
槛	-14.5248
娜	-14.5249
咀	-14.525
谆	-14.5251
袅	-14.5252
翡	-14.5253
汩	-14.5254
杭	-14.5255
朔	-14.5256
徬	-14.5257
崔	-14.5258
咧	-14.5259
兢	-14.526
僮	-14.5261
骼	-14.5262
蚂	-14.5263
祜	-14.5264
炯	-14.5265
泗	-14.5266
恚	-14.5267
忾	-14.5268
孜	-14.5269
哧	-14.527
霹	-14.5271
雳	-14.5272
镗	-14.5273
讪	-14.5274
蝙	-14.5275
盯	-14.5276
煌	-14.5277
垓	-14.5278
锵	-14.5279
窖	-14.528
狯	-14.5281
梧	-14.5282
徽	-14.5283
蝠	-14.5284
脓	-14.5285
歧	-14.5286
慎	-14.5287
颏	-14.5288
膻	-14.5289
磊	-14.529
睦	-14.5291
抿	-14.5292
俄	-14.5293
豺	-14.5294
玫	-14.5295
狰	-14.5296
慷	-14.5297
阱	-14.5298
键	-14.5299
蛾	-14.53
芒	-14.5301
侥	-14.5302
褴	-14.5303
褛	-14.5304
膂	-14.5305
汹	-14.5306
桧	-14.5307
懊	-14.5308
铿	-14.5309
暑	-14.531
憔	-14.5311
徨	-14.5312
嗽	-14.5313
唧	-14.5314
乓	-14.5315
乒	-14.5316
丞	-14.5317
窿	-14.5318
旭	-14.5319
唠	-14.532
蝮	-14.5321
舨	-14.5322
舢	-14.5323
腋	-14.5324
肮	-14.5325
耿	-14.5326
噩	-14.5327
蹊	-14.5328
璇	-14.5329
呻	-14.533
睽	-14.5331
【	-14.5332
馒	-14.5333
蟋	-14.5334
奄	-14.5335
啰	-14.5336
俟	-14.5337
逍	-14.5338
筵	-14.5339
诃	-14.534
脖	-14.5341
滔	-14.5342
狞	-14.5343
沼	-14.5344
寞	-14.5345
傅	-14.5346
嗖	-14.5346
裳	-14.5347
蜈	-14.5348
蚣	-14.5349
寥	-14.535
哽	-14.5351
骆	-14.5352
牯	-14.5353
沅	-14.5354
尴	-14.5354
尬	-14.5355
咚	-14.5356
鸯	-14.5357
吆	-14.5358
晶	-14.5359
噜	-14.536
葫	-14.5361
衲	-14.5362
漓	-14.5363
飕	-14.5364
嗓	-14.5365
躇	-14.5366
踌	-14.5367
簌	-14.5368
骷	-14.5369
踉	-14.537
跄	-14.5371
惴	-14.5372
霆	-14.5372
仔	-14.5373
媳	-14.5374
黝	-14.5375
讶	-14.5376
睬	-14.5377
蟆	-14.5378
狈	-14.5379
蛛	-14.538
猬	-14.5381
匆	-14.5382
鞑	-14.5383
铮	-14.5383
骋	-14.5383
匿	-14.5384
嗡	-14.5384
萨	-14.5385
啷	-14.5385
猱	-14.5385
唷	-14.5386
A	-14.5386
惺	-14.5386
桑	-14.5386
恙	-14.5387
吩	-14.5387
嫣	-14.5388
贸	-14.5388
朦	-14.5388
奈	-14.5388
诲	-14.5389
眺	-14.5389
鳖	-14.5389
呜	-14.5389
宪	-14.5389
柢	-14.539
倔	-14.539
祁	-14.539
竺	-14.539
梵	-14.5391
喃	-14.5391
笠	-14.5391
磋	-14.5391
牡	-14.5392
笈	-14.5392
晰	-14.5392
鬟	-14.5392
膺	-14.5392
芥	-14.5392
呛	-14.5392
拊	-14.5392
烘	-14.5392
怦	-14.5392
糙	-14.5393
爸	-14.5393
扉	-14.5393
枭	-14.5393
瑛	-14.5393
钰	-14.5393
啧	-14.5394
瓮	-14.5394
薛	-14.5394
诫	-14.5394
惮	-14.5394
柩	-14.5394
孰	-14.5394
抟	-14.5394
皂	-14.5394
胧	-14.5394
脍	-14.5394
咐	-14.5394
猗	-14.5395
迢	-14.5395
蒲	-14.5395
愆	-14.5395
簸	-14.5395
鄂	-14.5395
妃	-14.5395
拇	-14.5396
噎	-14.5396
朮	-14.5396
驹	-14.5397
-	-14.5398
晌	-14.5399
胄	-14.54
芙	-14.54
