<unk>	0
<s>	0
</s>	0
,	-2.08177
。	-3.54469
:“	-3.95173
道	-4.40892
的	-4.45253
。”	-4.54235
他	-5.02081
我	-5.07107
了	-5.07716
你	-5.20361
?”	-5.21757
郭靖	-5.38021
黄蓉	-5.51856
、	-5.55394
在	-5.55424
一	-5.66428
是	-5.67626
来	-5.69116
?	-5.76102
她	-5.79104
这	-5.84
不	-5.84712
▁	-5.89557
上	-5.90383
那	-5.91637
!”	-5.95194
又	-5.97322
去	-5.98652
中	-6.02167
大	-6.07906
得	-6.10154
但	-6.13656
有	-6.17744
人	-6.19862
已	-6.22041
“	-6.22882
也	-6.26802
说道	-6.29308
要	-6.31733
将	-6.35354
见	-6.36386
却	-6.39273
到	-6.39474
”	-6.45349
好	-6.46047
与	-6.50979
下	-6.52031
都	-6.5455
之	-6.57546
欧阳锋	-6.60416
▁郭靖	-6.61149
叫道	-6.64467
过	-6.65445
自己	-6.66175
就	-6.6953
笑	-6.6969
洪七公	-6.69929
从	-6.71712
说	-6.73084
打	-6.74338
▁黄蓉	-6.74494
一个	-6.74749
着	-6.74971
心	-6.77047
两人	-6.77594
再	-6.77881
和	-6.79847
出	-6.7987
向	-6.80293
咱们	-6.80675
对	-6.80849
黄药师	-6.83967
把	-6.84223
为	-6.89074
时	-6.89118
便	-6.8938
以	-6.91541
心中	-6.93434
只	-6.93482
用	-6.95172
后	-6.95498
心想	-6.95649
可	-6.96339
师父	-6.98451
头	-7.03601
只是	-7.0376
而	-7.03785
子	-7.04
手	-7.0417
啦	-7.043
周伯通	-7.05009
无	-7.05084
甚么	-7.06874
他们	-7.07478
自	-7.07717
武功	-7.09754
当下	-7.10315
郭靖道	-7.11002
小	-7.11645
如	-7.12255
天	-7.13041
欧阳克	-7.15179
只见	-7.1703
给	-7.18917
想	-7.18949
回	-7.19838
......	-7.20449
生	-7.21155
所	-7.21175
连	-7.21206
起	-7.21981
还	-7.2262
啊	-7.23966
么	-7.24452
三	-7.26411
之中	-7.27052
身	-7.27434
如此	-7.27747
倒	-7.30195
于	-7.30424
听	-7.30532
丘处机	-7.30621
两	-7.30691
快	-7.31358
死	-7.31706
!	-7.32307
知道	-7.32429
里	-7.32797
多	-7.32864
被	-7.34614
行	-7.35395
能	-7.35501
等	-7.35586
梅超风	-7.3567
气	-7.3587
成	-7.359
功夫	-7.364
我们	-7.37434
》	-7.37756
《	-7.37757
左手	-7.38266
地	-7.38412
罢	-7.387
不知	-7.38716
急	-7.38755
杨康	-7.38758
却是	-7.41097
忙	-7.41176
都是	-7.41874
长	-7.42963
先	-7.43456
儿	-7.43859
身子	-7.44305
发	-7.45932
蓉儿	-7.46715
这时	-7.46745
没	-7.46758
柯镇恶	-7.47082
别	-7.47096
叫	-7.47293
事	-7.47686
前	-7.47825
不是	-7.47918
裘千仞	-7.48235
当	-7.49195
若是	-7.50187
入	-7.50377
虽然	-7.50516
动	-7.50795
相	-7.52315
未	-7.52579
马	-7.52797
水	-7.53503
你们	-7.54201
正是	-7.54221
会	-7.54306
双手	-7.54672
不敢	-7.55078
处	-7.56685
走	-7.57356
右手	-7.5796
个	-7.58281
做	-7.59204
就是	-7.59312
难	-7.59556
忽然	-7.59864
之后	-7.6118
力	-7.61195
怎么	-7.61476
命	-7.62234
‘	-7.62375
正	-7.62383
重	-7.62704
使	-7.63105
原来	-7.63254
虽	-7.63267
......”	-7.63382
请	-7.63676
问道	-7.64127
问	-7.64312
四	-7.64662
’	-7.64752
铁木真	-7.64802
往	-7.65424
今日	-7.65746
也是	-7.65885
才	-7.65907
完颜洪烈	-7.65945
直	-7.65964
喝道	-7.6608
高	-7.6631
名	-7.67166
不禁	-7.6764
成吉思汗	-7.67775
杀	-7.6785
落	-7.67922
作	-7.68269
吃	-7.68692
开	-7.68738
眼见	-7.69149
到了	-7.69527
声	-7.69758
突然	-7.70187
教	-7.70361
风	-7.70539
穆念慈	-7.70844
可是	-7.70889
一人	-7.71577
弟子	-7.72591
门	-7.72906
路	-7.73945
口	-7.73952
跟	-7.74154
看	-7.74294
呢	-7.74346
吗	-7.74515
转	-7.74836
朱聪	-7.74988
此	-7.75293
身上	-7.75399
待	-7.75578
奇	-7.75758
大汗	-7.75786
伤	-7.76033
又是	-7.76103
极	-7.76252
众人	-7.76288
比	-7.7686
字	-7.77306
外	-7.77399
不能	-7.78254
掌	-7.78691
完颜康	-7.79076
如何	-7.79998
白	-7.80129
出来	-7.80143
然	-7.81455
兄弟	-7.82136
三人	-7.83259
脸上	-7.84261
斗	-7.8443
只怕	-7.84644
招	-7.84781
那人	-7.84825
瞧	-7.85279
非	-7.85358
更是	-7.86394
更	-7.86843
敌人	-7.87009
也不	-7.87428
拿	-7.8745
山	-7.87732
见到	-7.88257
怒	-7.88269
二人	-7.8874
之下	-7.88887
见他	-7.89044
这般	-7.89234
陆冠英	-7.89784
谁	-7.89856
他的	-7.90177
强	-7.90559
众	-7.90723
骂	-7.91047
家	-7.91409
瑛姑	-7.91931
足	-7.9202
竟	-7.92252
哪知	-7.92293
说话	-7.92649
方	-7.92892
当即	-7.93209
老	-7.93565
让	-7.94023
不可	-7.94893
意	-7.94902
真	-7.95389
一阵	-7.95494
敌	-7.95504
花	-7.95531
爹爹	-7.95606
法	-7.95695
▁欧阳锋	-7.95713
点	-7.95837
学	-7.96015
一般	-7.96113
飞	-7.96537
神	-7.96539
只得	-7.96645
跟着	-7.9679
内	-7.96853
于是	-7.97293
击	-7.97398
住	-7.97594
至	-7.97812
分	-7.97898
忽	-7.98169
不住	-7.98432
梁子翁	-7.98495
只要	-7.98711
九阴真经	-7.98779
登时	-7.98805
:‘	-7.98807
知	-7.99245
拖雷	-7.99325
这个	-7.9992
惊	-7.9996
攻	-8.00034
乱	-8.00197
练	-8.00429
年	-8.00648
酒	-8.00699
明	-8.00903
曾	-8.0095
立	-8.01331
▁洪七公	-8.0154
战	-8.01821
日	-8.01895
响	-8.01925
靖哥哥	-8.01973
老叫化	-8.01987
伸手	-8.02077
有人	-8.02479
数	-8.02602
杨铁心	-8.02756
几	-8.0283
还是	-8.02876
兵	-8.0308
”,	-8.03147
受	-8.03561
远	-8.03878
早	-8.04151
此时	-8.04394
破	-8.044
是以	-8.04865
同	-8.04947
进	-8.05236
父亲	-8.05417
不得	-8.05427
傻姑	-8.05452
眼	-8.05957
定	-8.0597
近	-8.06155
这是	-8.06595
彭连虎	-8.07061
放	-8.0714
仍是	-8.07373
收	-8.07395
半	-8.07989
传	-8.08038
听得	-8.0828
听到	-8.08349
带	-8.0863
剑	-8.0865
转身	-8.09961
话	-8.10341
之上	-8.10424
之事	-8.10676
本	-8.10726
尽	-8.10762
情	-8.11215
蛇	-8.11302
厉害	-8.11788
面	-8.12068
冲	-8.12133
二	-8.12448
过来	-8.12664
低声	-8.12702
立时	-8.12996
逃	-8.13169
甚是	-8.13248
早已	-8.13267
老顽童	-8.13276
言	-8.1359
船	-8.13654
若	-8.13774
间	-8.13849
背	-8.14462
西	-8.14772
一时	-8.15014
一声	-8.15119
说着	-8.15173
▁黄药师	-8.15573
急忙	-8.15575
起来	-8.15718
离	-8.15845
蒙古	-8.15993
箭	-8.16019
既	-8.16047
出去	-8.16587
刚	-8.16615
火	-8.168
王处一	-8.17419
救	-8.17631
刀	-8.17804
同时	-8.18318
似	-8.18392
送	-8.18786
反	-8.18894
不过	-8.19135
全	-8.19853
天下	-8.20002
之间	-8.20762
似乎	-8.20903
十分	-8.21054
最	-8.21294
五	-8.21446
想起	-8.21469
这才	-8.21596
干	-8.21869
是谁	-8.21931
手中	-8.21987
深	-8.22024
刺	-8.22189
其	-8.22362
给他	-8.22369
各	-8.22396
但见	-8.22623
亲	-8.22855
拳	-8.22964
心下	-8.2318
怎样	-8.23232
实	-8.23284
追	-8.23469
想到	-8.23473
只听得	-8.23527
边	-8.23536
动手	-8.23644
即	-8.23687
华筝	-8.2375
断	-8.24003
大叫	-8.24083
光	-8.2452
金	-8.24568
黑	-8.25195
推	-8.25333
女儿	-8.25541
过去	-8.2606
走到	-8.26078
爱	-8.26194
东	-8.26335
势	-8.26391
伸	-8.26507
当真	-8.26729
我爹爹	-8.26821
老毒物	-8.2689
喝	-8.26895
竟是	-8.26953
之极	-8.27131
通	-8.27165
轻	-8.27329
包惜弱	-8.2735
不肯	-8.2762
两个	-8.27858
只有	-8.28232
由	-8.28269
之人	-8.28364
十	-8.28444
些	-8.28631
红	-8.28934
黄老邪	-8.29036
黄蓉笑	-8.29289
正要	-8.29309
便是	-8.2937
韩小莹	-8.29447
母亲	-8.29723
性命	-8.29775
马钰	-8.29935
望	-8.30156
劲	-8.3046
书	-8.30505
却也	-8.3072
喜	-8.30772
翻	-8.30812
一条	-8.30898
将他	-8.31546
变	-8.31561
:	-8.31658
信	-8.31951
不及	-8.31999
齐	-8.32096
之时	-8.322
适才	-8.32635
对方	-8.32714
取	-8.32729
抓	-8.32877
这些	-8.32978
经	-8.33246
真是	-8.3325
刚才	-8.33432
随	-8.33534
没有	-8.33927
空	-8.33983
怕	-8.34034
求	-8.34283
关	-8.34599
一招	-8.34617
当年	-8.34989
那么	-8.35036
退	-8.35132
不由得	-8.35183
中的	-8.35373
甚	-8.3562
怪	-8.35735
侯通海	-8.35939
这一	-8.3601
却又	-8.36274
▁丘处机	-8.36394
横	-8.36859
难道	-8.3687
旁	-8.37085
毒	-8.37146
全身	-8.37283
石	-8.37457
本来	-8.37557
的武功	-8.37708
后来	-8.37809
指	-8.37885
提	-8.37919
军	-8.38006
必	-8.38053
轻轻	-8.38181
苦	-8.38199
清	-8.38576
四人	-8.38589
▁他	-8.38709
越	-8.38797
铁	-8.38889
不到	-8.39018
脸	-8.39019
又道	-8.39387
猛	-8.39449
▁周伯通	-8.39495
或	-8.39584
痛	-8.39816
万	-8.3982
物	-8.40166
拉	-8.40236
世	-8.403
竟然	-8.40306
孩子	-8.40319
听了	-8.40783
;	-8.41029
的功夫	-8.41067
交	-8.41342
左	-8.41491
国	-8.41817
黄	-8.42033
现下	-8.42338
出手	-8.42446
立即	-8.42654
理	-8.42698
叹	-8.42856
韩宝驹	-8.42981
果然	-8.43011
女	-8.4305
一掌	-8.43084
鲁有脚	-8.4317
跃	-8.43388
欲	-8.43405
要是	-8.43605
杀了	-8.43671
找	-8.437
只觉	-8.43737
的话	-8.4382
身旁	-8.44337
举	-8.444
口中	-8.44542
沙通天	-8.44666
慢慢	-8.44742
桃花岛	-8.44808
下去	-8.44928
满	-8.45087
六	-8.45289
接	-8.45325
药	-8.45395
姑娘	-8.4541
郭	-8.45529
随即	-8.45728
坐	-8.45852
右	-8.46141
你的	-8.46291
鬼	-8.46335
哪里	-8.46453
脚	-8.46806
帮主	-8.46891
两位	-8.47027
自然	-8.47132
解	-8.47218
不错	-8.47264
师	-8.47318
哲别	-8.47332
胸口	-8.47382
大哥	-8.47606
金兵	-8.47643
说了	-8.47991
声音	-8.482
大喜	-8.48413
之际	-8.48487
下来	-8.48586
是个	-8.4866
守	-8.48674
愈	-8.48864
那是	-8.48906
骨	-8.48975
奔	-8.49019
总是	-8.49275
这么	-8.49363
一笑	-8.49467
算	-8.49851
文	-8.50004
八	-8.50085
者	-8.50154
血	-8.50156
衣	-8.50491
夺	-8.51038
程瑶迦	-8.51688
在这里	-8.52196
望着	-8.52931
你说	-8.53252
小王爷	-8.53676
步	-8.53893
在地下	-8.54005
北	-8.54386
城	-8.54552
海	-8.54633
我的	-8.54714
总	-8.5477
人家	-8.54789
派	-8.55123
画	-8.55265
这位	-8.55435
原	-8.55558
这样	-8.55631
哈哈大笑	-8.55684
月	-8.55864
实是	-8.5639
上来	-8.56648
的一声	-8.56892
异	-8.56899
少	-8.57084
微	-8.5796
哭	-8.58005
尹志平	-8.58112
摇头	-8.58146
死了	-8.5841
合	-8.58747
六怪	-8.58997
哪	-8.59263
养	-8.59298
儿子	-8.59325
只听	-8.59351
靖儿	-8.59395
很	-8.59464
左掌	-8.59475
头顶	-8.59495
▁两人	-8.59734
记	-8.5992
给你	-8.59928
撞	-8.60238
竹棒	-8.60318
就算	-8.60358
回头	-8.60443
大家	-8.60551
之声	-8.60681
流	-8.60854
不成	-8.6117
吧	-8.61281
不会	-8.61322
觉	-8.61324
细	-8.61339
加	-8.61591
再也	-8.61633
道长	-8.617
目	-8.61711
千	-8.61776
一齐	-8.61878
回来	-8.6193
这人	-8.61944
寒	-8.62191
站在	-8.62213
写	-8.62273
上前	-8.6237
阵	-8.62847
已然	-8.63009
扑	-8.63322
感	-8.63362
贫道	-8.63548
之处	-8.63639
与他	-8.63795
失	-8.63908
令	-8.64069
冷笑	-8.64335
南	-8.64478
掷	-8.64528
不见	-8.64536
再说	-8.64567
活	-8.64659
好好	-8.6504
异常	-8.65284
不了	-8.65311
服	-8.65359
难以	-8.65526
般	-8.65613
读	-8.6567
段天德	-8.65995
败	-8.6609
木	-8.6616
虚	-8.66192
云	-8.66193
纵	-8.66533
上了	-8.66598
必是	-8.66864
丈夫	-8.6704
个个	-8.6708
精	-8.67115
一只	-8.6714
这里	-8.67186
给我	-8.67479
脱	-8.67485
色	-8.67633
怎能	-8.67675
见她	-8.67816
射	-8.67942
首	-8.67947
在这	-8.67981
玩	-8.68018
终于	-8.68389
平	-8.68564
张	-8.68617
因此	-8.68694
放在	-8.6887
挥	-8.69075
侄儿	-8.69273
被他	-8.69317
西毒	-8.69362
烧	-8.69406
前面	-8.69474
微微	-8.69493
忽地	-8.69504
小红马	-8.69537
功力	-8.69751
跳	-8.6986
恶	-8.70038
归	-8.70226
七	-8.7029
明白	-8.70363
肉	-8.70612
念	-8.70722
何	-8.70846
须	-8.70854
▁柯镇恶	-8.7086
有甚么	-8.71067
称	-8.7126
陆庄主	-8.71262
留	-8.71286
去了	-8.71501
枪	-8.71528
我也	-8.71546
答应	-8.71626
当日	-8.71654
这次	-8.71782
掌力	-8.72038
始终	-8.72129
每	-8.72452
胜	-8.72455
王	-8.72506
否则	-8.72628
这一下	-8.72871
青	-8.72954
▁欧阳克	-8.73132
江南六怪	-8.73212
全金发	-8.73286
暗	-8.73675
次	-8.73807
得了	-8.73923
因	-8.7393
匕首	-8.74454
灵智上人	-8.74545
腿	-8.74567
吃了	-8.74623
灵	-8.74667
游	-8.74731
向来	-8.74942
你是	-8.74945
不好	-8.75037
其中	-8.75115
约	-8.75162
一块	-8.7517
身后	-8.7526
摔	-8.75342
部	-8.75418
咬	-8.75547
饭	-8.75571
来到	-8.75622
手指	-8.75641
穿	-8.75733
闻	-8.75844
一怔	-8.75845
旁人	-8.75876
臂	-8.75878
是不是	-8.75935
缩	-8.7594
兵刃	-8.75978
指点	-8.76109
报	-8.76176
跃起	-8.76249
抢	-8.76291
向前	-8.76344
在他	-8.76427
片刻	-8.76538
并不	-8.76682
此人	-8.76706
砍	-8.76754
不动	-8.76847
主	-8.76904
坐在	-8.77007
比武	-8.7705
▁梅超风	-8.77105
与郭靖	-8.77151
位	-8.77449
礼	-8.77742
双	-8.77842
布	-8.77844
容	-8.7797
折	-8.78006
挺	-8.78077
夜	-8.78192
及	-8.78199
定是	-8.7831
岂知	-8.78311
代	-8.78614
百	-8.7869
一灯	-8.78694
之前	-8.78734
一片	-8.78809
大惊	-8.78913
太	-8.79057
紧	-8.79108
稍	-8.79116
内功	-8.79195
蒙古人	-8.79239
是啊	-8.79245
劲力	-8.79396
站起身来	-8.79417
九	-8.79926
手里	-8.8
南希仁	-8.80305
美	-8.80519
唉	-8.80586
降龙十八掌	-8.80589
面前	-8.80702
无人	-8.80857
另	-8.8097
已被	-8.80986
我是	-8.8121
忽听	-8.81235
他是	-8.81282
耳	-8.81304
雪	-8.8134
引	-8.81356
听他	-8.81612
踢	-8.81676
靖	-8.81694
散	-8.817
来的	-8.81872
了起来	-8.81913
抱	-8.81921
还有	-8.82069
大声	-8.82413
条	-8.8244
形	-8.82827
缓缓	-8.82975
官	-8.83325
进来	-8.83342
之外	-8.83377
眼前	-8.83524
▁这时	-8.83531
洞	-8.83793
。’	-8.83798
盘	-8.83927
土	-8.84007
向他	-8.84048
则	-8.8419
微微一笑	-8.84257
震	-8.84289
一张	-8.84365
常	-8.84376
背后	-8.84381
无法	-8.84457
知他	-8.84579
正在	-8.84586
的事	-8.84664
义	-8.84667
寻	-8.84789
正自	-8.84908
脸色	-8.84923
跌	-8.851
了得	-8.85148
头上	-8.85212
渐	-8.85272
盛	-8.85401
接着	-8.8577
打得	-8.86108
探	-8.86135
碗	-8.86247
背上	-8.86273
▁成吉思汗	-8.86342
逼	-8.86359
丐帮	-8.86556
棒	-8.86613
全真派	-8.86637
官兵	-8.86728
第二	-8.86849
包	-8.87063
四下	-8.87109
功	-8.87193
莫	-8.87231
扬	-8.87508
却已	-8.87616
全真七子	-8.87652
桑昆	-8.8767
赶	-8.87739
恨	-8.87758
照	-8.87794
哼	-8.87917
它	-8.87953
微笑	-8.87993
且	-8.88034
各人	-8.88054
骑	-8.88278
低	-8.88346
闪	-8.88525
三个	-8.88529
岂能	-8.88598
捉	-8.8865
妙	-8.88665
抓住	-8.88741
偷	-8.88879
腰	-8.89036
忽见	-8.89123
也已	-8.89261
双掌	-8.89471
是我	-8.89542
了他	-8.89598
犹如	-8.896
怀	-8.89741
穴	-8.89885
地下	-8.8991
皮	-8.90098
结	-8.90173
手掌	-8.90357
应	-8.90401
百姓	-8.90508
熟	-8.90529
武学	-8.90598
挡	-8.9076
见了	-8.90796
角	-8.90882
看来	-8.90914
用力	-8.90957
就要	-8.91331
武艺	-8.9135
江南七怪	-8.914
箫声	-8.91622
一直	-8.91699
不觉	-8.91708
本事	-8.91747
爹	-8.91825
居然	-8.91886
走了	-8.92014
思	-8.92052
拜	-8.92332
而去	-8.92363
喜欢	-8.92382
却不	-8.92484
手臂	-8.92789
报仇	-8.92928
避	-8.92973
尚	-8.93021
划	-8.93094
得紧	-8.93156
点了点头	-8.93185
更加	-8.93304
倒也	-8.9332
原来是	-8.93731
受伤	-8.94012
你爹爹	-8.94096
露	-8.94154
那时	-8.94261
发出	-8.94373
取出	-8.94393
管	-8.94454
新	-8.94487
铜缸	-8.94537
仍	-8.94545
尚未	-8.9458
一起	-8.94583
安	-8.9473
怎地	-8.94903
跟他	-8.95135
根	-8.95198
语	-8.95479
复	-8.95485
忽听得	-8.95518
肩头	-8.95523
神色	-8.95608
叫他	-8.95612
乐	-8.95786
一路	-8.95856
鸡	-8.9586
曲	-8.95992
只道	-8.96045
你这	-8.96558
客	-8.96816
鱼	-8.96835
言语	-8.96842
机	-8.97135
沙	-8.97176
皇帝	-8.97213
小人	-8.9728
沉	-8.97284
一步	-8.97289
上去	-8.97409
不用	-8.9741
掌法	-8.97443
乘	-8.97446
最后	-8.97498
突然间	-8.97559
猜	-8.97623
初	-8.97652
为甚么	-8.97811
以后	-8.98007
只见他	-8.98104
一灯大师	-8.98188
见郭靖	-8.98229
得很	-8.98236
牛	-8.98356
热	-8.9838
已经	-8.98446
英雄	-8.9847
▁裘千仞	-8.98525
▁那	-8.98544
视	-8.98653
▁杨康	-8.98654
喂	-8.98706
底	-8.98727
真经	-8.98727
领	-8.98974
▁这	-8.99046
我要	-8.99166
已是	-8.99221
野	-8.9924
▁朱聪	-8.99298
亦	-8.99434
踏	-8.99475
女子	-8.99596
依	-8.99622
瞧着	-8.99623
毕	-8.99742
▁铁木真	-8.99769
可惜	-8.9989
巧	-9.00066
却见	-9.00099
嗯	-9.00127
哈哈	-9.0013
啊哟	-9.00138
伸出	-9.00228
▁“	-9.00267
见过	-9.00553
中了	-9.00572
之意	-9.00593
换	-9.00829
爬	-9.00863
藏	-9.00867
了出来	-9.01033
硬	-9.01052
疾	-9.01223
徒	-9.01263
朮赤	-9.01285
一件	-9.01403
冷	-9.01407
菜	-9.01497
弯	-9.01501
朝	-9.01506
粗	-9.01562
古怪	-9.01595
插	-9.01635
跟我	-9.01658
眼睛	-9.01779
反而	-9.01788
托	-9.01881
拍	-9.02042
的是	-9.02135
右掌	-9.02206
自是	-9.02244
善	-9.02502
举起	-9.02617
为了	-9.02727
回去	-9.02813
那公子	-9.02839
久	-9.02855
呼	-9.02981
您	-9.03016
段皇爷	-9.0305
冷冷的	-9.0305
咱俩	-9.03051
寻思	-9.03071
不再	-9.03181
干甚么	-9.0325
确是	-9.03308
一惊	-9.03392
可以	-9.03472
鞭	-9.03528
帮	-9.03565
害	-9.03568
此事	-9.03664
玉	-9.0374
盗	-9.0409
这一招	-9.04123
端	-9.04132
一点	-9.04216
▁她	-9.04249
金国	-9.04332
躲	-9.04412
弄	-9.04492
王罕	-9.04546
高手	-9.04606
渐渐	-9.04649
过了	-9.04663
树	-9.04854
了一阵	-9.05044
这小子	-9.05134
别人	-9.05499
差	-9.05508
大怒	-9.05517
那就	-9.0572
简长老	-9.05776
各位	-9.06044
大吃一惊	-9.06062
晚辈	-9.06062
双雕	-9.06069
妻子	-9.06072
该	-9.06092
了一	-9.061
身形	-9.06143
准	-9.06159
在一起	-9.06164
吃了一惊	-9.06265
奔到	-9.06272
敢	-9.06439
除了	-9.06496
帐	-9.06869
▁完颜康	-9.07056
睡	-9.07112
师兄	-9.07116
都史	-9.0735
那道人	-9.07386
在此	-9.07442
节	-9.07469
治	-9.07508
手上	-9.07524
厚	-9.0756
一个人	-9.07563
前辈	-9.07571
队	-9.07584
龙	-9.07586
双臂	-9.07613
点头	-9.07669
似是	-9.07669
若非	-9.07803
的人	-9.07988
持	-9.08212
接过	-9.083
陪	-9.08309
顶	-9.08412
一把	-9.08494
像	-9.08545
其实	-9.08599
食	-9.08668
▁穆念慈	-9.08696
居	-9.08799
窝阔台	-9.08856
道士	-9.08918
姓	-9.09014
窜	-9.09014
蓉二人	-9.09098
利	-9.09117
暗器	-9.09161
改	-9.09235
说得	-9.09335
后面	-9.09503
两名	-9.09643
性	-9.09997
摸	-9.10069
东西	-9.10217
不免	-9.10247
便即	-9.10285
打了	-9.10338
此刻	-9.10382
敬	-9.10383
观	-9.10494
一番	-9.10672
封	-9.10679
她的	-9.10712
完	-9.10746
咦	-9.10749
七公	-9.10752
当时	-9.10848
左臂	-9.1086
身边	-9.11035
跟你	-9.1109
围	-9.11128
狗	-9.11135
觉得	-9.11608
们	-9.11642
借	-9.1165
终究	-9.11651
摆	-9.11723
停	-9.11726
一面	-9.11768
纵身	-9.1183
张阿生	-9.1207
香	-9.121
草	-9.12126
错	-9.12163
显	-9.12168
讨	-9.12199
一根	-9.12199
静	-9.1224
图	-9.12271
年纪	-9.12281
装	-9.12284
那日	-9.12317
师弟	-9.1236
黑风双煞	-9.12362
鲜血	-9.12363
相助	-9.12365
相救	-9.12463
均	-9.12503
绝	-9.12777
走近	-9.12854
一定	-9.13018
一股	-9.13136
雕	-9.13255
丘处机道	-9.13274
运	-9.13349
凭	-9.13511
妈	-9.13517
劈	-9.13639
软	-9.13639
武	-9.13681
扫	-9.13705
的大	-9.1375
和他	-9.13774
争	-9.13877
民	-9.13881
掉	-9.13999
何况	-9.14
对付	-9.14007
欢喜	-9.14019
远远	-9.1404
奇怪	-9.14056
倘若	-9.14063
铁掌帮	-9.14115
李萍	-9.14121
实在	-9.14452
提起	-9.14561
杖	-9.14927
蒙古兵	-9.15173
架	-9.15213
这一掌	-9.15403
抛	-9.15469
我就	-9.15508
那渔人	-9.15531
试	-9.15539
(	-9.15657
)	-9.15657
聪明	-9.15665
沉吟	-9.15667
兀自	-9.15679
传授	-9.15688
顺手	-9.15723
纵然	-9.15733
在空中	-9.15927
为人	-9.15941
怎	-9.16115
忘了	-9.16167
模样	-9.16176
一名	-9.16263
来啦	-9.16279
数十	-9.16756
几个	-9.16781
神情	-9.16817
的手	-9.16818
施	-9.16847
闯	-9.16918
吹	-9.17069
体	-9.17119
手腕	-9.17148
圈	-9.17231
舞	-9.17238
音	-9.17281
冒	-9.17298
压	-9.17311
鸣	-9.17349
低头	-9.17462
长剑	-9.17544
劝	-9.17558
闪避	-9.17693
不出	-9.1771
胸	-9.17779
化	-9.1787
遍	-9.17907
妹子	-9.1793
群	-9.18165
一口	-9.18263
听她	-9.18266
了出去	-9.18373
拔出	-9.18428
堆	-9.18684
兴	-9.18705
滚	-9.18764
室	-9.18766
郭啸天	-9.18776
不懂	-9.18876
吐	-9.18883
拔	-9.1891
河	-9.18933
短	-9.19008
赏	-9.19015
抵挡	-9.19029
旧	-9.19029
奉	-9.19073
札木合	-9.19083
岳飞	-9.19087
黎生	-9.19096
洪帮主	-9.191
内力	-9.19258
心头	-9.19259
俯身	-9.19397
左右	-9.19529
”。	-9.19626
不答	-9.19676
然后	-9.19832
有个	-9.20071
不必	-9.20291
了几	-9.20426
宋	-9.20498
远处	-9.20571
瞧瞧	-9.20576
制	-9.20716
登	-9.20737
狠	-9.2078
闹	-9.20829
王妃	-9.20839
哼了一声	-9.20853
想不到	-9.20854
双足	-9.20885
尽数	-9.20937
害怕	-9.20959
回到	-9.21015
住了	-9.21041
赞	-9.21067
不要	-9.2137
并无	-9.21375
助	-9.2145
待要	-9.21531
味	-9.21564
有些	-9.21716
无不	-9.21759
丝毫	-9.21979
笔	-9.22156
察合台	-9.22336
颜烈	-9.22339
肯	-9.22389
慢	-9.22461
将来	-9.22467
必定	-9.22513
王重阳	-9.22622
也不能	-9.22654
上的	-9.22762
主人	-9.22787
当然	-9.22816
少年	-9.22841
指着	-9.22905
须得	-9.22989
遇	-9.23035
了个	-9.23124
突	-9.23171
大事	-9.23285
先前	-9.2336
背心	-9.23612
号	-9.2385
小小	-9.2407
贼	-9.24165
扶	-9.24319
向后	-9.24413
周大哥	-9.24453
那些	-9.24499
将她	-9.24546
湖	-9.24627
并	-9.24642
只不过	-9.24782
墙	-9.24945
宝	-9.25126
出了	-9.25247
走出	-9.253
决	-9.25301
我师父	-9.25302
▁杨铁心	-9.25388
不料	-9.25435
想来	-9.25755
不但	-9.25777
含	-9.2581
威	-9.25989
诗	-9.26047
隐	-9.26174
办	-9.26182
饮	-9.26243
呼吸	-9.26268
为难	-9.263
丘道长	-9.26303
傻	-9.26357
齐声	-9.26367
做了	-9.26369
一下	-9.26554
嘴	-9.2661
伤了	-9.26645
侧	-9.26657
德	-9.26977
一生	-9.27162
谢	-9.27163
向外	-9.27464
溜	-9.27526
放下	-9.27617
向郭靖	-9.27622
径	-9.27658
六位师父	-9.27693
纸	-9.27888
摇	-9.27912
隔	-9.27961
唱	-9.27973
在哪里	-9.27999
全真教	-9.28029
说甚么	-9.28094
影	-9.28096
第一	-9.28114
阴	-9.28138
冰	-9.28157
梦	-9.2818
瀑布	-9.28187
想是	-9.2819
这番	-9.28208
右臂	-9.28215
并非	-9.28225
经书	-9.28345
不论	-9.28367
已有	-9.2854
宫	-9.28634
让他	-9.28748
透	-9.28854
前来	-9.28872
也没	-9.28917
就此	-9.29121
走进	-9.29213
对他	-9.29321
你瞧	-9.2936
拳法	-9.29436
反手	-9.29568
诸	-9.2961
斜	-9.2964
给她	-9.29671
涌	-9.29693
心里	-9.29747
陆	-9.29784
庄	-9.29784
陈玄风	-9.29811
小弟	-9.29931
▁原来	-9.30039
谈	-9.30043
集	-9.30081
甲	-9.30084
词	-9.30085
双方	-9.30167
黄二人	-9.30195
数日	-9.30219
穴道	-9.30435
解开	-9.30499
弱	-9.30714
之力	-9.30852
扯	-9.30906
若不是	-9.30977
虽是	-9.31056
▁完颜洪烈	-9.31101
险	-9.31115
运劲	-9.31184
余	-9.31272
不如	-9.31287
受了	-9.31308
共	-9.3135
柄	-9.31429
看得	-9.31528
害死	-9.31541
抢上	-9.3162
穆易	-9.31746
群丐	-9.31781
格	-9.3183
之心	-9.31855
独	-9.3194
窗	-9.31942
臭	-9.31964
你要	-9.32012
圆	-9.32031
严	-9.32048
纷纷	-9.32081
药兄	-9.32085
凝神	-9.32085
听说	-9.32086
双眼	-9.32098
回答	-9.32134
只盼	-9.32152
定然	-9.32209
门口	-9.32299
爷爷	-9.32358
还不	-9.32393
并未	-9.32612
片	-9.32705
白雕	-9.32812
抬	-9.32899
教我	-9.33001
落在	-9.3309
舍	-9.33195
留下	-9.33267
钻	-9.33422
罪	-9.33424
伏	-9.33455
陷	-9.33619
了下来	-9.33677
博尔朮	-9.33777
缸	-9.33788
恩	-9.33908
挨	-9.33935
腰间	-9.33956
仙	-9.34003
调	-9.34026
吟	-9.34052
钱	-9.34057
黄岛主	-9.34069
另有	-9.34072
衣服	-9.34102
又惊又喜	-9.34169
按	-9.34223
不语	-9.34229
瞧他	-9.34229
分别	-9.34288
而出	-9.34495
缓	-9.34554
全是	-9.34582
屋	-9.34667
了一声	-9.34708
是否	-9.34737
已将	-9.34805
板	-9.34863
迟	-9.34967
在下	-9.34986
遇到	-9.35107
祸	-9.35244
那个	-9.35276
切	-9.35279
大金国	-9.35355
孩儿	-9.35447
顾	-9.35477
门外	-9.35484
不许	-9.35572
丈	-9.35633
在旁	-9.35657
故	-9.3581
自行	-9.35818
干么	-9.35838
正好	-9.35849
稳	-9.35942
碎	-9.35956
飞出	-9.3596
贵	-9.36049
鲨鱼	-9.36055
移	-9.3606
弓	-9.36073
吓得	-9.36101
病	-9.36103
大船	-9.36106
彭长老	-9.36107
只感	-9.36134
致	-9.36161
场	-9.36183
以为	-9.36245
略	-9.36356
毫不	-9.36389
纵马	-9.36427
多半	-9.36514
露出	-9.36558
声响	-9.36648
好了	-9.36955
避开	-9.36963
单	-9.37026
迎	-9.37055
却不知	-9.37288
我去	-9.37308
我不	-9.3734
垂	-9.37534
许多	-9.37565
逃走	-9.37612
识得	-9.37683
公	-9.37872
止	-9.37879
也不知	-9.37906
护	-9.3792
不信	-9.37941
修	-9.38035
而来	-9.38059
遭	-9.38105
赴	-9.38172
惹	-9.3819
回过头来	-9.3819
而且	-9.38333
抱着	-9.38396
▁众人	-9.3846
成了	-9.38511
投	-9.38521
一座	-9.38525
无数	-9.38533
无比	-9.38594
望去	-9.38647
日后	-9.38876
世上	-9.38915
与黄蓉	-9.39003
▁包惜弱	-9.3904
阳	-9.39054
又问	-9.39101
得到	-9.39109
答	-9.39116
只好	-9.39121
铁杖	-9.39221
块	-9.39226
假	-9.39248
不理	-9.39594
拂	-9.39675
洪七公笑	-9.39846
一半	-9.39873
佩服	-9.39935
一指	-9.40037
孔	-9.40087
师哥	-9.40158
那书生	-9.40163
盼	-9.40199
也就	-9.40233
撑	-9.40239
满脸	-9.40245
酸	-9.4027
一位	-9.40309
动弹不得	-9.40309
脚步	-9.40318
这件事	-9.40331
早就	-9.40355
不少	-9.40393
叫我	-9.40406
恩师	-9.40433
松	-9.40456
到处	-9.40599
四个	-9.40637
生气	-9.40896
戳	-9.40973
双目	-9.40986
王爷	-9.41
带了	-9.41085
这等	-9.41446
找到	-9.41508
人人	-9.4165
七兄	-9.41741
激	-9.41777
坐下	-9.41805
计	-9.41899
今	-9.41979
记得	-9.4199
相见	-9.42
又有	-9.42234
义兄	-9.42274
宗	-9.42326
眉	-9.42327
授	-9.42333
料想	-9.42338
虎	-9.42376
毛	-9.42462
盖	-9.42463
叹了口气	-9.42472
刘贵妃	-9.42486
打狗棒法	-9.42505
父王	-9.42506
接口	-9.42609
跃出	-9.42688
客店	-9.42711
夫	-9.42726
坏	-9.42785
叫做	-9.42853
来势	-9.43019
说起	-9.43111
小子	-9.43224
的声音	-9.43225
经文	-9.43336
身前	-9.43364
尚有	-9.43642
负	-9.43669
一场	-9.43673
一言	-9.43701
半点	-9.43722
终	-9.4375
很是	-9.43759
割	-9.43801
人物	-9.43844
座	-9.43851
教你	-9.44116
心知	-9.44136
各自	-9.44177
疼痛	-9.44368
钩	-9.44425
防	-9.44493
怎会	-9.44514
六人	-9.44521
跑	-9.44527
索	-9.44584
巨	-9.44648
都已	-9.44658
迫	-9.4468
师叔	-9.44685
寻常	-9.44693
时分	-9.44696
挑	-9.44701
泥	-9.44708
察看	-9.4478
过不多时	-9.4479
牵	-9.44908
毒蛇	-9.44917
还要	-9.4493
心意	-9.45232
真的	-9.45292
汉	-9.45491
生怕	-9.45519
大漠	-9.4566
到后来	-9.45759
堂	-9.45863
亮	-9.45885
到底	-9.45925
一拳	-9.45926
▁陆冠英	-9.46039
尖	-9.4608
仰	-9.46232
忘	-9.46281
看时	-9.46368
尊	-9.46385
替	-9.46436
村	-9.46533
确	-9.46562
振	-9.46627
说过	-9.46644
▁只听	-9.46688
广	-9.46706
聚	-9.4687
混	-9.46882
度	-9.46954
宽	-9.46965
而已	-9.46972
耗	-9.46979
裂	-9.46981
载	-9.46984
谅	-9.46988
朗声	-9.47011
变化	-9.47018
绕	-9.47049
叫声	-9.47061
必有	-9.47161
接连	-9.47196
明知	-9.47197
江	-9.47205
相斗	-9.47266
后心	-9.47366
大师	-9.47376
一句	-9.47478
手法	-9.47643
先生	-9.47764
全然	-9.47832
你不	-9.47855
捏	-9.47857
躲在	-9.47898
不易	-9.4807
怀里	-9.48264
但他	-9.48284
你还	-9.48497
这孩子	-9.48502
赶到	-9.4855
良久	-9.48569
料	-9.48576
很好	-9.48638
说到这里	-9.48664
七人	-9.48751
竹	-9.48765
江湖	-9.48808
待得	-9.48847
古	-9.48942
了一会	-9.4899
和我	-9.49061
柔	-9.49118
欢	-9.49136
风声	-9.49147
缠	-9.49213
输	-9.49215
任	-9.49216
眼下	-9.49239
帆	-9.49246
针	-9.49257
系	-9.49257
搜	-9.4928
歇	-9.49287
辨	-9.49293
店小二	-9.49296
蒙	-9.49296
顿	-9.493
赌	-9.49309
这句话	-9.49316
在一旁	-9.49327
固然	-9.49336
短剑	-9.49347
饮酒	-9.49356
片刻之间	-9.49378
幸好	-9.49444
性子	-9.49447
全力	-9.49499
林	-9.49556
折断	-9.49601
之物	-9.49673
朋友	-9.498
高兴	-9.49814
费	-9.49936
中间	-9.49952
好啊	-9.49962
弹	-9.5025
只见她	-9.50333
要想	-9.50362
当真是	-9.50476
决不	-9.50498
跃上	-9.5069
不知道	-9.50731
上一	-9.50759
松树	-9.50768
拿了	-9.50904
欺	-9.50968
不对	-9.51055
鼻	-9.51279
有何	-9.51334
练功	-9.51364
厅	-9.51378
陆乘风	-9.5141
保	-9.5147
的性命	-9.51514
站起	-9.51619
亏	-9.51626
尾	-9.5165
俱	-9.51668
残	-9.5167
非同小可	-9.51674
皆	-9.51693
邀	-9.51701
巨岩	-9.51704
豹子	-9.51726
目光	-9.5176
运气	-9.51788
暗暗	-9.51838
还没	-9.51877
大师父	-9.52166
行事	-9.52188
晚	-9.52302
奔去	-9.52409
这么一	-9.52536
颇为	-9.5256
去找	-9.52647
郭靖与黄蓉	-9.52747
全无	-9.5275
易	-9.52752
▁王处一	-9.52771
抽	-9.52787
大石	-9.52806
骗	-9.52915
卷	-9.5292
不同	-9.52951
的名字	-9.53011
招数	-9.53064
站	-9.53224
岁	-9.53232
不管	-9.53246
颇	-9.53311
他说	-9.53489
身法	-9.53493
?’	-9.53608
峰	-9.53644
周	-9.5369
抬头	-9.53704
塞	-9.53716
说到	-9.53734
一顿	-9.53804
羊	-9.53806
消	-9.53812
讲	-9.53922
银	-9.53933
这许多	-9.54017
现	-9.54028
江南	-9.5405
悲	-9.54054
闲	-9.54055
娶	-9.54056
牢牢	-9.54063
星	-9.54082
示	-9.5409
卧	-9.5411
注	-9.54112
浅	-9.54122
坑	-9.54131
剧痛	-9.54143
诸般	-9.54145
州	-9.54151
休息	-9.54159
拍的一声	-9.54172
双腿	-9.54175
面目	-9.54184
过了一会	-9.54216
左足	-9.54257
了两	-9.54364
入了	-9.54479
坐着	-9.54481
铁枪	-9.54552
离开	-9.54575
饶	-9.54604
是在	-9.54623
除	-9.54657
法子	-9.54746
推开	-9.54796
一日	-9.54888
认	-9.54933
果	-9.5499
郭靖心想	-9.55063
得意	-9.55114
起了	-9.55126
仇	-9.55676
倒是	-9.55802
印	-9.55836
台	-9.56002
互	-9.56012
落下	-9.56027
教他	-9.56066
家伙	-9.56155
在她	-9.56204
汗	-9.56242
说是	-9.56266
这话	-9.56337
江湖上	-9.56412
碰	-9.56437
那农夫	-9.56438
何必	-9.56442
满了	-9.56475
志	-9.56564
滑	-9.56596
脏	-9.56602
考	-9.56604
”、“	-9.56624
车	-9.56624
搬	-9.56635
试试	-9.56639
钢杖	-9.56647
杨二人	-9.56665
娘子	-9.56668
磕头	-9.5667
追赶	-9.56687
免	-9.56698
是甚么	-9.56788
初时	-9.56812
岛上	-9.56849
灭	-9.56923
一手	-9.57047
的本事	-9.57068
你就	-9.57119
互相	-9.5719
▁只见	-9.57209
之内	-9.57316
己	-9.57317
主意	-9.57324
向左	-9.57324
伤心	-9.57329
之法	-9.57342
那女子	-9.57436
原是	-9.57657
显是	-9.57697
▁彭连虎	-9.57815
临	-9.57838
十年	-9.57903
密	-9.57947
回身	-9.57965
好罢	-9.58034
腿上	-9.58083
中原	-9.58288
府	-9.58296
杯	-9.58572
红马	-9.58802
晕	-9.58821
论	-9.58827
怨	-9.58885
惨	-9.59014
是你	-9.59051
联	-9.59086
撒	-9.59107
损	-9.59108
简	-9.59146
雄	-9.59161
房	-9.59175
汤	-9.59179
了半晌	-9.59182
姊姊	-9.59196
他老人家	-9.59198
衣襟	-9.59198
吓了一跳	-9.59201
突觉	-9.59212
颤声	-9.59213
斗然间	-9.5923
和尚	-9.59235
担心	-9.59254
之术	-9.5929
那少女	-9.59291
亲兵	-9.59321
发觉	-9.59351
定了	-9.5936
大有	-9.59369
这几句话	-9.59392
斗然	-9.59413
有时	-9.59517
总算	-9.59545
第	-9.59561
已知	-9.59586
我师	-9.59618
我想	-9.59668
原本	-9.5971
但觉	-9.59779
北方	-9.5981
下手	-9.59812
这两个	-9.5983
一头	-9.59952
来了	-9.59956
定要	-9.59994
所以	-9.60268
交给	-9.60345
是要	-9.60382
打架	-9.60667
叫作	-9.6083
输了	-9.60897
颈	-9.60969
极为	-9.6098
下了	-9.60991
梁	-9.60991
再来	-9.61024
被她	-9.61047
不在	-9.6114
要我	-9.61164
胡涂	-9.61171
心神	-9.61211
兄	-9.61388
我说	-9.61415
越来越	-9.61471
一对	-9.61515
临安	-9.61612
凶	-9.61613
属	-9.61664
君	-9.61675
福	-9.61746
闷	-9.61759
情势	-9.61786
险些	-9.61798
蛤蟆功	-9.61816
奋力	-9.6183
握	-9.61835
忍不住	-9.61862
到来	-9.61895
上下	-9.61903
好人	-9.61942
不足	-9.62132
壁	-9.62168
二师父	-9.62251
小心	-9.62263
一看	-9.62296
脚下	-9.623
许	-9.62321
叫你	-9.62328
你再	-9.62329
正待	-9.62359
之势	-9.62371
拔都	-9.62505
的弟子	-9.62603
又见	-9.63094
要待	-9.63107
不怕	-9.63242
正想	-9.63345
件	-9.63386
▁黄蓉笑	-9.63489
幸	-9.63564
小姑娘	-9.63619
一眼	-9.63714
右足	-9.63717
小丫头	-9.63897
丝	-9.63918
在桃花岛上	-9.63951
驰	-9.64039
创	-9.64064
下马	-9.64067
也好	-9.64132
就在	-9.64169
袖	-9.64239
昏	-9.64276
境	-9.64287
杨	-9.64336
整	-9.64377
杀死	-9.6438
哥哥	-9.64382
悟	-9.64385
增	-9.6445
待我	-9.64459
迷	-9.64473
腾	-9.64493
又想	-9.64493
凉	-9.64494
秘	-9.64496
荡	-9.64503
相距	-9.64507
勇	-9.64508
油	-9.64508
配	-9.64518
醉	-9.64523
程大小姐	-9.64527
抬起头来	-9.64533
耕	-9.64535
忌惮	-9.64535
尽皆	-9.64568
靠	-9.64594
认输	-9.64603
精神	-9.64624
赐	-9.64642
样	-9.64642
凌厉	-9.64698
然而	-9.64815
素来	-9.6485
随手	-9.64861
重重	-9.64904
桌	-9.64972
欧阳克笑	-9.65019
既然	-9.65048
之色	-9.6507
一柄	-9.65151
墓	-9.65258
人影	-9.65274
连连	-9.65372
极是	-9.65403
刻	-9.65439
一箭	-9.65473
地方	-9.65626
妈妈	-9.65792
本已	-9.65839
拆	-9.65896
厉声	-9.65906
▁此时	-9.65924
挡在	-9.65965
别说	-9.66029
永远	-9.6603
▁瑛姑	-9.66118
的所在	-9.66183
你去	-9.663
你别	-9.66379
之地	-9.66412
理会	-9.66475
张口	-9.665
走去	-9.6656
不久	-9.66718
种	-9.66721
进去	-9.66734
看了	-9.66735
一切	-9.66743
大宋	-9.66756
手下	-9.66767
此处	-9.66809
少女	-9.66814
徒儿	-9.66872
西域	-9.66878
你怎么	-9.66895
悬崖	-9.66899
题	-9.66945
已在	-9.66961
顺	-9.66965
好生	-9.66966
忧	-9.67162
鼓	-9.67257
良	-9.67287
绿	-9.67303
吞	-9.67306
迟疑	-9.67311
昨晚	-9.67314
今晚	-9.67327
乘机	-9.67331
心中一凛	-9.67341
轻功	-9.67344
怪异	-9.67382
岩石	-9.67397
七八	-9.67397
门下	-9.67407
找寻	-9.67471
何等	-9.67481
去罢	-9.67483
皇宫	-9.6751
爪	-9.67766
出言	-9.67832
毕竟	-9.67908
士	-9.68011
妙极	-9.68056
心中一	-9.68061
错了	-9.68079
中国	-9.68155
走向	-9.6828
牛家村	-9.68324
不明	-9.68331
嫁	-9.68413
对手	-9.68435
瞧出	-9.6878
抖	-9.68781
▁梁子翁	-9.68841
大为	-9.68973
晃	-9.69097
你师父	-9.69112
自己的	-9.69136
不断	-9.69185
名叫	-9.6922
但若	-9.69425
肩	-9.69508
帮众	-9.69514
抱住	-9.69603
拚	-9.69608
之情	-9.69624
渔	-9.69627
软猬甲	-9.69641
的了	-9.69703
拿起	-9.69711
不来	-9.69712
父	-9.69789
译	-9.69829
楼	-9.69874
隐隐	-9.69898
矮	-9.69935
祖师爷	-9.70075
坚	-9.70089
桅杆	-9.7011
华	-9.70111
掩	-9.70127
烂	-9.70129
减	-9.70134
备	-9.70135
承	-9.70144
而死	-9.70146
彭	-9.7015
心念一动	-9.70167
现今	-9.70173
大踏步	-9.70188
晃动	-9.70229
黄姑娘	-9.7025
插入	-9.70264
喝酒	-9.70304
合力	-9.7032
腰里	-9.70333
向东	-9.70465
听着	-9.70533
不说	-9.70544
将下来	-9.70692
赶来	-9.70809
不愿	-9.70847
怀中	-9.70882
拉住	-9.71003
头发	-9.71007
前后	-9.71045
里面	-9.71065
崖	-9.71268
要紧	-9.7131
不去	-9.71326
只因	-9.71385
本就	-9.71642
说的	-9.71675
待他	-9.71781
翻身	-9.71801
行走	-9.71891
船上	-9.71935
未曾	-9.71965
那可	-9.72062
素	-9.72114
呆	-9.72124
席	-9.72158
一家	-9.72231
快去	-9.72254
有了	-9.72295
经过	-9.72367
擒	-9.72475
是他	-9.72517
胡	-9.72573
杀人	-9.72602
灯	-9.72678
囊	-9.72685
迎面	-9.72773
息	-9.7285
若不	-9.72865
参	-9.72897
手足	-9.72924
吓	-9.72964
戴	-9.73013
习	-9.73014
元	-9.73019
也必	-9.73022
寸	-9.73041
春	-9.73042
具	-9.73063
一些	-9.73065
斩	-9.73084
寂	-9.73094
拖	-9.73096
叉	-9.73098
欺侮	-9.731
九阴白骨爪	-9.73105
达	-9.73106
九指神丐	-9.73106
东邪	-9.73107
愈来愈	-9.73108
铺	-9.73111
修习	-9.73113
谭处端	-9.73113
思索	-9.73123
恼怒	-9.73141
横扫	-9.73152
兵器	-9.73177
本领	-9.73179
向上	-9.73191
另外	-9.73216
生性	-9.73247
落地	-9.73304
开了	-9.734
出现	-9.73427
心思	-9.73449
军士	-9.73506
怎生	-9.73553
拉着	-9.73559
女人	-9.73564
跪下	-9.73564
酒楼	-9.73649
枝	-9.737
知她	-9.73818
要害	-9.73878
而行	-9.73967
给人	-9.7408
遗	-9.74093
较	-9.74111
未必	-9.7424
绳索	-9.74255
吸	-9.74328
的小	-9.74351
请教	-9.74566
一次	-9.74691
喊	-9.74754
快说	-9.74787
尽是	-9.74874
段	-9.74931
十余	-9.7498
男子	-9.75075
偏	-9.75085
二十	-9.75185
份	-9.75315
城中	-9.75345
转过	-9.75493
一会	-9.7565
我可	-9.75817
从未	-9.75903
量	-9.75919
些甚么	-9.7595
狂	-9.75954
母	-9.75986
店	-9.75989
扇	-9.76003
诸将	-9.76019
脉	-9.76043
樵	-9.76062
责	-9.7607
劳	-9.76123
羞	-9.76126
湿	-9.76127
嫌	-9.76127
选	-9.76128
蛮	-9.76131
降	-9.76132
雅	-9.76134
抵御	-9.76134
躬身	-9.76135
淋	-9.76137
伯伯	-9.76138
不由自主的	-9.76139
叔叔	-9.76139
烟雨楼	-9.76139
亢龙有悔	-9.76139
简管家	-9.76141
困	-9.76142
宋朝	-9.76143
执	-9.76225
数步	-9.76244
忽觉	-9.76248
苦练	-9.76271
观看	-9.76274
使出	-9.76285
站着	-9.76286
蛇杖	-9.76295
五人	-9.76376
这事	-9.7639
的东西	-9.76459
要他	-9.76463
这种	-9.76481
!’	-9.76521
不妙	-9.76593
随着	-9.76631
自知	-9.76634
顶上	-9.7665
而至	-9.76655
套	-9.76734
得罪了	-9.76788
呀	-9.76883
珠	-9.76894
举手	-9.76916
一见	-9.76945
有如	-9.76975
圈子	-9.7698
飘	-9.77029
才知	-9.77242
一一	-9.77284
▁韩小莹	-9.77364
累	-9.77378
尺	-9.7764
转头	-9.7765
放心	-9.7767
高人	-9.77789
感到	-9.77821
几句	-9.77924
杆	-9.77959
了下去	-9.78058
可不是	-9.78059
甩	-9.78097
向黄蓉	-9.7827
忍	-9.78277
不着	-9.78309
你快	-9.78344
推出	-9.78491
大将	-9.78563
脑	-9.78637
历	-9.78859
凝	-9.78922
雨	-9.78932
只待	-9.78934
已把	-9.78969
策	-9.79096
特	-9.79139
镇	-9.79169
上马	-9.79181
豪	-9.79207
原来他	-9.79216
拨	-9.7922
辞	-9.7922
誓	-9.79228
擦	-9.79249
其余	-9.79257
比武招亲	-9.79259
撤	-9.79262
挤	-9.79263
建	-9.79266
侠义	-9.79273
西征	-9.79287
五指	-9.79325
落入	-9.79329
取胜	-9.79332
仗着	-9.79365
跃开	-9.79392
好汉	-9.79401
扶起	-9.79431
脱身	-9.79438
七子	-9.79529
停步	-9.79551
对我	-9.79625
不死	-9.79682
第三	-9.79734
得住	-9.79791
已自	-9.79968
更不	-9.79973
待会	-9.79976
仍然	-9.80034
邪	-9.80039
的儿子	-9.80055
郭靖大喜	-9.80265
就如	-9.80289
几步	-9.80398
识	-9.80458
转头向	-9.80511
伤人	-9.80815
打在	-9.80922
我来	-9.80946
另一个	-9.80971
使者	-9.81112
奔出	-9.81312
海中	-9.81352
正中	-9.81435
还能	-9.81557
下山	-9.81656
大笑	-9.81663
汉子	-9.81757
忙问	-9.81763
遇上	-9.81923
得知	-9.81956
华山	-9.8197
又已	-9.81979
你也	-9.81992
容易	-9.82032
舱	-9.82148
出门	-9.82218
扭	-9.82228
醒	-9.82247
何以	-9.82304
泪	-9.82328
傻小子	-9.82343
揭	-9.82372
也有	-9.82376
倏	-9.82384
祖	-9.82395
不知如何	-9.82413
误	-9.82419
率	-9.8242
上山	-9.82433
俗	-9.82458
卖	-9.82471
弃	-9.82473
驼	-9.82479
淡	-9.8248
驶	-9.82481
拣	-9.82486
夫妻	-9.82491
南帝	-9.82491
占	-9.82496
什么	-9.82497
衣衫	-9.82502
奔跑	-9.82527
曰	-9.82578
将士	-9.82627
逝世	-9.82634
追兵	-9.82643
竟会	-9.82782
我这	-9.82783
明明是	-9.82803
始终不	-9.8283
明儿	-9.82879
▁穆易	-9.82955
一身	-9.8302
黄金	-9.83041
▁郭靖见	-9.83053
竟也	-9.83083
至于	-9.83113
伏在	-9.83213
两字	-9.83279
喝了	-9.8329
感激	-9.83294
向西	-9.83326
搭	-9.83332
又有甚么	-9.83335
说来	-9.8334
在这儿	-9.83414
林中	-9.83432
过招	-9.83432
知晓	-9.83469
武林中	-9.83556
入内	-9.83565
眼光	-9.83577
欲待	-9.8364
大军	-9.83804
挥出	-9.83886
山峰	-9.83921
了片刻	-9.83958
叫化	-9.84062
每一	-9.84169
坐在地下	-9.84173
将军	-9.8421
当世	-9.84269
一天	-9.84286
底下	-9.84446
买	-9.84546
生平	-9.84636
四周	-9.84677
犹	-9.84775
一刀	-9.84857
不知他	-9.84953
马上	-9.85052
我师哥	-9.8517
高声叫	-9.85206
说他	-9.85212
两条	-9.85229
笑声	-9.85337
▁郭靖心想	-9.85338
夹	-9.85344
和郭靖	-9.85354
乃	-9.85429
抵	-9.85455
完颜洪熙	-9.85537
舌	-9.85543
练成	-9.85566
存	-9.85569
麻	-9.85604
环	-9.85702
杂	-9.8576
矛	-9.85763
斯	-9.85792
夫妇	-9.85797
忠	-9.85798
商	-9.8581
贪	-9.8581
尿	-9.85817
屈	-9.85819
笨	-9.85819
大伙儿	-9.8582
裘千丈	-9.85822
洗	-9.85825
酸麻	-9.85826
晕了过去	-9.85827
美貌	-9.85828
询问	-9.8583
二十年	-9.85841
父母	-9.85842
施展	-9.85853
七怪	-9.8589
细细	-9.85913
动静	-9.85928
侧身	-9.85952
顺着	-9.85955
一碗	-9.86018
外面	-9.86117
一枝	-9.86122
重伤	-9.86186
两步	-9.8621
好玩	-9.86263
▁那书生	-9.86275
所在	-9.86275
力道	-9.86298
认得	-9.8631
着实	-9.86419
此后	-9.86613
生死	-9.86657
▁陆庄主	-9.86709
断了	-9.86717
一口气	-9.86892
了一个	-9.86899
丝毫不	-9.86934
一拍	-9.87055
到这里	-9.87116
可要	-9.87159
抢到	-9.87181
再无	-9.87186
也不是	-9.87243
再行	-9.87244
好不好	-9.87545
眼中	-9.87567
可就	-9.87685
一望	-9.87734
但见他	-9.87779
上岸	-9.87885
就会	-9.87925
道理	-9.8806
叔父	-9.88086
三天	-9.88089
花剌子模	-9.88128
拿着	-9.88221
急奔	-9.88314
撕	-9.88326
赢	-9.88507
犯	-9.88596
便要	-9.88626
武林	-9.88684
明明	-9.8884
营	-9.88898
术	-9.88943
向北	-9.88966
族	-9.89007
歌	-9.89031
统	-9.89066
潜	-9.89122
尸	-9.89174
权	-9.89179
桨	-9.89201
告	-9.89215
据	-9.89232
脾气	-9.89244
务	-9.89252
丽	-9.89259
浪	-9.89265
赤	-9.89267
笑吟吟的	-9.89269
私	-9.89271
轻身功夫	-9.89272
削	-9.89272
迅捷	-9.89275
王府	-9.89296
哪敢	-9.89301
银子	-9.89302
招术	-9.89306
坐骑	-9.89329
一团	-9.89345
张望	-9.89351
仰天	-9.8938
四下里	-9.89488
明日	-9.89504
哪能	-9.89512
依言	-9.89547
天罡北斗阵	-9.89559
称为	-9.89599
也都	-9.89632
掌风	-9.89635
南下	-9.89672
才是	-9.89737
岂不是	-9.89743
其时	-9.89823
换了	-9.89879
竟自	-9.89889
多少	-9.89971
暗中	-9.89977
只可惜	-9.90015
牙齿	-9.90095
只是他	-9.90175
得出	-9.90181
神态	-9.90187
敌军	-9.90246
呼叫	-9.90252
空中	-9.90265
一样	-9.90277
决不能	-9.9039
闭	-9.90463
想要	-9.90468
追来	-9.90468
饶了	-9.90559
与黄药师	-9.90685
使力	-9.90735
暗叫	-9.90794
那也	-9.90833
三招	-9.90861
你先	-9.90882
杀他	-9.90984
愿	-9.9111
瞎	-9.91183
下面	-9.91356
▁一灯	-9.91374
让我	-9.91379
坏了	-9.91421
失了	-9.91434
放了	-9.91563
规矩	-9.91617
▁黄蓉见	-9.9162
曾听	-9.91642
十多	-9.91659
飞身	-9.91711
而上	-9.91776
当下将	-9.91863
了他的	-9.91926
打开	-9.92001
仗	-9.92062
定神	-9.92103
亭	-9.92295
颇有	-9.92325
扳	-9.92339
也不会	-9.92382
回家	-9.92404
溪	-9.92441
点点头	-9.92478
便已	-9.9248
抹	-9.92522
焦木	-9.92546
掠	-9.92573
肚	-9.92722
景	-9.92727
鞋	-9.92738
洪	-9.92742
续	-9.92755
学武	-9.9276
毙	-9.92785
妖	-9.92807
丘	-9.92812
悬	-9.92812
秀	-9.92814
罗	-9.92814
克	-9.92815
肿	-9.92819
叶	-9.9282
欧阳	-9.9282
娇	-9.92822
赠	-9.92826
疏	-9.92836
佳	-9.92836
甫	-9.92839
诚	-9.92839
泼	-9.9284
咳	-9.92841
愕然	-9.92842
武穆遗书	-9.92844
健	-9.92844
斥	-9.92845
欧阳先生	-9.9285
金娃娃	-9.92854
号令	-9.92855
着地	-9.92861
黑暗中	-9.92867
数尺	-9.92882
精妙	-9.92885
招架	-9.92886
故意	-9.92896
单刀	-9.92897
自幼	-9.92905
浑	-9.92913
胸前	-9.92963
之旁	-9.93005
均想	-9.93018
必然	-9.93039
言道	-9.93044
站定	-9.93068
那少年	-9.93092
相信	-9.93115
无礼	-9.93119
汉人	-9.93154
窜出	-9.93161
死在	-9.93217
知觉	-9.93217
连叫	-9.93268
所传	-9.93307
铁掌	-9.93308
不绝	-9.93412
也未必	-9.93476
颈中	-9.93562
直到	-9.93622
也只	-9.9367
之言	-9.93682
郭靖见	-9.93694
好啦	-9.937
被人	-9.93748
在郭靖	-9.93821
骑马	-9.93822
在半空	-9.93859
退开	-9.93931
递给	-9.94014
▁马钰	-9.94079
如飞	-9.94243
之命	-9.94261
飞舞	-9.946
递	-9.94642
疑	-9.94645
一呆	-9.94699
拿去	-9.94721
高声	-9.94749
▁只听得	-9.94752
道家	-9.94753
最是	-9.94786
时候	-9.94809
一件事	-9.94827
我瞧	-9.94864
小孩	-9.94971
格格	-9.95259
雕儿	-9.95336
的模样	-9.95441
救了	-9.95506
十八	-9.95669
身穿	-9.95714
岛	-9.95727
也要	-9.9578
从此	-9.95885
你把	-9.95892
使劲	-9.95893
查	-9.95898
造	-9.95908
了几下	-9.95947
有一个	-9.95956
候	-9.95968
逼得	-9.95991
甚么事	-9.96012
捧	-9.96026
我先	-9.96026
连声	-9.96048
说罢	-9.96058
舟	-9.96142
钉	-9.96159
皇	-9.9616
几次	-9.96161
穷	-9.96228
征	-9.96228
竖	-9.96278
望了一眼	-9.96357
丧	-9.9637
倾	-9.96387
殊	-9.96392
尘	-9.96408
般的	-9.96431
提防	-9.96457
凑	-9.96458
决计	-9.9646
宿	-9.96476
酒菜	-9.96477
烈	-9.96504
魂	-9.96511
要去	-9.96522
薄	-9.96522
疼	-9.96522
篇	-9.96528
吵	-9.96532
补	-9.96533
牌	-9.96539
政	-9.96541
召	-9.96541
孙不二	-9.96541
狠辣	-9.96543
】	-9.96547
浓	-9.96548
木华黎	-9.96548
呆呆出神	-9.96549
耳朵	-9.9655
谈论	-9.96565
这就	-9.96573
犹似	-9.96573
弯腰	-9.96581
解药	-9.96591
小艇	-9.96595
假装	-9.96604
泪水	-9.96613
率领	-9.96617
变色	-9.96643
治伤	-9.96651
莫非	-9.96657
瞧得	-9.96713
年轻	-9.9673
灵动	-9.96733
一匹	-9.96754
扶着	-9.96786
威力	-9.9681
猛地	-9.96841
舌头	-9.96855
破了	-9.96888
打到	-9.9689
可别	-9.96903
成亲	-9.9691
抢着	-9.96933
心中大喜	-9.96998
一颗	-9.97015
有一	-9.97037
料知	-9.97078
彭连虎等	-9.97079
渔人	-9.97185
双脚	-9.97186
老子	-9.97218
欧阳锋的	-9.97227
疑心	-9.97235
嘉兴	-9.97257
果真	-9.97337
不顾	-9.97369
掷去	-9.97503
行礼	-9.97505
金人	-9.97532
要杀	-9.97561
不小	-9.97727
▁程瑶迦	-9.97757
从前	-9.97768
大声叫	-9.97816
浸	-9.97854
遇上了	-9.97865
抱起	-9.97975
几天	-9.97987
在自己	-9.98025
何处	-9.9803
算是	-9.98113
的地方	-9.98156
没了	-9.98237
不该	-9.98278
仇人	-9.98348
说完	-9.98415
房中	-9.98475
早知	-9.9848
句	-9.98506
列	-9.98575
欧阳锋笑	-9.98584
相识	-9.9873
▁韩宝驹	-9.98732
金帐	-9.98752
匹	-9.98763
害死了	-9.98764
数招	-9.98964
衫	-9.99048
品	-9.99126
数声	-9.99183
轻声	-9.99306
四字	-9.99342
吃饭	-9.99441
违	-9.9949
猛力	-9.99513
救人	-9.9954
飞起	-9.99541
她们	-9.99621
排	-9.99648
迹	-9.99742
父女	-9.99765
展开	-9.99771
扣	-9.99827
速	-9.99907
床	-9.99932
大会	-9.99951
腹	-10.0001
不明白	-10.0002
也真	-10.0004
极大	-10.0008
如何能	-10.001
发掌	-10.0012
恼	-10.0012
缝	-10.0013
米	-10.0021
阵法	-10.0021
三下	-10.0021
军中	-10.0023
堕	-10.0024
请你	-10.0024
挣扎	-10.0026
户	-10.0026
波	-10.0027
埋	-10.0029
俩	-10.0031
缚	-10.0032
上面	-10.0033
旗	-10.0035
冤	-10.0035
积	-10.0037
瘦	-10.0038
乖	-10.0039
破绽	-10.0039
王真人	-10.0039
限	-10.0039
胡说八道	-10.0039
嘿嘿	-10.0039
北丐	-10.004
凛然	-10.004
黄河四鬼	-10.004
欧阳伯伯	-10.004
消息	-10.004
折扇	-10.0042
肚子	-10.0042
奔驰	-10.0042
眼泪	-10.0043
中有	-10.0044
万万	-10.0045
长矛	-10.0046
乘势	-10.0046
柔声	-10.0046
腰带	-10.0048
这番话	-10.005
该当	-10.0051
便道	-10.0051
揭开	-10.0053
高举	-10.0061
马道长	-10.0062
跟随	-10.0063
生了	-10.0064
额头	-10.0066
还在	-10.0066
毒手	-10.0066
救命	-10.0072
之功	-10.0082
倒退	-10.0092
这套	-10.0092
打不过	-10.0093
答话	-10.0101
官人	-10.0106
华山论剑	-10.0106
快走	-10.0109
▁郭靖与黄蓉	-10.0113
家里	-10.0113
带着	-10.012
故事	-10.0131
作为	-10.015
共有	-10.0152
把这	-10.0152
几下	-10.0155
大金	-10.0159
分开	-10.0172
向她	-10.0175
出神	-10.0185
畔	-10.0189
这一来	-10.0191
▁拖雷	-10.0193
或是	-10.0214
半截	-10.0224
五个	-10.0238
蒙古军	-10.0238
力气	-10.024
让你	-10.0245
不解	-10.0246
不识	-10.0251
不让	-10.0256
一交	-10.0258
向着	-10.0262
名字	-10.0264
触	-10.0267
不下	-10.0275
越是	-10.0285
胆	-10.0288
也不用	-10.0291
不起	-10.0297
黄药师的	-10.0298
开口	-10.0327
是好	-10.0332
死后	-10.0333
我和	-10.034
友	-10.0342
我在	-10.0359
本是	-10.0361
暗自	-10.0367
紧紧	-10.0367
缺	-10.0376
既是	-10.0387
知道了	-10.0389
将郭靖	-10.0392
一动	-10.0404
奸	-10.0405
拿住	-10.0406
支	-10.0407
拾起	-10.0411
携	-10.0414
技	-10.0415
期	-10.0418
悔	-10.0423
专	-10.0426
捕	-10.0429
局	-10.0432
颜	-10.0434
式	-10.0435
净	-10.0436
壮	-10.0436
自然是	-10.0437
不多时	-10.0438
桥	-10.0438
丢	-10.0439
锅	-10.0439
嘱	-10.0439
表	-10.0439
挟	-10.0439
拦阻	-10.0439
木筏	-10.044
暗暗心惊	-10.044
浮	-10.044
瓦	-10.044
女婿	-10.044
义弟	-10.044
投降	-10.0441
且慢	-10.0442
脚步声响	-10.0442
念头	-10.0444
食指	-10.0446
可怜	-10.0446
王道长	-10.0446
拚命	-10.045
招呼	-10.045
就可	-10.0452
沉重	-10.0452
相遇	-10.0452
飞步	-10.0456
万分	-10.0458
瞧见	-10.0459
这傻小子	-10.046
既已	-10.0461
见到了	-10.0464
只听他	-10.0464
相交	-10.0468
砰的一声	-10.047
骗人	-10.0473
小贼	-10.0476
多谢	-10.0482
累得	-10.0485
创口	-10.0493
部下	-10.0493
不敢再	-10.0493
走罢	-10.05
在手	-10.0503
一百	-10.0513
听见	-10.0519
十招	-10.0527
一挥	-10.0529
的法门	-10.0537
那位	-10.0537
而起	-10.0543
无力	-10.0545
依着	-10.0549
势必	-10.0551
天地	-10.0556
海面	-10.056
第四	-10.0561
两年	-10.0564
当作	-10.0575
夫人	-10.0593
这两人	-10.0594
派人	-10.0605
外人	-10.0606
后颈	-10.0615
桃花岛上	-10.062
传给	-10.0632
胜过	-10.0646
这可	-10.0648
不等	-10.065
又不	-10.0655
郭靖却	-10.066
手脚	-10.0663
衣袖	-10.0668
伤口	-10.0676
了一顿	-10.0679
了过去	-10.0689
写的	-10.0698
事情	-10.0699
郭靖忙	-10.071
握着	-10.0723
令人	-10.0725
丐帮中	-10.0732
是了	-10.0743
在地	-10.0743
这招	-10.0769
命他	-10.077
疯	-10.0774
一年	-10.0778
焦急	-10.079
那么你	-10.0791
奸贼	-10.0792
旁边	-10.0794
辈	-10.0809
答允	-10.081
禁	-10.0813
俯	-10.0813
一句话	-10.0821
棒法	-10.0823
惊叫	-10.0824
老前辈	-10.0825
庙	-10.0834
烟	-10.0837
握住	-10.0838
就不	-10.0839
她身子	-10.0839
宁	-10.084
拥	-10.0841
状	-10.0843
决意	-10.0845
访	-10.0845
打狗棒	-10.0847
患	-10.0847
升	-10.0848
英	-10.085
乎	-10.085
侠	-10.085
朗	-10.0851
膝	-10.0853
一阳指	-10.0853
英雄好汉	-10.0855
呸	-10.0855
滴	-10.0856
赤老温	-10.0856
锋兄	-10.0856
诡计	-10.0856
跃起身来	-10.0856
富贵	-10.0856
笑嘻嘻的	-10.0857
刘处玄	-10.0857
忍耐不住	-10.0857
工	-10.0857
惊惶	-10.0857
挽	-10.0857
良机	-10.0857
身受重伤	-10.0858
老弟	-10.0859
神智	-10.0859
矣	-10.086
数次	-10.0863
绝技	-10.0864
移动	-10.0868
轻易	-10.0869
帐外	-10.087
桃花岛主	-10.0874
内劲	-10.0877
变招	-10.0879
山东	-10.088
独自	-10.088
剑法	-10.0881
暗想	-10.0885
之余	-10.0886
两只	-10.0893
杖头	-10.0893
送给	-10.0897
猛向	-10.0898
乃是	-10.09
说不定	-10.09
崖顶	-10.0901
写着	-10.0906
腕	-10.0907
只剩下	-10.0909
竟能	-10.0912
谁也	-10.0919
晚上	-10.092
在后	-10.0929
得多	-10.0929
进了	-10.093
中都	-10.093
方向	-10.0954
不忍	-10.0955
归云庄	-10.0955
中毒	-10.0957
果见	-10.0961
纵跃	-10.0968
和她	-10.0969
飞奔	-10.0971
甚是得意	-10.0974
这些人	-10.0977
你想	-10.0981
岂不	-10.0983
一双	-10.0986
先后	-10.0993
你来	-10.1003
见黄蓉	-10.1009
哪知他	-10.102
阻	-10.1025
颗	-10.1028
但想	-10.1034
丐帮的	-10.1046
一听	-10.1052
与人	-10.1053
心事	-10.1054
竟不	-10.106
挥手	-10.1063
愈是	-10.1064
瞧去	-10.1067
那是甚么	-10.107
住手	-10.1077
了吗	-10.108
到此处	-10.108
伤势	-10.1083
好处	-10.1084
不算	-10.1096
洞中	-10.1098
一部	-10.1098
紧急	-10.1102
定会	-10.1106
练了	-10.1106
对头	-10.1107
只想	-10.1108
帮中	-10.1113
勾	-10.1118
打我	-10.1119
黄蓉叹	-10.113
竹杖	-10.1132
石上	-10.1134
头颈	-10.1138
罩	-10.1139
不弱	-10.1144
挡住	-10.1146
山下	-10.1161
向右	-10.1172
粉	-10.118
拆了	-10.1181
又不是	-10.1194
比之	-10.1197
好兄弟	-10.1202
一套	-10.1202
有此	-10.1204
清楚	-10.1206
一事	-10.1213
弟	-10.1231
遮	-10.1232
周伯通笑	-10.1236
显然	-10.1238
喷	-10.1238
殿	-10.1243
固	-10.125
男	-10.125
有的	-10.1252
羽箭	-10.1253
午	-10.1258
鸟	-10.1259
人马	-10.126
缘	-10.1261
艺	-10.1261
郭靖笑	-10.1262
热闹	-10.1265
映	-10.1266
咱	-10.1267
肩上	-10.1269
辱	-10.1271
柱	-10.1271
锋	-10.1275
啸	-10.1276
愤	-10.1277
公主	-10.1278
援	-10.1278
魔	-10.1281
孤	-10.1283
必能	-10.1284
裘	-10.1285
钢针	-10.1285
永	-10.1287
忽必烈	-10.1288
阻拦	-10.1288
牙	-10.1289
痴	-10.1289
玄	-10.1289
茶	-10.1289
著	-10.129
》、《	-10.129
合撒儿	-10.129
一辈子	-10.129
哈	-10.129
尝	-10.129
周师兄	-10.1291
惯	-10.1291
你老人家	-10.1291
盲	-10.1291
危险	-10.1291
重大	-10.1292
嗤的一声	-10.1292
摇了摇头	-10.1292
睁开眼	-10.1293
闭目	-10.1293
转过身来	-10.1293
大叔	-10.1293
呼呼	-10.1293
几乎	-10.1293
或许	-10.1294
门户	-10.1294
身分	-10.1295
睡觉	-10.1295
马匹	-10.1297
山洞	-10.1299
胡子	-10.1299
有点	-10.13
士卒	-10.13
片刻间	-10.1303
心愿	-10.1305
惊觉	-10.1305
留神	-10.1305
鼻子	-10.1307
恶斗	-10.1307
文字	-10.1313
干吗	-10.1321
去啦	-10.1322
物事	-10.1322
还道	-10.1327
脱手	-10.1329
得罪	-10.1335
使的是	-10.1339
如此说	-10.1342
再去	-10.1343
半身	-10.1345
那武官	-10.1354
村中	-10.1356
心情	-10.1378
每人	-10.1378
的经文	-10.1395
向黄药师	-10.1413
死人	-10.1414
痛得	-10.142
长子	-10.1423
数百	-10.1424
▁尹志平	-10.1424
无可	-10.1425
将过来	-10.1425
了过来	-10.143
哪有	-10.1439
了不少	-10.1443
那边	-10.1443
难过	-10.1452
一脚	-10.1452
他武功	-10.1455
显得	-10.1455
放眼	-10.1457
放开	-10.146
就只	-10.1461
心中却	-10.1466
左脚	-10.1472
袭	-10.1472
成功	-10.1473
小船	-10.1478
变成了	-10.1492
时时	-10.1492
掷出	-10.1492
更无	-10.1495
学得	-10.1498
再问	-10.1501
飞去	-10.1505
她爹爹	-10.1506
不便	-10.1512
余人	-10.1526
在牛家村	-10.1533
诀	-10.1559
发了	-10.1571
伐	-10.1587
幼时	-10.1592
大汗的	-10.1614
坐了	-10.1614
道路	-10.1617
被欧阳锋	-10.1629
程	-10.1629
好笑	-10.163
出掌	-10.1634
可不能	-10.1635
团	-10.164
好手	-10.1645
智	-10.1657
岩	-10.1662
和你	-10.1663
他们的	-10.1663
全真教的	-10.1684
救你	-10.1686
他要	-10.17
抢过	-10.1703
线	-10.1706
数十年	-10.1711
若无	-10.1718
月光下	-10.1719
太湖	-10.172
旨	-10.1721
圣	-10.1722
逆	-10.1724
了半天	-10.1724
给他们	-10.1726
危	-10.1727
扰	-10.1729
逢	-10.1729
器	-10.173
默	-10.1732
斧	-10.1734
丑	-10.1735
抗	-10.1735
烦	-10.1736
愁	-10.1737
寺	-10.1738
鲜	-10.1738
尔	-10.1738
慰	-10.1739
溅	-10.174
梅	-10.174
讯	-10.1741
恐	-10.1742
灰	-10.1742
袋	-10.1743
贤	-10.1743
挖	-10.1744
末	-10.1744
市	-10.1744
哑巴	-10.1744
彭寨主	-10.1745
继承	-10.1745
虑	-10.1745
愧	-10.1745
继续	-10.1745
全真诸子	-10.1745
扁担	-10.1745
吊	-10.1745
陈	-10.1746
梅师姊	-10.1746
偷袭	-10.1746
辛苦	-10.1746
商量	-10.1746
不知如何是好	-10.1746
贼汉子	-10.1747
铸	-10.1747
盘旋	-10.1747
周师叔	-10.1747
冰凉	-10.1747
又惊又怒	-10.1748
抚摸	-10.1749
灯火	-10.1749
语音	-10.175
号称	-10.175
酒杯	-10.175
顺势	-10.175
关节	-10.1751
拚斗	-10.1751
还给	-10.1752
偏偏	-10.1753
不妨	-10.1754
王子	-10.1755
耳听得	-10.1758
你既	-10.176
君子	-10.1761
夹着	-10.1762
接住	-10.1764
老帮主	-10.1765
书生	-10.1765
大叫一声	-10.1766
洞口	-10.1768
山谷	-10.177
一副	-10.1773
当的一声	-10.1773
之计	-10.1775
面门	-10.1779
那时候	-10.1781
平时	-10.1781
遗书	-10.1782
转眼	-10.1786
长老	-10.1787
抓起	-10.1791
转念	-10.1796
▁沙通天	-10.1796
树上	-10.1798
苦头	-10.1799
发足	-10.1802
不安	-10.1802
向郭靖道	-10.1805
来不及	-10.1805
杀手	-10.1806
走开	-10.1808
绕着	-10.1809
打听	-10.1814
客人	-10.1814
又要	-10.1819
难当	-10.182
小腹	-10.1822
亲自	-10.1822
常人	-10.1823
哪里还有	-10.1824
声中	-10.1825
稍有	-10.1831
不已	-10.1836
问起	-10.1839
那马	-10.1839
里的	-10.1841
按住	-10.1853
看到	-10.1863
这场	-10.1864
山上	-10.1865
学会了	-10.1866
一字	-10.1871
▁段天德	-10.1874
一举	-10.1875
出力	-10.1876
的意思	-10.189
路上	-10.1892
这么说	-10.19
最好	-10.1902
吃的	-10.1914
声势	-10.1921
而下	-10.1928
将那	-10.1928
下令	-10.194
打出	-10.1944
我没	-10.1956
便走	-10.1967
而过	-10.1968
把他	-10.197
数丈	-10.1981
水中	-10.1987
敌手	-10.1987
已极	-10.1991
果然是	-10.2011
逐	-10.2016
树枝	-10.2018
倏地	-10.2023
过得	-10.2037
一带	-10.2043
一闪	-10.2054
自有	-10.2056
晓	-10.2064
插在	-10.2075
懂	-10.2081
见是	-10.2091
眼珠	-10.2094
七个	-10.2095
爷	-10.2099
曲三	-10.2113
长大	-10.2114
再打	-10.2115
难得	-10.2119
半夜	-10.2125
不意	-10.2128
到得	-10.2139
有余	-10.2148
挂	-10.2152
不敌	-10.2152
得快	-10.2155
献	-10.2158
先行	-10.2158
众人都	-10.2161
仆	-10.2188
的妻子	-10.2195
过了良久	-10.2202
钢	-10.2204
史	-10.2204
乡	-10.2204
反正	-10.2205
约莫	-10.2205
阁	-10.2206
虫	-10.221
好看	-10.221
剧	-10.221
两声	-10.2211
钦	-10.2212
却听	-10.2213
好不	-10.2214
妇	-10.2214
亡	-10.2214
避过	-10.2215
宴	-10.2216
盒	-10.2216
铜	-10.2217
纳	-10.2218
演	-10.2219
犬	-10.2219
姓杨	-10.2219
转念一想	-10.222
井	-10.2221
空明拳	-10.2221
老天爷	-10.2221
忌	-10.2221
狼狈	-10.2221
惊喜交集	-10.2221
面面相觑	-10.2221
咽喉	-10.2221
勿	-10.2221
惭愧	-10.2221
咽	-10.2221
讯息	-10.2221
此言一出	-10.2221
衰	-10.2221
刘	-10.2222
蒙哥	-10.2222
四杰	-10.2222
竹签	-10.2223
洪恩师	-10.2223
顷刻间	-10.2223
源	-10.2223
唯	-10.2223
挣脱	-10.2223
黄夫人	-10.2223
铁桨	-10.2224
的名头	-10.2224
干净	-10.2225
偷偷	-10.2226
打扮	-10.2228
气恼	-10.223
暗算	-10.2231
抵挡不住	-10.2231
一株	-10.2233
一扬	-10.2234
数十名	-10.2235
没能	-10.2235
当胸	-10.2238
打仗	-10.2238
自负	-10.2239
嘴里	-10.2239
想着	-10.224
只消	-10.224
怪蛇	-10.2241
全真	-10.2241
击在	-10.2243
养伤	-10.2244
暗暗叫苦	-10.2244
以致	-10.2246
挥动	-10.2247
牵着	-10.2248
再加上	-10.2248
欢呼	-10.225
猛往	-10.2252
割断	-10.2256
军马	-10.2256
此言	-10.2257
忽然想起	-10.2259
众兄弟	-10.2264
缚住	-10.2264
不远	-10.2264
高明	-10.2266
抛下	-10.227
密室	-10.2272
诸人	-10.2273
弟弟	-10.2274
不放	-10.2277
书房	-10.2281
岂	-10.229
大大	-10.2291
你自己	-10.2291
八人	-10.2293
跪	-10.2295
▁郭啸天	-10.2301
左肩	-10.2306
已到	-10.2341
四师父	-10.2346
大丈夫	-10.2351
使用	-10.2352
拱手	-10.2355
的尸身	-10.2358
摔倒	-10.236
结成	-10.2366
也不敢	-10.2371
拦	-10.2371
一晃	-10.2376
是为了	-10.2377
脑袋	-10.2396
拳脚	-10.2407
数人	-10.2408
字诀	-10.2411
自小	-10.2413
十二	-10.2413
好奇	-10.2415
跌倒	-10.242
胜了	-10.242
起身	-10.2422
足下	-10.2428
快步	-10.2439
踏上	-10.2447
但听得	-10.2449
虽有	-10.2452
一群	-10.2455
大是	-10.2455
不胜	-10.2465
没人	-10.2467
我给你	-10.2476
与欧阳锋	-10.2481
逃命	-10.2492
练到	-10.2493
走得	-10.2499
命人	-10.2502
小王	-10.2504
生得	-10.2513
害人	-10.2515
大人	-10.2515
突见	-10.2517
出洞	-10.2526
起初	-10.2527
橱门	-10.253
无用	-10.2531
未能	-10.2536
斤	-10.2538
擒拿	-10.2548
送了	-10.2552
脚上	-10.256
贫	-10.2572
经中	-10.2574
问他	-10.2575
大仇	-10.258
不见了	-10.2581
尸身	-10.2581
解下	-10.2589
我跟你	-10.2597
说出	-10.2606
灭了	-10.2615
赶上	-10.2617
倚	-10.2624
我把	-10.2624
一个女子	-10.265
好朋友	-10.2668
安答	-10.267
述	-10.2671
柴	-10.2672
温	-10.2674
朱聪等	-10.2681
对她	-10.2682
快来	-10.2682
幼	-10.2682
筹	-10.2682
要将	-10.2686
帐中	-10.2687
枯木	-10.2692
孙	-10.2695
招招	-10.2695
懒	-10.2698
却被	-10.2702
小的	-10.2702
挥掌	-10.2703
蓉	-10.271
胖	-10.2711
暴	-10.2712
无已	-10.2713
唇	-10.2713
练武	-10.2714
裹	-10.2716
这副	-10.2717
履	-10.2717
遣	-10.2718
豪杰	-10.2718
设	-10.2718
获	-10.2719
扎	-10.2719
这样的	-10.272
编	-10.272
防备	-10.272
翼	-10.272
碧	-10.272
李	-10.2721
革	-10.2721
苍	-10.2721
皇爷	-10.2721
在地上	-10.2721
嘿	-10.2721
秦桧	-10.2721
哑仆	-10.2721
旭烈兀	-10.2721
放声大哭	-10.2721
荆	-10.2722
谦	-10.2722
闹着玩	-10.2722
从怀中取出	-10.2722
盆	-10.2722
不中	-10.2722
松柴	-10.2722
冻	-10.2722
计议	-10.2722
郝大通	-10.2722
肌肉	-10.2722
尸首	-10.2723
安慰	-10.2723
您老人家	-10.2723
蓬的一声	-10.2723
胡闹	-10.2723
歇歇	-10.2723
银鞭	-10.2723
喀喇一声	-10.2723
公子爷	-10.2725
岂非	-10.2725
众丐	-10.2725
半句	-10.2725
了开去	-10.2725
尚且	-10.2726
迎接	-10.2726
号角	-10.2729
拆招	-10.2729
心肠	-10.2729
巨响	-10.2729
相互	-10.273
恭恭敬敬的	-10.2731
围攻	-10.2734
树干	-10.2734
有趣	-10.2734
这位姑娘	-10.2734
瞎子	-10.2734
怪文	-10.2734
绝招	-10.2735
用劲	-10.2736
借力	-10.2738
枪法	-10.2738
危急中	-10.2743
四位	-10.2744
大骇	-10.2745
与洪七公	-10.2748
转头对	-10.275
师徒	-10.2753
双双	-10.2754
敌兵	-10.2756
了三	-10.2758
必当	-10.2758
呆了半晌	-10.2759
对敌	-10.2762
以及	-10.2766
述说	-10.2769
下杀手	-10.2773
小孔	-10.2773
又何必	-10.2775
不幸	-10.2776
手持	-10.2779
的脸	-10.278
骷髅	-10.2781
打去	-10.2783
笑着	-10.2784
闯进	-10.2785
攻打	-10.2788
御厨	-10.2788
退后	-10.2788
好大	-10.279
方能	-10.279
铁掌山	-10.2795
守在	-10.2797
面子	-10.2799
大树	-10.28
相会	-10.2806
怎么会	-10.2807
▁那渔人	-10.281
念着	-10.2811
怕他	-10.2811
终身	-10.2818
大雪	-10.2822
不出来	-10.2831
提气	-10.2837
掌心	-10.2837
这部	-10.2843
的影子	-10.2844
一点儿	-10.2854
这一次	-10.2857
峰顶	-10.287
出招	-10.2884
岸	-10.289
船头	-10.2892
来去	-10.2902
放入	-10.2921
成为	-10.2921
▁华筝	-10.2931
以来	-10.2941
难道还	-10.2944
没事	-10.2953
时刻	-10.2954
又再	-10.2961
总有	-10.2962
教人	-10.2962
十倍	-10.2965
把我	-10.2982
一扯	-10.2983
珍	-10.2993
放手	-10.2998
这样一	-10.3002
来救	-10.3004
桌上	-10.3007
又怕	-10.3013
竟未	-10.3024
手段	-10.3026
很多	-10.303
打死	-10.3042
光闪	-10.3053
跨	-10.306
威名	-10.3068
不致	-10.3068
我帮	-10.3076
也不怕	-10.308
听我	-10.3087
设法	-10.3097
一边	-10.31
徒弟	-10.3104
余下	-10.3116
叫她	-10.3122
料到	-10.3124
斗得	-10.3124
臭小子	-10.313
面上	-10.3131
却哪里	-10.3141
这路	-10.3155
牵了	-10.3159
深知	-10.3168
跃下	-10.3172
葬	-10.3172
街	-10.3173
阵阵	-10.3178
娘	-10.3178
究	-10.3179
瞧在	-10.3183
未到	-10.3184
起疑	-10.3186
却有	-10.3194
她在	-10.3196
休	-10.32
于他	-10.3202
田	-10.3205
驾	-10.3206
藏在	-10.3213
胜负	-10.3214
从来不	-10.3214
娃娃	-10.3215
担	-10.3218
对自己	-10.3218
恰	-10.3223
时日	-10.3225
供	-10.3229
赵王府	-10.3232
当晚	-10.3232
桃花岛的	-10.3233
稳稳	-10.3234
展	-10.3236
肘	-10.3236
绣	-10.3236
抚	-10.3239
一个大	-10.3239
熬	-10.324
筋	-10.3241
摇晃	-10.3241
丹	-10.3243
帝	-10.3244
清清楚楚	-10.3244
伴	-10.3244
酣	-10.3244
痕	-10.3244
敲	-10.3245
章	-10.3245
污	-10.3245
锐	-10.3245
绞	-10.3245
乌	-10.3246
膀	-10.3246
瞒	-10.3246
屠	-10.3246
仁	-10.3246
抄	-10.3246
辩	-10.3246
沿	-10.3247
富	-10.3247
阔	-10.3247
享	-10.3247
饱	-10.3247
博尔忽	-10.3247
诀窍	-10.3247
朝廷	-10.3248
一个时辰	-10.3248
窥	-10.3248
岳父	-10.3248
攀	-10.3248
宛似	-10.3248
斡赤斤	-10.3248
阔阔出	-10.3248
可是他	-10.3248
陡	-10.3249
穆姊姊	-10.3249
二丐	-10.3249
包裹	-10.3249
夸	-10.3249
牲口	-10.3249
黯然	-10.3249
岂肯	-10.3249
满腔	-10.3249
从未见过	-10.3249
楼梯	-10.3249
江南七侠	-10.3249
依稀	-10.3249
尘土	-10.325
收拾	-10.325
奥妙	-10.325
经历	-10.3251
竟尔	-10.3252
看清楚	-10.3253
蓦地里	-10.3253
呼喝	-10.3254
贵由	-10.3255
毙命	-10.3256
君山	-10.3256
苦思	-10.3257
机关	-10.3257
倍	-10.3257
截	-10.3258
右腿	-10.3258
连环	-10.3259
不知是	-10.326
无穷	-10.326
武功天下第一	-10.3266
雪地	-10.3269
东边	-10.3269
菜肴	-10.327
不休	-10.3271
一个筋斗	-10.3275
荒山	-10.3276
临安府	-10.3278
竟似	-10.3278
在蒙古	-10.3281
相接	-10.3283
请两位	-10.3283
攻击	-10.3284
将这	-10.3284
天色	-10.3288
强敌	-10.3289
本门	-10.329
可不	-10.329
又是一	-10.3293
不开	-10.3293
石子	-10.3295
半年	-10.3295
遗命	-10.3295
难受	-10.3299
长刀	-10.3299
向欧阳锋	-10.3301
与自己	-10.3305
别让	-10.3308
好容易	-10.3309
这老儿	-10.3309
等等	-10.3316
的头	-10.3317
了些	-10.3317
出口	-10.3319
闻到	-10.3325
他知	-10.3325
语声	-10.3329
这时听	-10.3332
大呼	-10.3333
也没有	-10.3334
再看	-10.3335
有许多	-10.3339
三字	-10.3339
自己也	-10.3342
人多	-10.3343
郭靖又	-10.3345
当先	-10.3345
哪里还	-10.3348
倒转	-10.335
两下	-10.3357
▁一灯大师	-10.3357
如风	-10.3361
无所	-10.3361
放着	-10.3362
▁眼见	-10.3371
饶是	-10.3371
月光	-10.3373
太阳	-10.3374
传来	-10.3377
伤他	-10.3385
到哪里去	-10.3385
自当	-10.3395
在江湖上	-10.3399
到桃花岛	-10.3402
让开	-10.3405
的法子	-10.342
尚在	-10.342
所学	-10.3423
▁郭	-10.3432
不想	-10.3435
▁鲁有脚	-10.3437
于此	-10.3442
他胸口	-10.3459
没甚么	-10.346
可得	-10.3461
我可不	-10.3462
身披	-10.3464
将出来	-10.347
好事	-10.3471
打倒	-10.3474
抢了	-10.3476
那里	-10.3478
天上	-10.3496
求见	-10.3497
四十	-10.3519
一震	-10.352
不行	-10.3521
书画	-10.3524
玉箫	-10.3537
送到	-10.3537
难道你	-10.3537
够	-10.3542
抓住了	-10.3543
黄蓉微笑	-10.355
打中	-10.3551
又听得	-10.3556
好意	-10.3558
我再	-10.3588
▁三人	-10.3598
拦在	-10.3598
好在	-10.36
壁上	-10.3604
失手	-10.3606
说些甚么	-10.3617
有所	-10.3634
想不出	-10.3638
得甚是	-10.3657
金针	-10.3661
着了	-10.3669
向旁	-10.367
伤害	-10.3672
不待	-10.3685
黄蓉拍手	-10.3687
与她	-10.3692
也不必	-10.3697
层	-10.3701
黑雕	-10.3704
后退	-10.3705
却不是	-10.3719
走啦	-10.3721
法门	-10.3726
说要	-10.3728
凡	-10.373
枉	-10.3743
他手腕	-10.3744
扑上	-10.3745
轻轻一	-10.3745
雾	-10.3752
僧	-10.3755
不大	-10.3765
知是	-10.3769
益	-10.377
安排	-10.377
感诧异	-10.3778
隆	-10.3778
氏	-10.3782
出家	-10.3782
掀	-10.3789
赖	-10.3792
将下去	-10.3793
擅	-10.3793
少了	-10.3795
痒	-10.3795
岳	-10.3796
爽	-10.3797
旋	-10.3797
彩	-10.3798
写了	-10.3798
筏	-10.3798
唐	-10.3799
医	-10.3799
碑	-10.38
鹰	-10.38
博	-10.3801
齿	-10.3802
劫	-10.3802
佛	-10.3802
歪	-10.3802
疲	-10.3802
雷	-10.3802
践	-10.3803
郎	-10.3803
坟	-10.3803
符	-10.3803
拗	-10.3803
塔	-10.3803
啄	-10.3803
滋味	-10.3803
不动声色	-10.3803
粘	-10.3803
也速该	-10.3803
粪	-10.3804
叠	-10.3804
雌雕	-10.3804
岳爷爷	-10.3804
旗杆	-10.3804
的掌力	-10.3804
老朽	-10.3804
店伴	-10.3804
戏弄	-10.3805
容貌	-10.3805
六侠	-10.3805
万料不到	-10.3805
布袋	-10.3805
怀疑	-10.3806
官府	-10.3806
男女	-10.3806
惶急	-10.3806
千万	-10.3807
千万不可	-10.3807
身材	-10.3807
母子	-10.3808
勒马	-10.3808
谭	-10.3808
忽尔	-10.3808
郭兄	-10.3808
题目	-10.3808
狂奔	-10.3808
怎么办	-10.3809
郭靖喜	-10.381
弓箭	-10.3811
你倒	-10.3813
宝物	-10.3813
深厚	-10.3813
特别	-10.3814
身不由主的	-10.3814
刺客	-10.3815
爱女	-10.3818
阵势	-10.3819
团团	-10.382
父子	-10.3821
后来怎样	-10.3822
决不会	-10.3822
护身	-10.3822
半步	-10.3823
领会	-10.3823
亲随	-10.3825
种种	-10.3826
要旨	-10.3826
猛听得	-10.3827
小叫化	-10.3827
向下	-10.3827
途中	-10.3829
一时之间	-10.383
各有	-10.3833
我妈	-10.3833
烛火	-10.3834
蒙古包	-10.3836
进攻	-10.3839
一麻	-10.3841
径自	-10.3842
▁江南六怪	-10.3843
笑容	-10.3846
陪着	-10.3846
坏人	-10.3856
只须	-10.3856
日间	-10.3858
方才	-10.3858
走远	-10.3859
今天	-10.386
家传	-10.3861
三步	-10.3866
活着	-10.3871
胆子	-10.3872
空手	-10.3873
那老者	-10.3877
半边	-10.3881
怒气	-10.3883
日夜	-10.3885
胸中	-10.3886
之一	-10.3889
赶去	-10.3891
海底	-10.3891
发作	-10.3892
对你说	-10.3896
点穴	-10.3901
快快	-10.3902
向洪七公	-10.3906
大起	-10.3911
撕下	-10.3915
罢了	-10.3917
耳中	-10.3919
素知	-10.3922
的招数	-10.3925
不妥	-10.3926
均是	-10.3927
赢了	-10.393
往他	-10.393
的情景	-10.3933
嚷	-10.3934
杀了他	-10.3943
郭靖一怔	-10.3949
一堆	-10.3951
三分	-10.3953
一按	-10.3958
磕	-10.3961
又听	-10.3965
饭菜	-10.3974
▁六怪	-10.3976
在先	-10.3979
决无	-10.3989
难道我	-10.3993
我跟	-10.3997
的言语	-10.3998
五六	-10.4
身手	-10.4001
一段	-10.4003
掘	-10.4015
刺去	-10.4016
枪杆	-10.4019
等人	-10.402
用功	-10.402
打死了	-10.4024
追去	-10.4027
叫他们	-10.4027
贴	-10.403
多了	-10.404
师兄弟	-10.4051
被郭靖	-10.4051
让她	-10.4056
一世	-10.4059
得起	-10.4068
受了伤	-10.4076
大金国的	-10.4077
房门	-10.4079
使开	-10.4093
求你	-10.4096
岁的	-10.4104
只道他	-10.4107
水底	-10.4112
的伤势	-10.4113
再过	-10.4113
挣	-10.4116
拍拍	-10.4117
土山	-10.4125
六个	-10.4126
山后	-10.4148
出了一	-10.415
竟有	-10.4151
一推	-10.4155
你若	-10.4158
招手	-10.4165
湖中	-10.4168
这女子	-10.4178
十多年	-10.4178
在他身上	-10.4178
怎么说	-10.4182
马背	-10.4185
细看	-10.419
矮胖子	-10.4193
一个个	-10.4203
皱眉	-10.4211
还未	-10.4214
店中	-10.4219
你猜	-10.4228
去世	-10.4231
真正	-10.4235
是你的	-10.4237
大海	-10.4241
逞	-10.4242
不停	-10.4244
一物	-10.4245
乞丐	-10.4248
有几	-10.4262
数里	-10.4263
那晚	-10.4265
加害	-10.4267
黑影	-10.4267
黄蓉见	-10.4272
他手掌	-10.4275
一枚	-10.4276
可是我	-10.4277
黄蓉见他	-10.4277
郭靖依言	-10.4282
微微一	-10.4296
那船	-10.4299
椅	-10.4306
不救	-10.4308
呆了	-10.4308
钻出	-10.4309
武官	-10.4311
撞在	-10.4315
院	-10.4321
的神色	-10.4325
糟	-10.4326
但听	-10.433
说的是	-10.4335
逃到	-10.4337
竟被	-10.4338
途	-10.434
甲板	-10.4349
剩下	-10.435
束	-10.4353
轿	-10.4355
十余年	-10.4362
臣	-10.4363
电	-10.4365
刃	-10.4366
去看	-10.4367
嚼	-10.4367
象	-10.4368
未免	-10.4375
脸现	-10.4375
戏	-10.4376
嘶	-10.4378
出来的	-10.4378
微一	-10.4379
卫	-10.4382
焦	-10.4383
棺材	-10.4384
厮	-10.4384
惧	-10.4384
催	-10.4385
赵王	-10.4387
辣	-10.4388
态	-10.4388
大胆	-10.4388
四五	-10.4388
拒	-10.4389
畏	-10.4389
乞	-10.4389
翠	-10.4389
兽	-10.4389
勤	-10.439
丁	-10.439
砸	-10.439
韩	-10.439
巴	-10.439
奏	-10.439
附	-10.439
拐	-10.439
神龙摆尾	-10.4391
硬生生	-10.4391
效	-10.4391
婆娘	-10.4391
焦躁	-10.4391
狡猾	-10.4391
覆	-10.4391
扼	-10.4391
歉	-10.4391
废	-10.4391
煮	-10.4391
鲁长老	-10.4392
烤	-10.4392
铜尸	-10.4392
小沙弥	-10.4392
意料之外	-10.4392
恕罪	-10.4392
自言自语	-10.4392
艳	-10.4392
锦袍	-10.4392
光闪闪	-10.4392
双颊	-10.4392
草原上	-10.4392
说不出的	-10.4392
勉力	-10.4393
服侍	-10.4393
瞧你	-10.4393
小姐	-10.4394
领悟	-10.4394
剧毒	-10.4395
钢刀	-10.4395
料不到	-10.4396
▁正	-10.4396
喘气	-10.4396
不能再	-10.4396
怎敢	-10.4396
长春子丘处机	-10.4397
忘记	-10.4397
摇摇头	-10.4398
阴毒	-10.4399
奇特	-10.4399
十五掌	-10.4399
舱门	-10.4399
算帐	-10.4399
脉门	-10.4399
不难	-10.44
每次	-10.4401
震得	-10.4401
平日	-10.4401
船板	-10.4401
误会	-10.4402
礼物	-10.4403
姬妾	-10.4404
右肩	-10.4404
腰刀	-10.4404
师伯	-10.4405
埋伏	-10.4406
毒药	-10.4407
火折	-10.4407
周身	-10.4407
消失	-10.4408
坐船	-10.4409
摇动	-10.441
蛇阵	-10.441
扶住	-10.441
进门	-10.4416
长鞭	-10.4416
语气	-10.4418
白衣	-10.4419
猛击	-10.4419
未及	-10.4421
侧头	-10.4421
日光	-10.4422
之仇	-10.4425
绕过	-10.443
教导	-10.443
兵法	-10.4432
法儿	-10.4433
出声	-10.4434
二字	-10.4435
喉头	-10.4435
拍出	-10.4438
惊疑	-10.4439
药丸	-10.4441
乘着	-10.4444
自觉	-10.4445
一排	-10.4447
悠悠醒	-10.4449
草丛	-10.4451
后院	-10.4451
左腕	-10.4453
同行	-10.4463
过人	-10.4463
▁陆乘风	-10.4464
当地	-10.4466
的穴道	-10.4467
那道士	-10.4469
他身后	-10.447
本想	-10.4471
危急	-10.4473
双拳	-10.4476
小说	-10.4479
见面	-10.448
海水	-10.4484
马蹄	-10.4485
亲热	-10.4488
出帐	-10.449
甚么东西	-10.449
倒在地	-10.449
现出	-10.4492
了不起	-10.4493
却在	-10.4496
点了	-10.45
两人都是	-10.4502
十几	-10.4504
的内功	-10.4509
军官	-10.4512
快马	-10.4517
不尽	-10.452
竹林	-10.4524
免得	-10.4526
所说	-10.4528
不喜	-10.453
只把	-10.4533
救我	-10.4534
打伤	-10.4536
几招	-10.4547
认出	-10.456
不听	-10.456
将起来	-10.457
下楼	-10.457
又急	-10.4571
过了一阵	-10.4572
几名	-10.4585
▁哲别	-10.4597
白纸	-10.46
六七	-10.4607
好姑娘	-10.4612
是非	-10.4614
明白了	-10.4618
三师父	-10.462
买了	-10.462
沙通天等	-10.4622
他二人	-10.4628
只见那	-10.4631
的时候	-10.4631
惊人	-10.4633
一分	-10.4643
伸手去	-10.4648
马钰道	-10.465
也会	-10.465
他见	-10.4655
瞧不出	-10.4665
树林	-10.4667
却仍是	-10.4668
了七八	-10.4668
在桌上	-10.4669
同去	-10.4676
不够	-10.4678
金银	-10.4682
听他说	-10.4687
黄蓉与郭靖	-10.4689
若要	-10.4691
天下第一	-10.4693
这时见	-10.4704
请他	-10.4712
柳	-10.4716
用以	-10.4727
虽多	-10.473
一味	-10.4731
便了	-10.4736
从中	-10.4736
郭靖听了	-10.4741
在意	-10.4747
披	-10.4751
他日	-10.4752
小女	-10.4753
胁下	-10.4754
已被他	-10.4761
上当	-10.4763
我真	-10.4767
气得	-10.4769
服了	-10.477
救他	-10.4773
明天	-10.4789
一翻	-10.4801
一跃	-10.4804
有关	-10.481
就把	-10.4814
可真	-10.4815
她肩头	-10.4823
十六	-10.4825
来着	-10.4825
能够	-10.4832
老是	-10.4832
饿	-10.4833
又怎能	-10.4834
完了	-10.4834
这条	-10.4837
上峰	-10.4841
我在这里	-10.4843
也无	-10.4849
郭靖奇	-10.485
都有	-10.4859
走上	-10.4867
袍	-10.4868
上卷	-10.487
缓步	-10.4871
冲杀	-10.4872
威风	-10.4878
你就是	-10.4881
的故事	-10.4882
两句	-10.4891
再不	-10.4893
吃过	-10.4896
只能	-10.49
丐	-10.4912
▁侯通海	-10.4919
却仍	-10.4923
竟没	-10.4924
荒	-10.4932
营帐	-10.4952
奔向	-10.4954
斜眼	-10.4957
三位	-10.4967
便在	-10.4969
毫无	-10.4969
报了	-10.4976
崩	-10.4978
童	-10.4978
了几句	-10.4978
草原	-10.4979
赵王爷	-10.4981
那老人	-10.4987
有意	-10.4993
一心	-10.4996
室中	-10.5
押	-10.5002
甘	-10.5003
的一响	-10.5003
所有	-10.5003
付	-10.5003
无伦	-10.5004
镜	-10.5006
醉仙楼	-10.5007
挂念	-10.5007
豹	-10.5007
蛋	-10.5008
宫中	-10.5008
侍	-10.5009
奥	-10.501
驱	-10.5011
穆	-10.5012
蓦地	-10.5012
兰	-10.5012
先天功	-10.5012
敏	-10.5012
肥	-10.5013
涂	-10.5014
嗤嗤	-10.5014
暂	-10.5015
桶	-10.5015
掳	-10.5015
牢	-10.5015
甜	-10.5015
占上风	-10.5015
e	-10.5015
吉	-10.5015
吕文德	-10.5015
九花玉露丸	-10.5015
寡	-10.5016
玩耍	-10.5016
赔	-10.5016
夕	-10.5016
猪	-10.5016
采	-10.5016
侵	-10.5016
磨	-10.5016
灌	-10.5016
厌	-10.5016
叫了声	-10.5016
钻研	-10.5016
顽皮	-10.5016
柯大侠	-10.5016
鸳	-10.5016
及得上	-10.5017
-------------	-10.5017
丹田	-10.5017
雁	-10.5017
泉	-10.5017
手下留情	-10.5017
迅速	-10.5017
炉	-10.5017
窃	-10.5017
屁股	-10.5017
暖	-10.5017
啼	-10.5017
全真六子	-10.5017
咕	-10.5017
烦恼	-10.5017
宝贝	-10.5017
乖乖的	-10.5017
曲灵风	-10.5017
燕京	-10.5017
督	-10.5017
庄丁	-10.5018
支持不住	-10.5018
三头蛟侯通海	-10.5018
根基	-10.5018
忠义	-10.5018
世界	-10.5018
碎裂	-10.5018
了一遍	-10.5018
凄然	-10.5018
情急之下	-10.5018
凶险	-10.5019
护卫	-10.5019
连连点头	-10.5019
附近	-10.5019
禀报	-10.5019
乌云	-10.5019
玩意儿	-10.5019
颠倒	-10.5019
二哥	-10.502
枕	-10.502
咸	-10.502
丈余	-10.502
在帐中	-10.502
威震	-10.5021
惊惧	-10.5021
拆解	-10.5021
泛	-10.5021
默然	-10.5021
厮杀	-10.5022
沉思	-10.5022
捡起	-10.5023
夹击	-10.5023
月亮	-10.5023
我若	-10.5023
便宜	-10.5023
毒计	-10.5023
胡乱	-10.5025
作甚	-10.5025
呼的一声	-10.5025
食物	-10.5026
三弟	-10.5027
杨兄弟	-10.5027
决定	-10.5028
耳边	-10.5029
小辈	-10.5029
尽管	-10.503
吃亏	-10.503
动弹	-10.5031
花树	-10.5032
眼看	-10.5032
情形	-10.5033
普天下	-10.5033
桌子	-10.5036
扇子	-10.5036
有心要	-10.5037
联手	-10.5039
白雪	-10.504
华筝公主	-10.504
打量	-10.5041
白色	-10.5042
以免	-10.5042
蛇毒	-10.5043
七兄弟	-10.5044
得手	-10.5044
土地	-10.5045
疾忙	-10.5045
今后	-10.5045
这几日	-10.5046
那女人	-10.5047
他心中	-10.5047
▁当晚	-10.5051
高高	-10.5051
伤痛	-10.5053
怒火	-10.5056
这一抓	-10.5058
三次	-10.5059
小道士	-10.5062
船夫	-10.5065
跟前	-10.5065
你们两个	-10.5066
逃开	-10.5066
只要你	-10.5066
归天	-10.5067
一击	-10.5068
帮手	-10.507
风响	-10.5072
甚多	-10.5074
运起	-10.5074
何时	-10.5079
臂上	-10.5081
最多	-10.5082
兵马	-10.5083
两根	-10.5084
搂住	-10.5086
穿着	-10.5088
喜爱	-10.5096
暗暗好笑	-10.5096
他身子	-10.5098
成一团	-10.5101
两掌	-10.5102
往往	-10.5102
岩洞	-10.5104
已久	-10.5105
两家	-10.5108
所授	-10.5109
。’”	-10.5111
何不	-10.5113
拿来	-10.5116
提着	-10.5116
枚	-10.5116
留在	-10.5124
那红马	-10.5139
色道	-10.5154
挡开	-10.5156
已抓住	-10.5178
撞去	-10.5188
气喘	-10.5191
这一拳	-10.5201
并肩	-10.5207
你干么	-10.5212
好一阵	-10.5213
完全	-10.5214
有心	-10.5214
没用	-10.5219
跃到	-10.522
山石	-10.5225
在此处	-10.5226
不知去向	-10.5234
一二	-10.524
急叫	-10.5241
对黄蓉	-10.5245
的手掌	-10.525
万里	-10.5252
守住	-10.5252
小腿	-10.5252
几日	-10.5253
已近	-10.5255
对面	-10.5255
的遗	-10.526
哪里有	-10.5266
前胸	-10.5273
下落	-10.5274
绳	-10.5275
如电	-10.5279
无异	-10.5281
射去	-10.5282
捉住	-10.5282
也得	-10.5284
惊奇	-10.5285
大小	-10.529
这少年	-10.5299
瞎了	-10.53
关头	-10.5304
为他	-10.5304
慢慢的	-10.5304
十九	-10.5305
卒	-10.5308
黄蓉低声	-10.5311
怎知	-10.5313
天空	-10.5314
你知道	-10.5325
吃完	-10.5328
做的	-10.5328
的却是	-10.5331
驰到	-10.5339
的手腕	-10.5346
跟她	-10.535
击去	-10.5356
不迟	-10.5369
抽出	-10.5377
与梅超风	-10.5378
张开	-10.5378
读书	-10.5378
左侧	-10.5384
到底是	-10.5384
了一层	-10.5385
真好	-10.539
他身上	-10.5393
等我	-10.5398
我自己	-10.5412
一层	-10.5424
而笑	-10.5429
难道是	-10.5433
上船	-10.544
惊呼	-10.5441
哪知道	-10.5446
不加	-10.5446
否	-10.5452
射来	-10.5455
想想	-10.5455
三掌	-10.5455
千里	-10.5465
多端	-10.5478
手背	-10.5482
想到了	-10.5486
意思	-10.5489
做甚么	-10.5492
逼他	-10.5497
兄妹	-10.5503
这么多	-10.5506
对着	-10.5506
行人	-10.5507
提了	-10.551
不定	-10.551
又说	-10.5512
婆	-10.5515
又怎	-10.5516
樵子	-10.552
有异	-10.5522
老婆	-10.5529
我叫	-10.5534
接了	-10.5545
清水	-10.5551
瞧那	-10.5551
袭击	-10.5552
影子	-10.5554
毁	-10.5557
打断	-10.5559
探头	-10.5565
还手	-10.5573
方位	-10.5583
他既	-10.5593
前去	-10.5595
就在这	-10.5605
占了	-10.5607
骂我	-10.5607
搂	-10.5608
都想	-10.5608
你是谁	-10.5609
口气	-10.5615
老儿	-10.5629
抢在	-10.5631
怎么啦	-10.5641
允	-10.5642
纵声	-10.5644
轮	-10.5644
已死	-10.5645
边上	-10.5651
向天	-10.5655
人丛中	-10.5656
如山	-10.5656
寨主	-10.5658
一拉	-10.566
置	-10.566
船舱	-10.5664
婚	-10.5667
点心	-10.567
上乘内功	-10.567
艇	-10.5671
一命	-10.5672
缓缓的	-10.5673
又没	-10.5673
勒	-10.5674
鲁	-10.5679
老爷	-10.5679
漆	-10.568
繁	-10.568
蹄声	-10.568
业	-10.5681
研习	-10.5681
兜	-10.5681
诏	-10.5682
豁	-10.5682
大理国	-10.5682
紫	-10.5682
秤杆	-10.5682
规	-10.5682
墨	-10.5682
一言不发	-10.5682
灶	-10.5682
无可奈何	-10.5682
惟	-10.5683
叫甚么名字	-10.5683
筋疲力尽	-10.5683
大喝一声	-10.5683
荷塘	-10.5683
霜	-10.5683
涉	-10.5683
荣	-10.5683
零	-10.5683
长叹一声	-10.5683
烫	-10.5683
明明白白	-10.5683
全神贯注	-10.5683
蓝	-10.5683
做声不得	-10.5683
觑	-10.5683
七位	-10.5683
苦苦思索	-10.5683
锋锐	-10.5683
胆敢	-10.5683
成千成万	-10.5683
上官剑南	-10.5683
韩世忠	-10.5683
巡	-10.5684
冬	-10.5684
装束	-10.5684
撰	-10.5684
的背影	-10.5684
宠爱	-10.5684
加快脚步	-10.5684
折磨	-10.5684
棺木	-10.5684
敛	-10.5684
察觉	-10.5684
肋骨	-10.5684
凿	-10.5684
诡异	-10.5684
解释	-10.5685
焦木大师	-10.5685
无耻	-10.5685
岁年纪	-10.5685
义父	-10.5685
庄主	-10.5685
方始	-10.5685
铁舟	-10.5685
向后跃开	-10.5686
背诵	-10.5686
水帘	-10.5686
计较	-10.5686
冠	-10.5686
湖边	-10.5686
漏	-10.5686
摸索	-10.5687
急促	-10.5687
洒	-10.5687
狠狠	-10.5687
既有	-10.5687
昂然	-10.5687
部属	-10.5687
救援	-10.5688
不耐烦	-10.5688
宁定	-10.5688
挡架	-10.5689
学艺	-10.5689
程二人	-10.5689
该当如何	-10.569
尊师	-10.569
干系	-10.569
面具	-10.569
杨家	-10.5691
小哥	-10.5691
大不相同	-10.5691
修练	-10.5691
▁次日	-10.5692
危难	-10.5692
常常	-10.5692
小侄	-10.5692
一个小	-10.5693
命丧	-10.5693
已从	-10.5693
再加	-10.5693
不要脸	-10.5693
平常	-10.5694
神通	-10.5694
老夫	-10.5694
潮水	-10.5695
南北	-10.5695
往外	-10.5695
信义	-10.5696
屋顶	-10.5696
猛恶	-10.5697
气息	-10.5697
形势	-10.5697
本帮	-10.5697
寻访	-10.5697
那胖子	-10.5697
钢刺	-10.5698
那就是	-10.5699
抱拳	-10.5699
领兵	-10.5699
发现	-10.5699
读四人	-10.57
相公	-10.57
牧人	-10.5702
射出	-10.5703
回手	-10.5704
兼之	-10.5704
丧命	-10.5705
插口	-10.5705
精兵	-10.5705
舞动	-10.5706
围墙	-10.5711
远不及	-10.5711
心中甚是	-10.5712
树皮	-10.5713
之策	-10.5715
有谁	-10.5721
实非	-10.5725
竖起	-10.5725
碰到	-10.5731
家数	-10.5731
嘉兴府	-10.5735
自称	-10.5739
刚好	-10.5742
相似	-10.5744
向自己	-10.575
我就是	-10.5753
武功高强	-10.5753
惊动	-10.5757
留着	-10.5759
的对手	-10.5761
的女子	-10.5762
谁要你	-10.5766
极难	-10.5768
闪开	-10.5771
四弟子	-10.5771
亲手	-10.5772
发招	-10.5774
拉开	-10.5778
领了	-10.5778
甚么人	-10.578
一楞	-10.5784
好胜	-10.5784
用兵	-10.5788
又将	-10.5788
擒住	-10.5791
▁颜烈	-10.5792
站起来	-10.5792
终是	-10.5793
随从	-10.58
之理	-10.5804
拿住了	-10.5808
两人同时	-10.581
只怕他	-10.581
▁那道人	-10.5813
给了	-10.5814
下卷	-10.5815
黄蓉急	-10.5816
上乘	-10.5816
▁那公子	-10.5818
长发	-10.5821
好孩子	-10.5824
奔近	-10.5826
牛羊	-10.5829
死的	-10.5832
可没	-10.5833
三哥	-10.584
掌中	-10.5841
一摸	-10.5841
无声	-10.5842
学到	-10.5845
说了一遍	-10.5856
北京	-10.5857
的日子	-10.5865
石弹	-10.5866
两次	-10.5867
那樵子	-10.5868
这门	-10.5868
这一场	-10.587
咱们就	-10.5871
他虽	-10.5873
与拖雷	-10.5875
出房	-10.5882
瞪眼	-10.5883
见他神色	-10.5889
三名	-10.5891
但求	-10.5891
话说	-10.5892
进洞	-10.5893
便有	-10.5896
抬起	-10.5897
都被	-10.5901
人品	-10.5905
师父们	-10.5907
相对	-10.5907
急了	-10.5909
的手臂	-10.5909
郭靖急	-10.5912
千余	-10.5913
了上来	-10.5915
了回来	-10.5915
几年	-10.5919
眉头	-10.5922
去瞧瞧	-10.5926
却听得	-10.5926
抓去	-10.5926
一剑	-10.5927
以前	-10.5934
开来	-10.5947
之能	-10.5958
着急	-10.5973
多年	-10.5976
举刀	-10.5976
摸出	-10.5977
难道他	-10.598
骑了	-10.5985
都说	-10.5989
一抖	-10.599
之所	-10.5993
大半	-10.5994
了一下	-10.5996
一跳	-10.6002
羊腿	-10.6006
拜见	-10.6009
有甚么好	-10.6014
心起	-10.6015
一队	-10.6023
喊声	-10.6023
向丘处机	-10.6028
爬上	-10.603
了上去	-10.6035
攻敌	-10.6035
这日	-10.6045
不得不	-10.6048
杀得	-10.605
人头	-10.6058
还得	-10.6068
说出来	-10.6071
世间	-10.6076
住在	-10.6088
常说	-10.6091
地步	-10.6098
▁李萍	-10.6103
割了	-10.6108
嫁给	-10.6111
来历	-10.6112
郭靖一呆	-10.6113
五年	-10.6119
作声	-10.6125
这是我	-10.613
传你	-10.6137
下马来	-10.6144
旁的	-10.6146
脑中	-10.6151
却无	-10.6153
使得	-10.6157
进屋	-10.617
水性	-10.6171
用意	-10.6184
的道理	-10.6185
数年	-10.6195
不闻	-10.62
齐向	-10.6202
远远的	-10.6208
摸到	-10.6216
你这小子	-10.6218
朱	-10.6222
为之	-10.6227
▁那人	-10.6238
妥	-10.6241
红色	-10.6245
会神	-10.625
急步	-10.6251
叫喊	-10.626
股	-10.6261
在桃花岛	-10.6262
最爱	-10.6268
只见欧阳锋	-10.6277
就这么	-10.6283
遵	-10.6284
哥	-10.629
以此	-10.6301
我虽	-10.6312
楼下	-10.6312
再见	-10.6313
拍手	-10.6315
所授的	-10.6317
这声音	-10.6317
我侄儿	-10.6319
青蛇	-10.6319
对准	-10.6323
传出	-10.6324
化为	-10.6327
等到	-10.633
还有甚么	-10.6338
若是不	-10.6339
谁说	-10.6339
详	-10.6344
伯父	-10.6345
笑话	-10.635
撞到	-10.6351
纯	-10.6355
公子	-10.6358
长索	-10.6361
济	-10.6367
进帐	-10.6367
张十五	-10.637
牧	-10.6374
侄	-10.6378
颤	-10.6378
际	-10.6379
兔	-10.6381
大汉	-10.6382
瓜	-10.6383
锦	-10.6383
箫	-10.6384
类	-10.6384
怪不得	-10.6386
京	-10.6388
历史	-10.6389
康	-10.639
棵	-10.639
慌	-10.6391
诈	-10.6391
又惊又	-10.6391
适	-10.6392
证	-10.6393
元史	-10.6393
隙	-10.6394
贯	-10.6394
诡	-10.6394
哀	-10.6395
辛	-10.6395
叛	-10.6395
哨	-10.6395
朕	-10.6395
慕	-10.6395
蹲	-10.6395
稀	-10.6396
庸	-10.6396
锤	-10.6396
怔怔的	-10.6396
重阳真人	-10.6396
蠢	-10.6396
孝	-10.6396
订	-10.6396
扁	-10.6396
染	-10.6396
预	-10.6396
录	-10.6396
继	-10.6396
芦	-10.6396
统治	-10.6396
船舷	-10.6396
锁	-10.6396
怯	-10.6397
秦	-10.6397
汤祖德	-10.6397
鲜血淋漓	-10.6397
长春子	-10.6397
哑梢公	-10.6397
髻	-10.6397
呕	-10.6397
诃额伦夫人	-10.6397
资质	-10.6397
劣	-10.6397
卸	-10.6397
黑暗之中	-10.6397
撒谎	-10.6397
畅	-10.6397
法华寺	-10.6397
恍然大悟	-10.6397
比赛	-10.6397
贱	-10.6397
贺	-10.6397
郭世兄	-10.6397
泽	-10.6397
小妖女	-10.6397
钢叉	-10.6398
鞘	-10.6398
摊	-10.6398
默默	-10.6398
拭	-10.6398
肃	-10.6398
祠堂	-10.6398
克制	-10.6398
逾	-10.6398
泊	-10.6398
俘虏	-10.6398
锦旗	-10.6398
案	-10.6398
大出意料之外	-10.6398
狞	-10.6398
炼	-10.6398
沾	-10.6398
卫士	-10.6398
坟墓	-10.6398
次晨	-10.6398
说给我听	-10.6398
产	-10.6398
赌赛	-10.6398
差遣	-10.6398
天璇	-10.6398
侍卫	-10.6399
勉强	-10.6399
跳起身来	-10.6399
梁长老	-10.6399
寿	-10.6399
浑小子	-10.6399
相询	-10.64
到头来	-10.64
脸上一红	-10.64
挡格	-10.64
安危	-10.64
五哥	-10.64
肚皮	-10.64
心中怦怦乱跳	-10.64
咬牙	-10.64
凝目	-10.64
毫不理会	-10.64
抢上前去	-10.6401
汉语	-10.6401
七十二	-10.6401
慌乱	-10.6401
酸软	-10.6401
了半日	-10.6401
血迹	-10.6402
猛烈	-10.6402
老僧	-10.6403
旁观	-10.6403
快捷	-10.6403
算计	-10.6403
图画	-10.6403
康儿	-10.6403
报答	-10.6403
梅花	-10.6404
恶贼	-10.6404
望一眼	-10.6404
盖世	-10.6405
力大	-10.6405
第一次	-10.6406
上乘武功	-10.6406
手帕	-10.6406
盼望	-10.6406
进境	-10.6406
尖刀	-10.6407
雪地里	-10.6407
妙法	-10.6407
船只	-10.6408
更增	-10.6409
等他	-10.641
剑柄	-10.641
倚在	-10.641
原因	-10.6411
开门	-10.6411
等候	-10.6411
啸声	-10.6412
征服	-10.6413
现下我	-10.6413
来来来	-10.6414
重阳	-10.6414
三尺	-10.6415
兄长	-10.6415
坏事	-10.6415
五位	-10.6416
鞋子	-10.6416
老英雄	-10.6417
虚实	-10.6417
当场	-10.6417
跟人	-10.6418
好说	-10.6418
得干干净净	-10.6418
神妙	-10.6418
鬼怪	-10.6419
得悉	-10.6419
相隔	-10.6419
只吓得	-10.642
袖手	-10.6421
推举	-10.6421
袖子	-10.6422
样子	-10.6422
盘算	-10.6424
应声	-10.6424
不服	-10.6425
数月	-10.6426
怒目	-10.6426
究竟	-10.6427
另一人	-10.6427
硬接	-10.6428
客气	-10.6432
风流	-10.6433
收势	-10.6433
是蒙古	-10.6434
拦住	-10.6438
相同	-10.644
的名号	-10.6443
三年	-10.6443
一骑	-10.6446
该死	-10.6446
▁又过	-10.6447
的孩子	-10.6448
讲到	-10.6448
郭靖摇头	-10.6448
护住	-10.6448
梁上	-10.6451
掠过	-10.6452
一大	-10.6452
从旁	-10.6456
听声音	-10.6458
黑马	-10.6459
朱聪笑	-10.6461
三声	-10.6462
两旁	-10.6464
那样	-10.6464
的女儿	-10.6472
▁欧阳克见	-10.6474
任何	-10.6478
之约	-10.6491
汗国	-10.6491
西毒欧阳锋	-10.6495
西边	-10.6498
滑溜	-10.6499
眼见郭靖	-10.65
好教	-10.6503
要穴	-10.6504
抢上去	-10.6505
打坐	-10.6505
缺口	-10.651
尽头	-10.6512
你放心	-10.6513
下盘	-10.6514
听来	-10.6516
却没	-10.6517
架开	-10.6518
须知	-10.6519
一路上	-10.6519
才能	-10.6526
跌落	-10.6526
身在	-10.653
一杯	-10.6531
劈去	-10.6531
黄蓉心想	-10.6532
他想	-10.6533
别怕	-10.6534
门前	-10.6536
▁简长老	-10.6538
了这许多	-10.6538
事先	-10.654
头黑雕	-10.654
天外	-10.6542
道袍	-10.6544
找不到	-10.6551
心中大	-10.6553
连使	-10.6553
水声	-10.6554
一十五年	-10.6566
都不禁	-10.6566
不知这	-10.6574
的情状	-10.6579
皱	-10.6583
传到	-10.6583
钻进	-10.6596
崖边	-10.6601
我不是	-10.6601
枪头	-10.6603
说给	-10.6603
之至	-10.6604
随即又	-10.6607
不善	-10.6608
蹄印	-10.6609
就得	-10.6618
三日	-10.662
两头	-10.6622
又从	-10.663
再高	-10.663
两招	-10.6631
受到	-10.6632
有甚	-10.6632
抢出	-10.6633
抱了	-10.6633
后跃	-10.6634
不知她	-10.6638
那矮胖子	-10.6647
左首	-10.6649
结了	-10.665
有话	-10.6658
年幼	-10.6666
早有	-10.6666
你不用	-10.6666
这件	-10.6668
的威名	-10.6669
个筋斗	-10.6673
当此	-10.6677
说明	-10.668
点儿	-10.6683
冲出	-10.6683
老大	-10.6688
伸手往	-10.6705
松手	-10.6707
与周伯通	-10.6718
你若不	-10.6727
只求	-10.6729
的手段	-10.6732
大乱	-10.6733
来回	-10.6733
如不	-10.6733
瞧不见	-10.6736
向南	-10.6747
说说	-10.6749
柳树	-10.6755
绝无	-10.6756
自来	-10.6757
心中好生	-10.6762
个手势	-10.6764
几个人	-10.6773
上前去	-10.6775
她想	-10.6776
我且	-10.6778
的用意	-10.6782
门人	-10.6783
当今	-10.6783
之气	-10.6783
老怪	-10.6785
大门	-10.6786
几声	-10.6789
枪尖	-10.6792
珠宝	-10.6799
与杨康	-10.6802
脱下	-10.6807
手腕上	-10.6817
不攻	-10.6817
将自己	-10.6823
劲急	-10.6826
抬头望	-10.6828
二来	-10.6838
不喜欢	-10.6842
疾冲	-10.687
水面	-10.6875
一搭	-10.688
直冲	-10.6884
加上	-10.6885
作了	-10.6909
干么要	-10.6918
传下	-10.6926
但见她	-10.6929
还不是	-10.6935
喝问	-10.6936
数万	-10.6941
叫了起来	-10.6943
次日	-10.6944
囊中	-10.6957
滚开	-10.6958
真相	-10.6961
骷髅头	-10.6961
了大半	-10.6961
只听她	-10.6962
劲道	-10.6966
见到他	-10.6966
教她	-10.6967
一瞧	-10.6972
因为	-10.6972
情状	-10.6981
绕到	-10.6987
这时他	-10.6987
船身	-10.6993
只见一个	-10.6995
学了	-10.6996
进店	-10.7001
甚高	-10.701
十指	-10.7011
也非	-10.7015
十余丈	-10.7017
姓名	-10.7018
纸上	-10.7019
想起自己	-10.7019
伤我	-10.7021
一遍	-10.7027
名家	-10.7027
跌下	-10.7032
学会	-10.7047
御	-10.706
火光	-10.7072
绊	-10.7079
就走	-10.708
叹息	-10.7085
几人	-10.709
来找	-10.7092
醒转	-10.7113
寻找	-10.7116
轰	-10.7117
叫化子	-10.7122
株	-10.7123
剩	-10.7126
惜	-10.7126
骇	-10.7126
老贼	-10.7131
受苦	-10.7135
去接	-10.7143
排成	-10.7143
悉	-10.7144
松林	-10.7144
菱	-10.7145
躺在	-10.7146
与马钰	-10.7148
昂	-10.7152
蹄	-10.7153
砖	-10.7155
耽	-10.7155
肠	-10.7155
暗暗称奇	-10.7156
踪	-10.7156
财	-10.7158
恭	-10.7159
帐幕	-10.716
鲨	-10.716
鸽	-10.716
诵	-10.7161
迁	-10.7162
屁	-10.7162
a	-10.7162
诱	-10.7162
放在心上	-10.7163
夏	-10.7163
僵	-10.7163
羽	-10.7164
朵	-10.7164
界	-10.7164
柯	-10.7164
价	-10.7164
驻	-10.7164
白驼山	-10.7165
栽	-10.7165
追踪	-10.7165
枯	-10.7165
贤弟	-10.7165
泄	-10.7165
幽	-10.7165
孽	-10.7165
嗔	-10.7166
守御	-10.7166
罚	-10.7166
逊	-10.7166
炭	-10.7166
鸭	-10.7166
洋	-10.7166
森	-10.7166
毡	-10.7166
恨恨的	-10.7166
忿	-10.7166
铎	-10.7166
卓绝	-10.7166
庭	-10.7166
聘	-10.7166
马青雄	-10.7167
钝	-10.7167
霸	-10.7167
嘛	-10.7167
逍遥游	-10.7167
悲愤	-10.7167
悴	-10.7167
涨	-10.7167
大惑不解	-10.7167
叙	-10.7167
搁	-10.7167
溃	-10.7167
无意中	-10.7167
无论如何	-10.7167
漠北	-10.7167
陶	-10.7167
纵声长笑	-10.7167
h	-10.7167
聪明伶俐	-10.7167
梳	-10.7167
定睛看	-10.7167
队伍	-10.7167
深湛	-10.7167
粉身碎骨	-10.7167
踹	-10.7167
伯通	-10.7167
统率	-10.7168
判官笔	-10.7168
市镇	-10.7168
竹亭	-10.7168
面颊	-10.7168
默然不语	-10.7168
灶王爷	-10.7168
坐起身来	-10.7168
舒服	-10.7168
铁锚	-10.7168
惯了的	-10.7168
酋长	-10.7168
豹夫	-10.7168
颤抖	-10.7168
冰柱	-10.7168
蓬	-10.7169
杨家枪法	-10.7169
躺在地下	-10.7169
勾结	-10.7169
房屋	-10.7169
考较	-10.7169
包扎	-10.7169
油灯	-10.7169
财物	-10.7169
杂毛	-10.7169
恁地	-10.7169
计策	-10.717
不敢怠	-10.717
虎虎	-10.717
铁菱	-10.717
穆姑娘	-10.717
竹枝	-10.717
个大	-10.717
百倍	-10.7171
整治	-10.7171
驱蛇	-10.7171
圆圈	-10.7171
美丽	-10.7171
指尖	-10.7171
功劳	-10.7171
转眼之间	-10.7172
转眼间	-10.7172
曲师哥	-10.7173
绝顶	-10.7173
软鞭	-10.7173
蒙古大军	-10.7173
结义	-10.7174
丐帮帮主	-10.7174
放在桌上	-10.7174
三长老	-10.7174
铁扇	-10.7174
催马	-10.7175
告知	-10.7175
论剑	-10.7175
六王爷	-10.7175
习练	-10.7176
临敌	-10.7176
船尾	-10.7176
牛肉	-10.7177
葬身	-10.7177
化解	-10.7177
脑门	-10.7177
酒保	-10.7177
十余招	-10.7177
半夜里	-10.7178
但这时	-10.7178
护送	-10.7178
十里	-10.7178
渐感	-10.7178
舍不得	-10.7179
你在这里	-10.718
孤身	-10.718
除非	-10.718
玩玩	-10.718
急速	-10.718
过身来	-10.718
迎敌	-10.718
拳头	-10.7181
群蛇	-10.7181
孙子	-10.7181
立足不	-10.7181
左腿	-10.7181
追到	-10.7183
必须	-10.7183
发抖	-10.7183
指挥	-10.7183
您老	-10.7185
伸臂	-10.7186
部众	-10.7187
皇后	-10.7188
神功	-10.7188
先师	-10.7189
即令	-10.7189
现身	-10.7189
避让	-10.7191
恰好	-10.7191
眼色	-10.7191
这丫头	-10.7192
酒饭	-10.7192
笔直	-10.7192
之辈	-10.7192
对不起	-10.7193
右拳	-10.7193
战阵	-10.7194
大惊之下	-10.7194
之技	-10.7195
存心要	-10.7195
说谎	-10.7198
起伏	-10.7198
虚招	-10.7198
奔逃	-10.7199
香气	-10.7199
南方	-10.7199
接战	-10.72
以防	-10.7203
拆开	-10.7203
猛然	-10.7205
男人	-10.7205
一批	-10.7206
之忧	-10.7207
流传	-10.7209
纵起	-10.7211
布置	-10.7213
在归云庄上	-10.7214
连夜	-10.7219
尚自	-10.7219
那老儿	-10.7219
▁这日	-10.722
亲眼见到	-10.7223
进招	-10.7225
暗骂	-10.7225
最高	-10.7226
借着	-10.7227
墙上	-10.7227
写得	-10.7228
只恨	-10.723
幸得	-10.7235
忽然间	-10.7236
内堂	-10.7236
你怎知	-10.7243
百出	-10.7245
进入	-10.7249
托住	-10.7249
几时	-10.7254
天边	-10.7262
的人物	-10.7265
他必	-10.7267
饿死	-10.7269
便欲	-10.7269
跃过	-10.7275
交手	-10.7277
甚为	-10.7278
如果	-10.7282
毁了	-10.7282
花园	-10.7282
这一推	-10.7285
有难	-10.7287
料来	-10.7287
岂有	-10.7288
大队	-10.7288
老头	-10.7289
往事	-10.7291
处处	-10.7292
跟你说	-10.7292
不爱	-10.7294
人皮	-10.7296
一振	-10.7296
走入	-10.73
是天下	-10.7303
铁掌帮的	-10.7304
那天	-10.7304
对准了	-10.7309
抱住了	-10.7312
重行	-10.7313
大奇	-10.7313
就算是	-10.7317
拿出	-10.7317
能胜	-10.7318
听他说得	-10.7319
射死	-10.732
既不	-10.7323
▁朮赤	-10.7326
将上来	-10.7331
瞧这	-10.7332
得胜	-10.7336
放松	-10.7345
心惊	-10.7347
▁桑昆	-10.7349
小心了	-10.7362
料得	-10.7366
正是黄蓉	-10.7369
石屋	-10.737
退避	-10.7371
十余里	-10.7371
总得	-10.7371
久了	-10.7376
却未	-10.7376
一卷	-10.7377
▁全金发	-10.7378
大感	-10.738
之日	-10.7382
天黑	-10.7382
的徒弟	-10.7383
将洪七公	-10.7394
十五	-10.7399
大理	-10.7399
拂中	-10.7402
退出	-10.7403
一摆	-10.7406
身子已	-10.7413
海上	-10.7418
两个人	-10.7418
也不便	-10.7419
已给	-10.742
救她	-10.7424
伸手到	-10.7428
▁当下	-10.7438
入海	-10.7457
周围	-10.7462
一心要	-10.7463
点点	-10.7474
但想到	-10.7475
咱们先	-10.7477
大祸	-10.7479
自如	-10.7487
记挂	-10.7495
也不懂	-10.7496
才把	-10.7505
分手	-10.7508
的朋友	-10.7509
个圈子	-10.7515
踢中	-10.752
武功虽	-10.7529
怒喝	-10.7532
这功夫	-10.7539
练过	-10.7555
撞向	-10.7559
大腿	-10.757
带到	-10.7576
看着	-10.7583
但要	-10.7591
跃入	-10.7592
收了	-10.76
要吃	-10.7606
三十六	-10.7612
分心	-10.7619
来得	-10.7621
▁郭靖知道	-10.7622
曾在	-10.7651
也不禁	-10.7662
全都	-10.7672
半空	-10.7681
四个人	-10.7689
现在	-10.7691
他背心	-10.7693
再比	-10.7695
娶了	-10.7699
任你	-10.7704
学的	-10.7709
郭靖见她	-10.7711
穿了	-10.7721
或能	-10.7727
金狗	-10.7731
耀	-10.7741
人人都	-10.7745
一揖	-10.7748
这时却	-10.7748
叫了一声	-10.7752
你大师父	-10.7754
都吃了一惊	-10.7757
在地下一	-10.7758
掌上	-10.7761
感动	-10.7764
不避	-10.7779
奔上	-10.778
松了	-10.7781
端的	-10.7785
不会武功	-10.7791
在洞中	-10.7801
我和你	-10.7805
找我	-10.7807
醒来	-10.7811
话声	-10.7813
情景	-10.7814
丛	-10.7816
一松	-10.7821
挂着	-10.7822
必可	-10.7828
却非	-10.7829
齐上	-10.7832
二三	-10.7832
半个	-10.7835
了几次	-10.7836
飞来	-10.784
给你们	-10.7851
一夜	-10.7852
一千	-10.7861
顶门	-10.7867
大碗	-10.787
睡了	-10.787
收回	-10.7872
记住	-10.7878
呆呆	-10.7879
再斗	-10.7879
压在	-10.789
有事	-10.7892
版	-10.7904
一语	-10.7913
却只	-10.7929
也自	-10.7933
左边	-10.7936
下卷经文	-10.794
今儿	-10.794
厨	-10.7941
奸人	-10.7943
的匕首	-10.7948
叫人	-10.7949
说也	-10.7952
副	-10.7953
几句话	-10.7954
中之意	-10.7959
了进去	-10.7961
成名	-10.7963
凳	-10.7963
农夫	-10.7966
察	-10.7971
秋	-10.7974
她知	-10.7977
到临	-10.7982
役	-10.7982
扮	-10.7984
貌	-10.7985
在岛上	-10.7986
慈	-10.7986
眼望	-10.7987
黎	-10.7987
长草	-10.799
捷	-10.7992
捡	-10.7993
壶	-10.7994
桌边	-10.7994
妙手书生	-10.7995
贞	-10.7995
箱	-10.7995
律	-10.7995
延	-10.7995
不自禁的	-10.7996
吴	-10.7996
谋	-10.7996
落英神剑掌	-10.7996
充	-10.7997
盟	-10.7997
钓	-10.7997
释	-10.7997
寄	-10.7998
谨	-10.7998
藤枝	-10.7998
罕	-10.7998
戟	-10.7998
眺望	-10.7999
流下泪来	-10.7999
彼	-10.7999
敷	-10.7999
支持	-10.7999
单打独斗	-10.7999
欣喜	-10.7999
一男一女	-10.7999
哑	-10.7999
同归于尽	-10.7999
八袋弟子	-10.7999
篷	-10.7999
塌	-10.7999
愚	-10.7999
俄罗斯	-10.7999
一模一样	-10.7999
逗	-10.7999
洁	-10.8
往地下一	-10.8
驴	-10.8
桅	-10.8
纠缠	-10.8
四大长老	-10.8
交好	-10.8
撩	-10.8
者勒米	-10.8
李氏	-10.8
是何等样人	-10.8
黑黝黝的	-10.8
易筋锻骨篇	-10.8
甘愿	-10.8
统帅	-10.8
粥	-10.8
劈空掌	-10.8
倦	-10.8
沸	-10.8
伸了伸	-10.8
满脸通红	-10.8
斡儿朵	-10.8
陋	-10.8
闺女	-10.8
泄漏	-10.8
i	-10.8
款	-10.8
出其不意	-10.8
舒畅	-10.8
黄蓉嫣然	-10.8
貂裘	-10.8
瞬	-10.8
凌空	-10.8001
暴躁	-10.8001
分筋错骨手	-10.8001
裘老前辈	-10.8001
那也罢了	-10.8001
轻飘飘的	-10.8001
傍晚	-10.8001
祝	-10.8001
充耳不闻	-10.8001
七妹	-10.8001
织	-10.8001
父女俩	-10.8001
丰	-10.8001
娘娘	-10.8001
阴谋	-10.8001
喀的一声	-10.8001
背脊	-10.8001
窝	-10.8001
吐纳	-10.8001
较量	-10.8001
掌柜	-10.8002
侧身避过	-10.8002
霎时间	-10.8002
尺许	-10.8002
微一沉吟	-10.8002
应付	-10.8002
阻止	-10.8002
食盒	-10.8002
我知道啦	-10.8002
鼻息	-10.8002
数十丈	-10.8003
希奇	-10.8003
黄贤弟	-10.8003
昔日	-10.8003
海滩	-10.8003
逐一	-10.8003
叫唤	-10.8004
说甚么也不	-10.8004
灾	-10.8004
欺压	-10.8004
结果	-10.8004
索性	-10.8005
相貌	-10.8005
六弟	-10.8005
叹了一口气	-10.8005
老头儿	-10.8006
公平	-10.8006
酣斗	-10.8006
轻薄	-10.8006
胯下	-10.8007
反悔	-10.8007
沉沉	-10.8008
横卧	-10.8008
术数	-10.8008
四个儿子	-10.8008
长袍	-10.8008
流了下来	-10.8009
礁石	-10.8009
停留	-10.8009
刻着	-10.8009
愤怒	-10.801
久闻	-10.801
相逢	-10.801
黑夜中	-10.801
店家	-10.801
才好	-10.801
石板	-10.801
内息	-10.8011
哼哼	-10.8011
惨然	-10.8011
战士	-10.8011
的那个	-10.8011
示意	-10.8012
老和尚	-10.8012
站立	-10.8012
伞	-10.8013
相候	-10.8013
借势	-10.8014
脸露	-10.8015
倾听	-10.8015
手肘	-10.8015
全凭	-10.8015
蛇群	-10.8016
反复	-10.8017
离岛	-10.8019
惊醒	-10.8019
聚会	-10.8019
元气	-10.802
过了好一阵	-10.8021
轻挥	-10.8021
竟敢	-10.8021
江水	-10.8022
谁敢	-10.8022
精通	-10.8022
宛如	-10.8023
惨死	-10.8023
骑兵	-10.8023
精深	-10.8023
畜生	-10.8023
药物	-10.8024
飞扬	-10.8025
美酒	-10.8025
北边	-10.8025
数十招	-10.8025
逃脱	-10.8026
冒犯	-10.8026
乡下	-10.8027
精进	-10.8028
精明	-10.803
径行	-10.803
雪白	-10.8031
斜身	-10.8031
右手伸出	-10.8032
惊异	-10.8033
坐定	-10.8033
两块	-10.8034
服输	-10.8034
稻草	-10.8035
机会	-10.8035
拚着	-10.8035
两个娃娃	-10.8037
深深	-10.8037
盘膝坐在	-10.8038
摇手	-10.8039
部族	-10.804
旁观众人	-10.804
一把抓住	-10.8041
做个	-10.8043
白骨	-10.8044
长官	-10.8044
之境	-10.8046
何事	-10.8046
对答	-10.8046
心中一动	-10.8047
一放	-10.8047
非但	-10.8048
反击	-10.805
十余年来	-10.8051
首先	-10.8051
缝中	-10.8052
参见	-10.8052
但愿	-10.8054
伸掌	-10.8054
半分	-10.8055
如何不	-10.8055
正欲	-10.8055
你还不	-10.8059
一碟	-10.8061
情意	-10.8061
难怪	-10.8061
作势	-10.8061
有一天	-10.8064
追逐	-10.8067
双膝跪	-10.8068
宰了	-10.8068
送命	-10.8069
一步步的	-10.807
内伤	-10.8072
分明	-10.8072
负了	-10.8072
至此	-10.8073
住口	-10.8076
尽力	-10.8076
打败了	-10.8076
头皮	-10.8077
月光下只见	-10.8077
大梁	-10.8078
痛快	-10.8079
使不得	-10.808
有丝毫	-10.8082
点燃了	-10.8083
直击	-10.8083
这道人	-10.8084
逼着	-10.8085
正面	-10.8085
石梁	-10.8086
晕去	-10.8087
讨好	-10.8088
出版	-10.8088
两边	-10.8089
倒在地下	-10.8089
回掌	-10.809
踢去	-10.8094
奇门	-10.8095
大师哥	-10.8098
一死	-10.8098
床上	-10.8102
外号	-10.8103
记着	-10.811
哪一个	-10.8112
一扳	-10.8113
胡说	-10.8115
若有	-10.8117
这一日	-10.8118
下次	-10.812
转动	-10.812
守着	-10.8123
与全金发	-10.8124
▁博尔朮	-10.8125
拖雷与郭靖	-10.8129
老顽童周伯通	-10.8132
兵书	-10.8133
一向	-10.8136
▁黄蓉见他	-10.8139
中指	-10.8141
算数	-10.8147
箭射	-10.8149
关心	-10.815
陆地	-10.8165
这家伙	-10.8168
打人	-10.8169
回教	-10.817
替他	-10.8171
句句	-10.8173
要找	-10.8186
好险	-10.8191
也不理会	-10.8191
了一道	-10.8192
他怕	-10.8194
向内	-10.8195
追上	-10.8197
大声喝	-10.8198
竟把	-10.82
余下的	-10.8202
真心	-10.8204
说了出来	-10.8204
可比	-10.8206
甚么地方	-10.8206
长身	-10.8208
没见过	-10.821
我这就	-10.821
打个	-10.8215
▁南希仁	-10.8215
言下	-10.8219
干么不	-10.8221
有约	-10.8222
要请	-10.8223
若能	-10.8225
是不能	-10.8226
涌上	-10.8226
学过	-10.8231
定有	-10.8232
那孩子	-10.8238
回家去	-10.8241
就像	-10.8243
只说	-10.8244
大大的	-10.8244
▁这一下	-10.8244
当头	-10.825
交出	-10.8259
了良久	-10.8264
那也是	-10.8266
罢手	-10.8276
师门	-10.8276
在海中	-10.8276
算了	-10.828
取了	-10.8285
黄马	-10.8288
▁突然	-10.8293
你没	-10.8297
那有甚么	-10.8298
出圈子	-10.8298
一红	-10.83
突然之间	-10.83
的规矩	-10.83
逐渐	-10.8304
我不能	-10.8309
传人	-10.8316
如不是	-10.8321
乱打	-10.8328
去势	-10.8337
教过	-10.8337
平安	-10.8341
在临安	-10.8342
跟他们	-10.8351
又怎样	-10.8351
心中暗	-10.8353
现下你	-10.8369
言而	-10.8371
▁郭靖见他	-10.8372
向里	-10.8375
将经文	-10.8379
暗喜	-10.8384
不走	-10.8392
有话说	-10.8392
咱们再	-10.8397
响亮	-10.8401
虽已	-10.8419
的使者	-10.8423
大进	-10.8427
怕她	-10.8429
是天下第一	-10.8435
条鲨鱼	-10.8441
发劲	-10.8446
跃而起	-10.845
你要我	-10.845
已到了	-10.8454
呼喊	-10.8455
话来	-10.8464
放过	-10.8472
了结	-10.8475
有点儿	-10.8475
也算	-10.8478
缩身	-10.8482
不分	-10.8483
害我	-10.8484
尖刺	-10.8501
郭靖虽	-10.8514
眼见他	-10.8521
▁说话	-10.8522
说着将	-10.8527
不似	-10.8533
让他们	-10.8533
好菜	-10.8536
别再	-10.8536
脸有	-10.8544
桩	-10.8545
洞里	-10.855
身畔	-10.8552
去路	-10.856
到哪里	-10.856
行了	-10.8562
他肩头	-10.8572
从头	-10.8579
这两位	-10.8581
命在	-10.8583
这姑娘	-10.8596
有失	-10.8597
已不知去向	-10.8603
练得	-10.8604
胀	-10.8609
与欧阳克	-10.8612
郭靖低声	-10.8619
全然不	-10.8621
心里一	-10.8632
不遵	-10.8633
眼前一	-10.8641
喘	-10.8649
’!”	-10.8658
郭靖知道	-10.8662
刺来	-10.8676
师妹	-10.8677
醒了	-10.8683
你怕	-10.8685
要杀我	-10.869
原来如此	-10.8694
裤	-10.8696
更有	-10.8697
手势	-10.8704
一早	-10.8709
见到她	-10.8712
跟在	-10.8727
两颗	-10.8731
天明	-10.8734
心中暗暗	-10.8742
向欧阳克	-10.8749
我早	-10.875
几块	-10.8756
手爪	-10.8757
似有	-10.8763
死得	-10.8765
便知	-10.878
打了个	-10.8782
淡淡	-10.8785
洪七公哈哈大笑	-10.8786
垂下	-10.8791
材	-10.8795
郭靖怕	-10.8798
魔头	-10.8801
向梅超风	-10.8804
三个人	-10.8813
日子	-10.8818
怎么他	-10.8821
不轻	-10.8822
奇妙	-10.8823
打败	-10.8829
腹中	-10.8835
喉	-10.884
姓郭的小子	-10.8843
踢出	-10.8846
烛	-10.8851
都能	-10.8856
金环	-10.8864
妻	-10.8872
西行	-10.8872
嗅	-10.8874
半个时辰	-10.8877
兼	-10.888
睁	-10.8882
茅	-10.8883
筝	-10.8885
怜	-10.8889
至今	-10.8889
在梦中	-10.889
神骏	-10.889
遥	-10.889
碍	-10.8893
潮	-10.8894
琢磨	-10.8894
搏	-10.8897
拾	-10.8898
舵	-10.8898
焉	-10.8899
奋	-10.8901
鞍	-10.8902
波涛	-10.8902
拟	-10.8903
县	-10.8903
参仙老怪	-10.8904
距	-10.8905
咒	-10.8905
池	-10.8905
儒	-10.8905
滩	-10.8905
燃	-10.8905
粮	-10.8905
这两句话	-10.8905
岳武穆	-10.8905
弦	-10.8905
趋	-10.8906
质	-10.8906
瓶	-10.8907
鸦	-10.8907
返	-10.8907
货	-10.8907
馆	-10.8907
草莽	-10.8907
况	-10.8907
腐	-10.8907
北斗阵	-10.8908
葛	-10.8908
胡言乱语	-10.8908
七日七夜	-10.8908
污衣派	-10.8908
棍	-10.8908
逸	-10.8908
腻	-10.8908
剧烈	-10.8908
希奇古怪的	-10.8908
挪	-10.8908
净衣派	-10.8908
迷糊	-10.8908
揣	-10.8908
破口大骂	-10.8908
千夫长	-10.8908
莹	-10.8908
郭贤侄	-10.8909
沙漠	-10.8909
好端端的	-10.8909
姿式	-10.8909
灵机一动	-10.8909
遁	-10.8909
踪影	-10.8909
光芒	-10.8909
越听越	-10.8909
转瞬间	-10.8909
这些年来	-10.8909
伪	-10.8909
脸色惨白	-10.8909
趋避	-10.8909
醋	-10.8909
存心	-10.8909
檐	-10.8909
宣	-10.8909
粒	-10.8909
蒸	-10.8909
金刀驸马	-10.8909
肌肤	-10.8909
坏蛋	-10.8909
骄	-10.8909
塘	-10.8909
狼	-10.8909
蚌	-10.8909
的份儿	-10.8909
秃	-10.8909
盈盈	-10.8909
商议	-10.8909
兴高采烈	-10.8909
两头白雕	-10.8909
启	-10.8909
妒	-10.891
四大弟子	-10.891
性命不保	-10.891
点头称是	-10.891
余兆兴	-10.891
双腿一夹	-10.891
个寒噤	-10.891
惊疑不定	-10.891
侧过了头	-10.891
纹丝不动	-10.891
滑稽	-10.891
疑惑	-10.891
拢	-10.891
惶恐	-10.891
媚	-10.891
故乡	-10.891
侮辱	-10.891
农家	-10.891
瞪视	-10.891
蚌壳	-10.891
漆黑一团	-10.891
躬身行礼	-10.891
痊愈	-10.891
岳州	-10.891
这回事	-10.891
情势危急	-10.891
四张机	-10.891
境界	-10.891
检视	-10.891
傲慢	-10.8911
巨鲨	-10.8911
跟在后面	-10.8911
残废	-10.8911
支撑	-10.8911
包氏	-10.8911
恼恨	-10.8911
贪图	-10.8911
尤其	-10.8911
勇士	-10.8911
祖宗	-10.8911
白衣女子	-10.8912
暂且	-10.8912
何用	-10.8912
陆兄	-10.8912
恭喜	-10.8912
利器	-10.8913
双斧	-10.8913
女娃娃	-10.8913
空隙	-10.8913
西瓜	-10.8913
容颜	-10.8913
铁筝	-10.8913
跃上马背	-10.8913
咒骂	-10.8913
凶狠	-10.8913
隔了一会	-10.8914
雄雕	-10.8914
竭力	-10.8914
心中甚喜	-10.8914
狗王	-10.8914
斩首	-10.8915
乱成一团	-10.8915
听得清清楚楚	-10.8915
平素	-10.8915
隐居	-10.8915
剑术	-10.8916
再拆数	-10.8917
黑衣	-10.8917
老兄	-10.8917
凶猛	-10.8917
悲痛	-10.8918
任由	-10.8918
低呼	-10.8919
又是好笑	-10.8919
赴桃花岛	-10.8919
呆立	-10.8919
凝视着	-10.8921
威猛	-10.8921
立刻	-10.8921
低低	-10.8921
关切	-10.8921
南朝	-10.8921
混乱	-10.8922
轿子	-10.8922
绳子	-10.8922
安葬	-10.8922
歹人	-10.8923
也遂	-10.8923
任意	-10.8924
低微	-10.8924
反贼	-10.8924
抢步	-10.8924
一愕	-10.8924
江山	-10.8925
华筝妹子	-10.8925
幼小	-10.8925
相抵	-10.8925
神仙	-10.8926
渔舟	-10.8926
子孙	-10.8926
双掌齐	-10.8927
不测	-10.8927
激斗	-10.8928
当然是	-10.8928
援手	-10.8928
闭气	-10.8928
纵横	-10.8929
说不出话来	-10.8929
中心	-10.8929
在赵王府中	-10.8929
逼近	-10.8929
读者	-10.8929
提及	-10.8929
决非	-10.8929
携手	-10.893
追寻	-10.8931
居住	-10.8931
大半个时辰	-10.8934
郭大哥	-10.8934
守军	-10.8936
撒麻尔罕城	-10.8937
中秋	-10.8937
抢攻	-10.8937
海边	-10.8938
散乱	-10.8939
头戴	-10.8939
脚边	-10.894
松林中	-10.8942
天堂	-10.8943
人氏	-10.8943
洞外	-10.8943
字条	-10.8944
相差	-10.8944
衣带	-10.8944
两侧	-10.8945
不济	-10.8946
却似	-10.8946
乘马	-10.8947
散开	-10.8947
破解	-10.8947
无计	-10.8948
哭叫	-10.8949
身体	-10.8949
闻声	-10.895
烟雾	-10.8951
作恶	-10.8952
心念	-10.8952
铁枪庙	-10.8955
从来没	-10.8956
那怎么办	-10.8956
委实	-10.8957
那道姑	-10.8958
侧过	-10.8958
郭兄弟	-10.8958
更甚	-10.8959
一幅	-10.8961
一块大石	-10.8962
一共	-10.8963
刀法	-10.8963
忍住	-10.8964
温言	-10.8964
箭法	-10.8965
个个都是	-10.8966
鞭子	-10.8967
随口	-10.8968
插手	-10.8968
信口	-10.897
怕甚么	-10.8971
这老贼	-10.8972
挺起	-10.8972
急流	-10.8972
吐出	-10.8973
推门	-10.8974
这二人	-10.8974
的痕迹	-10.8974
门边	-10.8974
亲口	-10.8974
荒岛	-10.8975
在当地	-10.8978
在田	-10.8978
▁这一来	-10.898
大雨	-10.898
甲板上	-10.8982
洪七公叹	-10.8982
再也不敢	-10.8985
提醒	-10.8986
各处	-10.8987
帮着	-10.8987
枚毒菱	-10.8988
同门	-10.8988
助我	-10.899
藏身	-10.8991
跪倒	-10.8991
带领	-10.8992
两军	-10.8996
我只道	-10.8999
当面	-10.9003
的尸体	-10.9005
四方	-10.9005
光一闪	-10.9008
广大	-10.9009
所书	-10.9011
会意	-10.9011
是也不是	-10.9012
好东西	-10.9012
饿了	-10.9012
糟了	-10.9013
想不起	-10.9016
仇怨	-10.9018
洪七公摇头	-10.9018
迈步	-10.9019
▁那少女	-10.9021
穿过	-10.9023
右脚	-10.9025
半空中	-10.9029
将官	-10.9029
掌握	-10.9031
爱吃	-10.9032
找到了	-10.9036
上山来	-10.9036
岂是	-10.9036
真传	-10.9036
郭靖点点头	-10.9037
越来越是	-10.9037
之念	-10.9038
心血	-10.9039
这时才	-10.9039
下地来	-10.904
白发	-10.9041
事迹	-10.9045
众多	-10.9045
在西域	-10.9045
箭头	-10.9047
自己性命	-10.9048
百年	-10.9049
苦于	-10.9053
送来的	-10.9054
不像	-10.9062
两兄弟	-10.9062
极快	-10.9067
死啦	-10.907
口里	-10.907
生长	-10.9071
一灯大师的	-10.9072
在前	-10.9073
的脚	-10.9074
横过	-10.9077
火把	-10.9079
的方位	-10.9081
钻入	-10.9083
不敬	-10.9087
也很	-10.9088
的踪迹	-10.9088
背着	-10.91
说笑	-10.9102
小路	-10.9105
回转	-10.9106
抓到	-10.9107
十五年	-10.9112
几十	-10.9114
练成了	-10.9115
这一刀	-10.9117
也不知是	-10.9118
瞧不起	-10.9124
这臭小子	-10.9124
左手抓住	-10.9127
裤子	-10.9127
怎么又	-10.9129
几位	-10.9129
闪过	-10.913
好些	-10.9131
匹马	-10.9134
撞得	-10.914
只会	-10.914
下场	-10.9142
领教	-10.9146
你不是	-10.9147
这一惊	-10.915
除下	-10.9155
楼上	-10.9157
郭靖见他	-10.9161
这小丫头	-10.9166
了两下	-10.9167
大哭	-10.9171
无一不	-10.9171
偏要	-10.9176
解救	-10.9177
厅上	-10.9188
猛冲	-10.919
郭靖点头	-10.9193
出马	-10.9197
所说的	-10.9197
做大汗	-10.9198
刚要	-10.9199
像是	-10.9201
腕上	-10.9208
前行	-10.9209
谁都	-10.9212
李萍道	-10.9215
就请	-10.9216
极大的	-10.9217
那男子	-10.9218
这道士	-10.9225
想必	-10.9229
冲到	-10.9232
袍袖	-10.9232
我不知道	-10.9233
你六位师父	-10.9236
页	-10.9237
我妈妈	-10.9237
厉声喝	-10.924
而后	-10.9246
信了	-10.9252
甚感	-10.9253
追问	-10.9253
按在	-10.9257
甚么话	-10.9261
擒拿手	-10.9261
一端	-10.9263
拿到	-10.9265
那一招	-10.9276
竟已	-10.928
的力道	-10.9283
曾说	-10.929
这不是	-10.9293
那张	-10.9306
极重	-10.9311
说得是	-10.9312
顾不得	-10.9315
九个	-10.9316
将他们	-10.9318
虽只	-10.9318
睛	-10.9326
数招一	-10.9329
跟我说	-10.9336
高山	-10.9342
寻仇	-10.9344
南来	-10.9346
的衣袖	-10.935
一间	-10.9351
我本来	-10.9352
涌身	-10.9354
只道是	-10.9362
单是	-10.9364
了一眼	-10.9366
方得	-10.9366
九年	-10.9373
累了	-10.9377
的来历	-10.9397
喊声大	-10.9402
噗的一	-10.9404
脸上神色	-10.9406
他后心	-10.9425
石壁	-10.9425
知他是	-10.9426
上树	-10.9429
一抓	-10.9444
刀子	-10.9451
▁黄蓉心	-10.9455
所知	-10.9456
的手里	-10.9456
只见洪七公	-10.946
半天	-10.9463
在大漠	-10.9465
剑尖	-10.9466
我自然	-10.9471
在水中	-10.9486
可说	-10.9492
没死	-10.9494
也顾不得	-10.9496
与之	-10.9504
这掌	-10.9504
手下的	-10.9506
托在	-10.9506
你爱	-10.9515
正与	-10.9524
用心	-10.9531
洪七公与欧阳锋	-10.9539
劲风	-10.9539
全没	-10.9542
这小姑娘	-10.9543
对他说	-10.9561
在归云庄	-10.9569
点地	-10.9576
缚在	-10.9578
运功	-10.9578
真有	-10.958
赵王完颜洪烈	-10.9584
之手	-10.9586
伸手在	-10.9588
来接	-10.959
在此时	-10.9599
送来	-10.96
未必就	-10.9601
一意	-10.9603
▁黄蓉心想	-10.9616
这位是	-10.962
重又	-10.9621
当下把	-10.9623
他手臂	-10.9629
多说	-10.9637
只听黄蓉	-10.9645
书中	-10.965
声呼叫	-10.9658
只怕她	-10.9658
也就不	-10.9689
便想	-10.9692
大穴	-10.9698
不相干	-10.9701
只听欧阳锋	-10.9704
是血	-10.9709
说着向	-10.9711
势危	-10.9721
屋子	-10.9727
变成	-10.973
不准	-10.9731
一记	-10.9732
一只大	-10.9733
十万	-10.9741
有性命	-10.9744
分为	-10.9746
围住	-10.9746
叔侄	-10.9746
毫	-10.9748
若说	-10.975
怔	-10.9756
急驰	-10.9757
你爷爷	-10.9759
马前	-10.9765
伙	-10.9772
委	-10.9777
尸体	-10.9789
飘忽	-10.9795
厢	-10.9796
八个	-10.9796
下山去	-10.9804
求他	-10.9807
游动	-10.9809
好歹	-10.981
丸	-10.9812
都感	-10.9816
楚	-10.9818
宰	-10.982
还可	-10.9821
窗外	-10.9822
何人	-10.9824
尤	-10.9827
万人	-10.9828
上天	-10.9833
我六位师父	-10.9833
飞到	-10.9835
杀敌	-10.9835
了多少	-10.9837
碟	-10.9837
问她	-10.9838
襄阳	-10.9841
一枪	-10.9842
情由	-10.9843
毒菱	-10.9848
之士	-10.9848
谷	-10.9849
一点也不	-10.985
幅	-10.985
疾向	-10.9853
同声	-10.9854
始	-10.9854
缠住	-10.9859
比试	-10.9863
宁可	-10.9866
橱	-10.9868
靠在	-10.9869
无情	-10.9872
从没	-10.9872
铁尸	-10.9878
臀	-10.9879
浑不	-10.9882
难保	-10.9886
出气	-10.9887
学者	-10.9888
不打紧	-10.989
昔	-10.989
猎	-10.9895
思潮起伏	-10.9896
呵呵	-10.9896
微侧	-10.9897
喜色	-10.9897
帽	-10.9897
竭	-10.9899
宜	-10.9899
照着	-10.99
禀	-10.99
凝视	-10.9901
促	-10.9902
某	-10.9903
渡	-10.9903
顷刻	-10.9904
侯	-10.9905
凝望	-10.9905
墓碑	-10.9906
姿	-10.9906
判	-10.9906
妄	-10.9906
狼牙棒	-10.9906
喀喇	-10.9906
一瞬之间	-10.9906
只剩	-10.9907
哉	-10.9907
亚	-10.9907
彻	-10.9907
奶	-10.9907
锦帕	-10.9907
饰	-10.9907
八卦	-10.9907
校	-10.9907
盏	-10.9907
操	-10.9907
肤	-10.9908
骤	-10.9908
审	-10.9908
沙龙王	-10.9908
辰	-10.9908
秤	-10.9908
眼睁睁的	-10.9908
韵	-10.9908
坦	-10.9908
邦	-10.9908
涛	-10.9908
哄	-10.9908
铁链	-10.9908
不计其数	-10.9908
络	-10.9908
光明磊落	-10.9909
寨	-10.9909
玄门正宗	-10.9909
行侠仗义	-10.9909
卑鄙	-10.9909
参详	-10.9909
寡不敌众	-10.9909
芳	-10.9909
喧	-10.9909
狭	-10.9909
咱哥儿俩	-10.9909
得粉碎	-10.9909
猫	-10.9909
茫然不解	-10.9909
荷叶	-10.9909
那胖妇人	-10.9909
绑	-10.9909
一声长笑	-10.9909
言出如山	-10.9909
邻	-10.9909
窄	-10.9909
凤	-10.9909
诉	-10.9909
动上了手	-10.9909
渊	-10.9909
严峻	-10.9909
轩辕台	-10.9909
欧	-10.9909
燕	-10.9909
拘	-10.9909
惊怒交集	-10.9909
站立不稳	-10.9909
东奔西	-10.9909
毛骨悚然	-10.9909
纹	-10.9909
胎	-10.9909
凸	-10.9909
刹那间	-10.9909
汗巾	-10.9909
沉沉睡去	-10.9909
从头至尾	-10.9909
啰唆	-10.9909
官职	-10.9909
栏	-10.9909
疯疯癫癫	-10.9909
泻	-10.9909
灵蛇拳	-10.9909
侧耳倾听	-10.9909
喘息	-10.9909
帷	-10.9909
搓	-10.991
祭	-10.991
驸马爷	-10.991
长春真人	-10.991
涩	-10.991
计谋	-10.991
张家口	-10.991
豆腐	-10.991
应手而	-10.991
图谋	-10.991
欧阳叔侄	-10.991
大手印	-10.991
珍宝	-10.991
坚壁	-10.991
一小队	-10.991
蜡烛	-10.991
搏击	-10.991
疲累	-10.991
飞龙在天	-10.991
魁	-10.991
委顿	-10.991
感慨	-10.991
拂尘	-10.991
北极星位	-10.991
钱青健	-10.991
影踪不见	-10.991
浩	-10.991
木桶	-10.9911
舍侄	-10.9911
攀援	-10.9911
用得着	-10.9911
世伯	-10.9911
贼婆娘	-10.9911
喝彩	-10.9911
钱镖	-10.9911
呼哨	-10.9911
昏迷	-10.9911
捶	-10.9911
腾腾	-10.9911
医治	-10.9911
痛楚	-10.9911
岂敢	-10.9911
少庄主	-10.9912
元朝	-10.9912
顷刻之间	-10.9912
哭泣	-10.9912
戒指	-10.9912
丈许	-10.9912
栗	-10.9912
获胜	-10.9912
心中突突乱跳	-10.9912
仗义	-10.9913
缘故	-10.9913
京师	-10.9913
柯大哥	-10.9913
铁箱	-10.9913
遗训	-10.9913
前辈高人	-10.9913
凑巧	-10.9913
顷	-10.9913
决不致	-10.9913
苏	-10.9913
常言道	-10.9913
爱妻	-10.9914
了一个多时辰	-10.9914
显示	-10.9914
饮食	-10.9914
毒辣	-10.9914
跪在地下	-10.9914
兰花	-10.9914
光彩	-10.9914
惊慌	-10.9914
单凭	-10.9915
冒险	-10.9915
第三次	-10.9915
公鸡	-10.9915
东邪西毒	-10.9915
卫兵	-10.9916
学武之人	-10.9916
搔头	-10.9916
这门功夫	-10.9917
韩宝驹等	-10.9917
照顾	-10.9917
四哥	-10.9917
杨大哥	-10.9917
令尊	-10.9917
颤动	-10.9917
好哇	-10.9917
局面	-10.9917
旋转	-10.9917
老娘	-10.9918
杨帮主	-10.9918
眉目	-10.9918
险恶	-10.9918
掀开	-10.9918
不敢作声	-10.9919
宗师	-10.9919
微弱	-10.9919
躲避	-10.9919
晚间	-10.9919
禅房	-10.9919
拔出匕首	-10.992
树木	-10.992
无碍	-10.992
射雕	-10.992
兵士	-10.992
棒端	-10.992
千万别	-10.9921
立誓	-10.9921
纵身跃起	-10.9921
玩弄	-10.9921
拉扯	-10.9921
点穴功夫	-10.9921
数寸	-10.9922
千百	-10.9922
众军士	-10.9922
反手一掌	-10.9922
变故	-10.9922
士兵	-10.9922
抛在地下	-10.9922
得好快	-10.9922
上前相助	-10.9923
第三日	-10.9923
先锋	-10.9923
责骂	-10.9923
姓黄	-10.9924
内脏	-10.9924
无赖	-10.9924
出手相救	-10.9924
气愤	-10.9924
众亲兵	-10.9924
十多个	-10.9925
锦囊	-10.9925
热气	-10.9925
衣领	-10.9926
老先生	-10.9927
平平	-10.9927
脸颊上	-10.9927
默写	-10.9927
接应	-10.9927
短刀	-10.9927
▁第二十	-10.9928
沉猛	-10.9928
抢夺	-10.9929
美女	-10.9929
二十年前	-10.9929
斧头	-10.9929
性情	-10.993
虎口	-10.993
大纛	-10.993
那梢公	-10.993
站直	-10.9931
千户	-10.9931
拔足	-10.9931
抖动	-10.9931
疯子	-10.9932
筝声	-10.9932
正宗	-10.9932
绣着	-10.9933
众位	-10.9934
轻灵	-10.9934
尘头	-10.9935
里许	-10.9936
大缆	-10.9936
如雨	-10.9937
挥拳	-10.9937
径往	-10.9937
女鬼	-10.9938
远胜	-10.9938
后悔	-10.9938
相迎	-10.9938
这批	-10.9938
挺剑	-10.9938
南边	-10.9938
射箭	-10.9938
每个	-10.9939
装作	-10.994
我问你	-10.9941
高出	-10.9941
每日	-10.9941
宝马	-10.9942
在一边	-10.9942
山坡	-10.9942
转弯	-10.9942
重围	-10.9943
防身	-10.9943
传令	-10.9943
两个孩子	-10.9945
撒手	-10.9946
凶手	-10.9946
中神通	-10.9946
相帮	-10.9947
数合	-10.9947
阁下	-10.9947
马鞭	-10.9948
高低	-10.9948
刚猛	-10.9948
明月	-10.9948
叫苦	-10.995
满面	-10.995
怒色	-10.995
▁这一日	-10.995
颈后	-10.995
在人世	-10.995
殊不知	-10.995
一生之中	-10.9951
交情	-10.9951
中途	-10.9952
睡罢	-10.9953
金刀	-10.9954
全真教主	-10.9954
做官	-10.9955
破空	-10.9955
相传	-10.9955
一百年	-10.9956
有缘	-10.9957
起始	-10.9957
国家	-10.9958
若肯	-10.9959
笑问	-10.9959
失声	-10.9959
一凛	-10.996
下毒手	-10.996
两排	-10.9961
消了	-10.9963
见识	-10.9964
真实	-10.9965
正合	-10.9966
逼死	-10.9967
满口	-10.9967
无人能	-10.9967
上马背	-10.9968
是甚么意思	-10.9969
水流	-10.9969
就是这样	-10.997
山边	-10.9972
拳招	-10.9972
落在地下	-10.9973
平地	-10.9973
明言	-10.9975
格开	-10.9977
板凳	-10.9978
说到后来	-10.9978
翻转	-10.9979
还礼	-10.9979
快活	-10.9981
死活	-10.9981
河北	-10.9987
凭着	-10.9987
玩儿	-10.9987
书写	-10.9991
满地	-10.9992
在北京	-10.9993
四面	-10.9993
许配给	-10.9995
亲信	-10.9995
因而	-10.9996
深处	-10.9997
怒骂	-10.9997
陪笑	-10.9997
亲眼见	-10.9998
满身	-10.9999
▁完颜洪熙	-11
听见了	-11.0001
▁那少年	-11.0002
响声	-11.0002
曾与	-11.0003
虽在	-11.0005
驰马	-11.0005
两指	-11.0006
眼力	-11.0006
兵将	-11.0009
隐隐传来	-11.0009
近身	-11.0014
下拜	-11.0016
穿出	-11.0018
脚力	-11.0023
留心	-11.0027
闭住	-11.0029
▁那农夫	-11.0031
一转头	-11.0033
分给	-11.0034
这是甚么	-11.0037
好生为难	-11.0038
后梢	-11.0039
不通	-11.004
出外	-11.0041
好汉子	-11.0041
想得到	-11.0043
何方	-11.0046
一处	-11.0048
这中间	-11.0049
一顿饭	-11.0055
小菜	-11.0056
了几分	-11.0056
强行	-11.0057
街上	-11.0057
呆呆的	-11.0058
郭靖吃了一惊	-11.0058
蒙古语	-11.006
扣住	-11.006
显然是	-11.0062
▁群丐	-11.0064
精力	-11.0065
莫要	-11.0066
不杀	-11.0066
其后	-11.0068
要是给	-11.0071
大高手	-11.0077
犯了	-11.0081
分离	-11.0081
就往	-11.0081
说错了	-11.0083
殿上	-11.0086
压得	-11.0088
尽可	-11.0089
记住了	-11.009
▁黄蓉与郭靖	-11.0093
小指	-11.0095
取过	-11.0104
得多了	-11.0105
这句	-11.0105
胆小	-11.0107
▁都史	-11.0108
了几声	-11.0111
几个字	-11.0115
也不想	-11.0115
攻破	-11.0117
厅中	-11.0117
恶人	-11.012
也只是	-11.0123
连问	-11.013
除去	-11.0131
之期	-11.0132
活人	-11.0132
扰乱	-11.0142
杖上	-11.0143
▁江南七怪	-11.0144
名将	-11.0147
一会儿	-11.0149
更为	-11.0151
八九	-11.0156
经中所载	-11.0156
一程	-11.0157
你侄儿	-11.0162
好友	-11.0162
去禀告	-11.0164
含笑	-11.0164
道爷	-11.0165
国王	-11.0169
刺死	-11.017
大异	-11.0172
直扑	-11.0174
店堂	-11.0182
长生	-11.0184
大功	-11.0184
扑去	-11.0188
一份	-11.0191
够了	-11.0196
再想	-11.0196
有物	-11.0198
你叫我	-11.0207
直上	-11.0221
大举	-11.0224
约有	-11.0238
撞见了	-11.0242
的对头	-11.025
罢啦	-11.0252
蒙古话	-11.0253
回想	-11.0257
传我	-11.0258
的问话	-11.0259
阳光	-11.0261
情深	-11.0261
一顶	-11.0264
洪七公与郭靖	-11.027
自身	-11.0273
两手	-11.0277
却也是	-11.0279
船中	-11.0282
一首	-11.0287
决不敢	-11.0293
多时	-11.0298
挡住了	-11.0299
我大宋	-11.03
这首	-11.0303
甩出	-11.0304
临死	-11.0305
天天	-11.0312
请坐	-11.0316
胜于	-11.0317
经上	-11.032
触到	-11.032
推去	-11.032
陪你	-11.0321
也不见	-11.0321
但教	-11.0321
受人	-11.0322
书上	-11.0325
出店	-11.0327
不离	-11.0337
郭靖忙问	-11.0338
有这么	-11.034
叫好	-11.0347
如刀	-11.0348
姓郭的	-11.0355
奔来	-11.0355
的武艺	-11.0357
向陆冠英	-11.0371
刺入	-11.0373
的眼睛	-11.0374
竟无	-11.0378
十个	-11.0378
骂人	-11.0379
有几个	-11.0379
小可	-11.0399
直向	-11.0403
见大汗	-11.0407
却不能	-11.0411
风扑面	-11.0412
也只有	-11.0431
思念	-11.0434
难说	-11.0436
两只手	-11.0437
有这等	-11.0439
一变	-11.0439
输在	-11.0444
此间	-11.0445
没半点	-11.045
一角	-11.0456
一捏	-11.0456
我岂能	-11.0463
不欲	-11.0465
江心	-11.0466
眼见要	-11.0467
▁傻姑	-11.0472
助他	-11.0473
真人	-11.0476
不还手	-11.0476
三月	-11.0485
也不过	-11.0486
也不去	-11.0492
如此厉害	-11.0495
无事	-11.0497
正是自己	-11.0499
了一场	-11.0501
念及	-11.0505
众军	-11.0507
代他	-11.052
若不是他	-11.052
再练	-11.0527
出奇	-11.0535
来此	-11.0539
马蹄声	-11.054
不敢当	-11.0554
来船	-11.0556
不合	-11.0556
姓郭	-11.056
落得	-11.0563
黄蓉的手	-11.0564
个万人队	-11.0564
刀剑	-11.0566
东方	-11.0573
峰上	-11.0574
没入	-11.0582
便可	-11.0584
帐门	-11.059
一沉	-11.059
渐远	-11.0594
这里有	-11.0599
去买	-11.0617
直奔	-11.062
一页	-11.0629
却见她	-11.065
主要	-11.065
青布	-11.0663
瞪	-11.0671
只叫	-11.0682
碗酒	-11.0683
▁第三十	-11.0689
之位	-11.0692
也罢	-11.07
无声息	-11.071
影闪	-11.0711
被敌人	-11.0716
无辜	-11.072
还怕	-11.0734
禀告	-11.0745
叫嚷	-11.0758
说些	-11.0766
闪身	-11.0766
就在这里	-11.0777
陷入	-11.0778
几条	-11.0796
飞身而	-11.0805
是假	-11.0805
打扰	-11.0807
一直在	-11.0808
这画	-11.0821
▁第十	-11.0822
言明	-11.0847
抢去	-11.0855
拜了	-11.0864
郭靖听他	-11.0866
大宛	-11.0867
送出	-11.0877
均已	-11.0878
剥	-11.0879
要知	-11.0892
那小红马	-11.0899
太过	-11.0899
暇	-11.09
先将	-11.09
簌簌	-11.0901
本来是	-11.0911
▁渔	-11.0912
在水面	-11.0917
老者	-11.0921
只等	-11.0922
多半是	-11.0923
竟将	-11.0925
吼	-11.093
厨房	-11.0936
叫骂	-11.094
导	-11.0943
斟了	-11.0944
大殿	-11.0951
立时就	-11.0952
骏马	-11.0952
歹	-11.0964
见不到	-11.0968
黑夜之中	-11.097
▁黄蓉听他	-11.097
手执	-11.0971
已变	-11.0972
又多了	-11.0977
草堆	-11.0977
棺	-11.0979
不住向	-11.0983
武术	-11.0984
哪一位	-11.0992
也能	-11.0994
树丛	-11.0996
胁	-11.1
给了你	-11.1002
乃蛮	-11.1002
纷	-11.1003
骇然	-11.1005
议	-11.1006
入海中	-11.1006
恃	-11.1007
细问	-11.1008
肝	-11.1008
高强	-11.1008
奴	-11.1008
锭	-11.1008
逝	-11.1009
册	-11.101
颊	-11.1011
天下英雄	-11.1012
厉	-11.1013
班	-11.1014
戒	-11.1015
笼	-11.1016
钟	-11.1016
耸	-11.1017
迭	-11.1017
典	-11.1017
婿	-11.1017
岭	-11.1017
夷	-11.1017
掌劈	-11.1018
窟	-11.1018
腔	-11.1018
炒	-11.1018
侮	-11.1018
懂得	-11.1018
蔽	-11.1018
造诣	-11.1018
斡难河	-11.1018
舒	-11.1018
襟	-11.1019
苦寒之地	-11.1019
耶律楚材	-11.1019
东南西北	-11.1019
响当当的	-11.1019
偿	-11.1019
朴	-11.1019
卑	-11.1019
肌	-11.1019
纤夫	-11.1019
飕飕	-11.1019
傲	-11.1019
拙	-11.1019
蹙	-11.1019
辉	-11.1019
填	-11.1019
枢	-11.1019
蛾眉钢刺	-11.1019
躁	-11.102
瘤	-11.102
鲁莽	-11.102
双手互搏	-11.102
打定了主意	-11.102
灰尘	-11.102
铲	-11.102
透骨钉	-11.102
油腻	-11.102
涕	-11.102
咬紧牙关	-11.102
欧阳世兄	-11.102
自然而然的	-11.102
摧心掌	-11.102
影踪	-11.102
摩诃末	-11.102
一股大力	-11.102
溢	-11.102
柩	-11.102
奸臣	-11.102
抑	-11.102
小鬼	-11.102
银梭	-11.102
盾	-11.102
漫	-11.102
守城官	-11.102
红了脸	-11.102
沉吟半晌	-11.102
欠	-11.102
嫩	-11.102
扑地倒了	-11.102
秽	-11.102
放在眼里	-11.102
近年来	-11.102
锄	-11.102
好生失望	-11.102
判官	-11.102
心花怒放	-11.102
个窟窿	-11.102
修习内功	-11.102
摧	-11.102
将信将疑	-11.102
森森	-11.102
丹阳子马钰	-11.102
把持不定	-11.102
斜睨	-11.102
黑袍将军	-11.102
薰	-11.102
行了一礼	-11.102
筵	-11.1021
赦	-11.1021
过意不去	-11.1021
汴梁	-11.1021
违抗	-11.1021
幽幽	-11.1021
痰	-11.1021
网	-11.1021
予	-11.1021
畏惧	-11.1021
维	-11.1021
员	-11.1021
庆	-11.1021
戒备	-11.1021
沫	-11.1021
鲁钝	-11.1021
奈何他不得	-11.1021
山坳	-11.1021
走来走去	-11.1021
差不多	-11.1021
及不上	-11.1021
头下脚上	-11.1021
怜惜	-11.1021
渊源	-11.1021
嘘	-11.1021
炮	-11.1021
曲曲折折	-11.1021
这便如何	-11.1021
临安府牛家村	-11.1021
啐	-11.1021
藉	-11.1021
麻袋	-11.1021
宾	-11.1021
隐瞒	-11.1021
懈	-11.1021
脂	-11.1021
刊	-11.1021
总纲	-11.1021
程师妹	-11.1021
呆了一呆	-11.1021
靴	-11.1021
鬓边	-11.1021
圆睁	-11.1021
幸亏	-11.1021
窘	-11.1021
这幅画	-11.1021
首级	-11.1021
屏风	-11.1022
兮	-11.1022
洪老前辈	-11.1022
恢复	-11.1022
服饰	-11.1022
烛台	-11.1022
动也不动	-11.1022
吹奏	-11.1022
江南六侠	-11.1022
嘴巴	-11.1022
不住口的	-11.1022
倾侧	-11.1022
自刎	-11.1022
霎时之间	-11.1022
教训	-11.1022
焚烧	-11.1022
绞盘	-11.1022
宛然	-11.1022
尹师兄	-11.1022
勃然	-11.1023
好极啦	-11.1023
艰难	-11.1023
筹划	-11.1023
远处传来	-11.1023
音讯	-11.1023
大惊失色	-11.1023
一碰	-11.1023
岛主	-11.1023
比武之约	-11.1023
嘴唇	-11.1023
变幻	-11.1023
爱怜	-11.1023
劝阻	-11.1023
歹毒	-11.1023
昏晕	-11.1023
臭叫化	-11.1023
耀眼	-11.1023
一声长啸	-11.1024
紧紧抓住	-11.1024
一般见识	-11.1024
一身武功	-11.1024
猛然间	-11.1024
太阳穴	-11.1024
齐声惊呼	-11.1024
本拟	-11.1024
不堪	-11.1024
静候	-11.1024
树叶	-11.1024
天色渐	-11.1024
奇幻	-11.1025
蛇奴	-11.1025
形状	-11.1025
意中人	-11.1025
丐帮的帮主	-11.1025
疾驰	-11.1025
两名军士	-11.1025
隔了半晌	-11.1025
作揖	-11.1025
不知怎的	-11.1025
受内伤	-11.1025
不敢违拗	-11.1025
循声	-11.1025
所用的	-11.1025
南征	-11.1025
裘帮主	-11.1025
众兵将	-11.1026
俨然	-11.1026
放屁	-11.1026
玉环	-11.1026
谈谈	-11.1026
爱惜	-11.1026
右腕	-11.1026
陆师哥	-11.1026
一般无异	-11.1026
村民	-11.1026
妙计	-11.1027
石盒	-11.1027
送了性命	-11.1027
领袖	-11.1027
落下地来	-11.1027
团团围住	-11.1027
隔室	-11.1027
喜慰	-11.1027
贵帮	-11.1027
满腹	-11.1027
三子窝阔台	-11.1027
泥沙	-11.1027
多少时候	-11.1028
微晃	-11.1028
特异	-11.1028
睁眼	-11.1028
极厉害的	-11.1028
枉然	-11.1028
拂穴	-11.1028
烛光下	-11.1029
讲解	-11.1029
钦使	-11.1029
群盗	-11.1029
喜悦	-11.1029
吐露	-11.103
抵敌	-11.103
违背	-11.103
忍痛	-11.103
筷子	-11.103
各族	-11.103
婚事	-11.103
冤家	-11.1031
师尊	-11.1031
料理	-11.1031
兔子	-11.1032
躲了起来	-11.1032
小畜生	-11.1032
撇下	-11.1032
半尺	-11.1032
弯曲	-11.1033
渗出	-11.1033
金珠	-11.1033
为妻	-11.1034
一旦	-11.1034
长啸	-11.1034
整日	-11.1034
字迹	-11.1034
相烦	-11.1035
身子一晃	-11.1035
境内	-11.1036
宁海	-11.1037
失色	-11.1037
允可	-11.1037
十多名	-11.1037
给我瞧瞧	-11.1038
仇敌	-11.1038
休想	-11.1038
厉害无比	-11.1038
长辈	-11.1038
游玩	-11.1038
容色	-11.1038
毒性	-11.1038
椅子	-11.1038
乘坐	-11.1038
之遥	-11.1038
那老仆	-11.1038
柔和	-11.1039
够啦	-11.1039
悲伤	-11.104
纵身过去	-11.104
▁焦木	-11.104
幼子	-11.1041
决不肯	-11.1041
缠斗	-11.1041
均各	-11.1041
损伤	-11.1041
向郭靖望了一眼	-11.1041
乃蛮人	-11.1042
吃惊	-11.1042
那妖妇	-11.1042
疾奔	-11.1042
义女	-11.1043
之类	-11.1043
杯口	-11.1043
脚步声	-11.1043
假意	-11.1043
莫怪	-11.1043
睡着	-11.1046
结亲	-11.1046
杖法	-11.1046
树丛中	-11.1046
北国	-11.1047
后辈	-11.1048
次日清晨	-11.1049
争斗	-11.105
痛哭	-11.105
舍命	-11.105
黑色	-11.1051
恨不得	-11.1052
斗在一起	-11.1052
相顾	-11.1052
微变	-11.1052
二位	-11.1052
第二日	-11.1053
挥刀	-11.1053
拥着	-11.1053
众百姓	-11.1053
溜走	-11.1053
咱们走罢	-11.1054
冷然	-11.1055
一出手就	-11.1055
玩意	-11.1055
结拜	-11.1056
对望了一眼	-11.1057
隐没	-11.1058
年纪虽	-11.1058
运力	-11.1058
七日	-11.1059
敬重	-11.1059
非常	-11.1059
请各位	-11.1059
遍地	-11.1059
要走	-11.106
行径	-11.1061
心存	-11.1061
恶意	-11.1061
单身	-11.1062
感奇怪	-11.1063
僧人	-11.1063
五怪	-11.1065
自古	-11.1065
拍马	-11.1065
身侧	-11.1065
两柄	-11.1065
到西	-11.1065
▁张十五	-11.1067
却不见	-11.1068
统兵	-11.1068
全黑	-11.1069
这个自然	-11.107
说几句话	-11.1072
进退	-11.1072
直流	-11.1072
一丛	-11.1074
甚远	-11.1074
不知不觉	-11.1075
甚至	-11.1076
闪烁	-11.1076
郭二人	-11.1076
落败	-11.1076
岂不是好	-11.1077
到了这里	-11.1078
位当	-11.108
大王子	-11.1081
武功大进	-11.1082
放箭	-11.1083
口边	-11.1084
毕生	-11.1084
追击	-11.1085
全神	-11.1085
岸上	-11.1086
负着	-11.1086
其意	-11.1087
从人丛中	-11.1087
狗子	-11.1087
▁那道士	-11.1088
中午	-11.1088
睡着了	-11.1089
小童	-11.109
一项	-11.1091
扑上去	-11.1092
首诗	-11.1093
▁过了良久	-11.1093
一代	-11.1093
决不可	-11.1094
不清楚	-11.1095
却始终	-11.1095
歌声	-11.1095
给你听	-11.1096
隔着	-11.1096
▁黄药师见他	-11.1099
抢起	-11.11
使一招	-11.1101
回臂	-11.1102
后领	-11.1103
长衣	-11.1104
仍在	-11.1105
轻重	-11.1107
回首	-11.1109
两张	-11.111
摆着	-11.111
舱中	-11.111
毒发	-11.111
来找我	-11.111
洞内	-11.1111
两腿	-11.1111
儿女	-11.1112
一线	-11.1114
正当	-11.1114
走过去	-11.1116
固是	-11.1117
能把	-11.1118
内外	-11.1122
起身来	-11.1122
领着	-11.1122
练门	-11.1123
得远了	-11.1123
昏暗	-11.1126
在太湖	-11.1129
十四	-11.1129
临安牛家村	-11.113
探出	-11.1131
湖上	-11.1133
给周伯通	-11.1137
这时候	-11.1137
发一声	-11.1137
你可知道	-11.1137
击落	-11.1138
带动	-11.1139
之徒	-11.1139
奸计	-11.1141
不暇	-11.1142
数十年来	-11.1145
此外	-11.1147
脸如	-11.1148
前日	-11.1149
高招	-11.1151
豪杰之士	-11.1151
好得很	-11.1152
溪水	-11.1152
心跳	-11.1153
松开	-11.1156
之义	-11.1159
喷出	-11.116
高声大叫	-11.1163
逼开	-11.1164
缸中	-11.1166
椅上	-11.1168
好熟	-11.117
▁待得	-11.1171
又怎会	-11.1172
瞥眼	-11.1172
那小子	-11.1174
小朋友	-11.1179
吃力	-11.1181
相待	-11.1182
不坏	-11.1183
幸而他	-11.1184
抢先	-11.1185
将上去	-11.1186
满心	-11.1192
掌影	-11.1192
我们兄弟	-11.1199
在左近	-11.1199
▁陈玄风	-11.12
当下也不	-11.1202
接住了	-11.1204
答允了	-11.1204
时光	-11.1206
一大片	-11.1211
轻舟	-11.1212
虽高	-11.1213
▁察合台	-11.1214
相处	-11.1217
抓着	-11.1218
难事	-11.1218
无知	-11.1221
这样一个	-11.1223
假山	-11.1223
跟我们	-11.1223
你也来	-11.1226
出拳	-11.1227
来找你	-11.1228
大险	-11.1228
就怕	-11.1229
难报	-11.1229
爹爹说	-11.123
取笑	-11.1232
围住了	-11.1234
拍去	-11.1235
已抓住了	-11.124
深意	-11.1241
下毒	-11.1245
饶你	-11.1247
怎么知道	-11.1247
大义	-11.1249
还没有	-11.1249
后会	-11.1252
引得	-11.1256
随后跟	-11.1259
上楼	-11.1263
杀得好	-11.1263
记起	-11.1263
处死	-11.1265
瞧瞧去	-11.1266
摔得	-11.1267
在赵王府	-11.127
任谁	-11.1274
说得好	-11.1276
你妈	-11.1278
压住	-11.1283
路子	-11.1287
大家都	-11.1287
击出	-11.1291
一抬	-11.1292
▁各人	-11.1295
婆婆	-11.1297
内心	-11.1297
回马	-11.1302
只用	-11.131
倒地	-11.1315
胡涂了	-11.1317
好似	-11.1328
送上	-11.1329
听他们	-11.1329
向敌人	-11.1333
下树	-11.1336
整整齐齐的	-11.1338
万难	-11.134
将过去	-11.1341
奔得	-11.1343
从头顶	-11.1344
说着伸手	-11.1347
兵力	-11.1359
得呆了	-11.1359
声息	-11.136
要设法	-11.1363
只打得	-11.1363
揖	-11.1365
着地滚	-11.1372
每晚	-11.1378
双手齐	-11.1378
数倍	-11.1381
实在太	-11.1381
刺杀	-11.1385
在远处	-11.1387
冲入	-11.1393
▁过了	-11.1394
跃下马	-11.1394
快逃	-11.1396
有甚么事	-11.1399
冲去	-11.14
颇感	-11.1403
有理	-11.1408
自必	-11.1419
十七八	-11.1421
是假的	-11.1421
这次是	-11.1423
喝得	-11.1425
没见到	-11.1426
那姑娘	-11.1427
他叔父	-11.1427
伐金	-11.1429
我不信	-11.1435
来瞧瞧	-11.1453
顿足	-11.1454
再教	-11.1454
你们两人	-11.1454
在他身旁	-11.1458
大刀	-11.1469
谢了	-11.1476
一刻	-11.1484
割下	-11.1486
一桩	-11.1487
人数	-11.1492
▁忽听	-11.1493
挡得住	-11.1509
放在怀	-11.1512
骗我	-11.1512
身上穿	-11.1521
脚踢	-11.1521
少年人	-11.1522
人声	-11.153
见物	-11.153
停在	-11.1531
避开了	-11.1533
点到	-11.1535
却见他	-11.1538
几口	-11.1543
右边	-11.1544
终究是	-11.1549
也不愿	-11.1551
见他脸色	-11.1551
不相识	-11.1557
竟要	-11.1558
飞脚	-11.1565
大内	-11.158
屋中	-11.1588
怎么能	-11.1596
乘他	-11.1597
溜下	-11.1601
快些	-11.1601
正急	-11.1602
到嘉兴	-11.1609
噗	-11.1617
并肩而	-11.1618
点去	-11.1619
过于	-11.1637
都曾	-11.1649
也只得	-11.165
把经文	-11.1664
就算你	-11.1669
胜他	-11.1669
说着便	-11.1672
只知	-11.1675
门后	-11.1677
柯镇恶铁杖	-11.1688
不放心	-11.169
南归	-11.1696
拉住他的	-11.1701
扑面	-11.1708
直刺	-11.1719
筋斗	-11.1731
欧阳锋与裘千仞	-11.1731
微有	-11.1749
三颗	-11.175
贴身	-11.1759
的绳索	-11.1773
解说	-11.1776
不报	-11.1781
这四人	-11.1781
所有的	-11.1788
并没	-11.18
太平	-11.1804
的敌手	-11.1805
的脑袋	-11.1809
震断	-11.1811
▁这时郭靖	-11.1812
一交跌	-11.1815
见了这	-11.1821
北上	-11.183
也未必能	-11.1831
出城	-11.1833
看来这	-11.1835
年间	-11.1835
袍袖一	-11.1836
中所载	-11.1839
村子	-11.1854
加劲	-11.1856
三截	-11.1856
是何	-11.187
弹子	-11.1873
听话	-11.1878
说了几句话	-11.1888
还会	-11.1889
愿意	-11.1894
的眼光	-11.1901
或以	-11.1902
会使	-11.191
脚底	-11.1919
用刀	-11.1923
你瞧我	-11.1962
找个	-11.1968
逼我	-11.1973
城外	-11.1999
▁郭靖听他	-11.2025
踪迹	-11.2025
坐倒	-11.2027
七八个	-11.2032
背向	-11.2033
众人见他	-11.2036
发箭	-11.2038
和蓉儿	-11.2047
被他们	-11.2054
无心	-11.2055
去寻	-11.2057
十岁	-11.2062
的人影	-11.2071
老丐	-11.2071
夺去	-11.2073
一十八年	-11.2078
番	-11.2105
便似	-11.2107
在洞口	-11.2109
向众人	-11.211
藏僧	-11.2116
流下	-11.2128
英雄豪杰	-11.2128
第三个	-11.2135
姑	-11.2137
你可知	-11.2146
相扶	-11.2147
额	-11.2149
一探	-11.2152
怎不	-11.2156
日久	-11.2167
扑到	-11.2168
纵出	-11.2169
双膝	-11.2171
无仇	-11.2173
一提	-11.2176
话未	-11.2178
还了一	-11.2187
挂在	-11.2191
给了他	-11.2191
飞过	-11.2202
已失	-11.2214
趣	-11.2217
大陆	-11.2224
坡	-11.2227
不禁暗暗	-11.2229
悦	-11.2229
去盗	-11.2233
此人武功	-11.2233
虽知	-11.2234
缩手	-11.2236
缆	-11.2236
上卷经文	-11.2238
汗血宝马	-11.2238
梢公	-11.224
☆	-11.2241
金国钦使	-11.2245
赫然是	-11.2248
遂	-11.2249
在外面	-11.2251
充满	-11.2253
纪	-11.2259
霎	-11.226
模	-11.226
丫	-11.226
恍	-11.2261
筷	-11.2261
藤	-11.2261
幻	-11.2261
耐	-11.2261
搔	-11.2261
评	-11.2262
超	-11.2262
伟	-11.2263
概	-11.2263
凄	-11.2263
叹了一口	-11.2263
s	-11.2263
胖子	-11.2264
缰	-11.2264
刃锋	-11.2265
屏	-11.2265
金龙鞭	-11.2265
候在	-11.2265
农	-11.2266
循	-11.2266
泰	-11.2266
轴	-11.2266
忆	-11.2267
范	-11.2267
鬓	-11.2267
熙	-11.2267
吠	-11.2268
检	-11.2268
尹	-11.2268
瘟疫	-11.2268
棋	-11.2268
旺	-11.2268
津	-11.2268
必有蹊跷	-11.2268
樱桃	-11.2268
敝	-11.2268
一瞬间	-11.2268
仄	-11.2268
寇	-11.2268
焰	-11.2269
鬼门龙王	-11.2269
成两截	-11.2269
泣	-11.2269
眼前金星	-11.2269
开玩笑	-11.2269
锚	-11.2269
为两截	-11.2269
仓卒	-11.2269
焚	-11.2269
新元史	-11.2269
帖	-11.2269
膺	-11.2269
冯	-11.2269
勤修苦练	-11.2269
扑通一声	-11.2269
马王神韩宝驹	-11.2269
佑	-11.2269
念念不忘	-11.2269
伸伸舌头	-11.2269
安抚使	-11.2269
翘	-11.2269
噗哧一	-11.2269
绰	-11.2269
斫	-11.2269
蕴	-11.2269
在天之灵	-11.2269
悄没声的	-11.2269
蹲下身来	-11.2269
椎	-11.2269
基	-11.2269
出神入化	-11.2269
灯笼	-11.2269
唾	-11.2269
豆	-11.2269
转过头去	-11.2269
钧	-11.2269
猿	-11.227
瞬息之间	-11.227
嗣	-11.227
绪	-11.227
冠英	-11.227
得滚瓜烂熟	-11.227
那柄匕首	-11.227
哈里发	-11.227
惑	-11.227
刮	-11.227
朦胧	-11.227
调匀呼吸	-11.227
依样葫芦	-11.227
卜	-11.227
巴格达	-11.227
忽都虎	-11.227
熄	-11.227
从怀里取出	-11.227
哇哇大叫	-11.227
扒	-11.227
似笑非笑	-11.227
大功告成	-11.227
溺	-11.227
雀	-11.227
香雪厅	-11.227
白驼山少主	-11.227
心痒难搔	-11.227
武功最强	-11.227
认贼作父	-11.227
惭	-11.227
梁老怪	-11.227
胫	-11.227
添	-11.227
不约而同的	-11.227
相顾骇然	-11.227
东闪西	-11.227
叶三姐	-11.227
拜伏在地	-11.227
沟	-11.227
胖瘦二丐	-11.227
悠	-11.227
渴	-11.227
千方百计	-11.227
摇头晃脑	-11.227
转过了头	-11.227
那书记	-11.227
就此罢手	-11.227
仆役	-11.227
盈	-11.227
酿	-11.227
霞	-11.227
低下了头	-11.227
孕	-11.227
搞	-11.227
元帅	-11.227
偎	-11.227
浪得虚名	-11.227
移形换位	-11.227
诛	-11.227
又好气又好笑	-11.227
天下无敌	-11.227
锵	-11.227
俏	-11.227
忒	-11.227
t	-11.227
黄蓉抿嘴	-11.227
也不以为意	-11.227
救命之恩	-11.227
登峰造极	-11.227
线索	-11.227
霍	-11.227
说不出口	-11.227
呵	-11.227
转过头来	-11.2271
那天竺僧人	-11.2271
w	-11.2271
傻里傻气	-11.2271
喜出望外	-11.2271
洞房花烛	-11.2271
满脸怒容	-11.2271
甘拜下风	-11.2271
肚腹	-11.2271
偏袒	-11.2271
伸出手去	-11.2271
标	-11.2271
默不作声	-11.2271
尾巴	-11.2271
胸膛	-11.2271
那童子	-11.2271
僵尸	-11.2271
弩	-11.2271
冈	-11.2271
愁眉苦脸	-11.2271
渺	-11.2271
禅院	-11.2271
议论	-11.2271
掳掠	-11.2271
眼眶	-11.2271
美人儿	-11.2271
炙	-11.2271
鸳鸯五珍脍	-11.2271
差愕	-11.2271
黄家妹子	-11.2271
保佑	-11.2271
机伶	-11.2271
仅	-11.2271
区区	-11.2271
腮	-11.2271
衙役	-11.2271
鉴	-11.2271
魄	-11.2271
吻	-11.2271
懊悔	-11.2271
激射而出	-11.2271
猎豹	-11.2271
精研	-11.2271
一名武官	-11.2271
伊	-11.2271
廊	-11.2271
窒滞	-11.2271
罐	-11.2271
欧阳公子	-11.2271
两个时辰	-11.2271
怦	-11.2271
大发脾气	-11.2271
欺辱	-11.2271
目眩	-11.2271
桃花	-11.2271
太监	-11.2271
嫂子	-11.2271
盘膝而坐	-11.2271
讲述	-11.2271
奋勇	-11.2271
寡妇	-11.2271
一忽儿	-11.2271
这会儿	-11.2272
琴	-11.2272
盖运聪	-11.2272
齐声喝彩	-11.2272
不加理会	-11.2272
繁星	-11.2272
臂膀	-11.2272
深谷	-11.2272
师姊	-11.2272
翠寒堂	-11.2272
倏忽之间	-11.2272
告辞	-11.2272
一拉郭靖	-11.2272
是何用意	-11.2272
金盔	-11.2272
鸳鸯织就欲双飞	-11.2272
碧绿	-11.2272
逃得性命	-11.2272
糟糕	-11.2272
求恳	-11.2272
污泥	-11.2272
吹箫	-11.2273
谭师哥	-11.2273
分毫	-11.2273
扳桨	-11.2273
激烈	-11.2273
施展轻功	-11.2273
快如闪电	-11.2273
这部经书	-11.2273
周密	-11.2273
脑海中	-11.2273
展开轻功	-11.2273
齐声欢呼	-11.2273
鬼门龙王沙通天	-11.2273
责备	-11.2273
恩怨	-11.2273
面貌	-11.2273
牛鼻子	-11.2274
乘隙	-11.2274
傻哥哥	-11.2274
佛像	-11.2274
跃下地来	-11.2274
腋下	-11.2274
轮流	-11.2274
保护	-11.2274
完颜兄弟	-11.2274
妙策	-11.2274
在风中	-11.2274
抵挡得住	-11.2274
肥肉	-11.2274
臭尿	-11.2274
站稳	-11.2274
长子朮赤	-11.2274
宰相	-11.2274
统领	-11.2275
欺骗	-11.2275
一时说不出话来	-11.2275
家叔	-11.2275
遇险招	-11.2275
钦服	-11.2275
情不自禁的	-11.2275
站在一旁	-11.2275
退了两步	-11.2275
站在当地	-11.2275
眉毛	-11.2275
凝思	-11.2275
无聊	-11.2276
柔软	-11.2276
屋角	-11.2276
墙壁	-11.2276
背叛	-11.2276
受重伤	-11.2276
铁箫	-11.2276
扭曲	-11.2276
恍然	-11.2276
连声答应	-11.2276
务须	-11.2277
转舵	-11.2277
萧	-11.2277
紧迫	-11.2277
紧闭	-11.2277
碎片	-11.2277
诗词	-11.2278
他妈的	-11.2278
愁苦	-11.2278
任凭	-11.2278
凶恶	-11.2278
可怖	-11.2278
此际	-11.2278
呀的一声	-11.2278
怎肯	-11.2278
门缝中	-11.2278
粗索	-11.2278
十五招	-11.2278
流泪	-11.2278
苦恼	-11.2278
照料	-11.2278
逼迫	-11.2279
不敢逼近	-11.2279
铁尸梅超风	-11.2279
自恃	-11.2279
手里拿着一	-11.2279
久仰	-11.2279
同伴	-11.2279
携带	-11.228
毒蛇咬	-11.228
你们两个娃娃	-11.228
冰冷	-11.228
受辱	-11.228
太公	-11.228
红肿	-11.228
密令	-11.228
教了我	-11.228
尖利	-11.2281
决胜	-11.2281
发颤	-11.2281
不住倒退	-11.2281
斗胆	-11.2281
册子	-11.2282
异样	-11.2282
大拇指	-11.2282
隐约	-11.2282
节拍	-11.2282
称谢	-11.2283
脱险	-11.2283
使将出来	-11.2283
石油	-11.2283
动上手	-11.2283
才智	-11.2283
手中拿着	-11.2284
萍	-11.2284
幸喜	-11.2284
半寸	-11.2284
十多年前	-11.2284
长嘶	-11.2284
马嘶	-11.2284
低沉	-11.2284
摔下	-11.2285
掩面	-11.2285
酸痛	-11.2285
难以抵挡	-11.2285
庙门	-11.2285
王师弟	-11.2285
伸手扶起	-11.2285
得意之极	-11.2285
机灵	-11.2285
三丐	-11.2285
酒量	-11.2285
宴会	-11.2285
正午	-11.2285
砖头	-11.2285
虚劈	-11.2286
发愁	-11.2286
亲密	-11.2286
仙女	-11.2286
初次	-11.2287
酒席	-11.2287
纵身上前	-11.2287
一只鸡	-11.2287
傻孩子	-11.2287
大海之中	-11.2287
狠毒	-11.2288
家父	-11.2288
睁着	-11.2288
绝世	-11.2288
相触	-11.2288
不乐意	-11.2288
一百个	-11.2289
一瞥	-11.2289
瓜子	-11.2289
弄鬼	-11.229
反弹	-11.229
退了出去	-11.229
胜败	-11.229
端坐	-11.229
己方	-11.229
顺口	-11.2291
嘴边	-11.2291
铁鞭	-11.2291
院子	-11.2291
改变	-11.2292
赫然	-11.2292
挺枪	-11.2292
巨石	-11.2292
斗志	-11.2292
疑难	-11.2292
不禁骇然	-11.2293
好极了	-11.2293
领军	-11.2293
铁碗	-11.2294
精微	-11.2295
怎么样	-11.2296
长杆	-11.2296
官军	-11.2296
细微	-11.2297
不容易	-11.2297
每个人	-11.2297
至宝	-11.2298
榻上	-11.2299
先父	-11.2299
不敢再看	-11.2299
汗水	-11.2299
未答	-11.2299
我和靖哥哥	-11.23
伸手接过	-11.23
额上	-11.23
▁☆	-11.23
来见我	-11.23
奇险	-11.23
屋外	-11.23
闲事	-11.23
所使的	-11.23
断折	-11.2301
露面	-11.2301
黑衣人	-11.2301
险些儿	-11.2301
后患	-11.2302
天权	-11.2302
路径	-11.2303
是个女子	-11.2303
深夜	-11.2303
躺下	-11.2303
四顾	-11.2303
所擒	-11.2303
提了起来	-11.2303
失望	-11.2303
矮身	-11.2304
相聚	-11.2304
举步	-11.2304
两件	-11.2305
火腿	-11.2305
茅屋	-11.2305
令爱	-11.2306
相激	-11.2306
黑云	-11.2306
西游	-11.2307
缩回	-11.2307
拳风	-11.2307
船首	-11.2308
银两	-11.2308
留情	-11.2309
重赏	-11.2309
看准	-11.231
问明	-11.231
易于	-11.231
新招	-11.2311
痛苦	-11.2312
咬牙切齿的	-11.2313
百斤	-11.2313
自创	-11.2313
出征	-11.2313
马群	-11.2314
出岛	-11.2314
后脑	-11.2314
疾风	-11.2315
难民	-11.2316
外功	-11.2317
梁子	-11.2317
温柔	-11.2317
不必再	-11.2318
做妻子	-11.2318
向后急	-11.2318
归云庄上	-11.2318
书信	-11.2319
这一出手	-11.232
甚深	-11.2321
做皇帝	-11.2322
攻城	-11.2322
莫名	-11.2322
当初	-11.2323
隆起	-11.2323
眼见就要	-11.2323
活命	-11.2324
性急	-11.2326
这股	-11.2327
所制	-11.2327
求情	-11.2327
大感诧异	-11.2327
自以为	-11.2327
认为	-11.2328
懒得	-11.2328
那丐	-11.2329
一缕	-11.233
仆人	-11.233
厉害之极	-11.233
写字	-11.2331
极少	-11.2331
猛攻	-11.2331
认定	-11.2332
道姑	-11.2332
家师	-11.2333
众金兵	-11.2333
放在地下	-11.2334
亲传	-11.2336
忽变	-11.2336
名目	-11.2337
纵使	-11.2338
这法儿	-11.2338
一匹马	-11.2341
教派	-11.2341
只看得	-11.2341
一轮	-11.2341
进击	-11.2342
!’”	-11.2343
端的是	-11.2343
赶快	-11.2345
错啦	-11.2347
文才	-11.2347
往哪里	-11.235
掏出	-11.2351
带兵	-11.2351
我宁可	-11.2355
下峰	-11.2355
凡是	-11.2356
只见地下	-11.2356
突出	-11.2356
处女	-11.2357
你们两位	-11.236
这首诗	-11.236
跟老毒物	-11.236
直取	-11.2362
慢着	-11.2362
究是	-11.2365
之故	-11.2366
忽听身后	-11.2367
一筹	-11.2368
原委	-11.2369
不支	-11.2371
高深	-11.2373
绘的	-11.2375
取水	-11.2375
蛇声	-11.2379
看破	-11.238
水势	-11.2381
横行	-11.2382
苦楚	-11.2383
藏着	-11.2383
那小王爷	-11.2388
七师父	-11.2394
钉在	-11.2395
睡得	-11.2396
所坐	-11.2396
望着自己	-11.2397
赶着	-11.2398
受力	-11.2399
满天	-11.24
三军	-11.24
在他背上	-11.2402
直至	-11.2402
一面说	-11.2403
有座	-11.2403
不枉了	-11.2404
看招	-11.2405
堂上	-11.2409
在窗外	-11.2411
逃得	-11.2411
也不算	-11.2411
跳起	-11.2412
暗藏	-11.2412
鼻中	-11.2414
着火	-11.2414
厢房	-11.2415
用上了	-11.2417
药材	-11.2417
西湖	-11.2418
相击	-11.242
▁拔都	-11.2427
捧住	-11.2429
疾往	-11.2429
一个字	-11.243
天晚上	-11.243
无怪	-11.2431
急攻	-11.2435
细心	-11.2435
在武林中	-11.2437
为师	-11.2438
▁那女子	-11.2438
两眼	-11.2439
一伙	-11.2439
练气	-11.2441
难看	-11.2444
驰来	-11.2446
淡淡的	-11.2447
郭靖大奇	-11.2453
金子	-11.2455
打算	-11.2462
也决不能	-11.2464
十八年前	-11.2465
一灯微笑	-11.2466
亭中	-11.2469
而言	-11.2471
响起	-11.2475
引见	-11.2475
更快	-11.2476
飞回	-11.2478
欧阳锋叔侄	-11.2479
那老丐	-11.248
下流	-11.2485
居中	-11.249
转头问	-11.2491
你怎么又	-11.2493
与六怪	-11.2494
扬起	-11.2498
世人	-11.2498
疯汉	-11.2499
大致	-11.25
▁窝阔台	-11.2502
容情	-11.2503
店门	-11.2503
收留	-11.2507
软猬甲上	-11.251
是全真教	-11.2513
在嘉兴	-11.2513
▁张阿生	-11.2515
救出	-11.252
放回	-11.252
当前	-11.252
跌得	-11.2525
快请	-11.2528
走动	-11.253
我徒儿	-11.2531
与华筝	-11.2532
又复	-11.2534
布成	-11.2535
说一句	-11.2542
之喜	-11.2545
却总是	-11.2548
但因	-11.2549
冲着	-11.2549
与侯通海	-11.2554
你妈妈	-11.2554
将他身子	-11.2555
又是甚么	-11.2556
越好	-11.2558
台上	-11.2559
背负	-11.2565
的姓名	-11.2565
罩在	-11.2577
妹	-11.2579
回头向	-11.258
袭到	-11.258
这法子	-11.2581
请道长	-11.2582
▁全真七子	-11.2584
那乞丐	-11.2586
▁完颜洪烈见	-11.2586
十余人	-11.2589
学着	-11.2597
说不得	-11.26
说得出	-11.2606
大英雄	-11.2608
虽无	-11.2611
有鬼	-11.2613
▁郭靖听得	-11.2613
偷听	-11.2613
当时我	-11.2619
欺近	-11.2628
▁灵智上人	-11.2629
均知	-11.2634
决不是	-11.264
开心	-11.2642
店房	-11.2645
是甚么人	-11.2646
在江南	-11.2651
有的是	-11.2651
转出	-11.2654
相干	-11.2656
而动	-11.266
不平	-11.2661
叫甚么	-11.2662
一时倒	-11.2663
好像	-11.2663
未死	-11.2671
就只怕	-11.2672
心口	-11.2672
照耀	-11.2674
变得	-11.2674
席上	-11.2686
我不说	-11.2695
拉了郭靖	-11.2699
喝令	-11.2708
着一根	-11.271
无能	-11.2716
这样说	-11.2718
驰出	-11.272
自己身上	-11.272
出数里	-11.2727
马上就	-11.2728
说他是	-11.2729
割去	-11.2731
之伤	-11.2747
练练	-11.275
要娶	-11.2752
对我说	-11.2756
咬住	-11.2757
拿过	-11.2758
目不	-11.2761
丐帮帮众	-11.2768
舍下	-11.2783
女孩儿	-11.2787
撞击	-11.2787
一勾	-11.2788
衣囊	-11.2805
把匕首	-11.2806
身法好	-11.2813
万人队	-11.2815
想到自己	-11.2821
帮主之位	-11.2832
掌击	-11.2833
接任	-11.2842
这几句	-11.2846
高峰	-11.2853
其实是	-11.2853
无异状	-11.2855
情急	-11.2865
树梢	-11.2883
在上面	-11.2883
了开来	-11.2893
永远不	-11.2894
头脑	-11.2894
一挣	-11.2898
小事	-11.2899
突然想起	-11.2902
一抬头	-11.2907
拍拍两	-11.2912
迎了上	-11.292
了郭靖的手	-11.2921
均觉	-11.2922
被逼得	-11.2933
笑语	-11.2936
不作声	-11.2942
奔过去	-11.2945
此书	-11.2962
再回来	-11.2962
湖水	-11.2967
叽哩咕噜的	-11.2972
扑向	-11.3001
发见	-11.301
的金银	-11.3015
神色甚是	-11.3018
▁就在	-11.3018
数千	-11.3032
我跟你说	-11.3035
得目瞪口呆	-11.3044
怪物	-11.3048
回房	-11.3051
好让	-11.3073
不久就	-11.3103
包药	-11.3121
野羊	-11.3131
后缩	-11.3135
刀枪	-11.3163
声大作	-11.3169
而立	-11.3172
早死	-11.3176
在何处	-11.3184
小妹	-11.3199
临安城	-11.3204
人情	-11.3208
房里	-11.3217
京城	-11.3219
就算再	-11.3221
指戳	-11.3248
微感	-11.3256
帐前	-11.3256
双目已	-11.3259
是铁木真的	-11.3262
攻势	-11.3264
进宫	-11.3279
想通	-11.3297
才想起	-11.331
举掌	-11.3322
山崖	-11.3324
步而行	-11.3332
问话	-11.3337
加快	-11.3342
为了要	-11.3347
少主	-11.336
快出来	-11.3364
随后	-11.3373
在路上	-11.338
精光	-11.3387
已颇	-11.339
出宫	-11.3402
到江南	-11.3404
算甚么	-11.341
三句	-11.3416
微光	-11.3419
忙俯身	-11.3432
了六七	-11.3442
急忙缩	-11.3442
前伸	-11.3447
最怕	-11.3453
不改	-11.3456
略有	-11.3469
群鲨	-11.3479
不容情	-11.3479
二弟	-11.3487
合十	-11.3493
五百	-11.3503
苦苦	-11.351
相劝	-11.352
他生平	-11.3523
迈	-11.3524
左近	-11.3533
射中	-11.3535
撞见	-11.3536
是怎生	-11.354
舟中	-11.3543
金带	-11.3563
两碗	-11.3565
了半截	-11.3567
不能伤	-11.357
不答应	-11.3577
莽撞	-11.3578
园	-11.3587
停手	-11.3593
大叫起来	-11.3597
一步步	-11.3599
势凌厉	-11.36
项	-11.3605
两枚	-11.3615
呆望	-11.3619
轰然	-11.3626
缕	-11.3632
置之	-11.3638
青草	-11.3641
铜钹	-11.3642
斗智	-11.3644
秘诀	-11.3648
尺来长的	-11.3648
曲子	-11.365
时机	-11.3651
凳上	-11.3651
身受	-11.3657
收掌	-11.366
这匹	-11.3663
说不出话	-11.3664
天灵盖	-11.3667
叫声中	-11.3667
蒲团	-11.3667
去找寻	-11.3668
众姬	-11.3671
妖妇	-11.3672
测	-11.3673
脸颊	-11.3674
船边	-11.3675
帕	-11.3677
等三人	-11.3678
炕	-11.3678
K	-11.3686
杀害	-11.3686
惶	-11.3688
资	-11.3689
深仇	-11.3692
唤	-11.3692
肆	-11.3692
迅	-11.3692
鼠	-11.3693
胡里胡涂	-11.3693
热血	-11.3693
乔寨主	-11.3693
域	-11.3694
茂	-11.3694
羡	-11.3694
悍	-11.3694
籍	-11.3694
耍	-11.3695
汪	-11.3695
醒悟	-11.3695
赵	-11.3695
太多	-11.3695
梯	-11.3695
蓄	-11.3696
渔樵耕读	-11.3696
纤	-11.3696
沙滩	-11.3696
屎	-11.3696
三头蛟	-11.3696
捋	-11.3696
为非作歹	-11.3696
由此而	-11.3696
上官帮主	-11.3697
青龙滩	-11.3697
感惊讶	-11.3697
虏	-11.3697
迸	-11.3697
考证	-11.3697
酷	-11.3697
蹑	-11.3697
乳	-11.3697
轻描淡写	-11.3697
蹈	-11.3697
那幅画	-11.3697
横练功夫	-11.3697
炫	-11.3697
两败俱伤	-11.3697
奋不顾身	-11.3697
克敌制胜	-11.3697
季	-11.3697
从腰间拔出	-11.3697
仞	-11.3697
那矮小汉子	-11.3697
吾	-11.3698
洞庭湖	-11.3698
饼	-11.3698
抡	-11.3698
明霞岛	-11.3698
辔	-11.3698
蚁	-11.3698
司	-11.3698
恢	-11.3698
手足无措	-11.3698
各家各派	-11.3698
拚个你死我活	-11.3698
梵文	-11.3698
香港	-11.3698
次子察合台	-11.3698
虐	-11.3698
威风凛凛	-11.3698
育	-11.3698
蒲儿帖	-11.3698
郁	-11.3698
二次华山论剑	-11.3698
安安静静的	-11.3698
饵	-11.3698
淫	-11.3698
师侄	-11.3698
九阴神功	-11.3698
党	-11.3698
松鼠	-11.3698
毒龙鞭	-11.3698
大声吆喝	-11.3698
凌	-11.3698
铁铸的	-11.3698
满头大汗	-11.3698
巍	-11.3698
摘	-11.3698
谢天谢地	-11.3698
迟了一步	-11.3698
黄葛短	-11.3698
合不拢	-11.3698
绵绵	-11.3698
这倒奇了	-11.3698
唳	-11.3698
炎	-11.3698
脸色苍白	-11.3698
身材魁梧	-11.3698
三股叉	-11.3698
晋	-11.3698
缠绵	-11.3698
霉	-11.3698
齐声呐喊	-11.3698
端端正正的	-11.3698
不寒而栗	-11.3698
戈	-11.3698
如箭般	-11.3699
槐树	-11.3699
纱	-11.3699
刹	-11.3699
窍	-11.3699
几个时辰	-11.3699
半斤八两	-11.3699
愠	-11.3699
踱	-11.3699
不知所云	-11.3699
瞪了一眼	-11.3699
序	-11.3699
提心吊胆	-11.3699
越说越	-11.3699
密密层层	-11.3699
心满意足	-11.3699
呼呼风响	-11.3699
恭谨	-11.3699
死里逃生	-11.3699
缨	-11.3699
低沉了声音	-11.3699
束手无策	-11.3699
殴	-11.3699
利刃	-11.3699
拉着郭靖的手	-11.3699
万里迢迢的	-11.3699
众兵丁	-11.3699
刁	-11.3699
占便宜	-11.3699
天真烂漫	-11.3699
巢	-11.3699
心意已决	-11.3699
三枚	-11.3699
仪	-11.3699
慑	-11.3699
疚	-11.3699
磕了四个头	-11.3699
蜜	-11.3699
喀喀	-11.3699
八月中秋	-11.3699
圆球	-11.3699
巫师	-11.3699
查察	-11.3699
铐	-11.3699
孤零零的	-11.3699
飒	-11.3699
汉武帝	-11.3699
c	-11.3699
俊雅	-11.3699
隐隐作痛	-11.3699
雇	-11.3699
库里尔台	-11.3699
易如反掌	-11.3699
海螺	-11.3699
羡慕	-11.3699
凶多吉少	-11.3699
我命休矣	-11.3699
无路可走	-11.3699
狼狈不堪	-11.3699
蒲扇	-11.3699
铃	-11.3699
长生不老	-11.3699
不明不白的	-11.3699
此起彼	-11.3699
斩钉截铁	-11.3699
沿途	-11.3699
豪迈	-11.3699
饱餐	-11.3699
天已大明	-11.3699
徐	-11.3699
柯大爷	-11.3699
活得不耐烦了	-11.3699
肥胖	-11.3699
见识见识	-11.3699
连人带	-11.3699
比划比划	-11.3699
臻	-11.3699
闩	-11.3699
噪	-11.3699
当啷一	-11.3699
晴	-11.3699
玉阳子王处一	-11.3699
瓷瓶	-11.3699
碧波掌法	-11.3699
讥嘲	-11.3699
点亮了	-11.3699
不明其意	-11.3699
呼呼喘气	-11.3699
难解难分	-11.3699
结结巴巴的	-11.37
喀喀两声	-11.37
得意洋洋的	-11.37
焦虑	-11.37
翻阅	-11.37
自相残杀	-11.37
份量	-11.37
六太子	-11.37
寂静无声	-11.37
报仇雪恨	-11.37
僧袍	-11.37
模糊	-11.37
殃	-11.37
秘史	-11.37
险象环生	-11.37
完颜	-11.37
嗒	-11.37
奇经八脉	-11.37
孩童	-11.37
催促	-11.37
喜不自胜	-11.37
拉屎	-11.37
是真是假	-11.37
梵语	-11.37
貂皮	-11.37
洪老帮主	-11.37
铁脚仙	-11.37
堪堪	-11.37
清净散人	-11.37
肚兜	-11.37
道君皇帝	-11.37
罗汉	-11.37
暴跳如雷	-11.37
眉梢	-11.37
素不相识	-11.37
那姓穆的	-11.37
结义之情	-11.37
郝	-11.37
惨厉	-11.37
这对白雕	-11.37
那对白雕	-11.37
凝神倾听	-11.37
一排排	-11.37
便如是	-11.37
向旁跃开	-11.3701
主帅	-11.3701
大嫂	-11.3701
温暖	-11.3701
繁复	-11.3701
可怜未老头先白	-11.3701
喝了一大口酒	-11.3701
飞驰而	-11.3701
卑职	-11.3701
武艺高强	-11.3701
讲究	-11.3701
羊梯	-11.3701
梁三长老	-11.3701
祖父	-11.3701
有多大	-11.3701
岳丈	-11.3701
恋	-11.3701
清脆	-11.3701
财宝	-11.3701
连绵	-11.3701
驾临	-11.3701
这当儿	-11.3701
七侠	-11.3701
央求	-11.3701
帐篷	-11.3701
两名官军	-11.3701
越打越	-11.3701
繁华	-11.3701
捏造	-11.3701
担忧	-11.3701
泄露	-11.3701
打他不过	-11.3701
池穴	-11.3701
虎翼	-11.3702
难为你	-11.3702
粮食	-11.3702
预备	-11.3702
揪住	-11.3702
正是求之不得	-11.3702
点了穴道	-11.3702
内功深湛	-11.3702
瞪目	-11.3702
所居的	-11.3702
听她语气	-11.3702
洪伯父	-11.3702
纯熟	-11.3702
雾中	-11.3702
倏忽间	-11.3702
女孩儿家	-11.3702
黄某	-11.3702
颂	-11.3702
天下无双	-11.3702
嫡传	-11.3702
穷酸	-11.3702
书籍	-11.3702
铁八卦	-11.3702
更无丝毫	-11.3703
挑拨	-11.3703
另一端	-11.3703
新鲜	-11.3703
男装	-11.3703
劝慰	-11.3703
深奥	-11.3703
丘师哥	-11.3703
胸腹	-11.3703
新婚	-11.3703
急奔而来	-11.3703
跃入海中	-11.3703
遇险	-11.3703
在他耳边	-11.3703
旗号	-11.3703
机缘	-11.3703
楼板	-11.3703
一大块	-11.3704
御敌	-11.3704
抛弃	-11.3704
我偏不	-11.3704
翠微	-11.3704
媳妇儿	-11.3704
倒也罢了	-11.3704
坚冰	-11.3704
老侯	-11.3704
蹲在地下	-11.3704
落英神剑掌法	-11.3704
灵智	-11.3704
所谓	-11.3704
太祖	-11.3704
赏赐	-11.3704
这部书	-11.3705
阴阳	-11.3705
探访	-11.3705
灰色	-11.3705
筋骨	-11.3705
还了一招	-11.3705
眸	-11.3705
动起手来	-11.3705
▁郭靖和黄蓉	-11.3705
争吵	-11.3705
武林高手	-11.3705
参仙老怪梁子翁	-11.3705
远远望见	-11.3705
求婚	-11.3705
亲卫	-11.3705
侧耳听	-11.3705
根据	-11.3705
文章	-11.3705
浑厚	-11.3706
粗浅	-11.3706
奸恶	-11.3706
花丛	-11.3706
复仇	-11.3706
仇恨	-11.3706
尊敬	-11.3706
没趣	-11.3706
西夏	-11.3707
居民	-11.3707
岂难道	-11.3707
迁怒	-11.3707
轻轻抚摸	-11.3707
这时见他	-11.3707
一柄匕首	-11.3707
搜寻	-11.3707
小酒店	-11.3707
七寸	-11.3707
一个筋斗翻	-11.3708
邪恶	-11.3708
性格	-11.3708
吼叫	-11.3708
谢罪	-11.3708
就能将	-11.3708
治病	-11.3708
救人哪	-11.3708
叫了几声	-11.3708
狗贼	-11.3708
短短	-11.3708
滚滚	-11.3709
贵姓	-11.3709
观赏	-11.3709
锋利	-11.3709
笑了起来	-11.3709
包含	-11.3709
拳术	-11.3709
分辩	-11.371
使诈	-11.371
旨意	-11.371
虚晃	-11.371
连连摇头	-11.371
木料	-11.371
走上前去	-11.371
擒拿法	-11.3711
再也动弹不得	-11.3711
平台	-11.3711
怒从心	-11.3711
洞孔	-11.3711
夹攻	-11.3712
言辞	-11.3712
小半个时辰	-11.3712
帽子	-11.3712
胸怀	-11.3712
各执	-11.3712
流星	-11.3712
安睡	-11.3713
下盘功夫	-11.3713
议和	-11.3713
精致	-11.3713
仗剑	-11.3713
玉盘	-11.3713
试探	-11.3713
两股	-11.3714
以一敌	-11.3714
中指峰	-11.3714
尤为	-11.3714
小师妹	-11.3714
盘膝坐下	-11.3714
摆脱	-11.3714
白胡子	-11.3714
郭师叔	-11.3714
远征	-11.3714
在宝应	-11.3715
重逢	-11.3715
永远不会	-11.3716
必致	-11.3716
月余	-11.3716
厨子	-11.3716
南宋	-11.3716
万万不能	-11.3716
无人敢	-11.3716
长长的	-11.3717
风景	-11.3717
气象	-11.3717
义结	-11.3717
保全	-11.3717
洞穴	-11.3717
均感	-11.3717
依次	-11.3718
白须	-11.3718
走了进来	-11.3718
练习	-11.3718
爽快	-11.3718
破烂	-11.3718
屋子里	-11.3718
相抗	-11.3718
花样	-11.3719
饭碗	-11.3719
六位	-11.3719
报应	-11.3719
皮肉	-11.3719
打手势	-11.3719
洪七公呵呵	-11.3719
于己	-11.3719
第二次	-11.372
离座	-11.372
袍子	-11.372
黄河	-11.372
门大开	-11.3721
那丫头	-11.3721
窗边	-11.3721
伏在地下	-11.3721
醉仙楼头	-11.3721
比较	-11.3722
增强	-11.3722
斜刺	-11.3722
窗口	-11.3722
威势	-11.3722
寺里	-11.3722
手刃	-11.3722
巧妙	-11.3723
战场	-11.3723
足印	-11.3723
混战	-11.3724
十余名	-11.3724
门下弟子	-11.3725
衣角	-11.3725
秀发	-11.3726
了一圈	-11.3726
结交	-11.3726
为僧	-11.3726
共同	-11.3726
肚子里	-11.3726
到哪里去啦	-11.3726
若凭	-11.3727
远不如	-11.3727
侧击	-11.3727
怪鱼	-11.3727
摔在地下	-11.3727
升起	-11.3727
脸皮	-11.3728
飘动	-11.3728
口鼻	-11.3728
热血上	-11.3728
哪里还能	-11.3728
族人	-11.3728
桌旁	-11.3729
明晃晃的	-11.3729
蒲团上	-11.3729
吓得魂飞魄散	-11.3729
到门口	-11.3729
押着	-11.373
助战	-11.373
挂念着	-11.373
越想越是	-11.373
火光下	-11.373
捧起	-11.373
刚硬	-11.3731
铁木真汗	-11.3731
高宗	-11.3732
低下头来	-11.3732
体内	-11.3733
不悦	-11.3734
黄色	-11.3734
恶毒	-11.3734
大片	-11.3734
躲在这里	-11.3734
连续	-11.3734
长袖	-11.3735
不论如何	-11.3735
知道不妙	-11.3735
之象	-11.3736
十多天	-11.3736
金主	-11.3736
橱中	-11.3736
这一掷	-11.3737
鞭法	-11.3738
偏生	-11.3738
遭难	-11.3738
稍稍	-11.3738
依法	-11.3739
挺刀	-11.3739
心中焦急	-11.3739
眼角	-11.374
哪里来的	-11.3741
黄帮主	-11.3742
指望	-11.3742
挡不住	-11.3742
臀上	-11.3742
二次	-11.3742
小店	-11.3743
忽地想起	-11.3743
酒碗	-11.3743
化开	-11.3744
上前动手	-11.3744
只觉全身	-11.3745
身子略	-11.3745
身周	-11.3745
面色	-11.3745
携着	-11.3746
专心	-11.3746
相谢	-11.3746
小石子	-11.3746
被点	-11.3747
同归	-11.3747
着恼	-11.3747
这几位	-11.3747
放脱	-11.3747
头也不回的	-11.3748
缚着	-11.3748
镬中	-11.3748
卷起	-11.3749
无幸	-11.3749
之辱	-11.3749
礼法	-11.3749
上刻着	-11.375
体会	-11.375
风吹	-11.375
旧事	-11.375
部小说	-11.3751
不提防	-11.3751
说着哈哈大笑	-11.3751
果是	-11.3752
供桌	-11.3752
乐声	-11.3752
动武	-11.3754
传了给	-11.3754
左拳	-11.3754
恨极	-11.3754
头晕	-11.3755
花木	-11.3755
六个人	-11.3755
忽感	-11.3756
终于还是	-11.3756
进步	-11.3756
自保	-11.3757
饿得	-11.3757
大臣	-11.3757
塞子	-11.3758
扭打	-11.3758
沙通天等人	-11.3759
毁去	-11.376
船舱中	-11.376
风雪	-11.3761
大嚼	-11.3761
与金人	-11.3763
想起母亲	-11.3763
甚么事都	-11.3764
嵌在	-11.3765
▁等到	-11.3765
背书	-11.3765
白云	-11.3765
作主	-11.3766
下堕	-11.3766
代替	-11.3766
垂头	-11.3767
性命难保	-11.3767
这些话	-11.3768
迷迷糊糊的	-11.3768
脱口	-11.3768
识破	-11.3768
太重	-11.3769
药方	-11.3769
连施	-11.377
这两掌	-11.3772
诸子	-11.3774
做饭	-11.3774
园中	-11.3774
大爷	-11.3774
咕嘟咕嘟的	-11.3774
人丛	-11.3774
亲近	-11.3775
剑光	-11.3775
尚能	-11.3776
▁那女人	-11.3776
观战	-11.3777
上了门	-11.3777
修为	-11.3778
六兄弟	-11.3778
想法子	-11.3778
伤愈	-11.3778
楼头	-11.3779
有要事	-11.3779
映照	-11.3779
命令	-11.378
给你吃	-11.378
所害	-11.378
行功	-11.3781
轰轰	-11.3781
无益	-11.3782
拜倒	-11.3782
安身	-11.3782
尽情	-11.3783
大鸟	-11.3783
属于	-11.3783
不见人影	-11.3784
掌势	-11.3784
跨上	-11.3784
每当	-11.3785
强劲	-11.3785
学不到	-11.3786
穷人	-11.3788
未觉	-11.3788
流水	-11.3788
也不致	-11.3789
小孩儿	-11.3789
回复	-11.3789
女弟子	-11.3789
还没死	-11.3789
落脚	-11.379
就跑	-11.3791
十多年来	-11.3792
开国	-11.3792
▁曲三	-11.3794
四女	-11.3796
三夜	-11.3796
详细	-11.3796
彭连虎等人	-11.3797
已抵	-11.3797
别哭	-11.3798
后队	-11.3799
几颗	-11.3799
焦木和尚	-11.38
眼神	-11.38
明年	-11.3802
斗不过	-11.3802
反掌	-11.3804
缠住了	-11.3805
寒气	-11.3805
在草原上	-11.3805
?’”	-11.3806
快给我	-11.3806
和几个	-11.3808
打滚	-11.381
的道儿	-11.381
这样罢	-11.381
周到	-11.3811
俯身拾起	-11.3811
扯下	-11.3812
扬手	-11.3812
瞧得起	-11.3813
酒家	-11.3813
平生	-11.3814
其名	-11.3815
本待	-11.3817
只管	-11.3817
那也不用	-11.3818
围着	-11.3818
无双	-11.3819
深入	-11.3819
条血痕	-11.382
入水	-11.3821
八成	-11.3821
太子	-11.3821
白日	-11.3825
为主	-11.3826
相爱	-11.3827
托着	-11.3828
死在这里	-11.383
乱转	-11.383
小径	-11.3831
我几时	-11.3831
甚急	-11.3832
为善	-11.3833
不敢再说	-11.3835
这一剑	-11.3836
如铁	-11.3839
回夺	-11.384
涌到	-11.384
古人	-11.3841
桌面	-11.3843
之顶	-11.3844
地势	-11.3848
郭靖安答	-11.3848
高飞	-11.3851
驰去	-11.3851
倒翻	-11.3851
原来是个	-11.3852
拉起	-11.3852
这一脚	-11.3852
好香	-11.3858
这棒法	-11.3861
原可	-11.3861
唱曲	-11.3862
▁彭连虎等	-11.3863
瞧清楚	-11.3864
站住	-11.3866
头骨	-11.3866
离地	-11.3866
给我吃	-11.3866
捏住	-11.387
塞住	-11.387
一绊	-11.3871
葬了	-11.3872
罩住	-11.3876
且莫	-11.3878
多言	-11.3878
几口气	-11.3881
扑出	-11.3884
六师父	-11.3884
只感到	-11.3886
与江南七怪	-11.3886
▁过了一会	-11.3887
一根根	-11.3887
服药	-11.3887
认不出	-11.389
极力	-11.3891
无妨	-11.3892
为甚么要	-11.3893
那大汉	-11.3894
被缚	-11.3894
安稳	-11.3896
盘膝坐	-11.3899
发怒	-11.3902
上船来	-11.3903
无望	-11.3905
献给	-11.3905
条青蛇	-11.3906
一丝	-11.3909
我才不	-11.3913
不假	-11.3919
实无	-11.3923
连日	-11.3926
之感	-11.3929
谁胜	-11.393
悬崖上	-11.393
庄上	-11.393
忽想	-11.3935
这奸贼	-11.3935
不理会	-11.3941
一列	-11.3943
出门去	-11.3945
凭你这	-11.3948
扫去	-11.3948
见闻	-11.3953
却也不能	-11.3953
抓出	-11.3959
腿骨	-11.396
如神	-11.3961
低下头	-11.3965
鬼计	-11.3965
下击	-11.3966
进房	-11.3967
睡去	-11.3968
杀气	-11.3973
别处	-11.3974
递出	-11.3976
分头	-11.3978
握住她	-11.3983
所伤	-11.399
个性	-11.3991
有一次	-11.4003
一定要	-11.4005
莫说	-11.4009
不差	-11.401
学到了	-11.4013
和江南六怪	-11.4014
一倍	-11.4015
城墙	-11.4015
所杀	-11.4016
一截	-11.4018
花瓣	-11.402
有言	-11.4021
出兵	-11.4028
想念	-11.4032
收藏	-11.4033
齐施	-11.4039
可说是	-11.4039
硬要	-11.4041
在郭靖身上	-11.4042
踢开	-11.4059
朱红	-11.4071
药粉	-11.4086
这一手	-11.4094
你师妹	-11.4104
都是一惊	-11.4106
实不知	-11.4109
这山峰	-11.4116
百里	-11.412
打伤了	-11.4132
别管	-11.4143
仰头	-11.4145
手劲	-11.4161
显见	-11.4166
跨出	-11.4166
砍下	-11.4175
军队	-11.4175
排列	-11.4182
胜过了	-11.4184
意义	-11.4203
船底	-11.4207
既与	-11.4211
无疑	-11.4215
花剌子模军	-11.4216
十天	-11.4227
出数丈	-11.4229
为怀	-11.4232
在旁边	-11.4243
第五	-11.4249
只见前面	-11.4253
回去罢	-11.4259
雕背	-11.4262
将竹杖	-11.427
南湖	-11.4277
明真相	-11.4284
收起	-11.4295
板橱	-11.4303
小屋	-11.4313
不知该	-11.432
郭靖点头答应	-11.4337
梢	-11.435
一把将	-11.4359
深陷	-11.4378
倏地飞	-11.4383
遵从	-11.441
未受伤	-11.4432
几套	-11.4442
她头发	-11.4452
我若不	-11.4466
下崖	-11.4467
不久便	-11.4468
弹出	-11.4478
智计	-11.4492
了几年	-11.4493
必会	-11.4499
侯通海怒	-11.4502
从今	-11.4508
起手来	-11.4512
也想不出	-11.4547
生平最	-11.4558
追杀	-11.4563
件件	-11.4564
觉奇怪	-11.458
不由得惊	-11.4587
来寻仇	-11.4595
不透	-11.4602
几遍	-11.4604
一切都	-11.4617
吸一口	-11.4642
缰绳	-11.4654
点头答应	-11.4683
躲过	-11.4691
退回	-11.4698
没听见	-11.471
寻到	-11.4714
自己手腕	-11.4716
掘了	-11.4721
恩德	-11.4721
墓门	-11.4726
较之	-11.4735
电光	-11.4736
了五六	-11.4784
掌力震	-11.4788
飘飘	-11.4796
出林	-11.4796
数百名	-11.4796
拆了三	-11.4797
得通红	-11.4802
费力	-11.482
也逃不	-11.4835
磕了	-11.4855
能找到	-11.4858
声呼啸	-11.486
足尖	-11.4862
相撞	-11.4863
武林中人	-11.4864
神态甚是	-11.4913
好呀	-11.4926
一拱	-11.4942
全部	-11.4963
一条鲨鱼	-11.4981
年老	-11.5
投入	-11.5002
听黄蓉说	-11.501
子弟	-11.5016
盘膝坐在地	-11.504
也找不到	-11.5048
逃不了	-11.5081
喧哗	-11.5103
楞	-11.5107
铁掌水上飘	-11.5107
即日	-11.5125
光滑	-11.515
后园	-11.5152
得久	-11.5168
江边	-11.5171
吹起	-11.5176
幸而	-11.5176
亲亲	-11.5177
再找	-11.5184
两个少年	-11.5185
批	-11.5188
点燃	-11.5203
呼声	-11.5204
使奸	-11.5209
足踢	-11.5211
传来一阵	-11.5213
林子	-11.5216
绘	-11.5226
望望	-11.5229
嵌	-11.5236
痕迹	-11.5244
会武	-11.5247
上屋顶	-11.5262
闪闪发光	-11.5263
过了一盏茶	-11.5285
谎	-11.5289
肴	-11.5291
畜	-11.5296
绝艺	-11.5302
镬	-11.5302
难决	-11.5306
而逝	-11.5308
伯	-11.5312
喝骂	-11.5313
清晨	-11.5321
榻	-11.5323
越想越	-11.533
纛	-11.533
没听见过	-11.5332
漠	-11.5336
的独门	-11.5337
麻痒	-11.534
寝	-11.5343
兀	-11.5349
训	-11.5349
老仆	-11.5352
纷飞	-11.5353
怖	-11.5354
恳	-11.5355
一条条	-11.5356
脾	-11.5357
波斯	-11.5357
颠	-11.5357
捣	-11.5358
篙	-11.5358
晨	-11.5358
研	-11.5359
求之不得	-11.5359
桃	-11.536
恁	-11.536
阿	-11.536
怠	-11.536
蓦	-11.536
赛	-11.536
狱	-11.536
勃	-11.5361
侣	-11.5361
觅	-11.5361
俊	-11.5361
挫	-11.5362
莲	-11.5362
胶	-11.5362
忍耐	-11.5362
嫡	-11.5362
千千万万	-11.5362
捺	-11.5362
奇门五行	-11.5362
没出息	-11.5362
川	-11.5362
监	-11.5363
开开眼界	-11.5363
阅	-11.5363
垢	-11.5363
煞	-11.5363
那使单刀的	-11.5363
滨	-11.5363
帅	-11.5363
惠	-11.5363
郊	-11.5363
吏	-11.5363
没来由的	-11.5363
契	-11.5363
弹指神通	-11.5363
肋	-11.5363
签	-11.5363
那贼子	-11.5363
虞	-11.5363
奇珍异宝	-11.5363
搠	-11.5363
那句话	-11.5364
憎	-11.5364
捣甚么鬼	-11.5364
狐	-11.5364
瞧在眼里	-11.5364
玑	-11.5364
摩	-11.5364
螺	-11.5364
嗤	-11.5364
匪夷所思	-11.5364
励	-11.5364
吮吸	-11.5364
胆战心惊	-11.5364
葱	-11.5364
锭银子	-11.5364
端倪	-11.5364
姓穆	-11.5364
饥	-11.5364
亲兵队长	-11.5364
段智兴	-11.5364
点中了穴道	-11.5364
障	-11.5364
瓷	-11.5364
巾	-11.5364
以二敌一	-11.5364
在这荒岛之上	-11.5364
级	-11.5364
狂妄	-11.5364
殆	-11.5364
质朴	-11.5364
平白无端的	-11.5364
沅江	-11.5364
许许多多	-11.5364
饲养	-11.5364
淹	-11.5364
颠三倒四	-11.5364
姻	-11.5364
精湛	-11.5364
伍	-11.5364
一艘小艇	-11.5364
十夫长	-11.5364
秤锤	-11.5364
左右互搏	-11.5364
斑	-11.5364
手忙脚乱	-11.5364
描	-11.5364
全身冷汗	-11.5364
誉	-11.5364
串	-11.5365
棉	-11.5365
那黄裳	-11.5365
密密麻麻	-11.5365
爽爽快快	-11.5365
砂	-11.5365
胃	-11.5365
酬	-11.5365
野狐	-11.5365
▁睡到	-11.5365
憾	-11.5365
指了指	-11.5365
纷至沓来	-11.5365
虹	-11.5365
垂头丧气	-11.5365
少说也有	-11.5365
蹊	-11.5365
防范	-11.5365
竿	-11.5365
具骸骨	-11.5365
亲眼所见	-11.5365
刁钻古怪	-11.5365
岂有此理	-11.5365
金创药	-11.5365
辅	-11.5365
根柢	-11.5365
苍苍	-11.5365
婉	-11.5365
从怀里掏出	-11.5365
厘	-11.5365
歧	-11.5365
烦躁	-11.5365
糟老头子	-11.5365
殷	-11.5365
气喘吁吁	-11.5365
一口浓痰	-11.5365
匠	-11.5365
喀喇喇一声	-11.5365
基础	-11.5365
惕	-11.5365
独个儿	-11.5365
眷	-11.5365
袄	-11.5365
高姓大名	-11.5365
君臣	-11.5365
帮规	-11.5365
李志常	-11.5365
沉着脸	-11.5365
罪该万死	-11.5365
肖	-11.5365
驯	-11.5365
一语不发	-11.5365
尼	-11.5365
潮水涨时	-11.5365
镶	-11.5365
非死即伤	-11.5365
振翅	-11.5365
完颜洪烈那奸贼	-11.5365
连珠箭	-11.5365
猱身	-11.5365
到此地步	-11.5365
厄	-11.5365
姜	-11.5365
打成平手	-11.5365
构	-11.5365
塔塔儿部	-11.5365
悔改	-11.5365
翻翻滚滚	-11.5365
聋	-11.5365
那还了得	-11.5365
摸不着头脑	-11.5365
毫不费力的	-11.5365
百忙中	-11.5365
震天价	-11.5365
沮丧	-11.5365
吓得魂不附体	-11.5365
省	-11.5365
瞑	-11.5365
该是不该	-11.5365
不知有多少	-11.5365
蒙力克	-11.5365
揍	-11.5365
一前一后	-11.5365
一拥而上	-11.5365
两全其美	-11.5365
五个指孔	-11.5365
奴隶	-11.5365
妹妹	-11.5365
居高临下	-11.5365
腹中饥饿	-11.5365
骑在马上	-11.5365
三个肉瘤	-11.5365
南山樵子南希仁	-11.5365
名兵丁	-11.5365
带在身边	-11.5365
这番邦女子	-11.5365
o	-11.5366
别勒古台	-11.5366
别来无恙	-11.5366
啰唣	-11.5366
在水里	-11.5366
山中老人	-11.5366
慈祥	-11.5366
静夜之中	-11.5366
鬼灵精	-11.5366
动过手	-11.5366
心惊胆战	-11.5366
极目远	-11.5366
馋涎	-11.5366
努	-11.5366
一招半式	-11.5366
一条明路	-11.5366
呛啷一	-11.5366
夭	-11.5366
杨再兴	-11.5366
笃	-11.5366
转身便逃	-11.5366
追赶不上	-11.5366
防不胜防	-11.5366
香扑鼻	-11.5366
依速甘	-11.5366
奕	-11.5366
猜想不透	-11.5366
那青衣怪客	-11.5366
青衣童子	-11.5366
怒不可抑	-11.5366
如死灰	-11.5366
伕	-11.5366
到了极处	-11.5366
华山二次论剑	-11.5366
嘲讽	-11.5366
大叫大嚷	-11.5366
手足酸软	-11.5366
揉	-11.5366
欣然	-11.5366
浆	-11.5366
跛	-11.5366
僻静	-11.5366
六位恩师	-11.5366
家破人亡	-11.5366
我也不知道啊	-11.5366
瑰	-11.5366
背叛师门	-11.5366
阶	-11.5366
冲锋陷阵	-11.5366
鞑子	-11.5366
鼎	-11.5366
驸马	-11.5366
匣	-11.5366
巴巴的	-11.5366
有死无生	-11.5366
的拳路	-11.5366
精神大振	-11.5366
钱财	-11.5366
洲	-11.5366
宅	-11.5366
例	-11.5366
凄厉	-11.5366
心中大慰	-11.5366
晃了几晃	-11.5366
盏油灯	-11.5366
苏丹	-11.5366
谐	-11.5366
靥	-11.5366
作了一揖	-11.5366
婚姻之	-11.5366
张大了口	-11.5366
拿在手里	-11.5366
相差太远	-11.5366
义父王罕	-11.5366
瑶	-11.5366
转马头	-11.5366
一败涂地	-11.5366
头晕眼花	-11.5366
左右互搏之术	-11.5366
慈悲为怀	-11.5366
无意之中	-11.5366
晃亮火折	-11.5366
淮	-11.5366
熄灭	-11.5366
融	-11.5366
逍遥拳	-11.5366
书生与农夫	-11.5366
加入战团	-11.5366
清净散人孙不二	-11.5366
炊	-11.5366
猜测	-11.5366
绑缚	-11.5366
莫图根	-11.5366
吴青烈	-11.5366
情势紧迫	-11.5366
直娘贼	-11.5366
纳牙阿	-11.5366
造谣	-11.5366
天涯海角	-11.5366
爷儿俩	-11.5366
男子汉大丈夫	-11.5366
哪里还来得及	-11.5366
啾	-11.5366
敢贸然	-11.5366
跛子曲三	-11.5366
避一避	-11.5366
巨大的	-11.5366
店伙	-11.5366
直飞出去	-11.5366
手下容情	-11.5366
睁大了	-11.5366
莫测	-11.5366
失烈门	-11.5366
殉	-11.5367
锥	-11.5367
湘	-11.5367
监禁	-11.5367
豁出了性命	-11.5367
十三岁	-11.5367
拿在手中	-11.5367
热辣辣的	-11.5367
侵犯	-11.5367
拉着黄蓉的手	-11.5367
择	-11.5367
聪明绝顶	-11.5367
验	-11.5367
两头猎豹	-11.5367
侍奉	-11.5367
王公大将	-11.5367
足不停步的	-11.5367
也算不了甚么	-11.5367
仰天大笑	-11.5367
机警	-11.5367
桃树	-11.5367
惟恐	-11.5367
抗拒	-11.5367
菜篮	-11.5367
阿里不哥	-11.5367
壮健	-11.5367
歼灭	-11.5367
竹帘	-11.5367
蜡丸	-11.5367
酸楚	-11.5367
的秘要	-11.5367
哎	-11.5367
更无半点	-11.5367
江南五怪	-11.5367
百来斤	-11.5367
目睹	-11.5367
眉大眼	-11.5367
遥遥	-11.5367
乌鸦	-11.5367
秃木峰	-11.5367
秘密	-11.5367
愚蠢	-11.5367
抵抗	-11.5367
暮	-11.5367
假扮	-11.5367
玉棺	-11.5367
监视	-11.5367
脑筋	-11.5367
相顾愕然	-11.5367
瘦丐	-11.5367
贼厮鸟	-11.5367
侍候	-11.5367
惹恼了	-11.5367
李广利	-11.5367
一件件的	-11.5367
臼	-11.5367
支颐	-11.5367
配得上	-11.5367
杨相公	-11.5368
左胯	-11.5368
紧紧搂住	-11.5368
蹬	-11.5368
八个女子	-11.5368
裘铁掌	-11.5368
僵持	-11.5368
递了过去	-11.5368
为了何事	-11.5368
低头避过	-11.5368
恭敬	-11.5368
跟随在后	-11.5368
辞婚	-11.5368
上前夹攻	-11.5368
偶然	-11.5368
炎热	-11.5368
绿竹杖	-11.5368
做兄弟的	-11.5368
毒针环	-11.5368
宛若	-11.5368
交迸	-11.5368
详加	-11.5368
凄苦	-11.5368
愕然不解	-11.5368
的精要	-11.5368
壮汉	-11.5368
看得清清楚楚	-11.5368
温软	-11.5368
技艺	-11.5369
枝叶	-11.5369
芦管	-11.5369
父皇	-11.5369
狗屁	-11.5369
赔罪	-11.5369
辈份	-11.5369
内功精湛	-11.5369
钓鱼	-11.5369
身躯	-11.5369
谎话	-11.5369
野兔	-11.5369
帝国	-11.5369
踏上两步	-11.5369
杆铁枪	-11.5369
恃强	-11.5369
昼	-11.5369
残忍	-11.5369
千手人屠彭连虎	-11.5369
抢步上前	-11.5369
汗珠	-11.5369
遭劫	-11.5369
满拟	-11.5369
印痕	-11.5369
屋瓦	-11.5369
横行天下	-11.5369
自己身世	-11.5369
敬畏	-11.5369
臭虫	-11.5369
功力大进	-11.537
精奥	-11.537
自忖	-11.537
宫卫	-11.537
心下琢磨	-11.537
登时醒悟	-11.537
起了疑心	-11.537
形迹	-11.537
粗鲁	-11.537
精纯	-11.537
骷髅头骨	-11.537
临死之时	-11.537
纷纷跌落	-11.537
绝伦	-11.537
锦衣	-11.537
整整	-11.537
木棍	-11.537
奸徒	-11.537
侧身避开	-11.537
梅前辈	-11.537
包抄	-11.5371
钟爱	-11.5371
纵横天下	-11.5371
铁蹄	-11.5371
垂泪	-11.5371
怨仇	-11.5371
约束	-11.5371
拦腰	-11.5371
宁静	-11.5371
再也支持不住	-11.5371
的处所	-11.5371
躺着	-11.5371
鲁大哥	-11.5371
羊毛	-11.5371
昔年	-11.5372
田七	-11.5372
武士	-11.5372
高宗皇帝	-11.5372
餐	-11.5372
歌舞	-11.5372
帆索	-11.5372
真有你的	-11.5372
一名亲兵	-11.5372
耗损	-11.5372
四味药	-11.5372
柔弱	-11.5372
含泪	-11.5372
哀求	-11.5372
到悬崖之下	-11.5372
求医	-11.5372
午夜	-11.5373
从小就	-11.5373
勇敢	-11.5373
愤恨	-11.5373
是我杀的	-11.5373
激荡	-11.5373
遭遇	-11.5373
看不清楚	-11.5373
这套掌法	-11.5373
结识	-11.5373
此番	-11.5373
奉承	-11.5373
颜色	-11.5373
何尝	-11.5373
向郭靖一指	-11.5373
防护	-11.5373
俯首	-11.5373
渡江	-11.5373
积雪	-11.5373
双手合十	-11.5373
丘师兄	-11.5373
亦无	-11.5373
酒壶	-11.5373
望着天边	-11.5374
黎明	-11.5374
了他一眼	-11.5374
惧怕	-11.5374
推究	-11.5374
该不该	-11.5374
硬拚	-11.5374
霎时	-11.5374
麻木	-11.5374
窗格	-11.5374
并不答话	-11.5374
决计不会	-11.5374
奴才	-11.5375
妙手书生朱聪	-11.5375
残疾	-11.5375
天资	-11.5375
脚程	-11.5375
唇边	-11.5375
撑持	-11.5375
长藤	-11.5375
无法脱身	-11.5375
杖尾	-11.5375
遍地都是	-11.5375
能耐	-11.5375
认错	-11.5375
熟习	-11.5375
开始	-11.5375
个平手	-11.5375
决不容	-11.5375
稍减	-11.5376
木桨	-11.5376
臭贼	-11.5376
嗯了一声	-11.5376
跟踪	-11.5376
万状	-11.5376
历代	-11.5376
打岔	-11.5376
白兔	-11.5376
内功秘诀	-11.5376
离岸	-11.5377
外婆	-11.5377
沉吟不语	-11.5377
十余丈外	-11.5377
龙吟	-11.5377
腕骨	-11.5377
个痛快	-11.5377
六十年	-11.5377
开船	-11.5377
宽怀	-11.5377
敲击	-11.5377
扬帆	-11.5377
剑锋	-11.5378
追捕	-11.5378
马鞍	-11.5378
沉稳	-11.5378
世俗	-11.5379
忽听得门外	-11.5379
听在耳	-11.5379
全然不同	-11.5379
想见见	-11.5379
统军	-11.5379
顾念	-11.5379
拔了出来	-11.5379
曲调	-11.538
焉能	-11.538
王公	-11.538
一件大事	-11.538
沙堆	-11.538
终须	-11.538
显露	-11.538
不下去了	-11.538
布片	-11.5381
归座	-11.5381
全仗	-11.5381
师徒二人	-11.5381
已自不及	-11.5381
口唇	-11.5381
躲闪	-11.5381
缘由	-11.5381
轻轻一拍	-11.5381
妇女	-11.5382
剧斗	-11.5382
当先一人	-11.5382
制服	-11.5382
招式	-11.5382
站在门口	-11.5382
在这岛上	-11.5382
公文	-11.5383
心中思潮起伏	-11.5383
侧目	-11.5383
依照	-11.5384
闪躲	-11.5384
凑近	-11.5384
活命之	-11.5384
四王子	-11.5384
图形	-11.5384
摆布	-11.5384
箭杆	-11.5384
坚实	-11.5384
止步	-11.5385
计算	-11.5385
主持	-11.5385
箭枝	-11.5385
甚广	-11.5385
乞儿	-11.5385
挥舞	-11.5385
杨铁心夫妇	-11.5385
高手比武	-11.5385
尽量	-11.5385
捉鱼	-11.5385
妖法	-11.5385
众小孩	-11.5385
真乃	-11.5385
登感	-11.5385
脸蛋	-11.5385
金印	-11.5386
白衫	-11.5386
说给你听	-11.5386
机妙	-11.5386
须得好好	-11.5386
沙包	-11.5387
点拨	-11.5387
昂头	-11.5387
东南	-11.5387
打猎	-11.5387
难逢	-11.5387
草木	-11.5387
称呼	-11.5388
拔步	-11.5388
树林之中	-11.5388
不是敌手	-11.5388
寝宫	-11.5388
铁掌峰上	-11.5388
孙儿	-11.5388
报复	-11.5388
合围	-11.5389
俱各	-11.5389
赞叹	-11.5389
背后风声	-11.5389
▁这一晚	-11.5389
老爷子	-11.539
呈上	-11.539
横劈	-11.539
娶妻	-11.539
闭门	-11.539
双耳	-11.5391
骨节	-11.5391
男儿	-11.5391
南山	-11.5391
亲切	-11.5392
两丐	-11.5392
难熬	-11.5392
举杖	-11.5392
鸟儿	-11.5392
你们俩	-11.5392
出手相助	-11.5392
凭空	-11.5393
镜子	-11.5393
七位师父	-11.5393
年纪轻轻	-11.5393
狂风	-11.5393
已经死了	-11.5393
耽心	-11.5393
大声惊呼	-11.5393
肯不肯	-11.5393
明晚	-11.5394
字样	-11.5394
复原	-11.5394
小僧	-11.5394
暴起	-11.5394
深仇大	-11.5394
布阵	-11.5395
擅自	-11.5395
上满是	-11.5395
依你说	-11.5395
老虎	-11.5395
都感奇怪	-11.5395
紧握	-11.5397
此仇	-11.5397
犹未	-11.5397
长春	-11.5397
一阵疼痛	-11.5397
干草	-11.5397
久经	-11.5397
坐了下来	-11.5398
捉鬼	-11.5398
右手五指	-11.5398
捕快	-11.5398
经中武功	-11.5398
密门	-11.5399
不禁大为	-11.54
都是一样	-11.54
透明	-11.54
大金国钦使	-11.54
活活	-11.54
甘心	-11.54
把戏	-11.54
拚个	-11.54
北归	-11.54
简直	-11.5401
守夜	-11.5401
天灵盖上	-11.5401
向他后心	-11.5401
拔剑	-11.5401
牢牢记住	-11.5401
青衣	-11.5402
血色	-11.5402
月色	-11.5402
也不打紧	-11.5402
了几眼	-11.5402
发喊	-11.5402
这些日子来	-11.5403
骨肉	-11.5403
比寻常	-11.5403
发呆	-11.5403
墓前	-11.5403
高台	-11.5403
想不通	-11.5403
身在半空	-11.5403
大批	-11.5404
撞上了	-11.5404
横臂	-11.5404
转授	-11.5404
饶命	-11.5404
两银子	-11.5405
棺中	-11.5405
正打在	-11.5405
屋顶上	-11.5406
柱子	-11.5406
邪气	-11.5406
豪气	-11.5406
小舟	-11.5406
退缩	-11.5407
逃避	-11.5407
明朝	-11.5407
何苦	-11.5407
想不明白	-11.5408
厉害得紧	-11.5408
决然	-11.5408
取了出来	-11.5408
两枝	-11.5409
触手	-11.5409
惨叫	-11.5409
意图	-11.5409
落单	-11.5409
句子	-11.5409
刺耳	-11.541
这一腿	-11.541
相欺	-11.541
说不出来	-11.5411
试招	-11.5411
出丑	-11.5412
牵动	-11.5412
千斤	-11.5413
福气	-11.5413
气闷	-11.5413
费事	-11.5413
行凶	-11.5413
拜服	-11.5414
在大漠中	-11.5414
激动	-11.5415
心智	-11.5415
通晓	-11.5416
足底	-11.5416
甚是了得	-11.5416
不相同	-11.5416
转了个	-11.5416
立功	-11.5417
说不上	-11.5417
毒物	-11.5418
管家	-11.5418
甚喜	-11.5418
相格	-11.542
嵌入	-11.542
乘早	-11.542
乱踢	-11.542
脑子	-11.542
所写的	-11.5421
撑地	-11.5421
这铁尸	-11.5421
喝止	-11.5421
入宫	-11.5422
整天	-11.5422
感情	-11.5423
领路	-11.5423
官家	-11.5424
挣扎着	-11.5425
是哪一位	-11.5426
火光中	-11.5426
行止	-11.5426
一刀杀了	-11.5426
翻脸	-11.5427
用不着	-11.5427
咱们这就	-11.5428
带来的	-11.5428
臭气	-11.5428
这公子	-11.5428
潜心	-11.5429
小羊	-11.543
所见的	-11.543
负起	-11.5431
味儿	-11.5431
蛇血	-11.5432
金铁	-11.5433
扑击	-11.5434
进城	-11.5435
可从来没	-11.5435
派兵	-11.5435
无一不是	-11.5435
白布	-11.5435
争先	-11.5435
而悟	-11.5436
乍见	-11.5436
也不须	-11.5437
失足	-11.5437
吐气	-11.5437
处机	-11.5438
受伤之后	-11.544
极灵	-11.544
震开	-11.5441
听他这么说	-11.5441
教主	-11.5442
轿中	-11.5442
铁剑	-11.5443
做得出	-11.5444
大雾	-11.5445
被封	-11.5445
是全真派的	-11.5446
交战	-11.5446
相思	-11.5446
相避	-11.5446
落下时	-11.5448
非凡	-11.5448
鱼儿	-11.5449
说话声音	-11.5449
决意要	-11.5449
一个少女	-11.545
圣人	-11.545
▁那老人	-11.545
睡倒	-11.5451
拔起	-11.5451
乱石	-11.5452
行藏	-11.5453
震动	-11.5453
若干	-11.5453
这藏僧	-11.5453
扬长	-11.5456
小王爷完颜康	-11.5457
纯是	-11.5457
傻子	-11.5457
反过来	-11.5459
滚出来	-11.546
被逼	-11.546
也打不过	-11.5461
翻飞	-11.5461
这女孩儿	-11.5461
为止	-11.5461
劲敌	-11.5461
矮小	-11.5462
异声	-11.5462
一下子	-11.5463
相称	-11.5464
却何以	-11.5467
须当	-11.5469
过了一顿饭	-11.5469
怪招	-11.5469
亲自去	-11.5469
两穴	-11.547
另行	-11.5471
老实	-11.5471
一堵	-11.5472
▁枯木	-11.5473
夜里	-11.5474
相加	-11.5475
意思说	-11.5475
带同	-11.5475
这套拳法	-11.5475
安排下	-11.5476
挨打	-11.5477
看守	-11.5477
按着	-11.5477
胆大	-11.5478
打碎	-11.5478
透出	-11.5479
发令	-11.5479
此经	-11.548
冲击	-11.548
离家	-11.5481
知道此人	-11.5484
决胜负	-11.5484
才怪	-11.5488
扑地	-11.5488
猛推	-11.5488
决心	-11.5488
既非	-11.549
指使	-11.5491
别在这里	-11.5492
那藏僧	-11.5493
书名	-11.5493
那姓郭的小子	-11.5494
个地方	-11.5494
怒吼	-11.5494
天早晨	-11.5495
立时就要	-11.5496
四望	-11.5498
遗言	-11.5499
暗暗吃惊	-11.55
墓室	-11.5501
半招	-11.5502
抹去	-11.5502
大驾	-11.5503
凝望着	-11.5503
回归	-11.5504
方法	-11.5506
死不了	-11.5508
我知道你	-11.5516
心中一惊	-11.552
夹住	-11.5523
改过	-11.5525
▁那边	-11.5526
咱们再来	-11.5528
几掌	-11.5532
夺取	-11.5537
去攻打	-11.5547
这一击	-11.5547
译成	-11.5553
半碗	-11.5556
营房	-11.5556
不听话	-11.5567
几样	-11.5567
得天翻地覆	-11.5571
知对方	-11.5574
话题	-11.5587
师父是谁	-11.559
是人是	-11.5608
钩住	-11.5608
遮住	-11.5609
金国王子	-11.5614
大宛国	-11.5629
长江	-11.5635
随后赶	-11.564
溜出	-11.5642
欧阳锋厉声	-11.567
黄药师父女	-11.5673
停住	-11.5689
围成	-11.5693
部位	-11.5696
不用怕	-11.5704
七八步	-11.5704
也没用	-11.5714
抬头向	-11.5718
被他抓住	-11.5721
说一句话	-11.5729
荷	-11.5743
几根	-11.5744
一个人影	-11.5752
城门	-11.5757
哪一门	-11.5761
这两句	-11.5762
并肩坐在	-11.5767
手笔	-11.5781
楼房	-11.5784
卷住	-11.5795
变作	-11.5818
过一会	-11.5834
第一个	-11.5837
害无辜	-11.585
块大石	-11.5866
有这等事	-11.5869
沉船	-11.5874
失落	-11.5921
抢过去	-11.5932
谁教	-11.5935
酒店	-11.595
借给	-11.5956
入水中	-11.5957
布衫	-11.598
有甚么法子	-11.5984
交换	-11.6005
真像	-11.6034
了半个	-11.6037
进村	-11.6067
见他神情	-11.6074
感恩	-11.6079
自然不会	-11.6082
一碗酒	-11.6097
墙头	-11.6099
个大字	-11.6103
难道当真	-11.6127
涌进	-11.6128
两人各自	-11.6168
好生奇怪	-11.6186
明天再	-11.6199
部经文	-11.6211
珍珠	-11.6258
鞭头	-11.626
在门后	-11.6266
杀伤	-11.6274
已看出	-11.6276
知他武功	-11.6331
更令	-11.635
生满	-11.6352
兵卒	-11.6381
微末功夫	-11.6393
上土山	-11.6396
远远传	-11.6404
再也没	-11.6433
总是给	-11.6441
邪门	-11.6482
声惊呼	-11.6491
一口酒	-11.6496
在洞内	-11.6514
仍被	-11.6523
跳跃	-11.6572
截断	-11.6575
厅门	-11.6608
一股劲风	-11.6614
洞箫	-11.6641
知己	-11.6661
听父亲说	-11.6678
急智	-11.6679
未必能胜	-11.6685
峰壁	-11.6705
白影	-11.6769
轻拍	-11.6787
肩膀	-11.6829
压死	-11.6851
月光照	-11.6861
一门功夫	-11.691
荷花	-11.6925
羊肉	-11.6939
忽施	-11.6981
论剑之期	-11.6989
数百斤	-11.7009
十根	-11.7039
妨	-11.705
暗赞	-11.7052
裘老帮主	-11.7064
五根手指	-11.7067
下头去	-11.707
不答话	-11.7094
一杯酒	-11.7117
无影无踪	-11.7124
毒针	-11.718
天罡北斗	-11.7183
丫头	-11.7184
莽	-11.7185
许配	-11.7194
吃了一记	-11.7197
在前头	-11.7204
半晌不语	-11.7208
早晨	-11.7214
宛	-11.7224
怔怔	-11.7244
退几步	-11.726
出十余丈	-11.726
赐教	-11.7269
倘	-11.7272
乍	-11.728
名号	-11.7289
马缰	-11.7293
拱	-11.7293
林外	-11.7303
店前	-11.7312
心中又惊又	-11.7326
见他满脸	-11.7328
庙里	-11.7336
宝应	-11.734
胯	-11.7347
哇	-11.7347
踏步进	-11.7349
岔	-11.7352
许婚	-11.7353
询	-11.7355
耻	-11.7355
弘	-11.7355
上有毒	-11.7356
怦怦乱跳	-11.7356
聊	-11.7356
谓	-11.7357
烛光	-11.7357
闺	-11.7358
这贼子	-11.7358
讥	-11.7358
身负	-11.7359
点着了	-11.7359
帘	-11.7359
廿	-11.7359
贾	-11.7359
希	-11.7359
乙	-11.736
这一晚	-11.736
盔	-11.736
媳妇	-11.7361
翔	-11.7361
职	-11.7362
亨	-11.7362
猴	-11.7362
钹	-11.7362
淘	-11.7362
巷	-11.7362
越女剑	-11.7362
哑谜	-11.7362
脊	-11.7362
坪	-11.7362
牧羊犬	-11.7362
千里迢迢	-11.7362
顽	-11.7363
武侠小说	-11.7363
揪	-11.7363
购	-11.7363
钗	-11.7363
戏剧	-11.7363
桂	-11.7363
省悟	-11.7363
眼花缭乱	-11.7363
从怀中摸出	-11.7363
优	-11.7363
搔搔头	-11.7363
一问一答	-11.7363
妙用无穷	-11.7363
央	-11.7363
嘶哑着嗓子	-11.7363
注视	-11.7363
千手人屠	-11.7363
蛤	-11.7363
喀	-11.7363
翁	-11.7363
鼾	-11.7363
慨	-11.7363
好生相敬	-11.7364
急切难	-11.7364
污秽	-11.7364
辽	-11.7364
龟	-11.7364
档	-11.7364
祠	-11.7364
疤	-11.7364
孟	-11.7364
所作所为	-11.7364
绌	-11.7364
脑浆迸裂	-11.7364
威名远震	-11.7364
兑	-11.7364
刑	-11.7364
惨酷	-11.7364
的勾当	-11.7364
睹	-11.7364
蛟	-11.7364
锡	-11.7364
层出不穷	-11.7364
平平无奇	-11.7364
在战场上	-11.7364
双钹	-11.7364
神威凛凛	-11.7364
结为兄弟	-11.7364
逛	-11.7364
碧海潮生	-11.7364
糕	-11.7364
捆	-11.7364
碗橱	-11.7364
诚恳	-11.7364
一点儿也不错	-11.7364
嗜	-11.7364
得五体投地	-11.7364
拧	-11.7364
无意间	-11.7364
欣慰	-11.7364
哥儿俩	-11.7364
筒	-11.7364
个千人队	-11.7364
手舞足蹈	-11.7364
饮几杯	-11.7364
已不在人世	-11.7364
宋太祖	-11.7364
找上门来	-11.7364
无法可施	-11.7364
红衣少女	-11.7364
瞪目而视	-11.7364
身经百战	-11.7364
翅	-11.7364
剪	-11.7364
呆滞	-11.7364
斋	-11.7364
滞	-11.7364
苗	-11.7364
赵宋	-11.7364
那白发老头	-11.7364
宅第	-11.7365
猎犬	-11.7365
笨拙	-11.7365
脸色焦黄	-11.7365
奖	-11.7365
互道别来	-11.7365
郁郁	-11.7365
兜截	-11.7365
浑浑噩噩	-11.7365
神算子	-11.7365
讳	-11.7365
诞	-11.7365
十八年来	-11.7365
赤列都	-11.7365
辕	-11.7365
金碧辉煌	-11.7365
眼圈儿	-11.7365
凋	-11.7365
撅	-11.7365
无穷无尽	-11.7365
目不转瞬的	-11.7365
绍	-11.7365
不争气	-11.7365
个水落石出	-11.7365
乏	-11.7365
哒	-11.7365
怒目而视	-11.7365
摸了摸	-11.7365
砚	-11.7365
言出必	-11.7365
说个清楚	-11.7365
磕了几个	-11.7365
一招一式	-11.7365
又缩了回去	-11.7365
崇	-11.7365
配不上	-11.7365
阙	-11.7365
峻	-11.7365
一臂之力	-11.7365
伯仲	-11.7365
十天半月	-11.7365
史丞相	-11.7365
说话解闷	-11.7365
H	-11.7365
七月初	-11.7365
仙霞派	-11.7365
删	-11.7365
死于非命	-11.7365
浊	-11.7365
西北风	-11.7365
轧	-11.7365
这是降龙十八掌中	-11.7365
矫	-11.7365
个美貌少女	-11.7365
劳什子	-11.7365
茫然失措	-11.7365
碌	-11.7365
牵着郭靖的手	-11.7365
云栖寺	-11.7365
呼叱	-11.7365
泥鳅功	-11.7365
涵	-11.7365
荒漠	-11.7365
血肉模糊	-11.7365
笛	-11.7365
又快又准	-11.7365
口口声声	-11.7365
恶狠狠的	-11.7365
津津有味	-11.7365
见死不救	-11.7365
冷眼旁观	-11.7365
嬉	-11.7365
三脚猫	-11.7365
不怀好意	-11.7365
乌篷船	-11.7365
凝神注视	-11.7365
如箭离弦	-11.7365
嫔	-11.7365
弯下腰	-11.7365
炽	-11.7365
袜	-11.7365
趟	-11.7365
一本正经的	-11.7365
嘻嘻哈哈的	-11.7365
帚	-11.7365
抓了一把	-11.7365
无缘无故	-11.7365
蝶	-11.7365
诺	-11.7365
越墙而出	-11.7365
神采飞扬	-11.7365
旷	-11.7365
九个骷髅头	-11.7365
伤她性命	-11.7365
倒要瞧瞧	-11.7365
处心积虑	-11.7365
女娃儿	-11.7365
姑姑	-11.7365
家学渊源	-11.7365
对鸳鸯	-11.7365
灵丹妙药	-11.7365
甸	-11.7365
百夫长	-11.7365
萦	-11.7365
蛾	-11.7365
蹲下身子	-11.7365
长发披	-11.7365
问个明白	-11.7365
云雾之中	-11.7365
交过手	-11.7365
亲近亲近	-11.7365
光溜溜的	-11.7365
姊妹	-11.7365
师傅	-11.7365
愉	-11.7365
转瞬之间	-11.7365
迥	-11.7365
r	-11.7365
一转念间	-11.7366
亥	-11.7366
捞	-11.7366
』	-11.7366
一口唾液	-11.7366
也算得是	-11.7366
啃	-11.7366
当啷啷	-11.7366
梁二长老	-11.7366
神箭手	-11.7366
绢	-11.7366
又自不同	-11.7366
垂下泪来	-11.7366
昂起了头	-11.7366
楞楞的	-11.7366
船靠岸	-11.7366
镇慑心神	-11.7366
不害臊	-11.7366
中气充沛	-11.7366
.	-11.7366
『	-11.7366
一动不动的	-11.7366
卷轴	-11.7366
呼的一掌	-11.7366
喝了一声彩	-11.7366
大汗淋漓	-11.7366
姿态	-11.7366
富贵不可限量	-11.7366
惩	-11.7366
放慢脚步	-11.7366
滚来滚去	-11.7366
王道乾	-11.7366
瑟	-11.7366
经中所述	-11.7366
翻来覆去	-11.7366
韩三爷	-11.7366
郭靖连声称是	-11.7366
提高声音	-11.7366
丹田之气	-11.7366
仁慈	-11.7366
括	-11.7366
桑昆和札木合	-11.7366
狮	-11.7366
舍命相救	-11.7366
钦察	-11.7366
黄蓉秀眉	-11.7366
小杂种	-11.7366
走近身去	-11.7366
馋	-11.7366
乱成一片	-11.7366
千言万语	-11.7366
在日光下	-11.7366
妓	-11.7366
屡	-11.7366
岳阳楼	-11.7366
抽抽噎噎的	-11.7366
栅	-11.7366
牡丹	-11.7366
猛喝一声	-11.7366
的途径	-11.7366
空手夺白刃	-11.7366
答不上来	-11.7366
篇小说	-11.7366
纷纷议论	-11.7366
荷荷	-11.7366
衔	-11.7366
见势头不	-11.7366
逍遥巾	-11.7366
那还用	-11.7366
铁木真和札木合	-11.7366
铜尸铁尸	-11.7366
龄	-11.7366
泰亦赤兀惕人	-11.7366
鼠辈	-11.7366
不到一盏茶	-11.7366
悲喜交集	-11.7366
惘	-11.7366
一连串	-11.7366
不顺眼	-11.7366
从何处得来	-11.7366
千难万难	-11.7366
快速无伦	-11.7366
是友是敌	-11.7366
武功全失	-11.7366
狐疑	-11.7366
笑出声来	-11.7366
聆	-11.7366
跌跌撞撞	-11.7366
跚	-11.7366
蹒	-11.7366
哗	-11.7366
一先一后	-11.7366
伏地大哭	-11.7366
一场大病	-11.7366
半晌说不出话来	-11.7366
在其内	-11.7366
奉立帮主	-11.7366
得更紧	-11.7366
炉火纯青	-11.7366
瘫	-11.7366
舐	-11.7366
走火入魔	-11.7366
身材高大	-11.7366
铁掌帮帮主裘千仞	-11.7366
仇深似海	-11.7366
镖	-11.7366
来求亲	-11.7366
嬉皮笑脸	-11.7366
心甘情愿	-11.7366
招讨使	-11.7366
沈青刚	-11.7366
这口恶气	-11.7366
仰天打个哈哈	-11.7366
山坡羊	-11.7366
我拜你为师	-11.7366
爆	-11.7366
的故居	-11.7366
砌	-11.7366
蚕	-11.7366
蝮蛇宝血	-11.7366
说一是一	-11.7366
台下群丐	-11.7366
喜极而	-11.7366
捆缚	-11.7366
捡拾	-11.7366
旅途	-11.7366
为的是要	-11.7366
凉了半截	-11.7366
到第八	-11.7366
垫	-11.7366
太湖群雄	-11.7366
强行忍住	-11.7366
德薛禅	-11.7366
有恃无恐	-11.7366
絮	-11.7366
纤腰	-11.7366
自己想出来的	-11.7366
航	-11.7366
落花流水	-11.7366
冲口而出	-11.7366
有道之士	-11.7366
疆	-11.7366
知难而退	-11.7366
群孩	-11.7366
闲逛	-11.7366
高举过顶	-11.7366
叙述	-11.7366
拄	-11.7366
目不转睛的	-11.7366
凄凉	-11.7366
夺门而出	-11.7366
惊心动魄	-11.7366
生平绝学	-11.7366
的名称	-11.7366
的首领	-11.7366
碗口粗细	-11.7366
厚厚的	-11.7366
的妻子蒲儿帖	-11.7366
亡妻	-11.7366
届	-11.7366
果然名不虚传	-11.7366
追风黄	-11.7366
告诉	-11.7366
心念忽动	-11.7366
簇	-11.7366
衬	-11.7366
大为诧异	-11.7367
兜圈子	-11.7367
全无血色	-11.7367
哈虎文钵英	-11.7367
笑弥陀张阿生	-11.7367
纠缠不清	-11.7367
一千两银子	-11.7367
一饮而尽	-11.7367
与人动武	-11.7367
东征西	-11.7367
侯老爷	-11.7367
唾吐	-11.7367
寂然无声	-11.7367
币	-11.7367
有骨气	-11.7367
棵大树	-11.7367
溜之大吉	-11.7367
灯烛	-11.7367
嘲	-11.7367
愚鲁	-11.7367
丝巾	-11.7367
胀红了脸	-11.7367
旷野	-11.7367
包括	-11.7367
又悲又	-11.7367
奋起平生之力	-11.7367
定一定神	-11.7367
已大非昔比	-11.7367
探手入	-11.7367
硬碰硬	-11.7367
峡	-11.7367
的口音	-11.7367
喝了几口	-11.7367
轻松自在	-11.7367
高地上	-11.7367
麻核	-11.7367
痴痴	-11.7367
两浙	-11.7367
偏僻	-11.7367
可要小心了	-11.7367
拳打足踢	-11.7367
是何等人物	-11.7367
杀声震天	-11.7367
来来去去	-11.7367
波兰	-11.7367
缎子	-11.7367
钓杆	-11.7367
伸出手来	-11.7367
湖滨	-11.7367
状元公	-11.7367
东北角	-11.7367
纳罕	-11.7367
结结实实	-11.7367
罕见罕闻	-11.7367
这幅图	-11.7367
怪僻	-11.7367
组成	-11.7367
钞	-11.7367
岳父大人	-11.7367
摄	-11.7367
树巅	-11.7367
血渍	-11.7367
钦宗	-11.7367
杯筷	-11.7367
置之不理	-11.7367
韧	-11.7367
并辔	-11.7367
钓丝	-11.7367
册封	-11.7367
称他为	-11.7367
越看越	-11.7367
铜尸陈玄风	-11.7367
上乘轻功	-11.7367
晦气	-11.7367
戮	-11.7367
鞭梢	-11.7367
喝干了	-11.7368
嫁给都史	-11.7368
飘逸	-11.7368
兴奋	-11.7368
听爹爹说过	-11.7368
抵赖	-11.7368
按摩	-11.7368
杨叔父	-11.7368
滑腻	-11.7368
灯笼火把	-11.7368
绝顶聪明	-11.7368
舵柄	-11.7368
越女剑法	-11.7368
雅兰花	-11.7368
▁斗到	-11.7368
双煞	-11.7368
一交摔倒	-11.7368
严厉	-11.7368
也还罢了	-11.7368
向里张望	-11.7368
委屈	-11.7368
孝宗	-11.7368
蹙眉	-11.7368
哇的一声	-11.7368
指手划脚	-11.7368
杨家枪	-11.7368
称得上	-11.7368
纸笺	-11.7368
介意	-11.7368
伙计	-11.7368
脸色一沉	-11.7368
各执兵刃	-11.7368
江南豪杰	-11.7368
跌入海中	-11.7368
状元	-11.7368
举起马鞭	-11.7368
毛毡	-11.7368
疾驰而去	-11.7368
两头豹子	-11.7368
敝帮	-11.7368
脊骨	-11.7368
一言为定	-11.7368
具尸首	-11.7368
上刻了	-11.7368
变化精微	-11.7368
放肆	-11.7368
救人要紧	-11.7368
馋嘴	-11.7368
有种的	-11.7368
失声惊呼	-11.7368
捶胸	-11.7368
湍急	-11.7368
一拳一脚	-11.7368
呈给	-11.7368
一宵	-11.7368
疾趋	-11.7368
笼罩	-11.7368
众军士齐声	-11.7369
周旋	-11.7369
屈膝	-11.7369
没听说过	-11.7369
还差得远	-11.7369
难说得很	-11.7369
擒获	-11.7369
火花四溅	-11.7369
铁盔	-11.7369
亡母	-11.7369
奔驰来去	-11.7369
班师	-11.7369
讥刺	-11.7369
微一迟疑	-11.7369
拍手大笑	-11.7369
猎叉	-11.7369
鹊	-11.7369
一辆	-11.7369
心中一荡	-11.7369
较艺	-11.7369
酒坛	-11.7369
手执兵刃	-11.7369
斟酒	-11.7369
互相望了一眼	-11.7369
喆	-11.7369
七位恩师	-11.7369
尊驾	-11.7369
游戏	-11.7369
印证	-11.7369
犯不着	-11.7369
的神气	-11.7369
痴呆	-11.7369
皮帽	-11.7369
险些摔倒	-11.7369
音律	-11.7369
时三刻	-11.7369
仁义	-11.7369
坐在椅上	-11.7369
拙荆	-11.7369
累累	-11.7369
钢索	-11.7369
惨状	-11.7369
折为两截	-11.7369
掩埋	-11.7369
我那贼汉子	-11.737
武林人物	-11.737
茶杯	-11.737
亡故	-11.737
鲜果	-11.737
总有一日	-11.737
的光头	-11.737
立时醒悟	-11.737
财主	-11.737
所住的	-11.737
蚌肉	-11.737
大声喝彩	-11.737
的那块	-11.737
肉搏	-11.737
顾忌	-11.737
盟约	-11.737
并不在意	-11.737
木材	-11.737
走上前来	-11.737
艇首	-11.737
哨探	-11.737
待得惊觉	-11.737
结束	-11.737
挑担	-11.737
一不做	-11.737
线香	-11.737
回到帐中	-11.737
横了一眼	-11.737
脸一沉	-11.737
受挫	-11.737
哪里还敢	-11.737
蒲团之上	-11.737
鼓勇	-11.7371
列仙	-11.7371
毒丸	-11.7371
丸药	-11.7371
拐杖	-11.7371
铁掌水上飘裘千仞	-11.7371
朱聪和全金发	-11.7371
禁宫	-11.7371
不是他的敌手	-11.7371
不知不觉之间	-11.7371
干粮	-11.7371
妙哉	-11.7371
甜美	-11.7371
火焰	-11.7371
洪亮	-11.7371
白了他一眼	-11.7371
躲不开	-11.7371
伏在桌上	-11.7371
柴草	-11.7371
衣裤	-11.7371
飘荡	-11.7371
兔肉	-11.7372
割切	-11.7372
拜倒在地	-11.7372
随即会意	-11.7372
机敏	-11.7372
驱赶	-11.7372
群雄	-11.7372
情深爱	-11.7372
武功高强之人	-11.7372
恍若	-11.7372
一对金娃娃	-11.7372
干草堆	-11.7372
笔迹	-11.7372
粗壮	-11.7372
跌倒在地	-11.7372
出名的	-11.7372
并排	-11.7372
觅路	-11.7372
有了防备	-11.7372
不知如何回答	-11.7372
丘师弟	-11.7372
南瓜	-11.7372
爱慕	-11.7372
不好意思	-11.7373
这路掌法	-11.7373
昆	-11.7373
到牛家村来	-11.7373
久久不	-11.7373
所作的	-11.7373
版本	-11.7373
铁哥	-11.7373
徒孙	-11.7373
歹意	-11.7373
觉有趣	-11.7373
咏	-11.7373
隔了片刻	-11.7373
心肺	-11.7373
报讯	-11.7373
星星	-11.7373
晚晚	-11.7373
长篙	-11.7373
一双眼睛	-11.7373
白昼	-11.7373
姓段	-11.7373
宗皇帝	-11.7373
寂静	-11.7373
漆黑	-11.7374
抓起一把	-11.7374
湿透	-11.7374
精锐	-11.7374
跃上大船	-11.7374
在他的手里	-11.7374
压将下来	-11.7374
拥抱	-11.7374
其详	-11.7374
的住处	-11.7374
在灯下	-11.7374
脾气古怪	-11.7374
拍的一响	-11.7374
木盒	-11.7374
隔壁	-11.7374
步履	-11.7374
只吓得魂飞	-11.7374
卖弄	-11.7374
第二句	-11.7374
现代	-11.7374
尘沙	-11.7374
一只酒杯	-11.7375
猛兽	-11.7375
闲谈	-11.7375
黄老邪的女儿	-11.7375
调制	-11.7375
不许你再	-11.7375
壶酒	-11.7375
缓步走到	-11.7375
停息	-11.7375
奸细	-11.7375
脱缚	-11.7375
绝境	-11.7375
害羞	-11.7375
延年	-11.7375
精品	-11.7375
救我性命	-11.7375
圈套	-11.7375
两条腿	-11.7376
狂呼	-11.7376
联在一起	-11.7376
左肘	-11.7376
稍息	-11.7376
恳求	-11.7376
林中道路	-11.7376
救他性命	-11.7376
丹药	-11.7376
无别法	-11.7376
幼女	-11.7376
前后左右	-11.7376
长岭	-11.7376
惊呼一声	-11.7376
胜仗	-11.7376
诱敌	-11.7376
血竭	-11.7376
义士	-11.7376
勒住	-11.7376
大宋皇帝	-11.7376
威严	-11.7376
两个乞丐	-11.7377
郭爷	-11.7377
低头不语	-11.7377
安顿	-11.7377
干休	-11.7378
侧耳	-11.7378
向他请教	-11.7378
掌舵	-11.7378
奔波	-11.7378
碰巧	-11.7378
禁军	-11.7378
宝庄	-11.7378
气概	-11.7378
篾儿乞惕人	-11.7378
山川	-11.7378
尊姓	-11.7378
波的一声	-11.7378
注视着	-11.7378
臂弯里	-11.7378
深究	-11.7378
牢牢抓住	-11.7378
在树林中	-11.7379
缓慢	-11.7379
打他一个	-11.7379
斜斜	-11.7379
相互间	-11.7379
光鲜	-11.7379
鸡汤	-11.7379
众寨主	-11.7379
岂不甚	-11.7379
侍立	-11.7379
相搏	-11.7379
稍加	-11.7379
音调	-11.7379
难以脱身	-11.7379
不再理会	-11.738
哪一天	-11.738
另有一番	-11.738
帮主号令	-11.738
你不肯说	-11.738
前来相救	-11.738
投机	-11.738
也不放在心上	-11.738
心下焦急	-11.738
素闻	-11.738
突围	-11.738
俯跌	-11.738
反抗	-11.738
极为了得	-11.738
好得很啊	-11.738
中了一拳	-11.7381
参加	-11.7381
橱里	-11.7381
从何而	-11.7381
叩见	-11.7381
白袍	-11.7381
钻了出来	-11.7381
闻到一阵	-11.7381
没有听见	-11.7381
拖雷安答	-11.7381
钉在地下	-11.7381
故土	-11.7382
裹住	-11.7382
两个小孩	-11.7382
插嘴	-11.7382
战局	-11.7382
张志	-11.7382
鬼丫头	-11.7382
伸手去拿	-11.7382
狂喜	-11.7382
个耳光	-11.7383
拜谢	-11.7383
决计不肯	-11.7383
长凳	-11.7383
▁1	-11.7383
那姓杨的	-11.7383
四弟	-11.7383
懂得甚么	-11.7383
所说的话	-11.7383
腾的一声	-11.7383
从所未见	-11.7383
双眉	-11.7383
师母	-11.7383
四溅	-11.7383
一名官兵	-11.7384
一段路	-11.7384
墙角	-11.7384
俯眼	-11.7384
记认	-11.7384
火候	-11.7384
怪责	-11.7384
料想必是	-11.7384
勾住	-11.7384
波涛之中	-11.7384
完毕	-11.7385
任帮主	-11.7385
治好了	-11.7385
在深山	-11.7385
倏忽	-11.7385
翻身坐	-11.7385
征战	-11.7385
从窗口	-11.7385
消解	-11.7385
斯文	-11.7385
带脉	-11.7385
呼吸渐	-11.7386
实是非同小可	-11.7386
凑眼	-11.7386
还不容易	-11.7386
帐幕里	-11.7386
躲藏	-11.7386
上了岸	-11.7386
清凉	-11.7386
投掷	-11.7386
竖立	-11.7386
性命要紧	-11.7387
众位师父	-11.7387
应该	-11.7387
是成吉思汗的	-11.7387
古松	-11.7387
不再言语	-11.7387
睡熟	-11.7387
听了这几句话	-11.7387
伤亡	-11.7387
关系	-11.7388
口诀	-11.7388
成婚	-11.7388
上乘功夫	-11.7388
不觉一惊	-11.7388
镇定	-11.7388
本来面目	-11.7388
临死时	-11.7388
洪老叫化	-11.7388
心肝	-11.7388
惊魂	-11.7388
闭眼	-11.7389
抵住	-11.7389
黑夜	-11.7389
了一大半	-11.7389
剑刃	-11.7389
招架不住	-11.7389
又是难过	-11.7389
急忙跃开	-11.7389
决计不能	-11.739
收泪	-11.739
各种	-11.739
昔时	-11.739
我和爹爹	-11.739
在马背上	-11.7391
去问问	-11.7391
四长老	-11.7391
心中琢磨	-11.7391
瞪着	-11.7391
担当	-11.7391
不肯娶	-11.7391
呼吸之声	-11.7391
轻轻叹了口气	-11.7391
英名	-11.7391
金杯	-11.7391
举止	-11.7391
哪肯	-11.7391
这许多高手	-11.7391
相距既	-11.7391
传译	-11.7392
杂乱	-11.7392
十余日	-11.7392
挥鞭	-11.7392
不舍得	-11.7392
棺材里	-11.7392
对付得了	-11.7392
查看	-11.7392
个玩笑	-11.7392
文化	-11.7392
罢休	-11.7392
向前疾	-11.7392
只怪我	-11.7392
儿童	-11.7392
处置	-11.7392
凝住	-11.7393
靠近	-11.7393
饿死啦	-11.7393
神色有异	-11.7394
确实	-11.7394
忽听得身后	-11.7394
云集	-11.7394
傻姑不说	-11.7394
破损	-11.7394
挺腰	-11.7394
身子摇晃	-11.7394
面临	-11.7395
出了圈子	-11.7396
武功之高	-11.7396
活捉	-11.7396
其余三人	-11.7396
宝石	-11.7396
掀起	-11.7396
清香	-11.7397
细沙	-11.7397
心中暗暗称奇	-11.7397
快放手	-11.7397
静坐	-11.7397
乐意	-11.7398
逃跑	-11.7398
慈和	-11.7398
哭了出来	-11.7398
眉间	-11.7398
长期	-11.7398
说得不错	-11.7398
当即站起	-11.7399
左胸	-11.7399
灵位	-11.7399
木棒	-11.7399
两仆	-11.74
猛劈	-11.74
不会武艺	-11.74
奔了一阵	-11.74
错过了	-11.74
鼓掌	-11.7401
本以为	-11.7401
梁二人	-11.7401
比拚	-11.7401
教祖	-11.7401
明亮	-11.7401
主张	-11.7401
言谈	-11.7402
这一节	-11.7402
爱民	-11.7402
练就了	-11.7403
老朋友	-11.7403
一百多	-11.7403
不由得吃了一惊	-11.7403
倒也不错	-11.7403
所教的	-11.7403
落将下来	-11.7403
窝阔台与拖雷	-11.7403
迷路	-11.7403
黄牛	-11.7403
之役	-11.7404
恰如	-11.7404
毒虫	-11.7404
扭住	-11.7404
危急时	-11.7404
六个师父	-11.7404
庵	-11.7405
样儿	-11.7405
了个空	-11.7406
担子	-11.7406
滚出去	-11.7406
黄沙	-11.7406
除此	-11.7407
白费	-11.7407
扭动	-11.7407
沙石	-11.7407
急忙闪避	-11.7407
觉得怎样	-11.7407
惊险	-11.7407
很喜欢	-11.7408
胸间	-11.7408
有长进	-11.7408
怪客	-11.7408
极易	-11.7408
苦功	-11.7409
到底是谁	-11.7409
塞外	-11.7409
倾倒	-11.7409
巧劲	-11.7409
天柱	-11.741
轻视	-11.741
喜乐	-11.741
水波	-11.741
落下风	-11.741
狂叫	-11.7411
情节	-11.7411
公然	-11.7411
疾刺	-11.7411
竟是丝毫	-11.7411
活不成	-11.7411
顺水	-11.7412
疾伸	-11.7412
命亲兵	-11.7412
幸会	-11.7412
披着	-11.7412
猛踢	-11.7412
本性	-11.7413
风帆	-11.7413
远远不及	-11.7414
脚色	-11.7414
左舷	-11.7414
摔交	-11.7414
穆易怒	-11.7414
乱闯	-11.7415
母子两人	-11.7415
右首	-11.7416
宏吉剌部	-11.7416
流血	-11.7417
乘船	-11.7417
喜的是	-11.7418
根本	-11.7418
报信	-11.7419
匹汗血宝马	-11.7419
内室	-11.7419
有何难	-11.7419
走江湖	-11.742
绝非	-11.7421
拚死	-11.7421
盛情	-11.7422
见了这等	-11.7424
这一扑	-11.7424
尚远	-11.7425
见了面	-11.7425
相投	-11.7426
握在手	-11.7426
又是一拳	-11.7427
面容	-11.7428
放心好啦	-11.7428
斜飞	-11.7429
退步	-11.7429
拖雷与华筝	-11.743
文书	-11.7432
两个月	-11.7433
闪让	-11.7434
指骨	-11.7437
祸端	-11.7449
未可知	-11.745
在草地	-11.7456
未免太	-11.7462
查问	-11.7463
逆行	-11.7468
盏茶	-11.7468
必输	-11.7471
咱三个	-11.7474
怔怔的出了	-11.7476
一皱	-11.7485
遗体	-11.7487
浸没	-11.7495
匹骏马	-11.7497
崩断	-11.7501
到了嘉兴	-11.7518
硬逼	-11.7521
斜眼看	-11.7521
求伯父	-11.7526
撕开	-11.7527
满脸笑容	-11.7541
几拜	-11.7546
截住	-11.7553
对郭靖说	-11.7554
是自己人	-11.7554
请老前辈	-11.7555
柴房	-11.7562
明明是个	-11.7563
颗弹子	-11.7568
算输	-11.758
一百余	-11.759
簌簌而	-11.7595
不知好歹	-11.7604
快速	-11.7604
等情由	-11.7607
是你输了	-11.7609
搭住	-11.7611
也不禁笑了	-11.7612
占住	-11.7613
得无影无踪	-11.7614
查知	-11.7619
闯了进	-11.762
一番话	-11.7624
声叫喊	-11.7632
群奸	-11.7636
剥下	-11.7639
板桌	-11.764
迎面扑	-11.7646
在宫中	-11.7655
甚是焦急	-11.7664
分上下	-11.7665
外家功夫	-11.7669
邪魔	-11.767
颗骷髅	-11.768
甚是疼痛	-11.7687
声喧哗	-11.7697
名刀斧手	-11.7702
苦苦相	-11.7714
我早说	-11.7724
伸展	-11.7734
急驰而	-11.7749
暗暗佩服	-11.7765
是大金国赵王	-11.7772
给你报仇	-11.7806
江南六怪与郭靖	-11.7827
▁这晚	-11.7848
一个黑影	-11.7867
且瞧	-11.7882
江面	-11.7892
食言	-11.7982
猛力往	-11.8024
呼啸	-11.8027
低声说了几句	-11.8038
决不能让	-11.8042
坐在石上	-11.8062
拍的一	-11.8067
买药	-11.8074
盗书	-11.8099
几次想	-11.8099
几转	-11.811
一刀刺	-11.8115
军汉	-11.8115
套拳法	-11.8128
虽不甚	-11.8138
听郭靖说	-11.8139
密林	-11.815
识水性	-11.8159
计多端	-11.816
黄蓉格格一	-11.8168
疾冲而	-11.8291
觉醒	-11.8298
个耳括子	-11.8321
也不在意	-11.8379
一提缰	-11.84
帐房	-11.8422
持刀	-11.8464
六尺	-11.8466
出手救	-11.8503
问一句	-11.8505
亦必	-11.8512
从怀里摸出	-11.8516
直跌出去	-11.8531
闭了眼	-11.8533
有趣得紧	-11.8533
跃而出	-11.8538
没料到	-11.8541
倒也有趣	-11.8555
桌底	-11.8558
微笑不语	-11.8583
跪了下	-11.8609
影飞舞	-11.8643
异状	-11.8738
就算输	-11.8739
探头出	-11.877
接任帮主	-11.8772
纵身扑	-11.8776
阻挡	-11.8793
金国王爷	-11.8876
名丐帮帮众	-11.8896
路上遇到	-11.893
铁掌峰	-11.8979
下不了手	-11.9072
飞天蝙蝠柯镇恶	-11.9084
向前冲	-11.9101
整整齐齐的排	-11.9222
张嘴	-11.9226
歼	-11.9374
刀斧手	-11.9451
瞥	-11.9459
熟识	-11.9482
是外家	-11.9495
三件事	-11.9559
湖面上	-11.9566
众孩	-11.9571
怔怔的望着他	-11.9583
悠悠	-11.9601
邪魔外道	-11.9608
血痕	-11.9658
骑鲨	-11.9693
掏	-11.9695
堵	-11.9697
斟	-11.9708
一个青年	-11.9731
砰的一	-11.9736
迷迷糊糊	-11.974
拉住他手	-11.9754
普	-11.9783
你有本事就	-11.9787
别理他	-11.9791
妾	-11.9808
这些日子	-11.9815
旦	-11.9832
撇	-11.9835
礁	-11.9837
拇指	-11.9842
希罕	-11.9843
叩	-11.9845
腋	-11.9849
旅	-11.9851
陷入泥	-11.9852
吓得魂飞	-11.9852
水上飘	-11.9857
闪电般	-11.9857
滥	-11.9857
吸了口气	-11.9857
灿然	-11.9857
f	-11.9858
勉	-11.9858
哟	-11.9859
个鬼脸	-11.9859
艰	-11.9859
姬	-11.9859
智慧	-11.9859
杰	-11.9859
结义为兄弟	-11.9859
偶	-11.986
淳	-11.986
卦	-11.986
○	-11.986
同心协力	-11.986
铅	-11.986
脆	-11.986
滔滔不绝	-11.986
贺寨主	-11.986
直上直下	-11.9861
窒	-11.9861
抗御	-11.9861
猴爪山	-11.9861
王罕与札木合	-11.9861
朽	-11.9861
耳边轻声	-11.9861
囚	-11.9861
也未必能够	-11.9861
缴	-11.9861
到这儿来	-11.9861
切割树皮	-11.9862
姨	-11.9862
韩侂胄	-11.9862
各种各样	-11.9862
向后便倒	-11.9862
傍	-11.9862
几千几万条	-11.9862
无言可对	-11.9862
搽	-11.9862
坛	-11.9862
镇岛之宝	-11.9863
丐帮四老	-11.9863
仿	-11.9863
北斗七星	-11.9863
兹	-11.9863
深不可测	-11.9863
荐	-11.9863
里里外外	-11.9863
一年半载	-11.9863
眺	-11.9863
金银珠宝	-11.9863
在黑沼茅屋	-11.9863
没了没完	-11.9863
洛	-11.9863
肾	-11.9863
膊	-11.9863
啷	-11.9863
第二指节	-11.9863
基业	-11.9863
丰富的	-11.9863
仰慕得紧	-11.9863
坚执不	-11.9863
身材瘦削	-11.9863
隘	-11.9863
嘉	-11.9863
三招两式	-11.9863
在宝应刘氏宗祠中	-11.9863
平生之力	-11.9863
拜他为师	-11.9863
许配于他	-11.9863
一窍不通	-11.9863
摇了摇	-11.9863
壳	-11.9863
链	-11.9864
功尽弃	-11.9864
信口胡吹	-11.9864
敏捷	-11.9864
汁	-11.9864
诬	-11.9864
巅	-11.9864
叱	-11.9864
眩	-11.9864
你管得着	-11.9864
七十二路空明拳	-11.9864
五座山峰	-11.9864
爵	-11.9864
竞	-11.9864
裙	-11.9864
迂	-11.9864
隅	-11.9864
腊	-11.9864
柯瞎子	-11.9864
取名为	-11.9864
睦	-11.9864
也就不再追	-11.9864
全军覆没	-11.9864
庇	-11.9864
斑鸠	-11.9864
无济于事	-11.9864
走着瞧	-11.9864
只一盏茶	-11.9864
绷	-11.9864
彩虹	-11.9864
了几个月	-11.9864
又算得了甚么	-11.9864
喃喃自语	-11.9864
在宫里	-11.9864
逃出桃花岛	-11.9864
膛	-11.9864
貂	-11.9864
犒	-11.9864
鸠	-11.9864
九阴假经	-11.9864
浴	-11.9864
硬接硬架	-11.9864
峭	-11.9864
祥	-11.9864
俦	-11.9864
名黑衣汉子	-11.9864
屠戮之惨	-11.9864
得更加紧了	-11.9864
恒	-11.9864
一叶扁舟	-11.9864
争先恐后	-11.9864
全身经脉	-11.9864
跃跃欲试	-11.9864
戚	-11.9864
旌	-11.9864
襄	-11.9864
不是欧阳锋的对手	-11.9865
可乘之机	-11.9865
和他拉手	-11.9865
在海里	-11.9865
大英雄大豪杰	-11.9865
姑娘大王	-11.9865
慌了手脚	-11.9865
杀父之仇	-11.9865
竹篓	-11.9865
红梅村	-11.9865
走出房去	-11.9865
笺	-11.9865
稽	-11.9865
弯弓搭箭	-11.9865
岳飞的遗书	-11.9865
巳	-11.9865
打了一躬	-11.9865
碌碌	-11.9865
郡	-11.9865
双目盯住	-11.9865
刹时间	-11.9865
十成中	-11.9865
反来复去	-11.9865
在村外	-11.9865
檀	-11.9865
欣羡	-11.9865
点了他的穴道	-11.9865
玉衡	-11.9865
立了大功	-11.9865
罗唆	-11.9865
装神弄鬼	-11.9865
蹲低身子	-11.9865
蹻	-11.9865
靡	-11.9865
雌	-11.9865
妆	-11.9865
尊姓大名	-11.9865
溯	-11.9865
绸	-11.9865
警	-11.9865
我小时候	-11.9865
无对证	-11.9865
不得要领	-11.9865
仔仔细细	-11.9865
半晌做声不得	-11.9865
喻	-11.9865
怎生想个法儿	-11.9865
慌不择路	-11.9865
战无不胜	-11.9865
搜刮	-11.9865
梁二老	-11.9865
稀松平常	-11.9865
紧追不舍	-11.9865
股巨力	-11.9865
陆氏父子	-11.9865
鬼鬼祟祟	-11.9865
区	-11.9865
在木筏上	-11.9865
一幕幕	-11.9865
刘仲禄	-11.9865
售	-11.9865
大祸临头	-11.9865
意思是说	-11.9865
鬼使神差	-11.9865
簌	-11.9865
仓	-11.9865
篮	-11.9865
亲眼目睹	-11.9865
佯	-11.9865
吁了一口	-11.9865
合而为一	-11.9865
哪里来得及	-11.9865
心念甫	-11.9865
时候稍长	-11.9865
正要开言	-11.9865
沽	-11.9865
糟老头儿	-11.9865
腾空而起	-11.9865
英俊	-11.9865
血淋淋的	-11.9865
锦绣江山	-11.9865
面红耳赤	-11.9865
骎	-11.9865
不儿罕山	-11.9865
鼓齐鸣	-11.9865
一个月之前	-11.9865
从未遇过	-11.9865
再也爬不起	-11.9865
器械	-11.9865
忘恩负义	-11.9865
恩将仇报	-11.9865
有人前来相助	-11.9865
烟尘中	-11.9865
雾瀰漫	-11.9865
熊	-11.9865
啰	-11.9865
三黑猫	-11.9865
到二更	-11.9865
功力悉敌	-11.9865
愈走愈	-11.9865
我来助你	-11.9865
拜我为师	-11.9865
无恶不作	-11.9865
枷	-11.9865
梁山泊好汉	-11.9865
熔	-11.9865
皱起了眉头	-11.9865
稍纵即逝	-11.9865
穿青布长袍	-11.9865
衣饰华	-11.9865
韬略	-11.9865
颚	-11.9865
垣	-11.9865
管辖	-11.9865
缒	-11.9865
荣华富贵	-11.9865
三枚银梭	-11.9865
东转西	-11.9865
你可不许	-11.9865
再也站不起来	-11.9865
分辨得出	-11.9865
挢舌	-11.9865
无边无际	-11.9865
武艺精熟	-11.9865
腹背受敌	-11.9865
臆	-11.9865
蝉	-11.9865
身首异处	-11.9865
鸿	-11.9865
一泡尿	-11.9865
不一日来到	-11.9865
不知说甚么话好	-11.9865
两具棺木	-11.9865
乖乖不得了	-11.9865
乱抓乱	-11.9865
从梦中	-11.9865
剖	-11.9865
四面八方	-11.9865
天可怜见	-11.9865
孟夫子	-11.9865
感到一阵寒意	-11.9865
抢在头里	-11.9865
敷衍	-11.9865
此计大妙	-11.9865
死不瞑目	-11.9865
气愤愤的	-11.9865
牒	-11.9865
猿猴	-11.9865
申	-11.9865
胡思乱想	-11.9865
蕴蓄	-11.9865
谒	-11.9865
走出数十步	-11.9865
走进店来	-11.9865
这傻徒儿	-11.9865
逐出师门	-11.9865
随机应变	-11.9865
饶了他罢	-11.9865
是黑风双煞门下	-11.9865
臊	-11.9865
恕	-11.9865
俘	-11.9865
斑斑	-11.9865
军国大事	-11.9865
勇悍	-11.9865
多行不义	-11.9865
好汉耻笑	-11.9865
好端端地	-11.9865
惊怒交迸	-11.9865
慢吞吞的	-11.9865
排山倒海般	-11.9865
煤	-11.9865
瞎说八道	-11.9865
神出鬼没	-11.9865
耳边悄声	-11.9865
蜂涌	-11.9865
钱塘江	-11.9865
饶你三次不死	-11.9865
剌剌	-11.9865
胡言乱道	-11.9866
声雷动	-11.9866
砰砰砰	-11.9866
一团漆黑	-11.9866
三般声音	-11.9866
使的是甚么手法	-11.9866
冷汗直冒	-11.9866
叫了两声	-11.9866
叮嘱	-11.9866
喏	-11.9866
圣旨	-11.9866
坚毅	-11.9866
天罡北斗之阵	-11.9866
女娃子	-11.9866
媒	-11.9866
害苦了	-11.9866
屯	-11.9866
巨钟	-11.9866
弓弦	-11.9866
断魂刀沈青刚	-11.9866
杏	-11.9866
欢声大叫	-11.9866
瘀	-11.9866
的秃头	-11.9866
看帮网	-11.9866
真是再好也没有	-11.9866
禽	-11.9866
耽搁了	-11.9866
肚脐	-11.9866
装腔作势	-11.9866
规模	-11.9866
跋	-11.9866
辗	-11.9866
那位穆爷	-11.9866
铁枪的枪头	-11.9866
闻所未闻	-11.9866
鹿	-11.9866
不知从何说起	-11.9866
糊	-11.9866
世世代代	-11.9866
医卜星相	-11.9866
十拿九稳	-11.9866
双颊晕红	-11.9866
噢	-11.9866
天突穴	-11.9866
拜了四拜	-11.9866
梅若华	-11.9866
眼睁睁瞧着	-11.9866
私订终身	-11.9866
傻头傻脑	-11.9866
玉龙杰赤	-11.9866
飕	-11.9866
g	-11.9866
一个倒栽葱	-11.9866
一封信	-11.9866
一枝长箭	-11.9866
万念俱灰	-11.9866
丝毫怠忽	-11.9866
到此为止	-11.9866
剃	-11.9866
勃端察儿	-11.9866
千军万马	-11.9866
古里古怪	-11.9866
壮志	-11.9866
媒妁之言	-11.9866
徒子徒孙	-11.9866
心慌意乱	-11.9866
忠厚老实	-11.9866
我兄弟俩	-11.9866
打定主意	-11.9866
打得脑浆迸裂	-11.9866
挂冠	-11.9866
挚	-11.9866
捻	-11.9866
欧阳锋干笑	-11.9866
漂	-11.9866
潜心思索	-11.9866
眨	-11.9866
瞻	-11.9866
窥伺在旁	-11.9866
艺业	-11.9866
虾	-11.9866
风驰电掣	-11.9866
飘然而去	-11.9866
骢	-11.9866
鄙	-11.9866
不敢稍动	-11.9866
耸然动容	-11.9866
脸色大变	-11.9866
抬起了头	-11.9866
仰天长笑	-11.9866
众目睽睽之下	-11.9866
哑然失笑	-11.9866
喜气洋洋	-11.9866
夹手将	-11.9866
戏耍	-11.9866
扔	-11.9866
无名之辈	-11.9866
杀人不眨眼的大魔头	-11.9866
杀父仇人	-11.9866
江湖上人称	-11.9866
署	-11.9866
胳	-11.9866
软软的	-11.9866
锦缎	-11.9866
懊	-11.9866
/	-11.9866
一叠连声的	-11.9866
乔装改扮	-11.9866
乘虚而	-11.9866
十根手指	-11.9866
只叫得一声	-11.9866
只索罢了	-11.9866
喘不过气来	-11.9866
囚禁	-11.9866
城内城外	-11.9866
失陪了	-11.9866
心头一喜	-11.9866
怒火上冲	-11.9866
披在身上	-11.9866
指腹为婚	-11.9866
敦	-11.9866
晒	-11.9866
气若游丝	-11.9866
沓	-11.9866
泡	-11.9866
深深吸了口气	-11.9866
胜之不武	-11.9866
裕	-11.9866
年老力衰	-11.9866
惊魂未定	-11.9866
远远传了出去	-11.9866
交出人来	-11.9866
你亲生的爹爹	-11.9866
偕	-11.9866
嘤	-11.9866
宏	-11.9866
心摇神驰	-11.9866
快马一鞭	-11.9866
恤	-11.9866
打抱不平	-11.9866
提高嗓子	-11.9866
温馨	-11.9866
秉	-11.9866
详述	-11.9866
这些日来	-11.9866
镣	-11.9866
一个弱女子	-11.9866
专心致志	-11.9866
个措手不及	-11.9866
举手之劳	-11.9866
半死不活	-11.9866
大帮会	-11.9866
怦然心动	-11.9866
掣	-11.9866
撮	-11.9866
无声无息	-11.9866
武林中的成名人物	-11.9866
污垢	-11.9866
泪如雨下	-11.9866
独生爱女	-11.9866
生死之交	-11.9866
皇太子	-11.9866
相机行事	-11.9866
研究	-11.9866
窦	-11.9866
经上所载	-11.9866
肚肠	-11.9866
虎吼一声	-11.9866
走一遭	-11.9866
郭侃	-11.9866
隽	-11.9866
韩氏兄妹	-11.9866
十分钦佩	-11.9866
拉了李萍	-11.9866
浪涛	-11.9866
重重叠叠	-11.9866
桃源	-11.9866
不关我事	-11.9866
义父义母	-11.9866
伤了和气	-11.9866
伺	-11.9866
似懂非懂	-11.9866
喇喇几声响	-11.9866
在这当口	-11.9866
小两口	-11.9866
怅	-11.9866
恨之入骨	-11.9866
拍了拍	-11.9866
木然不动	-11.9866
涎	-11.9866
的行踪	-11.9866
转角处	-11.9866
这四句	-11.9866
醺	-11.9866
雷轰电	-11.9866
项颈	-11.9866
仰起了头	-11.9866
伤心欲绝	-11.9866
千变万化	-11.9866
哭出声来	-11.9866
心下计议已定	-11.9866
憨	-11.9866
扑翻在地	-11.9866
桃源县	-11.9866
死心塌地	-11.9866
的恩义	-11.9866
皓月	-11.9866
窒息	-11.9866
脚步好快	-11.9866
范文虎	-11.9866
辩驳	-11.9866
穆世姊	-11.9866
伸手不见五指	-11.9866
信得过	-11.9866
冶	-11.9866
启禀帮主	-11.9866
岂能容你	-11.9866
往桌上一	-11.9866
情急拚命	-11.9866
手拉着手	-11.9866
摔了一交	-11.9866
晰	-11.9866
西湖边上	-11.9866
贿	-11.9866
越奔越	-11.9866
连人带椅	-11.9866
连珠价	-11.9866
驰骋	-11.9866
斡儿朵的正后是	-11.9866
不得其便	-11.9866
低三下四	-11.9866
你有种就	-11.9866
偶尔	-11.9866
又聋又哑	-11.9866
取他性命	-11.9866
埃	-11.9866
折了一根	-11.9866
捧腹狂笑	-11.9866
有甚不测	-11.9866
求死不得	-11.9866
浙江	-11.9866
猱身而上	-11.9866
眉清目	-11.9866
祷	-11.9866
第十九代帮主	-11.9866
紧跟在后	-11.9866
老衲	-11.9866
身材矮小	-11.9866
锯	-11.9866
射雕英雄传	-11.9866
拍手叫好	-11.9866
捉迷藏	-11.9866
整日价	-11.9866
浇	-11.9866
满天花雨掷金针	-11.9866
熊胆	-11.9866
顺手牵羊	-11.9866
夹手夺过	-11.9867
饥饿	-11.9867
·	-11.9867
一番美意	-11.9867
何足道哉	-11.9867
培	-11.9867
宁死不屈	-11.9867
庭院	-11.9867
忽兰皇后	-11.9867
急切间	-11.9867
恭候	-11.9867
掏摸	-11.9867
橐	-11.9867
狸	-11.9867
相对浴红衣	-11.9867
罪魁祸首	-11.9867
苦着脸	-11.9867
蒂	-11.9867
远胜于我	-11.9867
鄂尔达	-11.9867
铄	-11.9867
也遂皇后	-11.9867
猛吃一惊	-11.9867
一个多月	-11.9867
丘某	-11.9867
丧生在	-11.9867
恭贺	-11.9867
报杀夫	-11.9867
朱二哥	-11.9867
枯柴	-11.9867
灵智和尚	-11.9867
笠	-11.9867
花言巧语	-11.9867
出了一身冷汗	-11.9867
三三数之	-11.9867
丧门斧钱青健	-11.9867
五五数之	-11.9867
去探望	-11.9867
各不相同	-11.9867
善哉	-11.9867
撕下衣襟	-11.9867
敌他不过	-11.9867
春秋	-11.9867
是全真门下	-11.9867
满腹心事	-11.9867
独魁群雄	-11.9867
直没至柄	-11.9867
着了道儿	-11.9867
突飞猛进	-11.9867
窖	-11.9867
背上葫芦	-11.9867
蒙古本部	-11.9867
蛮不讲理	-11.9867
陀	-11.9867
攒	-11.9867
暗暗心喜	-11.9867
厮鸟	-11.9867
周老爷子	-11.9867
御林军	-11.9867
旁门左道	-11.9867
艰险	-11.9867
荒唐	-11.9867
愈听愈	-11.9867
不中用了	-11.9867
做哥哥的	-11.9867
启程	-11.9867
守住门户	-11.9867
得心应手	-11.9867
柏树	-11.9867
植	-11.9867
火绒	-11.9867
神定气闲	-11.9867
羞耻	-11.9867
这一着大出	-11.9867
闭目待死	-11.9867
马鬣	-11.9867
哑哑	-11.9867
革伞	-11.9867
一名十夫长	-11.9867
欧阳锋那老贼	-11.9867
鬼魅	-11.9867
一个女人声音	-11.9867
上半部	-11.9867
再好不过	-11.9867
十余万人	-11.9867
嗬呼	-11.9867
廉	-11.9867
心念一转	-11.9867
搂在怀里	-11.9867
腊鱼	-11.9867
那倒不是	-11.9867
陈抟老祖	-11.9867
霄	-11.9867
半身不遂	-11.9867
叩谢	-11.9867
神驰目眩	-11.9867
罕见的	-11.9867
胡闹顽皮	-11.9867
身上有伤	-11.9867
牵了黄蓉的手	-11.9867
齐名的	-11.9867
两位世兄	-11.9867
个白衣男子	-11.9867
喜悦之情	-11.9867
嘴角边	-11.9867
声惨呼	-11.9867
数十条蝮蛇	-11.9867
猝	-11.9867
研讨	-11.9867
红润	-11.9867
一日一夜	-11.9867
声息全无	-11.9867
掀倒在地	-11.9867
矢	-11.9867
诡计多端	-11.9867
醉仙楼相会	-11.9867
从瀑布中	-11.9867
塔阳汗	-11.9867
报此仇	-11.9867
控	-11.9867
母子俩	-11.9867
瞄	-11.9867
胡赖	-11.9867
踢了个筋斗	-11.9867
躺在床上	-11.9867
两件暗器	-11.9868
就此告辞	-11.9868
忽喇一	-11.9868
唯唯	-11.9868
夹头夹脑	-11.9868
就此罢休	-11.9868
弧形	-11.9868
悬崖之顶	-11.9868
扎木筏	-11.9868
终身残废	-11.9868
肘锤	-11.9868
袖手旁观	-11.9868
转了个圈子	-11.9868
一回事	-11.9868
又惊又愧	-11.9868
▁次日一早	-11.9868
下半部	-11.9868
压鬼岛	-11.9868
殉夫	-11.9868
牛鼻子道士	-11.9868
监国公主	-11.9868
竹篙	-11.9868
蓦地惊觉	-11.9868
高举火把	-11.9868
巨缆	-11.9868
移魂大法	-11.9868
他天性	-11.9868
只使了	-11.9868
右胯	-11.9868
在舱底	-11.9868
是甚么原因	-11.9868
曲曲儿	-11.9868
着实不轻	-11.9868
蓑衣	-11.9868
身有武功	-11.9868
顽皮胡闹	-11.9868
苏联	-11.9868
花四溅	-11.9868
丐帮群雄	-11.9868
影踪全无	-11.9868
不知有多少人马	-11.9868
副对联	-11.9868
恩惠	-11.9868
憎恶	-11.9868
笑了一笑	-11.9868
一阵子话	-11.9868
蠢笨	-11.9868
许多部族	-11.9868
惊世骇俗	-11.9868
没了踪影	-11.9868
突兀	-11.9868
筝音	-11.9868
身穿软猬甲	-11.9868
赘婿	-11.9868
隔了良久	-11.9868
典故	-11.9868
话中含	-11.9868
走上两步	-11.9868
安寝	-11.9868
无不骇然	-11.9868
棵松树	-11.9868
胖和尚	-11.9868
说甚么也不肯	-11.9868
越走越	-11.9868
身法快捷	-11.9868
俊美	-11.9869
存亡	-11.9869
垂钓	-11.9869
挖掘	-11.9869
这怪人	-11.9869
宰羊	-11.9869
材料	-11.9869
猜不透	-11.9869
的亲事	-11.9869
记忆	-11.9869
责罚	-11.9869
闪身避开	-11.9869
数十万人	-11.9869
要不然	-11.9869
辛大人	-11.9869
心神不定	-11.9869
托着铜缸	-11.9869
支持得住	-11.9869
蓄势	-11.9869
双手互搏之术	-11.9869
岂可不	-11.9869
撒赖	-11.9869
一股热气	-11.9869
干脆	-11.9869
退开三步	-11.9869
打你不过	-11.9869
擦擦	-11.9869
一对一的	-11.9869
另一名武官	-11.9869
语声甫	-11.9869
仰天跌倒	-11.9869
坚牢	-11.9869
欺瞒	-11.9869
研读	-11.9869
笔墨	-11.9869
藤条	-11.9869
额角	-11.9869
在海面上	-11.9869
心头一凛	-11.9869
拚命挣扎	-11.9869
防御	-11.9869
上下打量	-11.9869
郭大爷	-11.9869
马镫	-11.9869
在地下打滚	-11.9869
亲耳听	-11.987
准拟	-11.987
心中有气	-11.987
认栽	-11.987
捉了去	-11.987
所受的	-11.987
疑团	-11.987
麻烦	-11.987
形貌	-11.987
乡农	-11.987
周身穴道	-11.987
纷争	-11.987
脸上满是	-11.987
至少也	-11.987
鲨群	-11.987
拍掌叫	-11.987
谎言	-11.987
眼睁睁的瞧着	-11.987
十五六岁	-11.987
欢嘶	-11.987
空地上	-11.987
之所聚	-11.987
临危	-11.987
嫌弃	-11.987
掩映	-11.987
那男的	-11.987
波浪	-11.987
到临安去	-11.987
人上有人	-11.987
做个鬼脸	-11.987
放入怀中	-11.987
爱侣	-11.987
为首的	-11.987
珍贵	-11.987
切齿	-11.987
群鸦	-11.987
迅猛	-11.987
飞翔	-11.987
朱兄	-11.987
受伤不轻	-11.9871
彻骨	-11.9871
拒绝	-11.9871
曾听人说	-11.9871
牧民	-11.9871
纪念	-11.9871
罪孽	-11.9871
一只兔子	-11.9871
岛上哑仆	-11.9871
怔怔的瞧着	-11.9871
言下之意	-11.9871
消遣	-11.9871
大碗饭	-11.9871
牢牢缚在	-11.9871
电影	-11.9871
轻轻放在地下	-11.9871
迅即	-11.9871
也就罢了	-11.9871
克星	-11.9871
建造	-11.9871
悟出来的	-11.9871
杨爷	-11.9871
岳武穆王	-11.9871
微颤	-11.9871
归故乡	-11.9871
犹疑	-11.9871
莲花	-11.9871
回教徒	-11.9871
暗暗着急	-11.9871
神像后	-11.9871
双戟	-11.9871
回想适才	-11.9871
搜查	-11.9871
嗤嗤之声	-11.9871
呆呆的望着	-11.9871
全不理会	-11.9871
宽慰	-11.9871
称臣	-11.9871
韩宝驹与韩小莹	-11.9871
僵硬	-11.9872
一万名	-11.9872
整顿	-11.9872
笑声不绝	-11.9872
同声惊呼	-11.9872
砍柴	-11.9872
北返	-11.9872
宫殿	-11.9872
禀明	-11.9872
女奴	-11.9872
亡夫	-11.9872
凝目瞧着	-11.9872
月光下看得	-11.9872
翻身上马	-11.9872
从来不敢	-11.9872
饶你性命	-11.9872
右颊	-11.9872
造福	-11.9872
闺名	-11.9872
向郭靖招手	-11.9872
的性儿	-11.9872
青影闪	-11.9872
匹夫	-11.9872
古庙	-11.9872
抚胸	-11.9872
看得清楚	-11.9872
臣民	-11.9872
见面礼	-11.9872
那又如何	-11.9872
俯身跌倒	-11.9872
听他语气	-11.9872
奔出数里	-11.9872
泰山	-11.9872
遥望	-11.9873
在首席	-11.9873
坏叫化	-11.9873
城池	-11.9873
记诵	-11.9873
踏进门	-11.9873
钱银子	-11.9873
任脉	-11.9873
拥护	-11.9873
均感诧异	-11.9873
修练内功	-11.9873
堂堂	-11.9873
老鼠	-11.9873
药瓶	-11.9873
众师侄	-11.9873
究竟功力	-11.9873
听你的话	-11.9873
投宿	-11.9873
禁受不	-11.9873
还了一拳	-11.9873
一大篇	-11.9873
丹阳	-11.9873
吴越	-11.9873
强悍	-11.9873
直捣	-11.9873
轰的一声	-11.9873
神色黯然	-11.9873
向左跃开	-11.9873
左腿微	-11.9873
并未知觉	-11.9873
无人能敌	-11.9873
在他掌上	-11.9873
父仇	-11.9874
青袍	-11.9874
令侄	-11.9874
心头一震	-11.9874
夜行人	-11.9874
怜爱	-11.9874
扮鬼	-11.9874
末节	-11.9874
武器	-11.9874
姿势	-11.9874
高高举起	-11.9874
恩仇	-11.9874
认识	-11.9874
到底谁是	-11.9874
君临	-11.9874
威吓	-11.9874
舱板	-11.9874
是甚么来头	-11.9874
怎认得	-11.9874
排行第	-11.9874
毒质	-11.9874
刚触到	-11.9874
念了一遍	-11.9874
并无动静	-11.9874
金龙鞭法	-11.9874
跃上台	-11.9875
唱些甚么	-11.9875
隐秘	-11.9875
其余六人	-11.9875
沙老前辈	-11.9875
砖石	-11.9875
很是高兴	-11.9875
抢上数步	-11.9875
结纳	-11.9875
视若无	-11.9875
骑术	-11.9875
杨兄	-11.9875
小道士尹志平	-11.9875
拳脚兵刃	-11.9875
少年将军	-11.9875
红烛	-11.9875
髯	-11.9875
俯身抱起	-11.9875
皮裘	-11.9875
铁掌帮的帮主	-11.9875
争执	-11.9875
坚硬	-11.9875
瞥眼间	-11.9875
上前拜见	-11.9875
误伤了	-11.9875
松枝	-11.9875
耸立	-11.9875
扑上前去	-11.9876
觉好笑	-11.9876
胸口抓去	-11.9876
一位高人	-11.9876
派遣	-11.9876
那少年道士	-11.9876
抵敌不住	-11.9876
采药	-11.9876
加倍	-11.9876
复杂	-11.9876
减弱	-11.9876
止歇	-11.9876
隐隐觉得	-11.9876
上了马背	-11.9877
恸	-11.9877
周遭	-11.9877
王孙	-11.9877
划桨	-11.9877
悚	-11.9877
拾起地下	-11.9877
姓彭	-11.9877
愈益	-11.9877
屹	-11.9877
涤	-11.9877
无别物	-11.9877
鼻尖	-11.9877
古今	-11.9877
捏碎	-11.9877
危急之际	-11.9878
带队向	-11.9878
厮守	-11.9878
耀日	-11.9878
混混	-11.9878
坚厚	-11.9878
加剧	-11.9878
耳畔	-11.9878
恭送	-11.9878
莱	-11.9878
七个儿子	-11.9878
双腕	-11.9878
激起了	-11.9878
管不着	-11.9878
丐帮大会	-11.9878
两名汉子	-11.9878
铭	-11.9878
单独	-11.9879
眼睁	-11.9879
娇美	-11.9879
▁出得	-11.9879
叫化鸡	-11.9879
进了洞	-11.9879
逐步	-11.9879
在阴世	-11.9879
悲鸣	-11.9879
缚好了	-11.9879
我不娶	-11.9879
衙	-11.988
可算得	-11.988
是个荒岛	-11.988
微微一晃	-11.988
考试	-11.988
客房	-11.988
上了崖顶	-11.988
中了一箭	-11.988
的大仇人	-11.988
布鞋	-11.988
是个大大的	-11.9881
二百余	-11.9881
挺身而	-11.9881
恐怕	-11.9881
郭靖与三长老	-11.9881
令旗	-11.9882
景色	-11.9882
混帐	-11.9882
在筏上	-11.9882
在缸里	-11.9882
饭店	-11.9883
边缘	-11.9883
逞甚么英雄	-11.9883
杯盘	-11.9883
跌入了	-11.9883
千百年	-11.9884
了三杯	-11.9884
五个儿子	-11.9885
第七	-11.9885
无大碍	-11.9886
咱们来个	-11.9886
然而止	-11.9887
是我的不是	-11.9887
拳锋	-11.9887
极深的	-11.9887
处落足	-11.9888
静静	-11.9888
棵树	-11.9888
声高呼	-11.9888
加阻拦	-11.9889
有甚么希罕	-11.9889
辨形	-11.9889
一上来就	-11.989
是一家人	-11.9892
宝应县	-11.9892
在棺上	-11.9892
泰亦赤兀部	-11.9894
翻了两个	-11.9894
松开了手	-11.9896
到西域去	-11.9896
着了火的	-11.9899
这么高的	-11.9899
反手就是一	-11.9901
帮主的打狗棒	-11.9901
枚钢针	-11.9901
伸右手去	-11.9902
话到口	-11.9905
入了海中	-11.9906
不是他对手	-11.9906
来瞧我	-11.9911
在他的身上	-11.9917
是你的对手	-11.992
船梢	-11.9921
肩头轻轻一	-11.9924
折而向	-11.9931
挥了挥	-11.9933
桅杆上一	-11.9934
得山来	-11.9936
爷们	-11.9938
抱在怀	-11.9938
空有一身武	-11.9939
行动不	-11.9942
哪知她竟	-11.9944
又笑又	-11.9944
内功的秘诀	-11.9945
所想的	-11.9949
张寨主	-11.9951
我来教你	-11.9952
四子拖雷	-11.9952
不闪不	-11.9953
已猜到	-11.9954
人看过	-11.9957
天下武术	-11.9958
刚好撞	-11.9964
往他头顶	-11.9965
面铜钹	-11.9967
你教我的	-11.9967
若在平	-11.9968
现喜色	-11.9968
负绝艺	-11.9973
伸出了手	-11.9984
跟你拚	-11.9994
买米	-11.9995
青年男子	-12.0002
紧紧抱住	-12.001
我总是不	-12.0026
见情势不	-12.0028
拖雷的第	-12.0029
尤胜	-12.0048
瞧瞧热闹	-12.0049
襄阳城	-12.0049
场比试	-12.0067
笑了笑	-12.0091
记耳光	-12.0092
莽莽	-12.0095
枝羽箭	-12.0114
吹灭	-12.0132
拉住她手	-12.0142
今儿晚	-12.0145
座营帐	-12.0163
是一样的	-12.0179
摇头叹息	-12.0183
第三件	-12.0188
个小小的	-12.0194
斟了一杯	-12.021
败仗	-12.0214
依言而行	-12.0219
向下游	-12.0301
号角吹	-12.0306
造化	-12.033
斜倚	-12.037
歼敌	-12.0379
拉郭靖的手	-12.0388
斤重的	-12.0428
软垂	-12.044
施袭击	-12.045
奔出七八	-12.045
直到天	-12.047
是成名的	-12.0502
尊夫	-12.0507
违了师	-12.0515
一把拉住	-12.0556
逞威	-12.0581
他的肩膀	-12.0601
在客店中	-12.0637
碗清水	-12.0642
急步抢	-12.0665
万斤	-12.0682
忽听黄蓉叫	-12.0791
朋友们	-12.0834
劲风袭	-12.0924
针刺入	-12.0936
临终之时	-12.1008
向前直跌	-12.1084
右胁	-12.1154
喝了一口	-12.118
掌影飘	-12.1219
日南归	-12.127
与裘千仞斗	-12.1288
叽哩咕噜	-12.1365
第一件	-12.1424
走出十余	-12.1662
远远望	-12.2169
两人在客店	-12.2177
临终时	-12.2223
颗牙齿	-12.2316
足下加	-12.2761
远远传送出去	-12.2778
凛	-12.2956
咕嘟咕嘟	-12.3004
条大鲨	-12.305
头也不回	-12.3076
咬牙切齿	-12.3076
整整齐齐	-12.3076
撒麻尔罕	-12.3086
魂飞魄散	-12.3123
胜得了我	-12.3128
童颜白发	-12.3138
呈	-12.3138
一支箭	-12.3146
鼓鼓的	-12.3149
叔	-12.3154
到了这个地步	-12.3162
1	-12.3168
伸手握住了	-12.3169
们每人	-12.317
讥讽	-12.3171
篾儿乞惕	-12.3177
躺	-12.3178
纲	-12.318
大不耐	-12.3183
个多时辰	-12.3184
肺	-12.3186
庶	-12.3187
降龙十八	-12.3187
柜	-12.3187
迄今	-12.3188
分筋错骨	-12.3188
睿	-12.3188
驳	-12.3189
W	-12.3189
什	-12.3189
北极星	-12.3189
镫	-12.319
三四十人	-12.319
廷	-12.319
汞	-12.319
忖	-12.319
突突乱跳	-12.319
亢	-12.3191
绵	-12.3191
赵扩	-12.3191
躯	-12.3192
桃花岛的总图	-12.3192
古未有	-12.3192
牲	-12.3193
乾	-12.3193
详详细细	-12.3193
穷追不舍	-12.3193
不必过谦	-12.3193
毒龙银鞭	-12.3193
两般乐音	-12.3193
倒抽了一口凉气	-12.3193
衡山派	-12.3193
三联书店	-12.3194
叹了口	-12.3194
黄泉之下	-12.3194
的美味	-12.3194
东拉西扯	-12.3194
一笔勾	-12.3194
销	-12.3194
衡	-12.3194
鸩	-12.3194
沉肩回	-12.3194
翰林	-12.3194
佐	-12.3194
喇	-12.3194
了十成力	-12.3195
万料不到他竟会	-12.3195
外来侵	-12.3195
岗	-12.3195
庞	-12.3195
星光熹微	-12.3195
压根儿不	-12.3195
僻	-12.3195
与巨岩相连的	-12.3195
深入肉里	-12.3195
附骨针	-12.3195
蜷	-12.3195
几个月前	-12.3195
旁观者清	-12.3195
聂隐娘	-12.3195
黄师姑	-12.3195
灿	-12.3195
逮	-12.3195
伶俐	-12.3195
睨	-12.3195
隐隐约约	-12.3195
宠	-12.3195
值	-12.3195
内心深处	-12.3195
回归中土	-12.3195
奸恶之徒	-12.3195
救苦救难	-12.3195
是长白山	-12.3195
诫	-12.3195
驿	-12.3195
光明正大	-12.3196
噬嗑	-12.3196
栖	-12.3196
空棺之中	-12.3196
红晕满脸	-12.3196
酱	-12.3196
剌	-12.3196
也算不得是甚么	-12.3196
低头让过	-12.3196
十八代祖宗	-12.3196
取个名字	-12.3196
饶他三次	-12.3196
润	-12.3196
哇哇	-12.3196
乐子之无	-12.3196
宋理宗嘉熙四年	-12.3196
已有小成	-12.3196
擞	-12.3196
杜撰	-12.3196
杨铁心的妻子包氏	-12.3196
税	-12.3196
蝇	-12.3196
这些青年	-12.3196
逊一筹	-12.3196
马不停蹄的	-12.3196
痊	-12.3196
名不虚传	-12.3196
苦苦哀求	-12.3196
青龙集	-12.3196
交个朋友	-12.3196
伏在鞍上	-12.3196
所为何来	-12.3196
程二女	-12.3196
阿弥陀佛	-12.3196
亵	-12.3196
尾金鱼	-12.3196
打石弹儿	-12.3196
无能为力	-12.3196
足智多谋	-12.3196
避之惟恐不及	-12.3196
弊	-12.3197
嗬	-12.3197
不知何故	-12.3197
吐露真情	-12.3197
坠	-12.3197
天缘巧合	-12.3197
嫁了给他	-12.3197
拦在当路	-12.3197
敕	-12.3197
无常鬼	-12.3197
段指挥使	-12.3197
糙	-12.3197
那部经书	-12.3197
郁郁不乐	-12.3197
阴阳五行	-12.3197
韩女侠	-12.3197
另有别情	-12.3197
头顶铁缸	-12.3197
贫道和各位	-12.3197
乞讨残羹冷饭	-12.3197
交界之处	-12.3197
借刀杀人	-12.3197
分辨不出	-12.3197
占了上风	-12.3197
发足疾追	-12.3197
哪来理他	-12.3197
在沙上画了	-12.3197
如虎添翼	-12.3197
希夷先生	-12.3197
心旷神怡	-12.3197
怎料得到	-12.3197
更犯大忌	-12.3197
水墨山水	-12.3197
虬髯	-12.3197
迁延不	-12.3197
难以索解	-12.3197
飞天神龙	-12.3197
噤	-12.3197
基辅	-12.3197
大展神威	-12.3197
的机密	-12.3197
厝	-12.3197
又快又稳	-12.3197
当当两声	-12.3197
空荡荡的	-12.3197
马钰与郝大通	-12.3197
他夸奖	-12.3197
在乱军中	-12.3197
峨	-12.3197
有进无退	-12.3197
獐	-12.3197
的奸谋	-12.3197
黄家嫂子	-12.3197
弯了腰	-12.3197
到附近市镇去	-12.3197
在九泉之下	-12.3197
失了贞节	-12.3197
忙凑眼到小孔	-12.3197
忠义报国	-12.3197
攘	-12.3197
是西藏密宗	-12.3197
送上门来	-12.3197
一掌击毙	-12.3197
大大有名	-12.3197
无怨无仇	-12.3197
七七四十九	-12.3197
不听使唤	-12.3197
不知天高地厚	-12.3197
不费吹灰之力	-12.3197
两行字	-12.3197
刷的一鞭	-12.3197
各有所忌	-12.3197
在长白山	-12.3197
怎见得	-12.3197
最要紧的是	-12.3197
欺世盗名	-12.3197
正大光明	-12.3197
满天花雨	-12.3197
的神像	-12.3197
祈	-12.3197
缔	-12.3197
蛛网	-12.3197
说这话时	-12.3197
诸葛亮	-12.3197
阿衡	-12.3197
鳞	-12.3197
毅	-12.3197
风波亭	-12.3197
三百招	-12.3198
不碍事	-12.3198
丐帮三老	-12.3198
伤天害理	-12.3198
全金发和韩小莹	-12.3198
逍遥自在	-12.3198
一本册子	-12.3198
也不觉疼痛	-12.3198
传子不传女	-12.3198
倒也听见过	-12.3198
凶神恶煞	-12.3198
势如疯虎	-12.3198
头散发	-12.3198
满头白发	-12.3198
绝口不提	-12.3198
腆	-12.3198
腼	-12.3198
花白头发	-12.3198
茸	-12.3198
被点中穴道	-12.3198
那队长	-12.3198
金刚石	-12.3198
钳	-12.3198
非泛泛	-12.3198
首当其冲	-12.3198
哲	-12.3198
凹	-12.3198
晃身拦在	-12.3198
横冲直撞	-12.3198
正人君子	-12.3198
的偷鸡摸狗拳	-12.3198
纺	-12.3198
软弱无力	-12.3198
韩宝驹的金龙鞭	-12.3198
核	-12.3198
这么大的气	-12.3198
两不相助	-12.3198
五名亲兵	-12.3198
你老哥	-12.3198
十二株大龙藤	-12.3198
千钧一发之际	-12.3198
图中所绘	-12.3198
当者立毙	-12.3198
愈传愈	-12.3198
挲	-12.3198
烘	-12.3198
燥	-12.3198
癫	-12.3198
矫捷	-12.3198
神魂颠倒	-12.3198
纯钢扁担	-12.3198
范仲淹	-12.3198
藩	-12.3198
觍	-12.3198
订甚么约	-12.3198
跳到海里	-12.3198
这老骗子	-12.3198
那三髻道人	-12.3198
鄙夷	-12.3198
酉	-12.3198
闪闪生光	-12.3198
靦	-12.3198
麝	-12.3198
颐	-12.3198
来拿她手腕	-12.3198
卖国求荣	-12.3198
四方八面	-12.3198
峦	-12.3198
朝中大臣	-12.3198
爿	-12.3198
绾	-12.3198
跃下树来	-12.3198
飞天神龙柯辟邪	-12.3198
魅	-12.3198
遥遥望见	-12.3198
谣	-12.3198
诃额伦	-12.3198
武学大宗师	-12.3198
一棵大柳树	-12.3198
两件金器	-12.3198
也不知到了何处	-12.3198
乳臭未干	-12.3198
人所难测	-12.3198
但以之与	-12.3198
倚多为胜	-12.3198
单名一个	-12.3198
卖个破绽	-12.3198
哦	-12.3198
在旷野中	-12.3198
坚韧的	-12.3198
奚	-12.3198
奸猾	-12.3198
妙手空空	-12.3198
安抚使吕文德	-12.3198
小嘴一扁	-12.3198
当得效劳	-12.3198
昏昏沉沉	-12.3198
是你亲生爹爹	-12.3198
累赘	-12.3198
老老实实的	-12.3198
腿的公子爷	-12.3198
衾	-12.3198
跟你赔礼	-12.3198
那哑巴梢公	-12.3198
韩小莹的长剑	-12.3198
食指尖端	-12.3198
马腹之下	-12.3198
髓	-12.3198
不知如何启齿	-12.3198
会吹牛	-12.3198
出手不凡	-12.3198
劫后重逢	-12.3198
奢	-12.3198
搅	-12.3198
料事如神	-12.3198
无端端	-12.3198
疮	-12.3198
真经的上卷	-12.3198
管不了用	-12.3198
通犀地龙丸	-12.3198
非朝夕之	-12.3198
高高矮矮的站	-12.3198
天机不可泄漏	-12.3198
偷鸡摸狗	-12.3198
直没至	-12.3198
梭	-12.3198
烬	-12.3198
一声不响	-12.3198
三花聚顶	-12.3198
卉	-12.3198
吹得好大的气	-12.3198
唔	-12.3198
嘉宾	-12.3198
大喜若狂	-12.3198
夫队由一名	-12.3198
如痴如狂	-12.3198
宦	-12.3198
强人所难	-12.3198
心服口服	-12.3198
忙不迭的	-12.3198
恚	-12.3198
掳了去	-12.3198
擂	-12.3198
来捣乱	-12.3198
欧洲人	-12.3198
涯	-12.3198
琤	-12.3198
癞	-12.3198
的重任	-12.3198
直灌进	-12.3198
知道再斗下去	-12.3198
短兵相接	-12.3198
碎挼花打人	-12.3198
缩不回来	-12.3198
脚下踏着八卦方位	-12.3198
薪	-12.3198
谗	-12.3198
赋	-12.3198
蹦	-12.3198
轻轻拍了三	-12.3198
这两日	-12.3198
这小妮子	-12.3198
郭靖无言可答	-12.3198
金刃劈风	-12.3198
金蝉脱壳之计	-12.3198
锈	-12.3198
阴维脉	-12.3198
青脸瘦子	-12.3198
题着一首	-12.3198
不分胜败	-12.3198
以大欺小	-12.3198
大金国两位太子	-12.3198
脸上无光	-12.3198
那头白雕	-12.3199
2	-12.3199
3	-12.3199
呼呼呼连	-12.3199
喝了声彩	-12.3199
大出意外	-12.3199
好俊功夫	-12.3199
寓	-12.3199
明日午时	-12.3199
是死是活	-12.3199
欧阳贤侄	-12.3199
死得好惨	-12.3199
点首为礼	-12.3199
生了个儿子	-12.3199
盈眶	-12.3199
立个誓	-12.3199
虽然事隔	-12.3199
说僵了	-12.3199
身披大红袈裟	-12.3199
辅佐	-12.3199
连声道谢	-12.3199
一跷一拐的	-12.3199
上须不好看	-12.3199
且战且走	-12.3199
乘人之危	-12.3199
乱刀分尸	-12.3199
仅次于	-12.3199
低了声音	-12.3199
你敢不敢	-12.3199
依我一件事	-12.3199
史弥远	-12.3199
哲别与博尔忽	-12.3199
唬	-12.3199
天竺国人	-12.3199
屏息凝	-12.3199
已不如先前	-12.3199
弥	-12.3199
快动手罢	-12.3199
折叠扇	-12.3199
拜了七公他老人家为师	-12.3199
探头探脑的张望	-12.3199
既往不咎	-12.3199
有不甘	-12.3199
柔肠百转	-12.3199
流血不止	-12.3199
满脸堆欢	-12.3199
火刀火石	-12.3199
璃	-12.3199
生平最得意的	-12.3199
痛彻心肺	-12.3199
箭筒卫士	-12.3199
精灵古怪	-12.3199
绕来绕去	-12.3199
耳根子	-12.3199
脸上吐去	-12.3199
被绳索缚住	-12.3199
言谈甚是投	-12.3199
越王勾践	-12.3199
连滚带爬	-12.3199
那书生和农夫	-12.3199
那块锦帕	-12.3199
那舟子	-12.3199
郭宝玉	-12.3199
雷霆	-12.3199
鹅	-12.3199
4	-12.3199
脸上均现	-12.3199
投了客店	-12.3199
在这里撒野	-12.3199
直挺挺	-12.3199
不义之财	-12.3199
两浙南路	-12.3199
出手又快	-12.3199
周伯通教他背诵	-12.3199
大恩大德	-12.3199
宋室南渡	-12.3199
影影绰绰	-12.3199
愤慨	-12.3199
找些枯枝	-12.3199
拔出鞘来	-12.3199
拿解药来	-12.3199
有几条蛇	-12.3199
柄利剑	-12.3199
王处一双剑齐	-12.3199
甚是畅快	-12.3199
用过饭	-12.3199
白玉般的	-12.3199
荒村野店	-12.3199
诸王诸将	-12.3199
迷失了方向	-12.3199
7	-12.3199
8	-12.3199
不自量力	-12.3199
传下令去	-12.3199
又喜又悲	-12.3199
在他肩头一拍	-12.3199
感兴趣	-12.3199
身怀绝技	-12.3199
9	-12.3199
T	-12.3199
〗	-12.3199
一个少年公子	-12.3199
万寿道藏	-12.3199
不知有何贵干	-12.3199
不知身在何处	-12.3199
两名后生	-12.3199
中箭落马	-12.3199
于无形	-12.3199
五千四百八十一卷	-12.3199
使个眼色	-12.3199
信口开河	-12.3199
分庭抗礼	-12.3199
千辛万苦	-12.3199
原作者	-12.3199
台湾	-12.3199
呐喊助威	-12.3199
和我女儿成亲	-12.3199
品题品题	-12.3199
哪里挣扎得脱	-12.3199
奉师命	-12.3199
将书盗	-12.3199
就娶了她	-12.3199
帛	-12.3199
归云庄的陆庄主	-12.3199
往前疾	-12.3199
忙抢上扶起	-12.3199
怦然而动	-12.3199
慑心法	-12.3199
把那部	-12.3199
抒	-12.3199
拖雷与木华黎	-12.3199
教训教训	-12.3199
条大木	-12.3199
枣	-12.3199
格格直响	-12.3199
段皇爷早已不在尘世	-12.3199
沌	-12.3199
洒泪而别	-12.3199
热烘烘	-12.3199
玉皇大帝	-12.3199
百感交集	-12.3199
翩翩起舞	-12.3199
范文正公	-12.3199
蟒	-12.3199
褪	-12.3199
览	-12.3199
解开他的穴道	-12.3199
诗词歌赋	-12.3199
越窗而出	-12.3199
难分难	-12.3199
难逃性命	-12.3199
颤巍巍的	-12.3199
黄蓉小嘴一撇	-12.3199
球	-12.3199
到岸边	-12.3199
最宝贵的	-12.3199
6	-12.3199
一颗心似乎要	-12.3199
不失信于	-12.3199
中了老毒物的	-12.3199
列祖列宗	-12.3199
加把劲	-12.3199
务必请	-12.3199
哪有余暇	-12.3199
坐在床沿	-12.3199
容让三分	-12.3199
小贱人	-12.3199
广宁子郝大通	-12.3199
恕不奉陪	-12.3199
房饭钱	-12.3199
打你老大	-12.3199
晶莹碧绿	-12.3199
更是骇异	-12.3199
有眼无珠	-12.3199
板起了脸	-12.3199
烧菜给你吃	-12.3199
煎	-12.3199
理也不理	-12.3199
神像背后	-12.3199
竹几上	-12.3199
羁	-12.3199
荣宠	-12.3199
转身就逃	-12.3199
那再好没有	-12.3199
别克惕	-12.3199
轻拍她肩膀	-12.3199
酌	-12.3199
梗	-12.3199
b	-12.3199
与鲁有脚等	-12.3199
中路军	-12.3199
也没甚么大不了	-12.3199
了个大概	-12.3199
使上了十成力	-12.3199
全是冷汗	-12.3199
十之八九	-12.3199
向前踏了一步	-12.3199
向右舷	-12.3199
听她提到	-12.3199
周身百骸	-12.3199
四大功臣	-12.3199
如潮水般涌	-12.3199
尚在人间	-12.3199
尽忠报国	-12.3199
峨嵋钢刺	-12.3199
往后便倒	-12.3199
心勃勃	-12.3199
恋恋不舍	-12.3199
惊天动地	-12.3199
慑心术	-12.3199
我当家的	-12.3199
我这穷丫头	-12.3199
据为己有	-12.3199
揉了揉眼睛	-12.3199
数十万百姓	-12.3199
无处可避	-12.3199
智勇双全	-12.3199
暗自神伤	-12.3199
杀人不眨眼	-12.3199
毙于掌下	-12.3199
沉着嗓子	-12.3199
波涛汹涌	-12.3199
用起功来	-12.3199
疾言厉色	-12.3199
的点穴手法	-12.3199
眠	-12.3199
睡梦中	-12.3199
稳稳当当的	-12.3199
章门穴	-12.3199
笑得弯了腰	-12.3199
绘了一幅	-12.3199
罗绮	-12.3199
老公公	-12.3199
荒废了	-12.3199
蒋	-12.3199
蓦然间	-12.3199
见纸上写	-12.3199
谊	-12.3199
败中求胜	-12.3199
趁	-12.3199
越跑越	-12.3199
辟	-12.3199
追命枪吴青烈	-12.3199
钵	-12.3199
银刀与药瓶	-12.3199
闹别扭	-12.3199
阿富汗	-12.3199
飞也似的	-12.3199
馋涎欲滴	-12.3199
吊在树上	-12.3199
灭国无数	-12.3199
▁黄蓉在隔室	-12.3199
三月廿四	-12.3199
亲妹子一般	-12.3199
亲生儿子	-12.3199
全神戒备	-12.3199
喜从天降	-12.3199
想个甚么法儿	-12.3199
所向无敌	-12.3199
日本人	-12.3199
杀人灭口	-12.3199
歧国公主	-12.3199
诸王众将	-12.3199
谁就输了	-12.3199
转过山角	-12.3199
过不了几天	-12.3199
休想活命	-12.3199
搧	-12.3199
非败不可	-12.3199
手挽手的	-12.3199
娃	-12.3199
5	-12.3199
▁这几句话说得	-12.3199
一时却想不起	-12.3199
一遍又一遍的	-12.3199
不禁茫然若	-12.3199
严守秘密	-12.3199
个呵欠	-12.3199
也无法可想	-12.3199
以大压小	-12.3199
众宾客	-12.3199
剁	-12.3199
又犯了甚么罪	-12.3199
取出火折晃亮	-12.3199
在沙漠中	-12.3199
壑	-12.3199
大惊小怪	-12.3199
大椎穴	-12.3199
大集诸将	-12.3199
天色微明	-12.3199
妙绝天下	-12.3199
峋	-12.3199
嶙	-12.3199
已练至	-12.3199
弯弯曲曲的	-12.3199
往右舷	-12.3199
得十足	-12.3199
愈战愈	-12.3199
我从来没见过	-12.3199
摇摇欲倒	-12.3199
无计可施	-12.3199
是很好很好的	-12.3199
暮霭苍茫	-12.3199
栗栗危惧	-12.3199
毕命于此	-12.3199
沉住了气	-12.3199
牢牢记在心	-12.3199
由谁来	-12.3199
的未婚妻子	-12.3199
突如其来	-12.3199
精疲力尽	-12.3199
肃然起敬	-12.3199
腕上奇痛彻骨	-12.3199
自斟自	-12.3199
若朝霞	-12.3199
荒僻	-12.3199
荫	-12.3199
莞	-12.3199
落荒而逃	-12.3199
裁	-12.3199
谁也不帮	-12.3199
走进房来	-12.3199
赵官儿	-12.3199
踢了一脚	-12.3199
踢跶踢跶的	-12.3199
迈开大步	-12.3199
里应外合	-12.3199
镯	-12.3199
阕	-12.3199
难就难在	-12.3199
飞掠而过	-12.3199
驹	-12.3199
碧海潮生按玉箫	-12.3199
饯	-12.3199
一揖到地	-12.3199
出言无状	-12.3199
剽悍	-12.3199
在草原之上	-12.3199
心地纯	-12.3199
心胆俱裂	-12.3199
忽听得远处隐隐传	-12.3199
情热如	-12.3199
扭扭捏捏的	-12.3199
改邪归正	-12.3199
放一个屁	-12.3199
油光晶亮	-12.3199
珠玉珍	-12.3199
男孩	-12.3199
细细审视	-12.3199
缝衣针	-12.3199
脑海中闪过	-12.3199
脸如土色	-12.3199
腾云驾雾般	-12.3199
蒲儿帖皇后	-12.3199
谦逊了几句	-12.3199
贝壳	-12.3199
槛	-12.32
k	-12.32
一张俏脸	-12.32
七月十五	-12.32
不想活啦	-12.32
个输赢	-12.32
从未到过	-12.32
从窗缝中	-12.32
充字号	-12.32
卯	-12.32
口出大言	-12.32
咄	-12.32
喝喜酒	-12.32
嗄	-12.32
在华山绝顶见过	-12.32
天下武学之士	-12.32
宪宗	-12.32
幸灾乐祸	-12.32
庙宇	-12.32
得头破血流	-12.32
忍住了笑	-12.32
打他们不过	-12.32
擦了擦	-12.32
有志气	-12.32
枯木禅师	-12.32
池塘中	-12.32
猖狂	-12.32
百零五	-12.32
眉尖微蹙	-12.32
蛾眉刺	-12.32
谑	-12.32
贻	-12.32
赃	-12.32
跟在她身后	-12.32
迅速异常的	-12.32
间不容发	-12.32
马上乘客	-12.32
骚	-12.32
一身冷汗	-12.32
出奇制胜	-12.32
非断不可	-12.32
在众人之前	-12.32
是一般的心思	-12.32
是另有图谋	-12.32
杀过多少人	-12.32
清静无为	-12.32
煽	-12.32
珊	-12.32
的千金小姐	-12.32
知客僧	-12.32
程家大小姐	-12.32
铁青了脸	-12.32
靶	-12.32
奔出数十步	-12.32
睫	-12.32
m	-12.32
上落悬崖	-12.32
不以为然	-12.32
不足胜有余	-12.32
乘黑逃走	-12.32
五湖废人	-12.32
从天而降	-12.32
仕	-12.32
倒不曾听说	-12.32
又是好气	-12.32
吃白食	-12.32
名白衣男子	-12.32
咬了一口	-12.32
娶不到老婆	-12.32
实是生平未	-12.32
弟妹	-12.32
得满满地	-12.32
怎么就怎么	-12.32
思之不解	-12.32
意料之中	-12.32
撼	-12.32
明儿叫东村	-12.32
焦木禅师	-12.32
疑云大起	-12.32
精神为之一振	-12.32
蟹	-12.32
裱	-12.32
轿杠	-12.32
边走边	-12.32
这悬崖高	-12.32
阐	-12.32
阖	-12.32
颖	-12.32
吃饱了	-12.32
这疯妇	-12.32
远而近	-12.32
赫赫	-12.32
再也说不下去	-12.32
厌憎	-12.32
在山石上	-12.32
戕	-12.32
托个一时三刻	-12.32
滔	-12.32
纷纷拥上	-12.32
越斗越	-12.32
一只手伸过来	-12.32
不足为患	-12.32
五行奇门之术	-12.32
从树后	-12.32
但每一招	-12.32
军营中	-12.32
刨	-12.32
听号炮	-12.32
回原位	-12.32
大红葫芦	-12.32
奠	-12.32
姑奶奶	-12.32
威名赫赫	-12.32
峙	-12.32
张大了嘴	-12.32
心烦意乱	-12.32
恶狗拦路	-12.32
感一阵寒意	-12.32
打晕了	-12.32
抡拳直	-12.32
放牧牛羊	-12.32
是一脉单传	-12.32
暴虐	-12.32
枚飞燕银梭	-12.32
武功的路子	-12.32
直飞起来	-12.32
祟	-12.32
粒泥块	-12.32
羹	-12.32
翩	-12.32
误打误	-12.32
赔个不是	-12.32
这本册子	-12.32
骄傲	-12.32
向后退了	-12.32
目中无人	-12.32
脸上却是神色	-12.32
取胜之机	-12.32
嘉兴烟雨楼比武	-12.32
在烟雨楼前	-12.32
已搭上了	-12.32
心有二用	-12.32
踏实地	-12.32
马钰等六人	-12.32
忤	-12.32
有难同当	-12.32
称之为	-12.32
一九五	-12.32
一逃一追	-12.32
余数乘以	-12.32
关上墓门	-12.32
勤勉	-12.32
四行字	-12.32
如法炮制	-12.32
就把他杀了	-12.32
损有余而补不足	-12.32
暗暗祷祝	-12.32
琐	-12.32
破破烂烂	-12.32
禅寺	-12.32
翡翠小鞋	-12.32
肩井穴	-12.32
芥	-12.32
若无其事	-12.32
蔬	-12.32
见形势不	-12.32
识时务	-12.32
起火来	-12.32
轩	-12.32
摸出一锭银子	-12.32
闷闷不乐	-12.32
他说得有理	-12.32
使单刀的大师兄	-12.32
命该如此	-12.32
感手臂酸麻	-12.32
打不赢	-12.32
模拟	-12.32
没有奶吃	-12.32
稚	-12.32
裘千仞的铁掌	-12.32
长真子谭处端	-12.32
▁这些人中	-12.3201
先下手为强	-12.3201
几朵牡丹	-12.3201
刀枪弓箭	-12.3201
双手持定	-12.3201
圆圆的	-12.3201
嬉戏	-12.3201
容你不得	-12.3201
并世无双	-12.3201
悯	-12.3201
戆	-12.3201
无名指	-12.3201
疾飞过来	-12.3201
这十年之中	-12.3201
这是人身	-12.3201
韩宝驹与南希仁	-12.3201
冲了进来	-12.3201
阴森森的	-12.3201
出丈余之外	-12.3201
刚叫得	-12.3201
劲力大得	-12.3201
块鸡骨	-12.3201
堤	-12.3201
是一派宗	-12.3201
槁	-12.3201
这几年来	-12.3201
对了一半	-12.3201
▁忽忽	-12.3201
七七数之	-12.3201
匪	-12.3201
又说又笑	-12.3201
嘈杂	-12.3201
在楼板上	-12.3201
大剌剌的	-12.3201
姻缘	-12.3201
家药铺	-12.3201
掌缘击在	-12.3201
提不起来	-12.3201
揽	-12.3201
泳	-12.3201
耶	-12.3201
荣耀	-12.3201
遗腹子	-12.3201
神不守舍	-12.3201
东十五步	-12.3201
了两家和气	-12.3201
五气朝元	-12.3201
只惊得	-12.3201
四名伕子	-12.3201
怡	-12.3201
拓	-12.3201
提着裤腰	-12.3201
旌旗	-12.3201
明师指点	-12.3201
相依为命	-12.3201
闾	-12.3201
马钰与王处一	-12.3201
黄老邪的闺女	-12.3201
你舍命救	-12.3201
殷红的	-12.3201
阅历	-12.3201
算不得是	-12.3201
二十只筷子	-12.3201
但知父亲	-12.3201
出家为僧	-12.3201
手到拿来	-12.3201
拱了拱手	-12.3201
是天生的	-12.3201
是有所为而	-12.3201
百三十	-12.3201
这四个臭贼	-12.3201
陡峭	-12.3201
拍了一掌	-12.3201
给洪七公吃	-12.3201
衷	-12.3201
刺藤树	-12.3202
嫉	-12.3202
损人利己	-12.3202
渔人与樵子	-12.3202
二十四名姬人	-12.3202
向岸边	-12.3202
在崖上	-12.3202
岁贡	-12.3202
旋风扫叶腿	-12.3202
有夹层	-12.3202
丧生于	-12.3202
蹑足走	-12.3202
认他为	-12.3202
可分辨	-12.3202
尽心竭力	-12.3202
推宫过血	-12.3202
日日夜夜	-12.3202
武功高极	-12.3202
降龙掌	-12.3202
伸长了脖子	-12.3202
给他来个	-12.3202
一道酒箭	-12.3202
奔腾而	-12.3202
宗师道行碑	-12.3202
欧阳锋微笑不答	-12.3202
这对短剑	-12.3202
的男女主角	-12.3202
绣帕	-12.3202
跃上树顶	-12.3202
他抬头望着	-12.3202
到榻前	-12.3202
鸥	-12.3202
没看清	-12.3202
疾扑而	-12.3202
到村头	-12.3202
放开了手	-12.3202
可多谢了	-12.3203
妈妈墓中	-12.3203
早日回	-12.3203
了很久	-12.3203
晚饭时	-12.3203
御厨房的	-12.3203
穴道解了	-12.3203
开盒盖	-12.3204
电影和电视	-12.3204
督促	-12.3204
有四尺	-12.3204
有备而	-12.3204
大行家	-12.3205
快似闪电	-12.3205
个月之内	-12.3206
到后厅	-12.3206
了五条	-12.3207
在地下划了	-12.3207
有封赏	-12.3207
将铜缸向	-12.3207
有多久	-12.3207
郭靖在黄蓉耳边	-12.3207
里钻出来的	-12.3207
八月十五	-12.3209
在柜上	-12.3209
是七公他老人家	-12.3209
到台边	-12.3209
同时攻到	-12.3209
不是他敌手	-12.3209
是正经	-12.321
打一架	-12.3211
不去理他	-12.3211
是这个意思	-12.3211
在雪地之中	-12.3211
就懂了	-12.3212
有这么大的	-12.3212
世代相传的	-12.3212
在屋角里	-12.3212
身树后	-12.3213
登时晕倒	-12.3213
知真假	-12.3213
上画着	-12.3214
话刚说完	-12.3214
这点微末道行	-12.3214
到归云庄来	-12.3214
▁此时郭靖已	-12.3215
在墙边	-12.3215
已窜到	-12.3215
每到晚	-12.3216
贷	-12.3217
就来试试	-12.3217
郭靖这才明白	-12.3217
号长真子	-12.3218
船出海	-12.3218
只余一	-12.3218
画着一个	-12.322
攻不进	-12.3221
这位老前辈的	-12.3223
决个胜	-12.3224
双头怪	-12.3227
杨康与穆念慈	-12.3227
力所能	-12.3228
握住了她手	-12.3229
没一件不	-12.3229
递了给	-12.3229
迟迟不	-12.323
分成四	-12.3231
生下来就	-12.3234
在一块岩石上	-12.3235
出一锭	-12.3237
下雪啦	-12.3238
无别念	-12.3238
过他几次	-12.3239
你听我说	-12.3241
着着进	-12.3247
待开言	-12.325
在炕上	-12.3256
过了好一	-12.3257
声轻笑	-12.3257
痒痒的	-12.3259
连抢数	-12.3259
客店中宿	-12.326
你这话可	-12.3262
中充满了	-12.3262
声连响	-12.3266
到镇上	-12.3268
伦	-12.327
有求于	-12.3273
手在怀中一	-12.3281
▁便在这	-12.3287
是不凡	-12.3287
分作两	-12.3289
未看清	-12.329
以后别理	-12.3302
上弹去	-12.3302
天下的叫化	-12.3315
到一株树	-12.3318
心爱之	-12.3354
信中说	-12.336
又在黑夜	-12.3381
的亲儿子	-12.3398
见他杀了欧阳克	-12.3406
掌划了个	-12.3435
快似一	-12.3451
即跃后	-12.346
个平花	-12.347
突然身子微	-12.3507
找得着	-12.3541
在山石之	-12.3564
不禁又是惊	-12.3581
咱们话说在	-12.3584
事成之	-12.3621
差得远	-12.3659
金国的中都	-12.3694
在南湖之	-12.3772
顶在头	-12.3831
个打一个	-12.3907
第十七	-12.3935
垂了下	-12.4015
跳了进	-12.433
总是下不了	-12.4423
始终没见	-12.4438
奔到黄蓉身	-12.4501
儿胀得	-12.4545
是光秃秃	-12.5092
目瞪口呆	-12.5107
个人打架	-12.5444
光秃秃的	-12.5706
耳括子	-12.5835
浸在水	-12.5882
丈长的	-12.5932
瓣	-12.6944
早去得	-12.6986
成吉思汗召集	-12.7395
帮主临终	-12.7445
天翻地覆	-12.7502
胯下钻过	-12.7724
烁	-12.79
稻	-12.794
外更无旁人	-12.7983
干干净净	-12.8021
舷	-12.8055
明晃晃	-12.8075
身不由主	-12.8081
恭恭敬敬	-12.8081
愕	-12.8097
禅	-12.8138
是从所未	-12.8148
黯	-12.8156
欢天喜地的	-12.8159
孩	-12.8163
堪	-12.8166
大将速不台	-12.8167
敢违拗	-12.8171
马可波罗	-12.8177
姐	-12.8178
Y	-12.8182
u	-12.8183
谆	-12.8185
晦	-12.8186
罄	-12.8188
沁	-12.8189
躬	-12.8189
辜	-12.8189
亘	-12.8189
朦	-12.819
浙	-12.819
绒	-12.819
璇	-12.8191
刎	-12.8191
饺	-12.8191
疫	-12.8192
湍	-12.8192
匾	-12.8193
棱	-12.8193
诣	-12.8193
沐	-12.8193
邹	-12.8193
酋	-12.8194
楷	-12.8194
港	-12.8194
匿	-12.8194
湮	-12.8194
葆	-12.8194
湛	-12.8194
芒	-12.8194
赫	-12.8194
涧	-12.8195
玷	-12.8195
皈	-12.8195
俨	-12.8195
组	-12.8195
沮	-12.8195
俚	-12.8195
摹	-12.8195
炸	-12.8195
踩	-12.8196
俎	-12.8196
稠	-12.8196
蜮	-12.8196
衅	-12.8196
雠	-12.8196
骘	-12.8196
汴	-12.8196
祚	-12.8196
吁	-12.8196
剜	-12.8197
庐	-12.8197
檄	-12.8197
渭	-12.8197
禾	-12.8197
谬	-12.8197
蹂	-12.8197
镂	-12.8197
馁	-12.8197
虬	-12.8197
俭	-12.8197
啖	-12.8197
熏	-12.8197
跺	-12.8197
卓	-12.8197
幕	-12.8197
衍	-12.8197
匕	-12.8197
侃	-12.8197
玺	-12.8197
迦	-12.8197
韦	-12.8197
瀑	-12.8197
债	-12.8197
渍	-12.8198
陵	-12.8198
杉	-12.8198
蜀	-12.8198
馔	-12.8198
鳌	-12.8198
乔	-12.8198
贝	-12.8198
娱	-12.8198
冢	-12.8198
娟	-12.8198
彦	-12.8198
惫	-12.8198
栋	-12.8198
汾	-12.8198
瘾	-12.8198
纽	-12.8198
蔡	-12.8198
醇	-12.8198
騑	-12.8198
叮	-12.8198
斡	-12.8198
胧	-12.8198
剿	-12.8198
喁	-12.8198
噫	-12.8198
嵯	-12.8198
憋	-12.8198
戾	-12.8198
拷	-12.8198
掼	-12.8198
晖	-12.8198
沥	-12.8198
牀	-12.8198
窈	-12.8198
缀	-12.8198
蒜	-12.8198
闽	-12.8198
骁	-12.8198
鸾	-12.8198
袒	-12.8199
皎	-12.8199
菇	-12.8199
伶	-12.8199
d	-12.8199
慧	-12.8199
喳	-12.8199
婷	-12.8199
嫖	-12.8199
恣	-12.8199
曜	-12.8199
毋	-12.8199
淑	-12.8199
淼	-12.8199
烙	-12.8199
煜	-12.8199
玎	-12.8199
科	-12.8199
蝎	-12.8199
璧	-12.8199
眦	-12.8199
亟	-12.8199
惋	-12.8199
曳	-12.8199
樯	-12.8199
珂	-12.8199
蛙	-12.8199
讪	-12.8199
猾	-12.8199
凯	-12.8199
p	-12.8199
—	-12.8199
匙	-12.8199
啭	-12.8199
嘟	-12.8199
坊	-12.8199
娉	-12.8199
孚	-12.8199
幙	-12.8199
汝	-12.8199
淙	-12.8199
獠	-12.8199
皂	-12.8199
皿	-12.8199
窣	-12.8199
窸	-12.8199
糖	-12.8199
翌	-12.8199
荤	-12.8199
课	-12.8199
遏	-12.8199
馨	-12.8199
鳍	-12.8199
巫	-12.8199
盹	-12.8199
酥	-12.8199
兆	-12.82
堡	-12.82
姚	-12.82
寐	-12.82
拼	-12.82
播	-12.82
撵	-12.82
榆	-12.82
橘	-12.82
洽	-12.82
涔	-12.82
犀	-12.82
猥	-12.82
眈	-12.82
祁	-12.82
禄	-12.82
箍	-12.82
箕	-12.82
篆	-12.82
聂	-12.82
舀	-12.82
谄	-12.82
谱	-12.82
贮	-12.82
邃	-12.82
吭	-12.82
俵	-12.82
毯	-12.82
贡	-12.82
瀰	-12.82
函	-12.82
哩	-12.82
库	-12.82
徙	-12.82
捐	-12.82
潭	-12.82
獒	-12.82
疙	-12.82
瘩	-12.82
绅	-12.82
藕	-12.82
讧	-12.82
阮	-12.82
髭	-12.82
C	-12.82
併	-12.82
剐	-12.82
匡	-12.82
唿	-12.82
婢	-12.82
彀	-12.82
惚	-12.82
榭	-12.82
瘁	-12.82
瞟	-12.82
罡	-12.82
遽	-12.82
纠	-12.82
嘈	-12.8201
诊	-12.8201
琼	-12.8201
纡	-12.8201
膏	-12.8201
艾	-12.8201
匀	-12.8201
旬	-12.8201
噬	-12.8201
唏	-12.8201
孛	-12.8201
衽	-12.8201
锣	-12.8201
鲸	-12.8201
舅	-12.8202
媳	-12.8202
呱	-12.8202
戋	-12.8202
沦	-12.8202
粤	-12.8202
杳	-12.8202
熠	-12.8204
蓰	-12.8204
髅	-12.8204
勘	-12.8205
赎	-12.8205
魏	-12.8221
吕	-12.8224
肱	-12.8226
栾	-12.8228
簪	-12.8228
讽	-12.8247
砰	-13.7739
馐	-13.7858
颦	-13.7859
需	-13.786
隍	-13.7861
阎	-13.7862
邋	-13.7863
遨	-13.7864
遢	-13.7865
逦	-13.7866
迤	-13.7867
迓	-13.7868
辫	-13.7869
辑	-13.787
轾	-13.7871
蹶	-13.7872
蹋	-13.7873
踊	-13.7874
趾	-13.7875
赚	-13.7876
赂	-13.7877
贲	-13.7878
谕	-13.7879
蠡	-13.788
葵	-13.7881
董	-13.7882
荔	-13.7883
茎	-13.7884
芙	-13.7885
臃	-13.7886
膘	-13.7887
腑	-13.7888
羯	-13.7889
缥	-13.789
缈	-13.7891
绦	-13.7892
篱	-13.7893
篡	-13.7894
箓	-13.7895
筑	-13.7896
磁	-13.7897
硝	-13.7898
码	-13.7899
瞠	-13.79
痪	-13.7901
痞	-13.7902
痉	-13.7903
瓮	-13.7904
璋	-13.7905
琶	-13.7906
琵	-13.7907
琉	-13.7908
炷	-13.7909
炖	-13.791
澎	-13.7911
湃	-13.7912
渝	-13.7913
渎	-13.7914
汰	-13.7915
氓	-13.7916
析	-13.7917
枇	-13.7918
杷	-13.7919
曼	-13.792
曦	-13.7921
撄	-13.7922
揩	-13.7923
挛	-13.7924
拈	-13.7925
扈	-13.7926
懵	-13.7927
愀	-13.7928
惰	-13.7929
惆	-13.793
怃	-13.7931
忞	-13.7932
忑	-13.7933
忐	-13.7934
弭	-13.7935
弈	-13.7936
帜	-13.7937
崎	-13.7938
岖	-13.7939
宥	-13.794
塾	-13.7941
垮	-13.7942
嚏	-13.7943
嚅	-13.7944
嗫	-13.7945
喟	-13.7946
啮	-13.7947
吝	-13.7948
傥	-13.7949
倜	-13.795
伥	-13.7951
仃	-13.7952
L	-13.7953
G	-13.7954
A	-13.7955
龌	-13.7956
龊	-13.7957
麈	-13.7958
魈	-13.7959
饪	-13.796
鏖	-13.7961
遒	-13.7962
逑	-13.7963
跂	-13.7964
诨	-13.7965
诌	-13.7966
襁	-13.7967
褓	-13.7968
袂	-13.7969
蝴	-13.797
蚯	-13.7971
蚓	-13.7972
膜	-13.7973
胥	-13.7974
胛	-13.7975
胚	-13.7976
绎	-13.7977
笈	-13.7978
窬	-13.7979
磺	-13.798
硫	-13.7981
砾	-13.7982
熹	-13.7983
澈	-13.7984
漾	-13.7985
泫	-13.7986
毗	-13.7987
楣	-13.7988
暹	-13.7989
昧	-13.799
旄	-13.7991
斓	-13.7992
挼	-13.7993
悸	-13.7994
忾	-13.7995
嵋	-13.7996
孀	-13.7997
嚓	-13.7998
嗥	-13.7999
咫	-13.8
卤	-13.8001
俞	-13.8002
企	-13.8003
〖	-13.8004
y	-13.8005
M	-13.8006
鹞	-13.8007
骼	-13.8008
骡	-13.8009
霭	-13.801
镔	-13.8011
鄂	-13.8012
邂	-13.8013
逅	-13.8014
裸	-13.8015
裔	-13.8016
袱	-13.8017
羲	-13.8018
社	-13.8019
瞭	-13.802
狯	-13.8021
犷	-13.8022
潺	-13.8023
漉	-13.8024
溶	-13.8025
泸	-13.8026
汩	-13.8027
殖	-13.8028
榈	-13.8029
棕	-13.803
敞	-13.8031
撬	-13.8032
抟	-13.8033
戛	-13.8034
懦	-13.8035
慷	-13.8036
渗	-13.8036
惺	-13.8037
尉	-13.8038
姥	-13.8039
姗	-13.804
妮	-13.8041
妞	-13.8042
妁	-13.8043
奄	-13.8044
塑	-13.8045
啥	-13.8046
佼	-13.8047
伎	-13.8048
鲤	-13.8049
鬟	-13.805
髀	-13.8051
诳	-13.8052
蝗	-13.8053
蚂	-13.8054
缭	-13.8055
籁	-13.8056
玫	-13.8057
玛	-13.8058
榜	-13.8059
栈	-13.806
枭	-13.8061
怫	-13.8062
圹	-13.8063
喽	-13.8064
咎	-13.8065
咀	-13.8066
冥	-13.8067
偌	-13.8068
0	-13.8069
飓	-13.807
逻	-13.8071
贰	-13.8072
蠕	-13.8073
蔑	-13.8074
绉	-13.8075
笋	-13.8076
皑	-13.8077
瑙	-13.8078
炯	-13.8079
怩	-13.808
怏	-13.8081
忸	-13.8082
徬	-13.8083
咿	-13.8084
吱	-13.8085
侥	-13.8086
侂	-13.8087
麾	-13.8088
鳅	-13.8089
裟	-13.809
袈	-13.8091
脓	-13.8092
胞	-13.8093
翡	-13.8094
翎	-13.8095
烹	-13.8096
澄	-13.8097
潼	-13.8098
漩	-13.8099
涡	-13.81
沛	-13.8101
桓	-13.8102
柬	-13.8103
慎	-13.8104
彷	-13.8105
彪	-13.8106
庚	-13.8107
孜	-13.8108
垓	-13.8109
嘭	-13.811
咧	-13.8111
呛	-13.8112
仑	-13.8113
霹	-13.8114
雳	-13.8115
跶	-13.8116
跤	-13.8117
讷	-13.8118
褴	-13.8119
褛	-13.812
袅	-13.8121
蟠	-13.8122
膂	-13.8123
耿	-13.8124
磋	-13.8125
哧	-13.8126
乓	-13.8127
乒	-13.8128
蝠	-13.8129
蝙	-13.813
蜿	-13.8131
蜒	-13.8132
萨	-13.8133
菩	-13.8134
狰	-13.8135
犁	-13.8136
桁	-13.8137
朔	-13.8138
僮	-13.8139
l	-13.814
腥	-13.8141
篾	-13.8142
濂	-13.8143
潇	-13.8144
梧	-13.8145
抿	-13.8146
噎	-13.8147
啧	-13.8148
唠	-13.8149
俟	-13.815
磊	-13.8151
煌	-13.8152
倔	-13.8153
迄	-13.8154
贸	-13.8154
诲	-13.8155
肢	-13.8156
眯	-13.8157
爸	-13.8158
杭	-13.8159
憔	-13.816
兢	-13.8161
辆	-13.8161
颏	-13.8162
宵	-13.8163
踝	-13.8163
颓	-13.8164
豫	-13.8164
盯	-13.8165
棘	-13.8166
徨	-13.8167
嫂	-13.8168
嗽	-13.8168
键	-13.8169
柏	-13.817
睽	-13.817
汹	-13.8171
寥	-13.8172
唷	-13.8173
唧	-13.8174
叨	-13.8175
阱	-13.8176
暑	-13.8177
徽	-13.8178
姊	-13.8179
屑	-13.8179
呻	-13.818
跷	-13.8181
肮	-13.8182
坳	-13.8183
嫣	-13.8183
噜	-13.8184
嗡	-13.8185
哽	-13.8186
宇	-13.8186
札	-13.8187
噩	-13.8187
骏	-13.8188
咯	-13.8188
缎	-13.8189
俄	-13.8189
钰	-13.8189
铿	-13.819
鞑	-13.8191
窿	-13.8191
韬	-13.8192
尴	-13.8192
驸	-13.8193
尬	-13.8193
猱	-13.8194
欣	-13.8194
赘	-13.8194
衲	-13.8194
吆	-13.8194
介	-13.8194
眶	-13.8195
匈	-13.8195
坤	-13.8195
n	-13.8195
鬣	-13.8195
沅	-13.8195
谜	-13.8196
槐	-13.8196
绽	-13.8196
脖	-13.8196
猖	-13.8196
辖	-13.8197
杜	-13.8197
矩	-13.8197
樱	-13.8197
戌	-13.8197
沈	-13.8197
胄	-13.8197
饲	-13.8197
竺	-13.8197
吮	-13.8197
弧	-13.8197
拇	-13.8197
牡	-13.8198
篓	-13.8198
扩	-13.8198
蓑	-13.8198
嗑	-13.8198
皓	-13.8198
脍	-13.8198
滋	-13.8198
鹏	-13.8198
寞	-13.8198
唆	-13.8198
挢	-13.8198
湾	-13.8198
朋	-13.8198
蜡	-13.8199
杠	-13.8199
琢	-13.8199
蛛	-13.8199
隶	-13.8199
剽	-13.8199
础	-13.8199
仲	-13.8199
协	-13.8199
梨	-13.8199
澡	-13.8199
焕	-13.8199
迢	-13.8199
鳖	-13.8199
蜂	-13.8199
梵	-13.8199
丞	-13.8199
瑛	-13.8199
桑	-13.8199
绮	-13.8199
曹	-13.8199
薛	-13.8199
蒲	-13.8199
械	-13.8199
霆	-13.82
唣	-13.82
拊	-13.82
贩	-13.82
锻	-13.82
宪	-13.82
骆	-13.82
脐	-13.82
倪	-13.8201
傅	-13.8201
瘟	-13.8201
簸	-13.8201
苟	-13.8201
馒	-13.8201
俐	-13.8202
液	-13.8202
骋	-13.8202
桧	-13.8203
柢	-13.8204
旭	-13.8204
咭	-13.8205
郑	-13.8206
婴	-13.8207
叽	-13.8208
疗	-13.8209
漓	-13.821
呐	-13.8211
躇	-13.8212
踌	-13.8213
蝮	-13.8214
舨	-13.8215
舢	-13.8216
恙	-13.8217
嗓	-13.8218
睬	-13.8219
晶	-13.822
咚	-13.8221
【	-13.8222
逍	-13.8223
狈	-13.8224
惴	-13.8225
葫	-13.8226
狡	-13.8227
踉	-13.8228
跄	-13.8229
沼	-13.823
骸	-13.8231
诃	-13.8232
措	-13.8233
嗖	-13.8234
鸯	-13.8235
铮	-13.8236
裳	-13.8237
黝	-13.8238
惮	-13.8239
仔	-13.824
匆	-13.8241
讶	-13.8242
呜	-13.8243
喃	-13.8244
蟆	-13.8245
吩	-13.8246
骷	-13.8247
刷	-13.8248
奈	-13.8249
猬	-13.825
昨	-13.8251
艘	-13.8252
咐	-13.8253
诧	-13.8254
佩	-13.8255
茫	-13.8256
嘻	-13.8257
晌	-13.8258
妃	-13.8259
朮	-13.826
悄	-13.8261
-	-13.8262
翰	-13.8262
盥	-13.8263
聪	-13.8263
